{
  "version": "1.0",
  "truncation": null,
  "padding": null,
  "added_tokens": [
    {
      "id": 22212,
      "content": "<|endoftext|>",
      "single_word": false,
      "lstrip": false,
      "rstrip": false,
      "normalized": false,
      "special": true
    },
    {
      "id": 22213,
      "content": "<|im_start|>",
      "single_word": false,
      "lstrip": false,
      "rstrip": false,
      "normalized": false,
      "special": true
    },
    {
      "id": 22214,
      "content": "<|im_end|>",
      "single_word": false,
      "lstrip": false,
      "rstrip": false,
      "normalized": false,
      "special": true
    },
    {
      "id": 22231,
      "content": "<|unk|>",
      "single_word": false,
      "lstrip": false,
      "rstrip": false,
      "normalized": false,
      "special": true
    }
  ],
  "normalizer": {
    "type": "NFC"
  },
  "pre_tokenizer": {
    "type": "Sequence",
    "pretokenizers": [
      {
        "type": "Split",
        "pattern": {
          "Regex": "(?i:'s|'t|'re|'ve|'m|'ll|'d)|[^\\r\\n\\p{L}\\p{N}]?\\p{L}+|\\p{N}| ?[^\\s\\p{L}\\p{N}]+[\\r\\n]*|\\s*[\\r\\n]+|\\s+(?!\\S)|\\s+"
        },
        "behavior": "Isolated",
        "invert": false
      },
      {
        "type": "ByteLevel",
        "add_prefix_space": false,
        "trim_offsets": true,
        "use_regex": false
      }
    ]
  },
  "post_processor": {
    "type": "ByteLevel",
    "add_prefix_space": false,
    "trim_offsets": false,
    "use_regex": false
  },
  "decoder": {
    "type": "ByteLevel",
    "add_prefix_space": true,
    "trim_offsets": true,
    "use_regex": true
  },
  "model": {
    "type": "BPE",
    "dropout": null,
    "unk_token": null,
    "continuing_subword_prefix": null,
    "end_of_word_suffix": null,
    "fuse_unk": false,
    "byte_fallback": false,
    "ignore_merges": false,
    "vocab": {
      "!": 0,
      "\"": 1,
      "#": 2,
      "$": 3,
      "%": 4,
      "&": 5,
      "'": 6,
      "(": 7,
      ")": 8,
      "*": 9,
      "+": 10,
      ",": 11,
      "-": 12,
      ".": 13,
      "/": 14,
      "0": 15,
      "1": 16,
      "2": 17,
      "3": 18,
      "4": 19,
      "5": 20,
      "6": 21,
      "7": 22,
      "8": 23,
      "9": 24,
      ":": 25,
      ";": 26,
      "<": 27,
      "=": 28,
      ">": 29,
      "?": 30,
      "@": 31,
      "A": 32,
      "B": 33,
      "C": 34,
      "D": 35,
      "E": 36,
      "F": 37,
      "G": 38,
      "H": 39,
      "I": 40,
      "J": 41,
      "K": 42,
      "L": 43,
      "M": 44,
      "N": 45,
      "O": 46,
      "P": 47,
      "Q": 48,
      "R": 49,
      "S": 50,
      "T": 51,
      "U": 52,
      "V": 53,
      "W": 54,
      "X": 55,
      "Y": 56,
      "Z": 57,
      "[": 58,
      "\\": 59,
      "]": 60,
      "^": 61,
      "_": 62,
      "`": 63,
      "a": 64,
      "b": 65,
      "c": 66,
      "d": 67,
      "e": 68,
      "f": 69,
      "g": 70,
      "h": 71,
      "i": 72,
      "j": 73,
      "k": 74,
      "l": 75,
      "m": 76,
      "n": 77,
      "o": 78,
      "p": 79,
      "q": 80,
      "r": 81,
      "s": 82,
      "t": 83,
      "u": 84,
      "v": 85,
      "w": 86,
      "x": 87,
      "y": 88,
      "z": 89,
      "{": 90,
      "|": 91,
      "}": 92,
      "~": 93,
      "¡": 94,
      "¢": 95,
      "£": 96,
      "¤": 97,
      "¥": 98,
      "¦": 99,
      "§": 100,
      "¨": 101,
      "©": 102,
      "ª": 103,
      "«": 104,
      "¬": 105,
      "®": 106,
      "¯": 107,
      "°": 108,
      "±": 109,
      "²": 110,
      "³": 111,
      "´": 112,
      "µ": 113,
      "¶": 114,
      "·": 115,
      "¸": 116,
      "¹": 117,
      "º": 118,
      "»": 119,
      "¼": 120,
      "½": 121,
      "¾": 122,
      "¿": 123,
      "À": 124,
      "Á": 125,
      "Â": 126,
      "Ã": 127,
      "Ä": 128,
      "Å": 129,
      "Æ": 130,
      "Ç": 131,
      "È": 132,
      "É": 133,
      "Ê": 134,
      "Ë": 135,
      "Ì": 136,
      "Í": 137,
      "Î": 138,
      "Ï": 139,
      "Ð": 140,
      "Ñ": 141,
      "Ò": 142,
      "Ó": 143,
      "Ô": 144,
      "Õ": 145,
      "Ö": 146,
      "×": 147,
      "Ø": 148,
      "Ù": 149,
      "Ú": 150,
      "Û": 151,
      "Ü": 152,
      "Ý": 153,
      "Þ": 154,
      "ß": 155,
      "à": 156,
      "á": 157,
      "â": 158,
      "ã": 159,
      "ä": 160,
      "å": 161,
      "æ": 162,
      "ç": 163,
      "è": 164,
      "é": 165,
      "ê": 166,
      "ë": 167,
      "ì": 168,
      "í": 169,
      "î": 170,
      "ï": 171,
      "ð": 172,
      "ñ": 173,
      "ò": 174,
      "ó": 175,
      "ô": 176,
      "õ": 177,
      "ö": 178,
      "÷": 179,
      "ø": 180,
      "ù": 181,
      "ú": 182,
      "û": 183,
      "ü": 184,
      "ý": 185,
      "þ": 186,
      "ÿ": 187,
      "Ā": 188,
      "ā": 189,
      "Ă": 190,
      "ă": 191,
      "Ą": 192,
      "ą": 193,
      "Ć": 194,
      "ć": 195,
      "Ĉ": 196,
      "ĉ": 197,
      "Ċ": 198,
      "ċ": 199,
      "Č": 200,
      "č": 201,
      "Ď": 202,
      "ď": 203,
      "Đ": 204,
      "đ": 205,
      "Ē": 206,
      "ē": 207,
      "Ĕ": 208,
      "ĕ": 209,
      "Ė": 210,
      "ė": 211,
      "Ę": 212,
      "ę": 213,
      "Ě": 214,
      "ě": 215,
      "Ĝ": 216,
      "ĝ": 217,
      "Ğ": 218,
      "ğ": 219,
      "Ġ": 220,
      "ġ": 221,
      "Ģ": 222,
      "ģ": 223,
      "Ĥ": 224,
      "ĥ": 225,
      "Ħ": 226,
      "ħ": 227,
      "Ĩ": 228,
      "ĩ": 229,
      "Ī": 230,
      "ī": 231,
      "Ĭ": 232,
      "ĭ": 233,
      "Į": 234,
      "į": 235,
      "İ": 236,
      "ı": 237,
      "Ĳ": 238,
      "ĳ": 239,
      "Ĵ": 240,
      "ĵ": 241,
      "Ķ": 242,
      "ķ": 243,
      "ĸ": 244,
      "Ĺ": 245,
      "ĺ": 246,
      "Ļ": 247,
      "ļ": 248,
      "Ľ": 249,
      "ľ": 250,
      "Ŀ": 251,
      "ŀ": 252,
      "Ł": 253,
      "ł": 254,
      "Ń": 255,
      "ĠĠ": 256,
      "ĠĠĠĠ": 257,
      "in": 258,
      "Ġt": 259,
      "ĠĠĠĠĠĠĠĠ": 260,
      "er": 261,
      "ĠĠĠ": 262,
      "on": 263,
      "Ġa": 264,
      "re": 265,
      "at": 266,
      "st": 267,
      "en": 268,
      "or": 269,
      "Ġth": 270,
      "ĊĊ": 271,
      "Ġc": 272,
      "le": 273,
      "Ġs": 274,
      "it": 275,
      "an": 276,
      "ar": 277,
      "al": 278,
      "Ġthe": 279,
      ";Ċ": 280,
      "Ġp": 281,
      "Ġf": 282,
      "ou": 283,
      "Ġ=": 284,
      "is": 285,
      "ĠĠĠĠĠĠĠ": 286,
      "ing": 287,
      "es": 288,
      "Ġw": 289,
      "ion": 290,
      "ed": 291,
      "ic": 292,
      "Ġb": 293,
      "Ġd": 294,
      "et": 295,
      "Ġm": 296,
      "Ġo": 297,
      "ĉĉ": 298,
      "ro": 299,
      "as": 300,
      "el": 301,
      "ct": 302,
      "nd": 303,
      "Ġin": 304,
      "Ġh": 305,
      "ent": 306,
      "id": 307,
      "Ġn": 308,
      "am": 309,
      "ĠĠĠĠĠĠĠĠĠĠĠ": 310,
      "Ġto": 311,
      "Ġre": 312,
      "--": 313,
      "Ġ{": 314,
      "Ġof": 315,
      "om": 316,
      ");Ċ": 317,
      "im": 318,
      "čĊ": 319,
      "Ġ(": 320,
      "il": 321,
      "//": 322,
      "Ġand": 323,
      "ur": 324,
      "se": 325,
      "Ġl": 326,
      "ex": 327,
      "ĠS": 328,
      "ad": 329,
      "Ġ\"": 330,
      "ch": 331,
      "ut": 332,
      "if": 333,
      "**": 334,
      "Ġ}": 335,
      "em": 336,
      "ol": 337,
      "ĠĠĠĠĠĠĠĠĠĠĠĠĠĠĠĠ": 338,
      "th": 339,
      ")Ċ": 340,
      "Ġ{Ċ": 341,
      "Ġg": 342,
      "ig": 343,
      "iv": 344,
      ",Ċ": 345,
      "ce": 346,
      "od": 347,
      "Ġv": 348,
      "ate": 349,
      "ĠT": 350,
      "ag": 351,
      "ay": 352,
      "Ġ*": 353,
      "ot": 354,
      "us": 355,
      "ĠC": 356,
      "Ġst": 357,
      "ĠI": 358,
      "un": 359,
      "ul": 360,
      "ue": 361,
      "ĠA": 362,
      "ow": 363,
      "Ġ'": 364,
      "ew": 365,
      "Ġ<": 366,
      "ation": 367,
      "()": 368,
      "Ġfor": 369,
      "ab": 370,
      "ort": 371,
      "um": 372,
      "ame": 373,
      "Ġis": 374,
      "pe": 375,
      "tr": 376,
      "ck": 377,
      "âĢ": 378,
      "Ġy": 379,
      "ist": 380,
      "----": 381,
      ".ĊĊ": 382,
      "he": 383,
      "Ġe": 384,
      "lo": 385,
      "ĠM": 386,
      "Ġbe": 387,
      "ers": 388,
      "Ġon": 389,
      "Ġcon": 390,
      "ap": 391,
      "ub": 392,
      "ĠP": 393,
      "ĠĠĠĠĠĠĠĠĠĠĠĠĠĠĠ": 394,
      "ass": 395,
      "int": 396,
      ">Ċ": 397,
      "ly": 398,
      "urn": 399,
      "Ġ$": 400,
      ";ĊĊ": 401,
      "av": 402,
      "port": 403,
      "ir": 404,
      "->": 405,
      "nt": 406,
      "ction": 407,
      "end": 408,
      "Ġde": 409,
      "ith": 410,
      "out": 411,
      "turn": 412,
      "our": 413,
      "ĠĠĠĠĠ": 414,
      "lic": 415,
      "res": 416,
      "pt": 417,
      "==": 418,
      "Ġthis": 419,
      "Ġwh": 420,
      "Ġif": 421,
      "ĠD": 422,
      "ver": 423,
      "age": 424,
      "ĠB": 425,
      "ht": 426,
      "ext": 427,
      "=\"": 428,
      "Ġthat": 429,
      "ĠR": 430,
      "Ġit": 431,
      "ess": 432,
      "ĠF": 433,
      "Ġr": 434,
      "os": 435,
      "and": 436,
      "Ġas": 437,
      "ect": 438,
      "ke": 439,
      "rom": 440,
      "Ġ//": 441,
      "con": 442,
      "ĠL": 443,
      "(\"": 444,
      "qu": 445,
      "lass": 446,
      "Ġwith": 447,
      "iz": 448,
      "de": 449,
      "ĠN": 450,
      "Ġal": 451,
      "op": 452,
      "up": 453,
      "get": 454,
      "Ġ}Ċ": 455,
      "ile": 456,
      "Ġan": 457,
      "ata": 458,
      "ore": 459,
      "ri": 460,
      "Ġpro": 461,
      ";čĊ": 462,
      "ĉĉĉĉ": 463,
      "ter": 464,
      "ain": 465,
      "ĠW": 466,
      "ĠE": 467,
      "Ġcom": 468,
      "Ġreturn": 469,
      "art": 470,
      "ĠH": 471,
      "ack": 472,
      "import": 473,
      "ublic": 474,
      "Ġor": 475,
      "est": 476,
      "ment": 477,
      "ĠG": 478,
      "able": 479,
      "Ġ-": 480,
      "ine": 481,
      "ill": 482,
      "ind": 483,
      "ere": 484,
      "::": 485,
      "ity": 486,
      "Ġ+": 487,
      "Ġtr": 488,
      "elf": 489,
      "ight": 490,
      "('": 491,
      "orm": 492,
      "ult": 493,
      "str": 494,
      "..": 495,
      "\",": 496,
      "Ġyou": 497,
      "ype": 498,
      "pl": 499,
      "Ġnew": 500,
      "Ġj": 501,
      "ĠĠĠĠĠĠĠĠĠĠĠĠĠĠĠĠĠĠĠ": 502,
      "Ġfrom": 503,
      "Ġex": 504,
      "ĠO": 505,
      "ld": 506,
      "Ġ[": 507,
      "oc": 508,
      ":Ċ": 509,
      "Ġse": 510,
      "Ġle": 511,
      "--------": 512,
      ".s": 513,
      "{Ċ": 514,
      "',": 515,
      "ant": 516,
      "Ġat": 517,
      "ase": 518,
      ".c": 519,
      "Ġch": 520,
      "</": 521,
      "ave": 522,
      "ang": 523,
      "Ġare": 524,
      "Ġint": 525,
      "âĢĻ": 526,
      "_t": 527,
      "ert": 528,
      "ial": 529,
      "act": 530,
      "}Ċ": 531,
      "ive": 532,
      "ode": 533,
      "ost": 534,
      "Ġclass": 535,
      "Ġnot": 536,
      "og": 537,
      "ord": 538,
      "alue": 539,
      "all": 540,
      "ff": 541,
      "();Ċ": 542,
      "ont": 543,
      "ime": 544,
      "are": 545,
      "ĠU": 546,
      "Ġpr": 547,
      "Ġ:": 548,
      "ies": 549,
      "ize": 550,
      "ure": 551,
      "Ġby": 552,
      "ire": 553,
      "Ġ}ĊĊ": 554,
      ".p": 555,
      "Ġsh": 556,
      "ice": 557,
      "ast": 558,
      "ption": 559,
      "tring": 560,
      "ok": 561,
      "__": 562,
      "cl": 563,
      "##": 564,
      "Ġhe": 565,
      "ard": 566,
      ").": 567,
      "Ġ@": 568,
      "iew": 569,
      "ĉĉĉ": 570,
      "Ġwas": 571,
      "ip": 572,
      "this": 573,
      "Ġu": 574,
      "ĠThe": 575,
      "ide": 576,
      "ace": 577,
      "ib": 578,
      "ac": 579,
      "rou": 580,
      "Ġwe": 581,
      "ject": 582,
      "Ġpublic": 583,
      "ak": 584,
      "ve": 585,
      "ath": 586,
      "oid": 587,
      "Ġ=>": 588,
      "ust": 589,
      "que": 590,
      "Ġres": 591,
      "))": 592,
      "'s": 593,
      "Ġk": 594,
      "ans": 595,
      "yst": 596,
      "unction": 597,
      "Ġi": 598,
      "Ġus": 599,
      "pp": 600,
      "one": 601,
      "ail": 602,
      "name": 603,
      "Ġstr": 604,
      "Ġ/": 605,
      "Ġ&": 606,
      "ach": 607,
      "div": 608,
      "ystem": 609,
      "ell": 610,
      "Ġhave": 611,
      "err": 612,
      "ould": 613,
      "ull": 614,
      "pon": 615,
      "ĠJ": 616,
      "_p": 617,
      "Ġ==": 618,
      "ign": 619,
      "St": 620,
      ".Ċ": 621,
      "Ġpl": 622,
      ");ĊĊ": 623,
      "form": 624,
      "put": 625,
      "ount": 626,
      "}ĊĊ": 627,
      "dd": 628,
      "ite": 629,
      "Ġget": 630,
      "rr": 631,
      "ome": 632,
      "ĠâĢ": 633,
      "aram": 634,
      "cc": 635,
      "Ġ*/": 636,
      "ER": 637,
      "In": 638,
      "les": 639,
      "_s": 640,
      "ong": 641,
      "ie": 642,
      "Ġcan": 643,
      "ĠV": 644,
      "erv": 645,
      "pr": 646,
      "Ġun": 647,
      "row": 648,
      "ber": 649,
      "Ġdo": 650,
      "ll": 651,
      "Ġel": 652,
      "Ġself": 653,
      "ated": 654,
      "ary": 655,
      "Ġ.": 656,
      "']": 657,
      "ud": 658,
      "Ġen": 659,
      "ĠTh": 660,
      "ĠĠĠĠĠĠĠĠĠĠĠĠĠĠĠĠĠĠĠĠĠĠĠ": 661,
      "te": 662,
      "_c": 663,
      "uct": 664,
      "Ġab": 665,
      "ork": 666,
      ".get": 667,
      "Ġ#": 668,
      "aw": 669,
      "ress": 670,
      "ob": 671,
      "Name": 672,
      "app": 673,
      "['": 674,
      "Ġall": 675,
      "ory": 676,
      "ition": 677,
      "ance": 678,
      "ear": 679,
      "Ġcont": 680,
      "vent": 681,
      "ia": 682,
      "Ġwill": 683,
      "IN": 684,
      "ĠĠĠĠĠĠĠĠĠ": 685,
      "return": 686,
      "Ġ</": 687,
      "data": 688,
      ")ĊĊ": 689,
      "Re": 690,
      "ple": 691,
      "ild": 692,
      "ther": 693,
      "Ġyour": 694,
      "\"Ċ": 695,
      "($": 696,
      "Ġout": 697,
      "),": 698,
      "Ġhas": 699,
      "String": 700,
      "so": 701,
      "Ġup": 702,
      "ax": 703,
      "Ġdef": 704,
      "Ġbo": 705,
      "ge": 706,
      "alse": 707,
      "ON": 708,
      "per": 709,
      "ich": 710,
      "Ġbut": 711,
      "ĠĊ": 712,
      "Ġ_": 713,
      "_m": 714,
      "add": 715,
      "quest": 716,
      "odel": 717,
      "self": 718,
      "ery": 719,
      "ft": 720,
      "ens": 721,
      "ake": 722,
      ".C": 723,
      "Ġgo": 724,
      "Ġfunction": 725,
      "ĠK": 726,
      "ivate": 727,
      "Ġim": 728,
      "Ġconst": 729,
      ".t": 730,
      "Ġ*/Ċ": 731,
      ");čĊ": 732,
      "Ġvoid": 733,
      "Ġset": 734,
      "ĠSystem": 735,
      "cri": 736,
      "()Ċ": 737,
      "li": 738,
      "ĉif": 739,
      ".m": 740,
      "ally": 741,
      "set": 742,
      "ep": 743,
      "âĢĻs": 744,
      "bo": 745,
      "def": 746,
      "',Ċ": 747,
      "Ġme": 748,
      "Ġ!": 749,
      "atch": 750,
      "\">": 751,
      "\",Ċ": 752,
      "ec": 753,
      "ĠIn": 754,
      "ph": 755,
      "Ġ|": 756,
      "_f": 757,
      "Ġvar": 758,
      "ence": 759,
      "Id": 760,
      "ree": 761,
      "ink": 762,
      "lect": 763,
      "ug": 764,
      "eth": 765,
      "Ġelse": 766,
      "----------------": 767,
      "cont": 768,
      "Ġso": 769,
      "atic": 770,
      "Ġlo": 771,
      "pro": 772,
      "ton": 773,
      "ss": 774,
      "own": 775,
      "abel": 776,
      "oint": 777,
      "ous": 778,
      "eld": 779,
      "ST": 780,
      "The": 781,
      "ĠĠĠĠĠĠĠĠĠĠĠĠĠĠĠĠĠĠĠĠĠĠĠĠĠĠĠĠĠĠĠĠ": 782,
      "RE": 783,
      "\":": 784,
      "olor": 785,
      "tp": 786,
      "eg": 787,
      "key": 788,
      "ude": 789,
      "ĠSt": 790,
      "ound": 791,
      "Ġar": 792,
      "\");Ċ": 793,
      "ener": 794,
      "ser": 795,
      "bject": 796,
      "essage": 797,
      "fer": 798,
      "Ġmore": 799,
      "ations": 800,
      "ents": 801,
      "Ġhis": 802,
      "Ġthey": 803,
      ".S": 804,
      "ĠY": 805,
      "use": 806,
      "ne": 807,
      "ish": 808,
      "old": 809,
      "_d": 810,
      "io": 811,
      "ield": 812,
      "Ġper": 813,
      "Cont": 814,
      "ings": 815,
      "####": 816,
      "Ġdata": 817,
      "Ġsa": 818,
      "ef": 819,
      "fo": 820,
      "Ġone": 821,
      "eng": 822,
      "Ġdis": 823,
      "AT": 824,
      "Ġname": 825,
      "Ġtrue": 826,
      "val": 827,
      "led": 828,
      ".f": 829,
      "Ġne": 830,
      "Ġend": 831,
      ".T": 832,
      "cre": 833,
      "ark": 834,
      "log": 835,
      "Ex": 836,
      "error": 837,
      "_id": 838,
      "urre": 839,
      "ange": 840,
      "Ġnull": 841,
      "rray": 842,
      "Ġmy": 843,
      "pan": 844,
      "ict": 845,
      "ator": 846,
      "View": 847,
      "List": 848,
      "ĉreturn": 849,
      "âĢĿ": 850,
      "Ġpre": 851,
      "Ġx": 852,
      "clude": 853,
      "arg": 854,
      "ov": 855,
      ".h": 856,
      "Ġ>": 857,
      "Ġtheir": 858,
      "')": 859,
      "irst": 860,
      "ick": 861,
      "gh": 862,
      "LE": 863,
      "OR": 864,
      "Ġprivate": 865,
      "tem": 866,
      "čĊčĊ": 867,
      "user": 868,
      "Ġ)": 869,
      "com": 870,
      ".A": 871,
      "\";Ċ": 872,
      "Ġid": 873,
      "read": 874,
      "Ġwho": 875,
      "_b": 876,
      "\">Ċ": 877,
      "Ġtime": 878,
      "Ġman": 879,
      "ry": 880,
      "roup": 881,
      "rop": 882,
      "public": 883,
      "vel": 884,
      "umber": 885,
      "ble": 886,
      "Ġwhich": 887,
      "Ġany": 888,
      "Ġfalse": 889,
      "we": 890,
      "Ġvalue": 891,
      "Ġli": 892,
      "\")": 893,
      "nder": 894,
      "gr": 895,
      "Ġno": 896,
      "param": 897,
      "fig": 898,
      ".com": 899,
      "Ġapp": 900,
      "_l": 901,
      "ions": 902,
      ".D": 903,
      "ĠCh": 904,
      "Ġabout": 905,
      "Ġadd": 906,
      "Ġsu": 907,
      "Ġstring": 908,
      "ID": 909,
      "Ġover": 910,
      "string": 911,
      ".l": 912,
      "ource": 913,
      "_C": 914,
      "]Ċ": 915,
      "Ġqu": 916,
      "ĠString": 917,
      "ca": 918,
      "SE": 919,
      "Ġro": 920,
      "sh": 921,
      "ual": 922,
      "Type": 923,
      "son": 924,
      "new": 925,
      "ern": 926,
      "Ġag": 927,
      "AR": 928,
      "];Ċ": 929,
      "].": 930,
      "Ġ?": 931,
      "ical": 932,
      "Ġdes": 933,
      "uth": 934,
      "ix": 935,
      "ays": 936,
      "Ġtype": 937,
      "'t": 938,
      "ault": 939,
      "Ġinter": 940,
      "var": 941,
      ".b": 942,
      "Ġpart": 943,
      ".d": 944,
      "urrent": 945,
      "IT": 946,
      "EN": 947,
      "enc": 948,
      "(f": 949,
      "ra": 950,
      "value": 951,
      "cho": 952,
      "utton": 953,
      "ose": 954,
      "Ġ!=": 955,
      "ater": 956,
      "Ã©": 957,
      "reate": 958,
      "oll": 959,
      "pos": 960,
      "yle": 961,
      "ng": 962,
      "AL": 963,
      "using": 964,
      "ames": 965,
      "Ġ{čĊ": 966,
      "ates": 967,
      "ely": 968,
      "Ġwork": 969,
      "Ġem": 970,
      "inal": 971,
      "Ġsp": 972,
      "Ġwhen": 973,
      ".set": 974,
      "ĠĠĠĠĠĠ": 975,
      "):Ċ": 976,
      "to": 977,
      "quire": 978,
      "indow": 979,
      "lement": 980,
      "pect": 981,
      "ash": 982,
      "[i": 983,
      "Ġuse": 984,
      ".F": 985,
      "pec": 986,
      "Ġad": 987,
      "ove": 988,
      "ception": 989,
      "ength": 990,
      "include": 991,
      "ader": 992,
      "ĠĠĠĠĠĠĠĠĠĠĠĠĠĠĠĠĠĠĠĠĠĠĠĠĠĠĠ": 993,
      "atus": 994,
      "Th": 995,
      "itle": 996,
      "rit": 997,
      "void": 998,
      "().": 999,
      "(Ċ": 1000,
      "Ġoff": 1001,
      "Ġother": 1002,
      "Ġ&&": 1003,
      "';Ċ": 1004,
      "ms": 1005,
      "Ġbeen": 1006,
      "Ġte": 1007,
      "ml": 1008,
      "co": 1009,
      "nc": 1010,
      "ervice": 1011,
      "Ġ%": 1012,
      "**Ċ": 1013,
      "ann": 1014,
      "ade": 1015,
      "ĊĊĊĊ": 1016,
      "lock": 1017,
      "const": 1018,
      "ponse": 1019,
      "Ġsup": 1020,
      "++": 1021,
      "date": 1022,
      "Ġacc": 1023,
      "Ġhad": 1024,
      "Ġbu": 1025,
      "ĠRe": 1026,
      "Ġwere": 1027,
      "Ġfile": 1028,
      "Ġwould": 1029,
      "ĠâĢľ": 1030,
      "ven": 1031,
      "iss": 1032,
      "Ġour": 1033,
      "class": 1034,
      "raw": 1035,
      "Ġyear": 1036,
      "Data": 1037,
      "Ġval": 1038,
      "Ġsome": 1039,
      "fter": 1040,
      "ys": 1041,
      "Ġ///": 1042,
      "round": 1043,
      "view": 1044,
      "Ġpe": 1045,
      "Ġthere": 1046,
      "Ġsaid": 1047,
      "du": 1048,
      "of": 1049,
      "line": 1050,
      "/*": 1051,
      "duct": 1052,
      "Ġher": 1053,
      "ĠĠĠĠĠĠĠĠĠĠĠĠĠ": 1054,
      "Res": 1055,
      "Ġco": 1056,
      "Ġcomm": 1057,
      "ise": 1058,
      "min": 1059,
      "ĠĠĠĠĊ": 1060,
      "#include": 1061,
      "ethod": 1062,
      ".P": 1063,
      "ute": 1064,
      "Ġass": 1065,
      "Int": 1066,
      "ask": 1067,
      "loc": 1068,
      "Ġlike": 1069,
      "ody": 1070,
      "Ġlet": 1071,
      "load": 1072,
      "Ġam": 1073,
      "rol": 1074,
      "Ġgr": 1075,
      "yp": 1076,
      "Ġalso": 1077,
      "ĠIt": 1078,
      "url": 1079,
      "ific": 1080,
      "ors": 1081,
      "_P": 1082,
      "_n": 1083,
      "igh": 1084,
      "Ġthan": 1085,
      "Com": 1086,
      "AN": 1087,
      "UL": 1088,
      "ating": 1089,
      "ĠThis": 1090,
      "ref": 1091,
      "_S": 1092,
      "Ġstatic": 1093,
      "roll": 1094,
      "Ġjust": 1095,
      "Ġresult": 1096,
      "ian": 1097,
      "idth": 1098,
      "Ġthem": 1099,
      "));Ċ": 1100,
      "der": 1101,
      "reak": 1102,
      "Con": 1103,
      "://": 1104,
      "ule": 1105,
      "...": 1106,
      "arch": 1107,
      "ement": 1108,
      "Ġ<<": 1109,
      "ush": 1110,
      "ense": 1111,
      "arr": 1112,
      "Ġinto": 1113,
      "cess": 1114,
      "amp": 1115,
      "ied": 1116,
      "ument": 1117,
      "Ġ\\": 1118,
      "],": 1119,
      "wo": 1120,
      "als": 1121,
      "Ġwhat": 1122,
      "anc": 1123,
      "Value": 1124,
      "='": 1125,
      "olum": 1126,
      "Ġpos": 1127,
      "ages": 1128,
      "ayer": 1129,
      "Ġsc": 1130,
      "ues": 1131,
      "\")Ċ": 1132,
      "_T": 1133,
      "Ġlist": 1134,
      "(s": 1135,
      "Ġcase": 1136,
      "Ch": 1137,
      "ĉĉĉĉĉ": 1138,
      "ponent": 1139,
      "Ġz": 1140,
      "Ġkn": 1141,
      "let": 1142,
      "DE": 1143,
      "red": 1144,
      "Ġfe": 1145,
      "Ġ},Ċ": 1146,
      "Ġ,": 1147,
      "(t": 1148,
      "Ġfirst": 1149,
      "');Ċ": 1150,
      "word": 1151,
      "Ġimport": 1152,
      "Ġact": 1153,
      "Ġchar": 1154,
      "CT": 1155,
      "ĠTr": 1156,
      "ople": 1157,
      "={": 1158,
      "ĉf": 1159,
      "ient": 1160,
      "cent": 1161,
      ".j": 1162,
      "lection": 1163,
      "))Ċ": 1164,
      "Ġonly": 1165,
      "Ġprint": 1166,
      "mer": 1167,
      ".W": 1168,
      "ock": 1169,
      "Ġ--": 1170,
      "Text": 1171,
      "Ġop": 1172,
      "ank": 1173,
      "Ġits": 1174,
      "Ġback": 1175,
      "[\"": 1176,
      "Ġneed": 1177,
      "Ġcl": 1178,
      "Ġsub": 1179,
      "Ġla": 1180,
      "((": 1181,
      ".\"": 1182,
      "Object": 1183,
      "Ġstart": 1184,
      "file": 1185,
      "(self": 1186,
      "ner": 1187,
      "ey": 1188,
      "Ġuser": 1189,
      "Ġent": 1190,
      "ĠCom": 1191,
      "its": 1192,
      "ĠCon": 1193,
      "ouble": 1194,
      "ower": 1195,
      "item": 1196,
      "very": 1197,
      "ĠWe": 1198,
      "lick": 1199,
      "ĠQ": 1200,
      "ttp": 1201,
      "':": 1202,
      "ics": 1203,
      "Ġunder": 1204,
      "Ġ*Ċ": 1205,
      ".L": 1206,
      ");": 1207,
      "ices": 1208,
      "Ġreg": 1209,
      ")čĊ": 1210,
      "ĉpublic": 1211,
      "SS": 1212,
      "Ġthen": 1213,
      "reat": 1214,
      "ious": 1215,
      ".G": 1216,
      "ek": 1217,
      "irect": 1218,
      "heck": 1219,
      "cript": 1220,
      "ning": 1221,
      "ĠUn": 1222,
      "Ġmay": 1223,
      "ĠWh": 1224,
      "Bo": 1225,
      "Item": 1226,
      "struct": 1227,
      "ream": 1228,
      "ible": 1229,
      "loat": 1230,
      "Ġorg": 1231,
      "und": 1232,
      "sum": 1233,
      "_in": 1234,
      "../": 1235,
      "_M": 1236,
      "Ġhow": 1237,
      "rite": 1238,
      "'Ċ": 1239,
      "To": 1240,
      "ww": 1241,
      "Ġpeople": 1242,
      "index": 1243,
      ".n": 1244,
      "http": 1245,
      "(m": 1246,
      "ector": 1247,
      "Ġind": 1248,
      "Ġjav": 1249,
      "],Ċ": 1250,
      "ĠHe": 1251,
      "_st": 1252,
      "ful": 1253,
      "ole": 1254,
      "Ġshould": 1255,
      "opy": 1256,
      "elp": 1257,
      "ier": 1258,
      "_name": 1259,
      "erson": 1260,
      "ION": 1261,
      "ote": 1262,
      "Ġtest": 1263,
      "Ġbet": 1264,
      "rror": 1265,
      "ular": 1266,
      "ãĢ": 1267,
      "bs": 1268,
      "ting": 1269,
      "Ġmake": 1270,
      "Tr": 1271,
      "Ġafter": 1272,
      "arget": 1273,
      "RO": 1274,
      "olumn": 1275,
      "rc": 1276,
      "_re": 1277,
      "define": 1278,
      "Ġright": 1279,
      "right": 1280,
      "day": 1281,
      "Ġlong": 1282,
      "[]": 1283,
      "(p": 1284,
      "td": 1285,
      "cond": 1286,
      "ĠPro": 1287,
      "Ġrem": 1288,
      "ptions": 1289,
      "vid": 1290,
      ".g": 1291,
      "Ġext": 1292,
      "Ġ__": 1293,
      "')Ċ": 1294,
      "pace": 1295,
      "mp": 1296,
      "Ġmin": 1297,
      "stance": 1298,
      "air": 1299,
      "action": 1300,
      "wh": 1301,
      "type": 1302,
      "util": 1303,
      "ait": 1304,
      "IC": 1305,
      "text": 1306,
      "Ġph": 1307,
      "Ġfl": 1308,
      ".M": 1309,
      "ccess": 1310,
      "br": 1311,
      "fore": 1312,
      "ersion": 1313,
      "),Ċ": 1314,
      ".re": 1315,
      "ateg": 1316,
      "Ġloc": 1317,
      "ins": 1318,
      "-s": 1319,
      "trib": 1320,
      "ĠInt": 1321,
      "Ġarray": 1322,
      ",\"": 1323,
      "Pro": 1324,
      "(c": 1325,
      "ession": 1326,
      ">ĊĊ": 1327,
      "Ġshe": 1328,
      "\"]": 1329,
      "aph": 1330,
      "Ġexp": 1331,
      "erty": 1332,
      "ĠSe": 1333,
      "Ġpar": 1334,
      "unc": 1335,
      "ET": 1336,
      "Ġread": 1337,
      "print": 1338,
      "Ġrel": 1339,
      "Ġform": 1340,
      "Ġdr": 1341,
      "Exception": 1342,
      "input": 1343,
      "Ġtrans": 1344,
      "order": 1345,
      "By": 1346,
      "Ġaw": 1347,
      "ities": 1348,
      "uff": 1349,
      "play": 1350,
      ".add": 1351,
      "ĠâĢĵ": 1352,
      "Ġwant": 1353,
      "Ġcomp": 1354,
      "ments": 1355,
      "Ġ||": 1356,
      "az": 1357,
      "be": 1358,
      "Ġnumber": 1359,
      "Ġrequire": 1360,
      "ĠEx": 1361,
      "Ġcol": 1362,
      "Ġkey": 1363,
      "ember": 1364,
      "Ġtwo": 1365,
      "Ġsize": 1366,
      "Ġwhere": 1367,
      "UT": 1368,
      "result": 1369,
      "ĠĠĠĠĠĠĠĠĠĠĠĠĠĠĠĠĠĠĠĠĠĠĠĠĠĠĠĠĠĠĠ": 1370,
      "ough": 1371,
      "orld": 1372,
      "ood": 1373,
      "uch": 1374,
      "ative": 1375,
      "ger": 1376,
      "arent": 1377,
      "Ġ/*": 1378,
      "Ġarg": 1379,
      "Ġwhile": 1380,
      "(this": 1381,
      "Ġrec": 1382,
      "Ġdif": 1383,
      "State": 1384,
      "Ġspec": 1385,
      "ride": 1386,
      "_F": 1387,
      "Ġlook": 1388,
      "AM": 1389,
      "ility": 1390,
      "eter": 1391,
      "âĢĻt": 1392,
      "ĊĊĊ": 1393,
      "ayout": 1394,
      "--------------------------------": 1395,
      "ager": 1396,
      "Ġcould": 1397,
      "Ġbr": 1398,
      "ends": 1399,
      "ures": 1400,
      "Ġknow": 1401,
      "ets": 1402,
      "ĠIf": 1403,
      "ĠSh": 1404,
      ".w": 1405,
      "back": 1406,
      "Ġser": 1407,
      "Ġ+=": 1408,
      "Ġfr": 1409,
      "());Ċ": 1410,
      "Ġhand": 1411,
      "Ind": 1412,
      "ULL": 1413,
      "Im": 1414,
      "();ĊĊ": 1415,
      "Ġmost": 1416,
      "Ġtry": 1417,
      "Ġnow": 1418,
      "rough": 1419,
      ">čĊ": 1420,
      "ackage": 1421,
      "Ġhim": 1422,
      "._": 1423,
      "ify": 1424,
      "Ġbreak": 1425,
      "Ġ);Ċ": 1426,
      "ren": 1427,
      "#define": 1428,
      "itt": 1429,
      "Ġap": 1430,
      "ĉc": 1431,
      "(n": 1432,
      "ĠYou": 1433,
      ":ĊĊ": 1434,
      "-m": 1435,
      "Ġevery": 1436,
      "ustom": 1437,
      "lient": 1438,
      "ocument": 1439,
      "cription": 1440,
      "Error": 1441,
      "-b": 1442,
      "][": 1443,
      "trans": 1444,
      "Ġpoint": 1445,
      "Ġstd": 1446,
      "Ġfil": 1447,
      "Time": 1448,
      "Ġmod": 1449,
      "Ġ->": 1450,
      "Ġerror": 1451,
      "ah": 1452,
      "Ġtext": 1453,
      "roller": 1454,
      "lose": 1455,
      "ql": 1456,
      "Ġpol": 1457,
      "></": 1458,
      "Ġshow": 1459,
      "User": 1460,
      "ased": 1461,
      "Ġ{ĊĊ": 1462,
      "Ġfind": 1463,
      "ED": 1464,
      "span": 1465,
      "enu": 1466,
      "Ġcurrent": 1467,
      "Ġused": 1468,
      "cept": 1469,
      "clud": 1470,
      "Ġplay": 1471,
      "Ġlog": 1472,
      "ution": 1473,
      "fl": 1474,
      "Ġsee": 1475,
      "indows": 1476,
      "Ġhelp": 1477,
      "Ġthese": 1478,
      "Ġpass": 1479,
      "Ġdown": 1480,
      "Ġeven": 1481,
      "ason": 1482,
      "uild": 1483,
      "from": 1484,
      "(d": 1485,
      "Ġbl": 1486,
      "label": 1487,
      "else": 1488,
      "Ġ(!": 1489,
      "ized": 1490,
      "(),": 1491,
      "Ġob": 1492,
      "Ġitem": 1493,
      "ump": 1494,
      "UR": 1495,
      "orn": 1496,
      "Ġdon": 1497,
      "Se": 1498,
      "man": 1499,
      "ample": 1500,
      "tn": 1501,
      "He": 1502,
      "gram": 1503,
      "Ġdid": 1504,
      "wn": 1505,
      "_h": 1506,
      "iver": 1507,
      "Ġsm": 1508,
      "Ġthrough": 1509,
      "ĠAn": 1510,
      "che": 1511,
      "Ġinv": 1512,
      "ouse": 1513,
      "Ġes": 1514,
      "ĠNew": 1515,
      "export": 1516,
      "mary": 1517,
      "uto": 1518,
      "ler": 1519,
      "Ġlast": 1520,
      "Ġevent": 1521,
      "try": 1522,
      "ï¼": 1523,
      "ily": 1524,
      "igned": 1525,
      "ines": 1526,
      "ollow": 1527,
      "icense": 1528,
      "sole": 1529,
      "lear": 1530,
      "(int": 1531,
      "Ġagain": 1532,
      "Ġhigh": 1533,
      "html": 1534,
      "Index": 1535,
      "uthor": 1536,
      "Ġ/**Ċ": 1537,
      "Ġline": 1538,
      "Event": 1539,
      "_D": 1540,
      "Ġdoes": 1541,
      "itial": 1542,
      "Ġcr": 1543,
      "ars": 1544,
      "Ġtem": 1545,
      "cause": 1546,
      "face": 1547,
      "Ġ`": 1548,
      "_A": 1549,
      "ature": 1550,
      "ected": 1551,
      "ES": 1552,
      "ister": 1553,
      "ĉĊ": 1554,
      "Ġbefore": 1555,
      "ale": 1556,
      "other": 1557,
      "Ġbecause": 1558,
      "roid": 1559,
      "Ġed": 1560,
      "ik": 1561,
      "reg": 1562,
      "ĠDe": 1563,
      "Ġdist": 1564,
      "},Ċ": 1565,
      "Ġstate": 1566,
      "Ġcons": 1567,
      "rint": 1568,
      "att": 1569,
      "Ġhere": 1570,
      "ined": 1571,
      "Ġfinal": 1572,
      "Ġ\"\"": 1573,
      "Key": 1574,
      "LO": 1575,
      "Ġdel": 1576,
      "pty": 1577,
      "thing": 1578,
      "ĠAnd": 1579,
      "Ġrun": 1580,
      "ĠX": 1581,
      "ym": 1582,
      ".app": 1583,
      "Ġvery": 1584,
      "ces": 1585,
      "_N": 1586,
      "ared": 1587,
      "ward": 1588,
      "list": 1589,
      "ited": 1590,
      "olog": 1591,
      "itch": 1592,
      "Box": 1593,
      "ife": 1594,
      "Ġac": 1595,
      "Ġmodel": 1596,
      "Ġmon": 1597,
      "Ġway": 1598,
      "lete": 1599,
      "Ġcall": 1600,
      "Ġatt": 1601,
      "Ġcal": 1602,
      "vert": 1603,
      "Ġdec": 1604,
      "lease": 1605,
      "oun": 1606,
      "Ġ});Ċ": 1607,
      "fr": 1608,
      "formation": 1609,
      "etail": 1610,
      "Ġnum": 1611,
      "aj": 1612,
      "query": 1613,
      "Ġwell": 1614,
      "Ġobject": 1615,
      "ĠAs": 1616,
      "Ġyears": 1617,
      "Color": 1618,
      "IS": 1619,
      "Ġdefault": 1620,
      "Wh": 1621,
      "Ġins": 1622,
      "aint": 1623,
      "Ġjava": 1624,
      "Ġsim": 1625,
      "ĠAr": 1626,
      "mon": 1627,
      "til": 1628,
      "):": 1629,
      "Set": 1630,
      "atter": 1631,
      "Ġview": 1632,
      "Ġpres": 1633,
      "array": 1634,
      "We": 1635,
      "At": 1636,
      "Ġbel": 1637,
      "Ġmany": 1638,
      "Man": 1639,
      "ender": 1640,
      "Ġbeing": 1641,
      "Ġgood": 1642,
      "ĉĉĉĉĉĉ": 1643,
      "ational": 1644,
      "ware": 1645,
      ".log": 1646,
      "Ġusing": 1647,
      "_B": 1648,
      "Ġ:=": 1649,
      "_w": 1650,
      "ists": 1651,
      "lish": 1652,
      "Ġstud": 1653,
      "ĠAl": 1654,
      "Ġgu": 1655,
      "config": 1656,
      "uring": 1657,
      "time": 1658,
      "oken": 1659,
      "amespace": 1660,
      "Ġrequest": 1661,
      "Ġchild": 1662,
      "ĠÃ": 1663,
      "lob": 1664,
      "Ġparam": 1665,
      "Ġ}čĊ": 1666,
      "Ġecho": 1667,
      "function": 1668,
      "ps": 1669,
      "Element": 1670,
      "alk": 1671,
      "lication": 1672,
      "by": 1673,
      "Size": 1674,
      "rawing": 1675,
      "Ġperson": 1676,
      "ĠĠĠĠĠĠĠĠĠĠĠĠĠĠĠĠĠ": 1677,
      "\\n": 1678,
      "object": 1679,
      "ince": 1680,
      "En": 1681,
      "File": 1682,
      "uf": 1683,
      "ffect": 1684,
      "AC": 1685,
      "Ġstyle": 1686,
      "summary": 1687,
      "Ġque": 1688,
      "_r": 1689,
      "Ġ($": 1690,
      "Model": 1691,
      "ident": 1692,
      "Ġmethod": 1693,
      "IL": 1694,
      "ott": 1695,
      "less": 1696,
      "ING": 1697,
      "Ġ()": 1698,
      "Ġexpect": 1699,
      "ync": 1700,
      "package": 1701,
      "urs": 1702,
      "Ġprot": 1703,
      "./": 1704,
      "pre": 1705,
      "Ġ)Ċ": 1706,
      "ma": 1707,
      "Ġsur": 1708,
      "Ġfound": 1709,
      "Info": 1710,
      "par": 1711,
      "imes": 1712,
      ".e": 1713,
      "ains": 1714,
      "Ġpost": 1715,
      "-d": 1716,
      "olean": 1717,
      "Ġsl": 1718,
      "PE": 1719,
      "Ġsuch": 1720,
      "select": 1721,
      "ainer": 1722,
      "Ġthink": 1723,
      "Ġdiffer": 1724,
      ".r": 1725,
      "/**Ċ": 1726,
      "FF": 1727,
      "ool": 1728,
      "plate": 1729,
      "qual": 1730,
      "ĠFor": 1731,
      "Ġmuch": 1732,
      "uc": 1733,
      "(new": 1734,
      "odule": 1735,
      "Ġsom": 1736,
      "Ġhttp": 1737,
      "ĠList": 1738,
      "Ġcount": 1739,
      "Ġinst": 1740,
      "char": 1741,
      "mit": 1742,
      ".id": 1743,
      "aking": 1744,
      "Ġgener": 1745,
      "px": 1746,
      "vice": 1747,
      "_data": 1748,
      "ĠNULL": 1749,
      "}čĊ": 1750,
      "idd": 1751,
      "ãĢĤ": 1752,
      "Ġmed": 1753,
      "org": 1754,
      "ider": 1755,
      "ache": 1756,
      "work": 1757,
      "Ġcheck": 1758,
      "ween": 1759,
      "Ġ((": 1760,
      "the": 1761,
      "ants": 1762,
      "><": 1763,
      ".B": 1764,
      "-c": 1765,
      "Ġopen": 1766,
      "Ġest": 1767,
      "Ġnext": 1768,
      "IM": 1769,
      "OT": 1770,
      "Ã³": 1771,
      "Ġfollow": 1772,
      "content": 1773,
      "ĠĠĠĠĠĠĠĠĠĠĠĠ": 1774,
      "Ġinclud": 1775,
      "HE": 1776,
      "ĠRes": 1777,
      "Ġhref": 1778,
      "Ð¸": 1779,
      "Ġcar": 1780,
      "ypes": 1781,
      "image": 1782,
      "Un": 1783,
      "Ġbool": 1784,
      "AD": 1785,
      "Ġgame": 1786,
      "rows": 1787,
      "velop": 1788,
      "Ġpath": 1789,
      "ision": 1790,
      "Ġeach": 1791,
      "ĠPl": 1792,
      "_type": 1793,
      "Path": 1794,
      "nection": 1795,
      "Ġav": 1796,
      "Ġsupport": 1797,
      "ENT": 1798,
      "rem": 1799,
      "\").": 1800,
      "Ġown": 1801,
      "Ġcor": 1802,
      "count": 1803,
      "miss": 1804,
      "ually": 1805,
      "Ġmem": 1806,
      "std": 1807,
      "ience": 1808,
      "search": 1809,
      "\"ĊĊ": 1810,
      "Form": 1811,
      "Ġsex": 1812,
      "ename": 1813,
      "Ġsign": 1814,
      "Ġet": 1815,
      "ĠĠĠĠĠĠĠĠĠĠ": 1816,
      "','": 1817,
      "ĠApp": 1818,
      "Ġthose": 1819,
      "off": 1820,
      "Ġerr": 1821,
      "Ġsystem": 1822,
      "Ġbest": 1823,
      "code": 1824,
      "Ġsame": 1825,
      "Ġdi": 1826,
      "uss": 1827,
      "Ġcreate": 1828,
      "ather": 1829,
      "Array": 1830,
      ".in": 1831,
      "fe": 1832,
      "Service": 1833,
      "UN": 1834,
      "ats": 1835,
      "ĠZ": 1836,
      "alth": 1837,
      "Ġmade": 1838,
      "true": 1839,
      "AB": 1840,
      "Ġmark": 1841,
      "rid": 1842,
      "ified": 1843,
      ",čĊ": 1844,
      "yn": 1845,
      "press": 1846,
      "Ġgroup": 1847,
      "Ġfin": 1848,
      "ĠLicense": 1849,
      "Field": 1850,
      "eger": 1851,
      "Ġworld": 1852,
      "iness": 1853,
      "ty": 1854,
      "Ġprocess": 1855,
      "(b": 1856,
      "Ġcre": 1857,
      "arn": 1858,
      "ives": 1859,
      "Ġmain": 1860,
      "ideo": 1861,
      "_g": 1862,
      "AG": 1863,
      "valid": 1864,
      "img": 1865,
      "PI": 1866,
      "Ġcolor": 1867,
      "Ġreport": 1868,
      "Ġtake": 1869,
      "rib": 1870,
      "OM": 1871,
      "Ġday": 1872,
      "Request": 1873,
      "Ġsk": 1874,
      "bers": 1875,
      "ĉs": 1876,
      ".Add": 1877,
      "oot": 1878,
      "Image": 1879,
      "Ġcomple": 1880,
      "ollection": 1881,
      "Ġtop": 1882,
      "Ġfree": 1883,
      "AS": 1884,
      "De": 1885,
      "ĠOn": 1886,
      "IG": 1887,
      "eta": 1888,
      "Date": 1889,
      "Ġaction": 1890,
      "Over": 1891,
      "itor": 1892,
      "ĠĠĠĠĠĠĠĠĠĠĠĠĠĠĠĠĠĠĠĠĠĠĠĠĠĠĠĠĠĠĠĠĠĠĠ": 1893,
      "not": 1894,
      "Ġindex": 1895,
      "her": 1896,
      "icon": 1897,
      "On": 1898,
      "ivity": 1899,
      "mand": 1900,
      ".Windows": 1901,
      "OL": 1902,
      "Ġreal": 1903,
      "Ġmax": 1904,
      "land": 1905,
      "....": 1906,
      "raph": 1907,
      "Ġbuild": 1908,
      "leg": 1909,
      "?ĊĊ": 1910,
      "âĢ¦": 1911,
      "ook": 1912,
      "uck": 1913,
      "Ġmessage": 1914,
      "test": 1915,
      "ivers": 1916,
      "Ġinput": 1917,
      "Ġart": 1918,
      "Ġbetween": 1919,
      "Get": 1920,
      "enter": 1921,
      "ground": 1922,
      "ene": 1923,
      "Ã¡": 1924,
      ".length": 1925,
      "Node": 1926,
      "(i": 1927,
      "Class": 1928,
      "for": 1929,
      "ĠâĢĶ": 1930,
      "ten": 1931,
      "oin": 1932,
      "Ġke": 1933,
      "ui": 1934,
      "ĠIN": 1935,
      "Ġtable": 1936,
      "sub": 1937,
      "ĠLe": 1938,
      "Ġhead": 1939,
      "Ġmust": 1940,
      "Context": 1941,
      "Ġorder": 1942,
      "Ġmov": 1943,
      "over": 1944,
      "Ġcontin": 1945,
      "Ġsay": 1946,
      "static": 1947,
      ".Text": 1948,
      "pany": 1949,
      "Ġter": 1950,
      "head": 1951,
      "rg": 1952,
      "Ġproduct": 1953,
      "This": 1954,
      ".âĢĿ": 1955,
      "ĠBut": 1956,
      "loy": 1957,
      "Ġdouble": 1958,
      "sg": 1959,
      "Ġplace": 1960,
      ".x": 1961,
      "message": 1962,
      "Ġinformation": 1963,
      "Ġoper": 1964,
      "ced": 1965,
      "db": 1966,
      "\"></": 1967,
      "Param": 1968,
      "icle": 1969,
      "Ġweek": 1970,
      "Ġprop": 1971,
      "table": 1972,
      "idget": 1973,
      "place": 1974,
      "Prop": 1975,
      "ĠAll": 1976,
      "els": 1977,
      "box": 1978,
      ".ĊĊĊĊ": 1979,
      ".R": 1980,
      "ĠTo": 1981,
      "iter": 1982,
      "Sh": 1983,
      "uration": 1984,
      "older": 1985,
      "_list": 1986,
      "come": 1987,
      "Ġsw": 1988,
      "ization": 1989,
      "ĉfor": 1990,
      "bl": 1991,
      "Ġprogram": 1992,
      "(e": 1993,
      "ape": 1994,
      "check": 1995,
      "Ġund": 1996,
      "ategory": 1997,
      "ags": 1998,
      "Ġresponse": 1999,
      "US": 2000,
      "request": 2001,
      "Ġstruct": 2002,
      "escription": 2003,
      "Ġcode": 2004,
      "_H": 2005,
      "uffer": 2006,
      "Ġwithout": 2007,
      "lobal": 2008,
      "Manager": 2009,
      "ilter": 2010,
      "PO": 2011,
      "ĉthis": 2012,
      "option": 2013,
      "Ġsol": 2014,
      "Ġ===": 2015,
      "akes": 2016,
      "Controller": 2017,
      "Message": 2018,
      "Ġref": 2019,
      "ever": 2020,
      "ĠSo": 2021,
      "aining": 2022,
      ".append": 2023,
      "Ġstill": 2024,
      "Ġprovid": 2025,
      "Ġassert": 2026,
      "med": 2027,
      "Ġcap": 2028,
      "usiness": 2029,
      "Ġrep": 2030,
      "tings": 2031,
      "ved": 2032,
      ".N": 2033,
      "api": 2034,
      "OD": 2035,
      "Ġfield": 2036,
      "iven": 2037,
      "oto": 2038,
      "âĢľ": 2039,
      "col": 2040,
      "(x": 2041,
      "ght": 2042,
      "Result": 2043,
      "Code": 2044,
      ".is": 2045,
      "link": 2046,
      "Ġcour": 2047,
      "An": 2048,
      "Ġteam": 2049,
      "ift": 2050,
      "Ġsecond": 2051,
      "Ġgoing": 2052,
      "Ġrange": 2053,
      "_E": 2054,
      "ness": 2055,
      "Ġfam": 2056,
      "Ġnil": 2057,
      "ĠCont": 2058,
      "ailable": 2059,
      "utes": 2060,
      "atab": 2061,
      "Ġfact": 2062,
      "Ġvis": 2063,
      "(&": 2064,
      "ĠAN": 2065,
      "Al": 2066,
      "title": 2067,
      "CE": 2068,
      "\\\"": 2069,
      "irt": 2070,
      "Ġwrit": 2071,
      "ĉm": 2072,
      "ftware": 2073,
      "ond": 2074,
      "Ġret": 2075,
      "osition": 2076,
      "Ġhome": 2077,
      "Ġleft": 2078,
      "args": 2079,
      "meric": 2080,
      "Ġdirect": 2081,
      "oci": 2082,
      "Pl": 2083,
      "As": 2084,
      "ret": 2085,
      "ado": 2086,
      "Of": 2087,
      "chn": 2088,
      "ĠGet": 2089,
      "ee": 2090,
      "ross": 2091,
      "();": 2092,
      "____": 2093,
      ".ph": 2094,
      "It": 2095,
      "oute": 2096,
      "Ġexper": 2097,
      "chool": 2098,
      "www": 2099,
      "},": 2100,
      "Ġallow": 2101,
      "ĠÂ": 2102,
      "())": 2103,
      "size": 2104,
      "ism": 2105,
      "ai": 2106,
      "tract": 2107,
      "ane": 2108,
      "...ĊĊ": 2109,
      "context": 2110,
      "Ġbeg": 2111,
      "CH": 2112,
      "Ġpage": 2113,
      "hip": 2114,
      "no": 2115,
      "core": 2116,
      "sp": 2117,
      "Ġdifferent": 2118,
      "iable": 2119,
      "ĠMe": 2120,
      "_IN": 2121,
      "button": 2122,
      "ĠIs": 2123,
      "ervices": 2124,
      "Ġca": 2125,
      "Ġaround": 2126,
      "App": 2127,
      "ration": 2128,
      "Ġrece": 2129,
      "Ġreally": 2130,
      "Ġimage": 2131,
      "Ġtarget": 2132,
      "Ġdep": 2133,
      "opyright": 2134,
      "tra": 2135,
      "ingle": 2136,
      "ital": 2137,
      "Ġboth": 2138,
      "arm": 2139,
      "aterial": 2140,
      "iled": 2141,
      "Ġput": 2142,
      "Qu": 2143,
      "ung": 2144,
      "map": 2145,
      "Ġlevel": 2146,
      "Component": 2147,
      "book": 2148,
      "creen": 2149,
      "_RE": 2150,
      "Ġconfig": 2151,
      "ãģ": 2152,
      "Or": 2153,
      ".data": 2154,
      "Ġdocument": 2155,
      "\",\"": 2156,
      "tribute": 2157,
      "ux": 2158,
      "Log": 2159,
      "ference": 2160,
      "post": 2161,
      "Ġlocal": 2162,
      "andom": 2163,
      "Val": 2164,
      "lected": 2165,
      "ina": 2166,
      "atabase": 2167,
      "Add": 2168,
      "Ġcontent": 2169,
      "signed": 2170,
      "ric": 2171,
      ".\"ĊĊ": 2172,
      "Ġfa": 2173,
      "!ĊĊ": 2174,
      "-f": 2175,
      "ived": 2176,
      "Ġquest": 2177,
      "Ġfloat": 2178,
      "Ġdevelop": 2179,
      "Map": 2180,
      "ading": 2181,
      "Ġposs": 2182,
      "UE": 2183,
      "namespace": 2184,
      "ĉb": 2185,
      ".Get": 2186,
      ">(": 2187,
      "json": 2188,
      "etails": 2189,
      "Ġtoo": 2190,
      "Ġextends": 2191,
      "ĠNone": 2192,
      "Ġfore": 2193,
      "format": 2194,
      "Ġgreat": 2195,
      "inter": 2196,
      "cale": 2197,
      "ron": 2198,
      "iving": 2199,
      "ency": 2200,
      "xt": 2201,
      "oy": 2202,
      "Ġmonth": 2203,
      "Ġhapp": 2204,
      "Ġsuper": 2205,
      "bar": 2206,
      "default": 2207,
      "ords": 2208,
      "ln": 2209,
      "ĠInd": 2210,
      "ases": 2211,
      "Ġtitle": 2212,
      "Ġcontext": 2213,
      "oh": 2214,
      "-p": 2215,
      "Em": 2216,
      "Ġmet": 2217,
      "Test": 2218,
      "Ġlife": 2219,
      "_v": 2220,
      "ĠUS": 2221,
      "UI": 2222,
      "ocation": 2223,
      "md": 2224,
      "Ġ[Ċ": 2225,
      "Ġ]": 2226,
      "sw": 2227,
      "Ġincre": 2228,
      "script": 2229,
      "ential": 2230,
      "ways": 2231,
      "Ġsrc": 2232,
      "Ġcatch": 2233,
      "ĠAmeric": 2234,
      "//Ċ": 2235,
      "ĠĠĠĠĠĠĠĠĠĠĠĠĠĠ": 2236,
      "Ġpay": 2237,
      "plit": 2238,
      "âĢĶ": 2239,
      "Ġcoun": 2240,
      "obj": 2241,
      ".php": 2242,
      "Ġchange": 2243,
      "ething": 2244,
      "'re": 2245,
      "aster": 2246,
      "los": 2247,
      "lation": 2248,
      "ĠĠĊ": 2249,
      "Le": 2250,
      "Ã¤": 2251,
      "({": 2252,
      "ready": 2253,
      "ĠNo": 2254,
      "Ġposition": 2255,
      "Ġold": 2256,
      "Ġbook": 2257,
      "abled": 2258,
      "bug": 2259,
      "Hand": 2260,
      "};ĊĊ": 2261,
      "isplay": 2262,
      "aving": 2263,
      "Ġgover": 2264,
      "Ġversion": 2265,
      "System": 2266,
      "nect": 2267,
      "Style": 2268,
      "Up": 2269,
      "angu": 2270,
      "Ġthree": 2271,
      "init": 2272,
      "ero": 2273,
      "Ġlaw": 2274,
      "endif": 2275,
      "Ġbase": 2276,
      "email": 2277,
      "(l": 2278,
      "_V": 2279,
      "Ġconf": 2280,
      "ATE": 2281,
      "Ġduring": 2282,
      "tes": 2283,
      "Ġconsole": 2284,
      "ĠPr": 2285,
      "Ġspe": 2286,
      "ves": 2287,
      "path": 2288,
      "ialog": 2289,
      "dition": 2290,
      "_to": 2291,
      "ards": 2292,
      "Ġagainst": 2293,
      "etwork": 2294,
      "ĠPh": 2295,
      "_L": 2296,
      "cur": 2297,
      "imit": 2298,
      "With": 2299,
      "Ġpower": 2300,
      "ium": 2301,
      "Ġwom": 2302,
      "left": 2303,
      "ources": 2304,
      "atri": 2305,
      "ĠIm": 2306,
      "ĠMan": 2307,
      "orth": 2308,
      "${": 2309,
      "quals": 2310,
      "ese": 2311,
      "_size": 2312,
      "Ġiss": 2313,
      "otal": 2314,
      "-g": 2315,
      "ique": 2316,
      "rame": 2317,
      "Ġwidth": 2318,
      "erg": 2319,
      ")(": 2320,
      "ittle": 2321,
      "TR": 2322,
      "ĠThey": 2323,
      "ences": 2324,
      "rl": 2325,
      "ons": 2326,
      "Ġlabel": 2327,
      ".y": 2328,
      "-t": 2329,
      "update": 2330,
      "anel": 2331,
      "sc": 2332,
      ".to": 2333,
      "Ġproject": 2334,
      "Ã¼": 2335,
      "Ġelement": 2336,
      "Ġsuccess": 2337,
      ".sh": 2338,
      "ram": 2339,
      "ched": 2340,
      "())Ċ": 2341,
      "Ġ(Ċ": 2342,
      "Ġdate": 2343,
      "Ġtot": 2344,
      "All": 2345,
      "ification": 2346,
      "ĉvar": 2347,
      "Ġtri": 2348,
      "chem": 2349,
      "my": 2350,
      "Ġbig": 2351,
      "ĠAd": 2352,
      "ĠAt": 2353,
      "ots": 2354,
      "num": 2355,
      "Act": 2356,
      "Ġmap": 2357,
      "era": 2358,
      "cope": 2359,
      ",âĢĿ": 2360,
      "Ġpop": 2361,
      "Ġfew": 2362,
      "Ġlen": 2363,
      "uid": 2364,
      "eters": 2365,
      "ules": 2366,
      "ÃŃ": 2367,
      "source": 2368,
      "https": 2369,
      "Ġdem": 2370,
      "Ġear": 2371,
      "Ġmatch": 2372,
      "ories": 2373,
      "aces": 2374,
      "ĠCl": 2375,
      "Ġnode": 2376,
      "irc": 2377,
      "local": 2378,
      "unity": 2379,
      "};Ċ": 2380,
      "Ġanother": 2381,
      "ogle": 2382,
      "Ġsit": 2383,
      "ework": 2384,
      "TE": 2385,
      ".I": 2386,
      "NS": 2387,
      "ology": 2388,
      "ought": 2389,
      ">>": 2390,
      "Ġcare": 2391,
      "state": 2392,
      "Ġeffect": 2393,
      "_file": 2394,
      "ending": 2395,
      "Line": 2396,
      "For": 2397,
      "ior": 2398,
      "ĠSc": 2399,
      "Ġfun": 2400,
      "])": 2401,
      "start": 2402,
      "vious": 2403,
      "Ġ},": 2404,
      "ours": 2405,
      "Ġleg": 2406,
      "Ġservice": 2407,
      "Ġsince": 2408,
      "iron": 2409,
      "Label": 2410,
      "Ġnon": 2411,
      "Ġlos": 2412,
      "iction": 2413,
      "Ġfull": 2414,
      "acter": 2415,
      "board": 2416,
      "gress": 2417,
      "Ġturn": 2418,
      "ither": 2419,
      ".size": 2420,
      "Ġbody": 2421,
      "resh": 2422,
      "eturn": 2423,
      "(_": 2424,
      "yles": 2425,
      "ormal": 2426,
      "pi": 2427,
      "Ġsomething": 2428,
      "!--": 2429,
      "uint": 2430,
      "Ġprodu": 2431,
      "Ġstand": 2432,
      "Ġproble": 2433,
      "Ġavailable": 2434,
      "mt": 2435,
      "ĠBl": 2436,
      "Ġ...": 2437,
      "Ġblock": 2438,
      "Input": 2439,
      "Ġkeep": 2440,
      "Count": 2441,
      "open": 2442,
      "Ġ['": 2443,
      "Ġthrow": 2444,
      "uilder": 2445,
      "Action": 2446,
      "Ġthings": 2447,
      "True": 2448,
      "Ġurl": 2449,
      "ĠBo": 2450,
      "Ġred": 2451,
      "js": 2452,
      ".create": 2453,
      "ĠOr": 2454,
      "Status": 2455,
      "Instance": 2456,
      "Ġcontrol": 2457,
      "Ġcome": 2458,
      "Ġcustom": 2459,
      "location": 2460,
      "model": 2461,
      "ĠčĊ": 2462,
      "Ġsource": 2463,
      "Ġeas": 2464,
      "]ĊĊ": 2465,
      "oney": 2466,
      "Ġpartic": 2467,
      "AP": 2468,
      "ublish": 2469,
      "odes": 2470,
      "_pro": 2471,
      "ply": 2472,
      "riter": 2473,
      "Ġprov": 2474,
      "Ġmill": 2475,
      "HT": 2476,
      "])Ċ": 2477,
      "Ġchang": 2478,
      "Ġask": 2479,
      "ĠĠĠĠĠĠĠĠĠĠĠĠĠĠĠĠĠĠĠĠĠ": 2480,
      "Ġoutput": 2481,
      "Ġemail": 2482,
      ".push": 2483,
      "ination": 2484,
      "atrix": 2485,
      "Table": 2486,
      "uccess": 2487,
      "ĠĠĠĠĠĠĠĠĠĠĠĠĠĠĠĠĠĠĠĠĠĠĠĠĠĠĠĠĠĠĠĠĠĠĠĠĠĠĠ": 2488,
      "Ġdisc": 2489,
      "([": 2490,
      "Ġbusiness": 2491,
      "height": 2492,
      ".html": 2493,
      "ta": 2494,
      "field": 2495,
      "Ġrequired": 2496,
      "_R": 2497,
      "Ġgovern": 2498,
      "}čĊčĊ": 2499,
      "lex": 2500,
      ".,": 2501,
      "ĠSet": 2502,
      "urch": 2503,
      "///": 2504,
      "ts": 2505,
      "af": 2506,
      "Ġmight": 2507,
      "istory": 2508,
      "Str": 2509,
      "Ġnever": 2510,
      "Response": 2511,
      "ada": 2512,
      "ĠHow": 2513,
      "Ġ;": 2514,
      "Ġhard": 2515,
      "Ad": 2516,
      "Ġintern": 2517,
      "used": 2518,
      "(data": 2519,
      "mod": 2520,
      "annel": 2521,
      "Ġnp": 2522,
      "ugg": 2523,
      "Ġ/>Ċ": 2524,
      "Ġcalled": 2525,
      "body": 2526,
      "Ġcho": 2527,
      "(r": 2528,
      "_set": 2529,
      "ird": 2530,
      "Ġ>=": 2531,
      "Ġ};Ċ": 2532,
      "Ġoptions": 2533,
      "ĠGener": 2534,
      "Ġheight": 2535,
      "Point": 2536,
      "You": 2537,
      "ety": 2538,
      "Click": 2539,
      "Ġsmall": 2540,
      "Ġide": 2541,
      "Ġaccess": 2542,
      "anguage": 2543,
      "Ġprotected": 2544,
      "Ġjob": 2545,
      "ĠThere": 2546,
      "Def": 2547,
      "Ġaddress": 2548,
      "Ġuint": 2549,
      "Not": 2550,
      "oo": 2551,
      "aps": 2552,
      "<div": 2553,
      "ained": 2554,
      "atur": 2555,
      "Ġsum": 2556,
      "-w": 2557,
      "ĠDate": 2558,
      "Ġlittle": 2559,
      "Ġfri": 2560,
      "YPE": 2561,
      "Ġport": 2562,
      "eh": 2563,
      "pring": 2564,
      "_path": 2565,
      "Ġstatus": 2566,
      "aim": 2567,
      "Ġappe": 2568,
      "Ġos": 2569,
      ".name": 2570,
      "ension": 2571,
      "_G": 2572,
      "Ġupdate": 2573,
      "Config": 2574,
      "aff": 2575,
      "ERR": 2576,
      "Ġ<=": 2577,
      "ately": 2578,
      "uction": 2579,
      "ĠTe": 2580,
      "Ġlink": 2581,
      "ĠUser": 2582,
      ".org": 2583,
      "me": 2584,
      "Ġgiven": 2585,
      "Out": 2586,
      "#endif": 2587,
      "Ġbetter": 2588,
      "Page": 2589,
      "Ġfeel": 2590,
      "enn": 2591,
      "ML": 2592,
      "Ġalready": 2593,
      "Ġincluding": 2594,
      "oogle": 2595,
      "ru": 2596,
      "ically": 2597,
      "lean": 2598,
      "Ġalways": 2599,
      "ording": 2600,
      "If": 2601,
      "orage": 2602,
      "Ġparent": 2603,
      "vis": 2604,
      "ĉĉĉĉĉĉĉ": 2605,
      "Ġgot": 2606,
      "stand": 2607,
      "Ġless": 2608,
      "/s": 2609,
      "ĠAss": 2610,
      "apt": 2611,
      "ired": 2612,
      "ĠAdd": 2613,
      "Ġaccount": 2614,
      "ploy": 2615,
      "Ġder": 2616,
      "resent": 2617,
      "Ġlot": 2618,
      "Ġvalid": 2619,
      "Ġbit": 2620,
      "ponents": 2621,
      "Ġfollowing": 2622,
      "SON": 2623,
      "Ġsure": 2624,
      "ocial": 2625,
      "Ġprom": 2626,
      "erties": 2627,
      "header": 2628,
      ".pro": 2629,
      "Ġboolean": 2630,
      "Ġsearch": 2631,
      "ken": 2632,
      "Ġorig": 2633,
      "Ġer": 2634,
      "Ed": 2635,
      "EM": 2636,
      "aut": 2637,
      "ling": 2638,
      "ality": 2639,
      "bed": 2640,
      "ĉcase": 2641,
      "ether": 2642,
      "posit": 2643,
      "Ġinvest": 2644,
      "ĠOR": 2645,
      "Ġsays": 2646,
      "mission": 2647,
      "AME": 2648,
      "Ġtemp": 2649,
      "oad": 2650,
      "Ġrest": 2651,
      "info": 2652,
      "Ġinterest": 2653,
      "Arg": 2654,
      "Ġperform": 2655,
      "pons": 2656,
      "ĠView": 2657,
      "Ġver": 2658,
      "lib": 2659,
      "(const": 2660,
      "arge": 2661,
      "Ġmult": 2662,
      "Ġdie": 2663,
      "Ġsite": 2664,
      "../../": 2665,
      "EL": 2666,
      "Ġvalues": 2667,
      "pen": 2668,
      "No": 2669,
      "icro": 2670,
      "Ġbeh": 2671,
      "acy": 2672,
      "rec": 2673,
      "()->": 2674,
      "ĉĠĠĠ": 2675,
      "\"))": 2676,
      "Content": 2677,
      "_W": 2678,
      "plement": 2679,
      "Ġwon": 2680,
      "Ġvideo": 2681,
      "adi": 2682,
      "point": 2683,
      "Ġgl": 2684,
      "erved": 2685,
      "viron": 2686,
      "IF": 2687,
      "uted": 2688,
      "'m": 2689,
      "Ġcert": 2690,
      "Ġprof": 2691,
      "Ġcell": 2692,
      "ari": 2693,
      "Ġplayer": 2694,
      "ais": 2695,
      "Ġcost": 2696,
      "Ġhum": 2697,
      "(R": 2698,
      "Ġoffic": 2699,
      "ks": 2700,
      ".text": 2701,
      "atures": 2702,
      "Ġtotal": 2703,
      "Ġ*/ĊĊ": 2704,
      "ope": 2705,
      "Ġstat": 2706,
      "UM": 2707,
      "Ġload": 2708,
      "ights": 2709,
      "Ġclear": 2710,
      "uro": 2711,
      "Ġtechn": 2712,
      "upport": 2713,
      "IR": 2714,
      "Ġrow": 2715,
      "Ġseem": 2716,
      "Ġq": 2717,
      "Ġshort": 2718,
      "ĠNot": 2719,
      "ipp": 2720,
      "Group": 2721,
      "section": 2722,
      "max": 2723,
      "irl": 2724,
      "Ġoverride": 2725,
      "Ġcompany": 2726,
      "Ġdone": 2727,
      "Ġgre": 2728,
      "Ġbelie": 2729,
      "rist": 2730,
      "Ġhealth": 2731,
      "ANT": 2732,
      "()ĊĊ": 2733,
      "ĠBe": 2734,
      ".value": 2735,
      "ĠGr": 2736,
      "ottom": 2737,
      "Ġargs": 2738,
      "PT": 2739,
      "status": 2740,
      "func": 2741,
      "uments": 2742,
      "-h": 2743,
      "Number": 2744,
      "ĠLog": 2745,
      "erver": 2746,
      "ament": 2747,
      "inc": 2748,
      "Ġchildren": 2749,
      "icy": 2750,
      "IZ": 2751,
      "ands": 2752,
      "ably": 2753,
      "Ġdistrib": 2754,
      "Ġcur": 2755,
      "Ġdays": 2756,
      "reated": 2757,
      "rect": 2758,
      "-l": 2759,
      "irm": 2760,
      "idden": 2761,
      "omb": 2762,
      "Ġinitial": 2763,
      ".js": 2764,
      "Ġâ": 2765,
      "Query": 2766,
      "Ġonline": 2767,
      "imal": 2768,
      "au": 2769,
      "Url": 2770,
      "control": 2771,
      "irection": 2772,
      "Ġinstance": 2773,
      "ĠFr": 2774,
      "where": 2775,
      "Ġorgan": 2776,
      "apter": 2777,
      "Ġreason": 2778,
      "options": 2779,
      "ĠMar": 2780,
      "(a": 2781,
      "Ġwithin": 2782,
      ".âĢĿĊĊ": 2783,
      "admin": 2784,
      "ended": 2785,
      "Ġdesign": 2786,
      "ĠData": 2787,
      "une": 2788,
      "ĠFile": 2789,
      "root": 2790,
      "Ġcent": 2791,
      "Ġarr": 2792,
      "len": 2793,
      "page": 2794,
      ",'": 2795,
      "_str": 2796,
      "Ġbro": 2797,
      "ability": 2798,
      "outh": 2799,
      "/c": 2800,
      "pose": 2801,
      "irtual": 2802,
      "earch": 2803,
      "_url": 2804,
      "argin": 2805,
      "Http": 2806,
      "Ġschool": 2807,
      "ava": 2808,
      "Ġconsider": 2809,
      "ĠArray": 2810,
      "web": 2811,
      "opt": 2812,
      "ulation": 2813,
      "Ġfunc": 2814,
      "PL": 2815,
      "Ġ\"\\": 2816,
      "ĠText": 2817,
      "actory": 2818,
      "(function": 2819,
      "null": 2820,
      "Ġeng": 2821,
      "down": 2822,
      "Ġinclude": 2823,
      "ĠEn": 2824,
      "ĠDr": 2825,
      "Ġdb": 2826,
      "!!": 2827,
      "side": 2828,
      "Ġinit": 2829,
      "quired": 2830,
      "ĠShe": 2831,
      "Ġann": 2832,
      "Ġstop": 2833,
      "Ġlater": 2834,
      "ĠThat": 2835,
      "ention": 2836,
      "df": 2837,
      "UG": 2838,
      "Ġclient": 2839,
      "raft": 2840,
      "ffer": 2841,
      "elper": 2842,
      "Ġlove": 2843,
      "oud": 2844,
      "Ġjson": 2845,
      "Ġable": 2846,
      "Ġmen": 2847,
      "AX": 2848,
      "ĠCopyright": 2849,
      "Ã¶": 2850,
      "avig": 2851,
      "Client": 2852,
      "erc": 2853,
      "ilt": 2854,
      "pecial": 2855,
      "room": 2856,
      ".Name": 2857,
      "Ġgive": 2858,
      "amb": 2859,
      "ike": 2860,
      "Ġcondition": 2861,
      "ators": 2862,
      ":\"": 2863,
      "Ġcopy": 2864,
      "uture": 2865,
      "iversity": 2866,
      "ernal": 2867,
      "ĠCan": 2868,
      "ounc": 2869,
      "do": 2870,
      "Ġocc": 2871,
      "Ġappro": 2872,
      "thers": 2873,
      "ze": 2874,
      "Ġeither": 2875,
      "ĠFl": 2876,
      "Ġimportant": 2877,
      "Ġlead": 2878,
      "attr": 2879,
      "ART": 2880,
      "Ġda": 2881,
      "etch": 2882,
      "entity": 2883,
      "Ġfamily": 2884,
      "adding": 2885,
      "Ġoption": 2886,
      "Ġexist": 2887,
      "ica": 2888,
      "ĠObject": 2889,
      "'ve": 2890,
      "vers": 2891,
      "itional": 2892,
      "output": 2893,
      "ĠTrue": 2894,
      "ĠOF": 2895,
      "_time": 2896,
      "Ġoffer": 2897,
      "HER": 2898,
      "egin": 2899,
      "\"\"": 2900,
      "Ġwater": 2901,
      "Ġche": 2902,
      "ĠMy": 2903,
      "ored": 2904,
      "Ġstep": 2905,
      "ances": 2906,
      "CK": 2907,
      "AY": 2908,
      "struction": 2909,
      "(C": 2910,
      "ouch": 2911,
      "Stream": 2912,
      "active": 2913,
      "ama": 2914,
      "product": 2915,
      "Ġgovernment": 2916,
      "ĠID": 2917,
      "ajor": 2918,
      "And": 2919,
      "Ġdisplay": 2920,
      "Ġtimes": 2921,
      "Ġfour": 2922,
      "Ġfar": 2923,
      "Ġpresent": 2924,
      "ĠNS": 2925,
      "Ġ\\Ċ": 2926,
      "uest": 2927,
      "Ġbas": 2928,
      "echo": 2929,
      "child": 2930,
      "ifier": 2931,
      "Handler": 2932,
      "Ġlib": 2933,
      "Property": 2934,
      "translation": 2935,
      "Ġroom": 2936,
      "Ġonce": 2937,
      "Ġ[]": 2938,
      "center": 2939,
      "Ġresults": 2940,
      "Ġcontinue": 2941,
      "Ġtalk": 2942,
      "_get": 2943,
      "Ġgrow": 2944,
      "eb": 2945,
      "ĠPublic": 2946,
      "OP": 2947,
      "ecute": 2948,
      "ols": 2949,
      "Ġ**": 2950,
      "Ġmass": 2951,
      "ured": 2952,
      "omic": 2953,
      "Ġmean": 2954,
      "ips": 2955,
      "Ġaut": 2956,
      "Ġuntil": 2957,
      "Ġmarket": 2958,
      "Ġarea": 2959,
      "uit": 2960,
      "Ġlength": 2961,
      "ĠWith": 2962,
      "structor": 2963,
      "\"><": 2964,
      "ĠSp": 2965,
      "IV": 2966,
      "Ġmus": 2967,
      "iff": 2968,
      "Ġkind": 2969,
      "author": 2970,
      "ounds": 2971,
      "mb": 2972,
      "_key": 2973,
      "width": 2974,
      "Ġlight": 2975,
      "uk": 2976,
      "ohn": 2977,
      "alf": 2978,
      "vironment": 2979,
      "apper": 2980,
      "Ġside": 2981,
      "_info": 2982,
      "Ġexample": 2983,
      "imary": 2984,
      "Ġwr": 2985,
      "Ġcamp": 2986,
      "cribe": 2987,
      "\"/": 2988,
      "Ġmiss": 2989,
      "way": 2990,
      "Ġbased": 2991,
      "Ġplan": 2992,
      "omain": 2993,
      "unk": 2994,
      "Ġaway": 2995,
      "UP": 2996,
      "<T": 2997,
      "OS": 2998,
      "iod": 2999,
      "ĠMon": 3000,
      "âĢĻre": 3001,
      "Ġlik": 3002,
      "Ã§": 3003,
      "ively": 3004,
      ".v": 3005,
      "izer": 3006,
      "Sub": 3007,
      "Ġbutton": 3008,
      "ĠUp": 3009,
      "Ġexperience": 3010,
      "CL": 3011,
      "Ġrender": 3012,
      "_value": 3013,
      "Ġnear": 3014,
      "URL": 3015,
      "alt": 3016,
      "Ġcountry": 3017,
      "ibility": 3018,
      "(),Ċ": 3019,
      "ead": 3020,
      "Ġauthor": 3021,
      "Ġspecific": 3022,
      "base": 3023,
      "ones": 3024,
      "ĠDo": 3025,
      "Ġalong": 3026,
      "year": 3027,
      "Ġexpress": 3028,
      ".'": 3029,
      "env": 3030,
      "Ġbegin": 3031,
      "Ġsoftware": 3032,
      "Ġimp": 3033,
      "Ġwin": 3034,
      "Ã³n": 3035,
      "Ġthing": 3036,
      "Trans": 3037,
      "ĠTHE": 3038,
      "Ġwhy": 3039,
      "Ġdoesn": 3040,
      "ij": 3041,
      "ging": 3042,
      "Ġsingle": 3043,
      "offset": 3044,
      "arning": 3045,
      "ograph": 3046,
      "ley": 3047,
      "_count": 3048,
      "Ġanal": 3049,
      "create": 3050,
      "/m": 3051,
      "ĠReg": 3052,
      "unch": 3053,
      "=$": 3054,
      "isk": 3055,
      "Ġrights": 3056,
      "(M": 3057,
      "aper": 3058,
      "Ġpo": 3059,
      "artment": 3060,
      "Ġant": 3061,
      "ĠWhen": 3062,
      "Ġwomen": 3063,
      "ĠEd": 3064,
      "Ġseason": 3065,
      "Ġdest": 3066,
      "(h": 3067,
      "Ġpossible": 3068,
      "Ġsever": 3069,
      "Ġdidn": 3070,
      "Ġsent": 3071,
      "Ġenc": 3072,
      "Ġcommand": 3073,
      "_x": 3074,
      "Ġrecent": 3075,
      "olution": 3076,
      "ĠBy": 3077,
      "ĠMay": 3078,
      "ĠAct": 3079,
      "»¿": 3080,
      "Ġmoney": 3081,
      "INT": 3082,
      "bsite": 3083,
      "ĉp": 3084,
      ".čĊ": 3085,
      "sl": 3086,
      "attern": 3087,
      "ĠClass": 3088,
      "Ġtold": 3089,
      "udio": 3090,
      "current": 3091,
      "Ġequ": 3092,
      "Ġauto": 3093,
      "ĠState": 3094,
      "da": 3095,
      "Ġworking": 3096,
      "Ġquery": 3097,
      "ĠBr": 3098,
      "Ġwindow": 3099,
      "only": 3100,
      "ĉt": 3101,
      "Ġleast": 3102,
      "agn": 3103,
      "Ġexpl": 3104,
      "itter": 3105,
      "aring": 3106,
      "Ġcolumn": 3107,
      "ĠGeneral": 3108,
      "\":\"": 3109,
      "eral": 3110,
      "rior": 3111,
      "Ġrecord": 3112,
      "IB": 3113,
      "EX": 3114,
      "Ġdat": 3115,
      "Ġmaking": 3116,
      "ued": 3117,
      "ĠCar": 3118,
      "emp": 3119,
      "\".": 3120,
      "ĠMed": 3121,
      "Ġclose": 3122,
      "Ġpercent": 3123,
      "Ġpast": 3124,
      "(g": 3125,
      ":(": 3126,
      "Ġwrite": 3127,
      "Ġmove": 3128,
      "Ġpat": 3129,
      "Control": 3130,
      "Ġvi": 3131,
      "inate": 3132,
      "'ll": 3133,
      "aged": 3134,
      "Ġspecial": 3135,
      "Ġcity": 3136,
      "ĠEng": 3137,
      "ixed": 3138,
      "inary": 3139,
      "py": 3140,
      "Ġeff": 3141,
      "ario": 3142,
      "Ġtell": 3143,
      "avor": 3144,
      "Ġselect": 3145,
      "level": 3146,
      "imum": 3147,
      "oper": 3148,
      "Builder": 3149,
      "IP": 3150,
      "'),Ċ": 3151,
      "Ġfont": 3152,
      "ĠAm": 3153,
      "ished": 3154,
      "ills": 3155,
      "Inter": 3156,
      "OW": 3157,
      "Ġcourse": 3158,
      "Ġlate": 3159,
      "iddle": 3160,
      "Ġamount": 3161,
      "ino": 3162,
      "cul": 3163,
      "_user": 3164,
      "Ġben": 3165,
      "ĠCal": 3166,
      "ĠRep": 3167,
      "Ġenough": 3168,
      "Token": 3169,
      "(j": 3170,
      "Sc": 3171,
      "now": 3172,
      "atform": 3173,
      "Ġlooking": 3174,
      "Ġhold": 3175,
      "Module": 3176,
      "ITY": 3177,
      "vo": 3178,
      "ison": 3179,
      "yc": 3180,
      "Ġpot": 3181,
      "ĠTrump": 3182,
      "idual": 3183,
      "ides": 3184,
      "rt": 3185,
      "Ġproperty": 3186,
      "ĠĠĠĠĠĠĠĠĠĠĠĠĠĠĠĠĠĠĠĠĠĠĠĠĠĠĠĠĠĠĠĠĠĠĠĠĠĠĠĠĠĠĠ": 3187,
      "amework": 3188,
      "go": 3189,
      "Ġlow": 3190,
      "Ġpara": 3191,
      "Ġprice": 3192,
      "ury": 3193,
      "Ġtoday": 3194,
      "roy": 3195,
      "Ġ'/": 3196,
      "Ġpolit": 3197,
      "Ġ''": 3198,
      "ymb": 3199,
      "Ph": 3200,
      "Ġadv": 3201,
      "Ġattack": 3202,
      "ĠSte": 3203,
      "ROM": 3204,
      "ana": 3205,
      "Ġmeans": 3206,
      "Ġstory": 3207,
      "ids": 3208,
      "aken": 3209,
      "Ġmeet": 3210,
      "Ġmom": 3211,
      "ĠâĢĺ": 3212,
      "Ġden": 3213,
      "obile": 3214,
      "change": 3215,
      "ici": 3216,
      "na": 3217,
      "ĠForm": 3218,
      "Ġsort": 3219,
      "Select": 3220,
      "pare": 3221,
      "Ġthought": 3222,
      "Ġtask": 3223,
      "ocus": 3224,
      "ĠDE": 3225,
      "ĠMin": 3226,
      "Ġopt": 3227,
      "KE": 3228,
      "then": 3229,
      "Ġdet": 3230,
      "ĠTest": 3231,
      "ports": 3232,
      "Ġreview": 3233,
      "Ġswitch": 3234,
      "ERT": 3235,
      "Ġabove": 3236,
      "itive": 3237,
      "Ġquestion": 3238,
      "ĠQu": 3239,
      "ãĢĤĊĊ": 3240,
      "gle": 3241,
      "Ġword": 3242,
      "Ġprovide": 3243,
      "ĠReturn": 3244,
      "Ġresearch": 3245,
      "ustr": 3246,
      "Ġpublish": 3247,
      "chema": 3248,
      "}}": 3249,
      "ĠCON": 3250,
      "-in": 3251,
      "allback": 3252,
      "Ġcover": 3253,
      "\\\\": 3254,
      "color": 3255,
      "ĠIS": 3256,
      "Ġwhether": 3257,
      "imate": 3258,
      "isc": 3259,
      "Bar": 3260,
      "Ġdiv": 3261,
      "Be": 3262,
      "ourn": 3263,
      "Ġhaving": 3264,
      "lem": 3265,
      "abs": 3266,
      "amera": 3267,
      "ney": 3268,
      "Ġexc": 3269,
      "gether": 3270,
      "plied": 3271,
      "ao": 3272,
      "Ġ++": 3273,
      "ipe": 3274,
      "show": 3275,
      "/d": 3276,
      "agement": 3277,
      "lev": 3278,
      "_ID": 3279,
      "rary": 3280,
      "ades": 3281,
      "ause": 3282,
      "Ġemploy": 3283,
      "Ġfre": 3284,
      "Ġcomplet": 3285,
      "Ġlarge": 3286,
      "ral": 3287,
      "\\x": 3288,
      "Ġfac": 3289,
      "Ġcreated": 3290,
      "uper": 3291,
      "Ġhost": 3292,
      "/b": 3293,
      "(!": 3294,
      "while": 3295,
      "ias": 3296,
      "Ġrole": 3297,
      "Reg": 3298,
      "ĠColor": 3299,
      "Start": 3300,
      "top": 3301,
      "Ġweb": 3302,
      "Ġdev": 3303,
      "Ġdeal": 3304,
      "position": 3305,
      "Ġ(\"": 3306,
      "ä¸": 3307,
      "Ġproblem": 3308,
      "sv": 3309,
      "Ġpress": 3310,
      "ABLE": 3311,
      "ATION": 3312,
      "ĠSee": 3313,
      "anch": 3314,
      "Ġthough": 3315,
      "leep": 3316,
      "Ġ<!--": 3317,
      "Ġpoints": 3318,
      "ĠĠĠĠĠĠĠĠĠĠĠĠĠĠĠĠĠĠĠĠĠĠĠĠĠ": 3319,
      ".J": 3320,
      "Ġ::": 3321,
      "ptr": 3322,
      "DB": 3323,
      ".png": 3324,
      "node": 3325,
      "soft": 3326,
      "pond": 3327,
      "Ġever": 3328,
      "----------------------------------------------------------------": 3329,
      "Ġservices": 3330,
      "pg": 3331,
      "})Ċ": 3332,
      "Ġactually": 3333,
      "Ġ\"/": 3334,
      "Empty": 3335,
      "Method": 3336,
      "Ġident": 3337,
      "unic": 3338,
      "Ġmillion": 3339,
      "Ġaff": 3340,
      "style": 3341,
      "Ġconc": 3342,
      "ios": 3343,
      "ignment": 3344,
      "ULT": 3345,
      "Pr": 3346,
      "Ġunderstand": 3347,
      "uary": 3348,
      "Ġhappen": 3349,
      "Ġserver": 3350,
      "ĠCo": 3351,
      "SC": 3352,
      "Ġles": 3353,
      "Ġfiles": 3354,
      "Ġoften": 3355,
      "Ġinfo": 3356,
      "src": 3357,
      "ony": 3358,
      "Ġspace": 3359,
      "umb": 3360,
      "Ġpassword": 3361,
      "Ġstore": 3362,
      ",ĊĊ": 3363,
      "ĠWhat": 3364,
      "ged": 3365,
      "ĠFalse": 3366,
      "Us": 3367,
      "swer": 3368,
      "_index": 3369,
      "Ġformat": 3370,
      "most": 3371,
      "sm": 3372,
      "New": 3373,
      "Ġdetails": 3374,
      "Ġprob": 3375,
      "ĠAND": 3376,
      "ilar": 3377,
      "Ġ${": 3378,
      "ĠFree": 3379,
      "_of": 3380,
      "dated": 3381,
      "Ġ>>": 3382,
      "Ġface": 3383,
      "CTION": 3384,
      "Ġsave": 3385,
      "Ġtyp": 3386,
      "dev": 3387,
      "AGE": 3388,
      "container": 3389,
      "edit": 3390,
      "QL": 3391,
      "Ġitems": 3392,
      "Ġsocial": 3393,
      "ien": 3394,
      ").ĊĊ": 3395,
      "Ġmar": 3396,
      "Ġredu": 3397,
      "ĠRE": 3398,
      "Ġmajor": 3399,
      "Cell": 3400,
      "next": 3401,
      "Ġexpected": 3402,
      "Ġyet": 3403,
      "Ġindiv": 3404,
      "tributes": 3405,
      "atis": 3406,
      "amed": 3407,
      "Ġfood": 3408,
      "Source": 3409,
      "ites": 3410,
      "dr": 3411,
      "Ġmembers": 3412,
      "Ġcomb": 3413,
      "items": 3414,
      "ĠPer": 3415,
      "TH": 3416,
      "Ġbar": 3417,
      "comm": 3418,
      ")ĊĊĊ": 3419,
      "Ġsend": 3420,
      "Ġinc": 3421,
      "FA": 3422,
      "Ġparams": 3423,
      "apping": 3424,
      "ros": 3425,
      "fa": 3426,
      "Ġconnection": 3427,
      "Ġ};ĊĊ": 3428,
      "Ġbecome": 3429,
      "Mode": 3430,
      "Ġev": 3431,
      "Ġdiff": 3432,
      "ĠUnited": 3433,
      "fully": 3434,
      "images": 3435,
      "Ġmakes": 3436,
      "Ġglobal": 3437,
      "Ġcontact": 3438,
      "Ġabs": 3439,
      "float": 3440,
      "Ġexcept": 3441,
      "ĠPol": 3442,
      "Child": 3443,
      "typ": 3444,
      "Ġcertain": 3445,
      "iÃ³n": 3446,
      "OUT": 3447,
      "Ġimpro": 3448,
      "iles": 3449,
      "Ġ-->Ċ": 3450,
      "ĠPart": 3451,
      "oss": 3452,
      "ilit": 3453,
      "ĠEvent": 3454,
      "curity": 3455,
      "ster": 3456,
      "Ġcharacter": 3457,
      "Ġnews": 3458,
      "Ġ\",": 3459,
      "Ġdevice": 3460,
      "Default": 3461,
      "ĉĠ": 3462,
      "(value": 3463,
      "ĠAb": 3464,
      "Ġprevious": 3465,
      "ERROR": 3466,
      "ocal": 3467,
      "Ġmaterial": 3468,
      "Ġbelow": 3469,
      "ĠChrist": 3470,
      "Ġmedia": 3471,
      "cover": 3472,
      "Ġfail": 3473,
      "Ġblack": 3474,
      "Ġcomponent": 3475,
      "ĠAmerican": 3476,
      "Ġadded": 3477,
      "Ġbuy": 3478,
      "stit": 3479,
      "Ġcame": 3480,
      "Ġdelete": 3481,
      "oding": 3482,
      "Ġcard": 3483,
      "rops": 3484,
      "Ġhttps": 3485,
      "Ġroot": 3486,
      "Ġhandle": 3487,
      "CC": 3488,
      "Back": 3489,
      "emplate": 3490,
      "Ġgetting": 3491,
      "_by": 3492,
      "mail": 3493,
      "ĠDec": 3494,
      "Ġcomput": 3495,
      "Ġclaim": 3496,
      "ĠSub": 3497,
      "Ġair": 3498,
      "ops": 3499,
      "nav": 3500,
      "ements": 3501,
      "(id": 3502,
      "Ġenter": 3503,
      "anged": 3504,
      "End": 3505,
      "Ġlocation": 3506,
      "Ġnight": 3507,
      "Ġdoing": 3508,
      "ĠRed": 3509,
      "lin": 3510,
      "}ĊĊĊ": 3511,
      "vider": 3512,
      "Ġpick": 3513,
      "Ġwatch": 3514,
      "essages": 3515,
      "Ġhuman": 3516,
      "Ġdam": 3517,
      "pend": 3518,
      "dir": 3519,
      "Ġtax": 3520,
      "Ġgirl": 3521,
      "reet": 3522,
      "Ġbox": 3523,
      "Ġstrong": 3524,
      "(v": 3525,
      "rel": 3526,
      "Ġinterface": 3527,
      "fect": 3528,
      "Ġhouse": 3529,
      "Ġtrack": 3530,
      "je": 3531,
      "ĠJohn": 3532,
      "istr": 3533,
      "(S": 3534,
      "ube": 3535,
      "Ġce": 3536,
      "itted": 3537,
      "VER": 3538,
      "*)": 3539,
      "parent": 3540,
      "Ġapplication": 3541,
      "any": 3542,
      "Ġpack": 3543,
      "Ġpract": 3544,
      "Ġsection": 3545,
      "Ġunsigned": 3546,
      "ĠOne": 3547,
      "Ä±": 3548,
      "iple": 3549,
      "aid": 3550,
      "Vector": 3551,
      "byte": 3552,
      "Ġwait": 3553,
      "ĠÃł": 3554,
      "Ã¥": 3555,
      "Ġtogether": 3556,
      "Ġthrows": 3557,
      "FO": 3558,
      "host": 3559,
      "ising": 3560,
      "Ġterms": 3561,
      "-r": 3562,
      "Ġapply": 3563,
      "Ġsession": 3564,
      "Options": 3565,
      "uggest": 3566,
      "Ġothers": 3567,
      "witter": 3568,
      "Ġfund": 3569,
      "ensor": 3570,
      "GET": 3571,
      "Ġseveral": 3572,
      "ii": 3573,
      "IO": 3574,
      "Ġtemplate": 3575,
      "Position": 3576,
      "Ġecon": 3577,
      "achine": 3578,
      "Ġil": 3579,
      "main": 3580,
      "elt": 3581,
      "iment": 3582,
      "Rec": 3583,
      "mm": 3584,
      "ĠUniversity": 3585,
      "ursor": 3586,
      "ĠĠĠĠĠĠĠĠĠĠĠĠĠĠĠĠĠĠĠĠ": 3587,
      "GL": 3588,
      "icture": 3589,
      "ithub": 3590,
      "cer": 3591,
      "cast": 3592,
      "From": 3593,
      "ales": 3594,
      "Ġsubject": 3595,
      "ny": 3596,
      "Ġesc": 3597,
      "ï¼Į": 3598,
      "What": 3599,
      ".H": 3600,
      "Ġhistory": 3601,
      "ĠFe": 3602,
      "Ġindividual": 3603,
      "Ġ-->": 3604,
      "Ġdu": 3605,
      "IST": 3606,
      "Ġusers": 3607,
      "fs": 3608,
      "false": 3609,
      "unt": 3610,
      "Title": 3611,
      "Ġmot": 3612,
      "Ġfuture": 3613,
      "ached": 3614,
      "Ġstarted": 3615,
      "Ġmode": 3616,
      "Ġ'<": 3617,
      "Ġax": 3618,
      "ires": 3619,
      "There": 3620,
      "ught": 3621,
      "posed": 3622,
      "icult": 3623,
      "Ġtook": 3624,
      "Ġgames": 3625,
      "Ġproducts": 3626,
      "Is": 3627,
      "Ġbad": 3628,
      "ĠDes": 3629,
      "'ĊĊ": 3630,
      "ĠPost": 3631,
      "avel": 3632,
      "(:": 3633,
      "Ġneeds": 3634,
      "Ġknown": 3635,
      "Fl": 3636,
      "Ġexec": 3637,
      "Ġseen": 3638,
      "ume": 3639,
      "Ġborder": 3640,
      "Ġlive": 3641,
      "temp": 3642,
      "Per": 3643,
      "Ġvariable": 3644,
      "iet": 3645,
      "ĠDef": 3646,
      "Ġge": 3647,
      "eme": 3648,
      "first": 3649,
      "Ġprovided": 3650,
      "Ġhope": 3651,
      "uly": 3652,
      "auto": 3653,
      "find": 3654,
      "_string": 3655,
      "btn": 3656,
      "itude": 3657,
      "Attribute": 3658,
      "Ġyoung": 3659,
      ".txt": 3660,
      "Ġwebsite": 3661,
      "ĠProp": 3662,
      "Ġey": 3663,
      "ional": 3664,
      "ictionary": 3665,
      "urther": 3666,
      ".</": 3667,
      "ALL": 3668,
      "Ġstudy": 3669,
      "ili": 3670,
      "Ġnetwork": 3671,
      "yl": 3672,
      "istance": 3673,
      "OK": 3674,
      "rest": 3675,
      "ĠST": 3676,
      "icrosoft": 3677,
      "Ġlimit": 3678,
      "Ġcut": 3679,
      "Ġcou": 3680,
      "ogn": 3681,
      "ival": 3682,
      "Ġwent": 3683,
      "Link": 3684,
      "Ġfire": 3685,
      "Ġacross": 3686,
      "Ġcommunity": 3687,
      "NE": 3688,
      "Ref": 3689,
      "Ġofficial": 3690,
      "Ġvisit": 3691,
      "olve": 3692,
      "Ġreceived": 3693,
      "Ġtoken": 3694,
      "Ġmonths": 3695,
      "Ġanim": 3696,
      "Ġparticular": 3697,
      "ico": 3698,
      "Ġess": 3699,
      "ball": 3700,
      "Ġlearn": 3701,
      "inding": 3702,
      "Var": 3703,
      "Ġdecl": 3704,
      "One": 3705,
      "pha": 3706,
      "Ġ~": 3707,
      "fort": 3708,
      "asure": 3709,
      "Ġmind": 3710,
      "ĠEnd": 3711,
      "Check": 3712,
      "Ġquick": 3713,
      "\"),": 3714,
      "AND": 3715,
      "utions": 3716,
      "Base": 3717,
      "________": 3718,
      "Ġcomment": 3719,
      "INE": 3720,
      "âĢĻve": 3721,
      "But": 3722,
      "ĠEl": 3723,
      "ĠUs": 3724,
      "Ġadmin": 3725,
      "mark": 3726,
      "ĠName": 3727,
      "`Ċ": 3728,
      "ĠType": 3729,
      "amic": 3730,
      "pc": 3731,
      "loor": 3732,
      "FT": 3733,
      "Ġopp": 3734,
      "cket": 3735,
      "Ġpur": 3736,
      "uel": 3737,
      "ymbol": 3738,
      "uation": 3739,
      "anger": 3740,
      "Ġbackground": 3741,
      "ecess": 3742,
      "........": 3743,
      "Ġdescription": 3744,
      "Ġrepresent": 3745,
      "pression": 3746,
      "rowser": 3747,
      "Ġseries": 3748,
      "wards": 3749,
      "aise": 3750,
      "Ġhot": 3751,
      "acity": 3752,
      "ries": 3753,
      "actions": 3754,
      "Create": 3755,
      "adio": 3756,
      "amples": 3757,
      "Ġoriginal": 3758,
      "ensive": 3759,
      "font": 3760,
      "stream": 3761,
      "Ġbill": 3762,
      "ACK": 3763,
      "Ġframe": 3764,
      "Ġ=Ċ": 3765,
      "Edit": 3766,
      "adius": 3767,
      "Ġdraw": 3768,
      "anks": 3769,
      "Ġdeter": 3770,
      "Ġcomes": 3771,
      "_int": 3772,
      "angle": 3773,
      "Ġelect": 3774,
      "pected": 3775,
      "Header": 3776,
      "istration": 3777,
      "ĠGame": 3778,
      "Ġfilter": 3779,
      "Activity": 3780,
      "Ġlarg": 3781,
      "inition": 3782,
      "Ġ\"<": 3783,
      "ised": 3784,
      "Ġremove": 3785,
      "ĠTrans": 3786,
      "met": 3787,
      "see": 3788,
      "Format": 3789,
      "Command": 3790,
      "ĠEX": 3791,
      "None": 3792,
      "Ġfront": 3793,
      "ĠRec": 3794,
      "oundation": 3795,
      "Ġvo": 3796,
      "=\\\"": 3797,
      "(*": 3798,
      "Change": 3799,
      "group": 3800,
      "ients": 3801,
      "uy": 3802,
      "Ġdig": 3803,
      "hr": 3804,
      "(-": 3805,
      "Ġgen": 3806,
      "number": 3807,
      "vec": 3808,
      "urope": 3809,
      "entry": 3810,
      "LL": 3811,
      "Ġste": 3812,
      "Ġselected": 3813,
      "Ġaccording": 3814,
      "ĠDis": 3815,
      "Ġutil": 3816,
      "Buffer": 3817,
      "Ġassoci": 3818,
      "Ġwor": 3819,
      "rag": 3820,
      "Âł": 3821,
      "DD": 3822,
      "ĠVal": 3823,
      "Ġactiv": 3824,
      "Eng": 3825,
      "etime": 3826,
      "Ġvirtual": 3827,
      "aign": 3828,
      "aur": 3829,
      "ĠPres": 3830,
      "Ġanything": 3831,
      "ĠOff": 3832,
      "Ġhours": 3833,
      "Ġwar": 3834,
      "aging": 3835,
      "Ġmodels": 3836,
      "ĠTime": 3837,
      "Ob": 3838,
      "ams": 3839,
      "joy": 3840,
      "Ġearly": 3841,
      "Ġcenter": 3842,
      "ĠInitial": 3843,
      "Ġlanguage": 3844,
      "length": 3845,
      "xy": 3846,
      "Ġsn": 3847,
      "Ġinf": 3848,
      "Post": 3849,
      "Ġago": 3850,
      "Ġeasy": 3851,
      "_code": 3852,
      "ĠANY": 3853,
      "Ġdownload": 3854,
      "(T": 3855,
      "aved": 3856,
      "âĢĵ": 3857,
      "Ġstudents": 3858,
      "Ġfig": 3859,
      "light": 3860,
      "xx": 3861,
      "Ġbuffer": 3862,
      "ĠDep": 3863,
      "ĠMath": 3864,
      "ITH": 3865,
      "Ġvari": 3866,
      "Ġdue": 3867,
      "Factory": 3868,
      "Ġpor": 3869,
      "Ġep": 3870,
      "otype": 3871,
      "Ġcannot": 3872,
      "Ġwhite": 3873,
      "tern": 3874,
      "Ġregister": 3875,
      "Ġpred": 3876,
      "clus": 3877,
      "_date": 3878,
      "Ġauth": 3879,
      "Ġperiod": 3880,
      "nown": 3881,
      "Ġvot": 3882,
      "Ġscreen": 3883,
      "'d": 3884,
      "Types": 3885,
      "Ġtmp": 3886,
      "ural": 3887,
      "Ġbenef": 3888,
      "_y": 3889,
      "Ġnet": 3890,
      "ĠStates": 3891,
      "ĠNe": 3892,
      "ĠNOT": 3893,
      "Ġneg": 3894,
      "Ġcommon": 3895,
      "Ġcred": 3896,
      "ges": 3897,
      "Ġsuggest": 3898,
      "oom": 3899,
      ".ĊĊĊ": 3900,
      "Ġaccept": 3901,
      "Ġrandom": 3902,
      "erm": 3903,
      "with": 3904,
      "Ġrespons": 3905,
      "Ġhit": 3906,
      ".Set": 3907,
      "grid": 3908,
      "ria": 3909,
      "Ġclick": 3910,
      "Case": 3911,
      "insert": 3912,
      "Ġimplement": 3913,
      "atal": 3914,
      "tempt": 3915,
      "template": 3916,
      "ocr": 3917,
      "returns": 3918,
      "Ġplayers": 3919,
      "ĠThese": 3920,
      "Ġamong": 3921,
      "Ġdeb": 3922,
      "ha": 3923,
      "Ġcirc": 3924,
      "Ġanswer": 3925,
      "Ġwalk": 3926,
      "Ġtreat": 3927,
      "ĠGe": 3928,
      "ĠCreate": 3929,
      "Ġage": 3930,
      "Ġreq": 3931,
      "Ġfive": 3932,
      "Ġdistributed": 3933,
      "Ġfriend": 3934,
      "TP": 3935,
      "Ġclean": 3936,
      "ows": 3937,
      "dis": 3938,
      "Ġwords": 3939,
      ".io": 3940,
      "zy": 3941,
      "Ġheader": 3942,
      "ĠCheck": 3943,
      "âĢĻm": 3944,
      "just": 3945,
      "holder": 3946,
      "ĠCol": 3947,
      "entic": 3948,
      "Ġtre": 3949,
      "last": 3950,
      "la": 3951,
      "ĠYork": 3952,
      "Lo": 3953,
      "Ġdiscuss": 3954,
      "ĠGod": 3955,
      "Ġissue": 3956,
      "rew": 3957,
      "Ġland": 3958,
      "Ġstream": 3959,
      "ĠPar": 3960,
      "Ġquality": 3961,
      "Par": 3962,
      "Ġsal": 3963,
      "elves": 3964,
      "Ġworks": 3965,
      "Ġhalf": 3966,
      "enses": 3967,
      "vas": 3968,
      "Ġpolice": 3969,
      "ua": 3970,
      "Ġsimple": 3971,
      "Address": 3972,
      "Ġempty": 3973,
      "esh": 3974,
      "Update": 3975,
      "ĠCreated": 3976,
      ").Ċ": 3977,
      "ĠĠĠĠĠĠĠĠĠĠĠĠĠĠĠĠĠĠ": 3978,
      "Ġagre": 3979,
      "ĠFROM": 3980,
      "Ġcook": 3981,
      "Ġeverything": 3982,
      "ilities": 3983,
      "Ġrelations": 3984,
      "extern": 3985,
      "Ġnothing": 3986,
      "Ġrunning": 3987,
      "RI": 3988,
      "_a": 3989,
      "por": 3990,
      "ĠCity": 3991,
      "ĠWest": 3992,
      "Ġmor": 3993,
      "store": 3994,
      "Ġna": 3995,
      "Ġ[[": 3996,
      "Ġ('": 3997,
      "ĠDon": 3998,
      "ERS": 3999,
      "/p": 4000,
      ".json": 4001,
      "abor": 4002,
      "Ġsomeone": 4003,
      ".css": 4004,
      "ĠSome": 4005,
      "ato": 4006,
      "Ġshare": 4007,
      "_dir": 4008,
      "Ġur": 4009,
      "ĠWorld": 4010,
      "stract": 4011,
      "How": 4012,
      "icles": 4013,
      "Ġentry": 4014,
      "Ġchanges": 4015,
      "Ġpersonal": 4016,
      "(A": 4017,
      "Ġoffset": 4018,
      "_ptr": 4019,
      "Ġpie": 4020,
      "ĠJan": 4021,
      "-group": 4022,
      "module": 4023,
      "ĠHowever": 4024,
      "verage": 4025,
      "Ġevents": 4026,
      "Ġinvol": 4027,
      "za": 4028,
      "Ġwhole": 4029,
      "Ġneeded": 4030,
      "Ġlikely": 4031,
      "rief": 4032,
      "version": 4033,
      "Ġfight": 4034,
      "gen": 4035,
      "ĠOut": 4036,
      "avigation": 4037,
      "Length": 4038,
      "illed": 4039,
      "quence": 4040,
      "ĠSoftware": 4041,
      "Ġwriting": 4042,
      "Ġrate": 4043,
      "inner": 4044,
      "Ġ[\"": 4045,
      "Ġtw": 4046,
      "cd": 4047,
      "_state": 4048,
      "ĠSm": 4049,
      "ĠMark": 4050,
      "))ĊĊ": 4051,
      "ĠMr": 4052,
      "method": 4053,
      "Ġcorrect": 4054,
      "ĠMore": 4055,
      "Ġfall": 4056,
      "Ġvol": 4057,
      "Ġdevelopment": 4058,
      "ently": 4059,
      "Ġsi": 4060,
      "medi": 4061,
      "ving": 4062,
      "PP": 4063,
      "aker": 4064,
      "Ġindu": 4065,
      "Ġpret": 4066,
      "Ġbelieve": 4067,
      "ns": 4068,
      "omet": 4069,
      "ĠIntern": 4070,
      "So": 4071,
      "Read": 4072,
      "Ġfeatures": 4073,
      "Ġminutes": 4074,
      "---": 4075,
      "asing": 4076,
      "cret": 4077,
      "Ġcollection": 4078,
      "'.": 4079,
      "Ġsimilar": 4080,
      "Ġtaken": 4081,
      "Order": 4082,
      "-md": 4083,
      "ĠTH": 4084,
      "aced": 4085,
      "Ġisn": 4086,
      "/j": 4087,
      "Ġson": 4088,
      "graph": 4089,
      "ĠInteger": 4090,
      "Ġnecess": 4091,
      "reen": 4092,
      "Ġum": 4093,
      "Ġmoment": 4094,
      "Ġbring": 4095,
      "Ġindic": 4096,
      "ysis": 4097,
      "Level": 4098,
      "verse": 4099,
      "urrenc": 4100,
      "_test": 4101,
      "Ġentire": 4102,
      "Down": 4103,
      "ĠRead": 4104,
      "Ã¨": 4105,
      "Ġtrying": 4106,
      "Ġmember": 4107,
      "ĠCor": 4108,
      "-control": 4109,
      "ĠSim": 4110,
      "Ġphys": 4111,
      "}/": 4112,
      "acc": 4113,
      "ARE": 4114,
      "Ġfoot": 4115,
      "Ġboard": 4116,
      "part": 4117,
      "Ġsus": 4118,
      "wise": 4119,
      "ĠMc": 4120,
      "Ġpush": 4121,
      "Ġplease": 4122,
      "ried": 4123,
      "weet": 4124,
      "bit": 4125,
      "ided": 4126,
      "VE": 4127,
      "ĠSw": 4128,
      "UB": 4129,
      "Ġtypes": 4130,
      "edia": 4131,
      "Ġclos": 4132,
      "acebook": 4133,
      "When": 4134,
      "Ġedit": 4135,
      "igger": 4136,
      "Ġenerg": 4137,
      "Ġphot": 4138,
      "ĠCount": 4139,
      "ĠEurope": 4140,
      "ĠRuss": 4141,
      "peed": 4142,
      "ĠStr": 4143,
      "Ġpy": 4144,
      "Ġcult": 4145,
      "Ġdefined": 4146,
      "ccount": 4147,
      "Ġobt": 4148,
      "Ġthread": 4149,
      "ille": 4150,
      "Ġinstead": 4151,
      "strong": 4152,
      "ĠSec": 4153,
      "URE": 4154,
      "Ġidea": 4155,
      "emy": 4156,
      "acing": 4157,
      "Ġcoll": 4158,
      "Ġfilm": 4159,
      "istic": 4160,
      "Ġcompet": 4161,
      "Ġconn": 4162,
      "though": 4163,
      "Ġcompan": 4164,
      "ocket": 4165,
      "Ġteach": 4166,
      "=(": 4167,
      "Ġphone": 4168,
      "Ġactive": 4169,
      "tries": 4170,
      "Ġmo": 4171,
      "Ġdeath": 4172,
      "ocol": 4173,
      "Ġarticle": 4174,
      "rodu": 4175,
      "andid": 4176,
      "ĠCr": 4177,
      "ka": 4178,
      "lood": 4179,
      "Ġalmost": 4180,
      "Ġsell": 4181,
      "rip": 4182,
      "Unit": 4183,
      "Ġapplic": 4184,
      "Ġconnect": 4185,
      "Ġfeature": 4186,
      "Ġvia": 4187,
      "Ġlim": 4188,
      "ĠĠĠĠĠĠĠĠĠĠĠĠĠĠĠĠĠĠĠĠĠĠĠĠĠĠĠĠĠĠĠĠĠĠĠĠĠĠĠĠĠĠĠĠĠĠĠ": 4189,
      "ĠGu": 4190,
      "Ġens": 4191,
      "Ġenvironment": 4192,
      "block": 4193,
      "NULL": 4194,
      "gy": 4195,
      "tag": 4196,
      "exp": 4197,
      "Ġcompl": 4198,
      "Ġinstall": 4199,
      "Ġcomplete": 4200,
      "atural": 4201,
      "Ġgeneral": 4202,
      "thon": 4203,
      "Ġasked": 4204,
      "ores": 4205,
      "Ġreserved": 4206,
      "SP": 4207,
      "ĠâĢ¦": 4208,
      "Ġsignific": 4209,
      "ĠĠĠĠĠĠĠĠĠĠĠĠĠĠĠĠĠĠĠĠĠĠĠĠĠĠĠĠĠ": 4210,
      "ĠAg": 4211,
      "ĠJust": 4212,
      "ĠError": 4213,
      "Ġinfl": 4214,
      "Ġicon": 4215,
      "''": 4216,
      "Ġ(*": 4217,
      "rap": 4218,
      "ĠFOR": 4219,
      "Ġparty": 4220,
      "ĠYour": 4221,
      "cat": 4222,
      "stry": 4223,
      ".new": 4224,
      "ĠNov": 4225,
      "Ġvector": 4226,
      "Ġnormal": 4227,
      "Ġfurther": 4228,
      "Ġdatabase": 4229,
      "attle": 4230,
      "Ġmusic": 4231,
      "Ġspeed": 4232,
      "Ġdoc": 4233,
      "Ġtaking": 4234,
      "Ġviol": 4235,
      "ceed": 4236,
      "ĠAfter": 4237,
      "Ġforward": 4238,
      "Ġcrit": 4239,
      "\"/>Ċ": 4240,
      "rot": 4241,
      "Ġfailed": 4242,
      "efore": 4243,
      "Ġconcern": 4244,
      "oe": 4245,
      "ba": 4246,
      "Ġterm": 4247,
      "has": 4248,
      "=\"#": 4249,
      "Ġpotential": 4250,
      "Num": 4251,
      "Ġpublished": 4252,
      "ĠImage": 4253,
      "straint": 4254,
      "UD": 4255,
      "ĠOb": 4256,
      "Ġprobably": 4257,
      "lim": 4258,
      "olume": 4259,
      "Ġconsum": 4260,
      "ague": 4261,
      "ensions": 4262,
      "Ġinvestig": 4263,
      "-year": 4264,
      "-sm": 4265,
      "Ġenjoy": 4266,
      "orig": 4267,
      "ering": 4268,
      "cp": 4269,
      "leased": 4270,
      "plements": 4271,
      "Ġreturns": 4272,
      "BO": 4273,
      "ĠHouse": 4274,
      "Ġweight": 4275,
      "ighb": 4276,
      "Ġconditions": 4277,
      "Ġexception": 4278,
      "description": 4279,
      "Ġtrad": 4280,
      "-to": 4281,
      "Ġ{}": 4282,
      "Ġmodule": 4283,
      "END": 4284,
      ".ap": 4285,
      "aves": 4286,
      "Ġfavor": 4287,
      "ĠNow": 4288,
      "ĠMain": 4289,
      "_k": 4290,
      "eries": 4291,
      "âĢĻll": 4292,
      "transform": 4293,
      "Pre": 4294,
      "Ġmer": 4295,
      "stant": 4296,
      "Location": 4297,
      "_NAME": 4298,
      "Ġloss": 4299,
      "ĠĊĊ": 4300,
      "net": 4301,
      "Ġengine": 4302,
      "Block": 4303,
      "Ġissues": 4304,
      "Ġparse": 4305,
      "ĠBar": 4306,
      "Ġstay": 4307,
      "ĠJSON": 4308,
      "Ġdom": 4309,
      "airs": 4310,
      "wner": 4311,
      "Ġlower": 4312,
      "ĠDem": 4313,
      "ufact": 4314,
      "Ġps": 4315,
      "Ġperfect": 4316,
      "RL": 4317,
      "Ġeduc": 4318,
      "ls": 4319,
      "emory": 4320,
      "uge": 4321,
      "Ġexact": 4322,
      "alled": 4323,
      "ech": 4324,
      "ief": 4325,
      "oke": 4326,
      "Ġformer": 4327,
      "Ġsix": 4328,
      "ida": 4329,
      "Ġmargin": 4330,
      "Ġheart": 4331,
      "ald": 4332,
      "Ġrather": 4333,
      "Ġbuilding": 4334,
      "erman": 4335,
      "lice": 4336,
      "Ġquestions": 4337,
      "izes": 4338,
      "lege": 4339,
      "Ġsecurity": 4340,
      "Ġhowever": 4341,
      "weight": 4342,
      "Ġinside": 4343,
      "Ġpresident": 4344,
      "Char": 4345,
      "ĠWITH": 4346,
      "Ġgraph": 4347,
      "Ġtag": 4348,
      "Ġattempt": 4349,
      "opp": 4350,
      "uses": 4351,
      "Ġround": 4352,
      ",$": 4353,
      "Ġfriends": 4354,
      "Email": 4355,
      "Resource": 4356,
      "osp": 4357,
      "ĠNorth": 4358,
      "ables": 4359,
      "istrib": 4360,
      "_class": 4361,
      "ello": 4362,
      "That": 4363,
      "pecially": 4364,
      "ĠPresident": 4365,
      "Ġcampaign": 4366,
      "Ġalt": 4367,
      "Ġchall": 4368,
      "Ġopport": 4369,
      "Ġenergy": 4370,
      "like": 4371,
      "ington": 4372,
      ")*": 4373,
      "Ġprofession": 4374,
      "irth": 4375,
      "Ġseg": 4376,
      "æľ": 4377,
      "Ġhor": 4378,
      "iers": 4379,
      "can": 4380,
      "Ġbehind": 4381,
      "Product": 4382,
      "ĠSk": 4383,
      ".jpg": 4384,
      "?:": 4385,
      "long": 4386,
      "MS": 4387,
      "ATH": 4388,
      "Ġraise": 4389,
      "Ġwanted": 4390,
      "rown": 4391,
      "lt": 4392,
      "]=": 4393,
      "eline": 4394,
      "MA": 4395,
      "Ġsepar": 4396,
      "cs": 4397,
      "semb": 4398,
      "Dis": 4399,
      "bserv": 4400,
      "ĠWill": 4401,
      "Ġpolicy": 4402,
      "Ġthird": 4403,
      "phone": 4404,
      "Ġbed": 4405,
      "/g": 4406,
      "ĠInc": 4407,
      "izing": 4408,
      "instance": 4409,
      ".type": 4410,
      "Ġserv": 4411,
      "Each": 4412,
      "Ġhar": 4413,
      "ĠMessage": 4414,
      "Pos": 4415,
      "Ġrecomm": 4416,
      "Ġtraining": 4417,
      "ĠChar": 4418,
      "Ġprior": 4419,
      "Ġexit": 4420,
      "Params": 4421,
      ".core": 4422,
      "PC": 4423,
      "nes": 4424,
      "anced": 4425,
      "Ġmag": 4426,
      "Ġrelease": 4427,
      "Ġshall": 4428,
      "udent": 4429,
      "ĠSouth": 4430,
      "ando": 4431,
      "sk": 4432,
      "Ġoutside": 4433,
      "ledge": 4434,
      "Ġå": 4435,
      "ĠRob": 4436,
      "Ġimm": 4437,
      "!Ċ": 4438,
      "ĠWeb": 4439,
      "Des": 4440,
      "BC": 4441,
      "ancial": 4442,
      "Dec": 4443,
      "ferences": 4444,
      "Ġpurch": 4445,
      "ĠModel": 4446,
      "ctor": 4447,
      "gn": 4448,
      "_start": 4449,
      "_un": 4450,
      ".*": 4451,
      "ises": 4452,
      "Ġground": 4453,
      "Ġunique": 4454,
      "Ġbeaut": 4455,
      "{\"": 4456,
      "Ġpour": 4457,
      "ĠOct": 4458,
      "Ġtree": 4459,
      "sets": 4460,
      "Ġbyte": 4461,
      "Bl": 4462,
      "Ġdating": 4463,
      "Ġmatter": 4464,
      "ĠRem": 4465,
      "ĠAug": 4466,
      "ĠLa": 4467,
      "Ġ$(": 4468,
      "ournal": 4469,
      "iam": 4470,
      "Ġshows": 4471,
      "write": 4472,
      "Ġball": 4473,
      "Ġsimply": 4474,
      "Ġfast": 4475,
      "Ġmemory": 4476,
      "ASS": 4477,
      "ĠOf": 4478,
      "oved": 4479,
      "ante": 4480,
      "aul": 4481,
      "istry": 4482,
      "Ġfit": 4483,
      "Ġpolitical": 4484,
      "_.": 4485,
      "card": 4486,
      "och": 4487,
      "#Ċ": 4488,
      "(L": 4489,
      "Ġindustry": 4490,
      "coming": 4491,
      "Ġextra": 4492,
      "Ġreported": 4493,
      "Ġresources": 4494,
      "flow": 4495,
      "ĠPre": 4496,
      "Ġwrong": 4497,
      "interface": 4498,
      "Parameter": 4499,
      "ners": 4500,
      "ture": 4501,
      "ersist": 4502,
      "ountry": 4503,
      "Ġseems": 4504,
      "alance": 4505,
      "dest": 4506,
      "Ġmaint": 4507,
      "Ġunit": 4508,
      "acters": 4509,
      "ĠTR": 4510,
      "iful": 4511,
      "Application": 4512,
      "Ġtakes": 4513,
      "term": 4514,
      "Ġetc": 4515,
      "uster": 4516,
      "Ġappear": 4517,
      "address": 4518,
      "Ġfem": 4519,
      "hs": 4520,
      "Ġhom": 4521,
      ",-": 4522,
      "Ġdifficult": 4523,
      "Ġcoming": 4524,
      "Open": 4525,
      "Ġsettings": 4526,
      "ĠWar": 4527,
      "ĠThen": 4528,
      "Ġautom": 4529,
      "ĠFoundation": 4530,
      "Ġquite": 4531,
      "Description": 4532,
      "Ġblog": 4533,
      "iqu": 4534,
      "PS": 4535,
      "ĠSch": 4536,
      "ĠLO": 4537,
      "Ġdescri": 4538,
      "Ġeveryone": 4539,
      "Ġpretty": 4540,
      "Ġlonger": 4541,
      "Ġmenu": 4542,
      "Ġcurrently": 4543,
      "sec": 4544,
      "Ġrelationship": 4545,
      "ĠMap": 4546,
      "aset": 4547,
      "Ġparameters": 4548,
      "igration": 4549,
      "total": 4550,
      "Ġnames": 4551,
      "\");": 4552,
      "riend": 4553,
      "ynamic": 4554,
      "Ġeffort": 4555,
      "Ġactual": 4556,
      "Ġfields": 4557,
      "OUN": 4558,
      "ters": 4559,
      "Ġfix": 4560,
      "Ġcases": 4561,
      "CA": 4562,
      "My": 4563,
      "Interface": 4564,
      "ĠSE": 4565,
      "]]": 4566,
      "alle": 4567,
      "ĠNational": 4568,
      "inline": 4569,
      ".V": 4570,
      "ara": 4571,
      "refix": 4572,
      "asc": 4573,
      "astic": 4574,
      "Cl": 4575,
      "Ġperformance": 4576,
      "aily": 4577,
      ".net": 4578,
      "views": 4579,
      "ayers": 4580,
      "late": 4581,
      "ĠApr": 4582,
      "ederal": 4583,
      "Ġhigher": 4584,
      "_fl": 4585,
      "cr": 4586,
      "_node": 4587,
      "ĠGoogle": 4588,
      "Ġitself": 4589,
      "urrency": 4590,
      "Ġsignificant": 4591,
      "Ġrespect": 4592,
      "riteria": 4593,
      ".apache": 4594,
      "Output": 4595,
      "Ġprogress": 4596,
      "Ġmid": 4597,
      "ĠMicrosoft": 4598,
      "Ġresource": 4599,
      "ablish": 4600,
      "Ġdim": 4601,
      "Ġdirection": 4602,
      "Ġadditional": 4603,
      "ĠĠĠĠĠĠĠĠĠĠĠĠĠĠĠĠĠĠĠĠĠĠĠĠ": 4604,
      "Ġnumbers": 4605,
      "Ġcompanies": 4606,
      "Ġsound": 4607,
      "Ġstatement": 4608,
      "Ġalert": 4609,
      "Ġcontract": 4610,
      "home": 4611,
      "ev": 4612,
      "ï¼ļ": 4613,
      "\";": 4614,
      "ĠHigh": 4615,
      "Ġ)ĊĊ": 4616,
      "ĠPoint": 4617,
      "oph": 4618,
      "Ġlines": 4619,
      "\")ĊĊ": 4620,
      "ox": 4621,
      "Ġ]Ċ": 4622,
      "Ġsoon": 4623,
      "ctions": 4624,
      "inger": 4625,
      "Ġjoin": 4626,
      "ĠPe": 4627,
      "Ġlas": 4628,
      ".E": 4629,
      "/or": 4630,
      "ĠStart": 4631,
      "ĠTO": 4632,
      "Ġsubs": 4633,
      "conn": 4634,
      "quare": 4635,
      "Function": 4636,
      "endar": 4637,
      "Ġfill": 4638,
      "Ġchoose": 4639,
      "how": 4640,
      "ĠAmerica": 4641,
      "------------": 4642,
      "ĠValue": 4643,
      "Ġoffice": 4644,
      "Ġveh": 4645,
      "Ġtransform": 4646,
      "ĠArt": 4647,
      "Ġinde": 4648,
      "Ġfn": 4649,
      "plete": 4650,
      "tmp": 4651,
      "amily": 4652,
      "Ġhash": 4653,
      "missions": 4654,
      "EST": 4655,
      "gt": 4656,
      "Provider": 4657,
      "ĠĠĠĠĠĠĠĠĠĠĠĠĠĠĠĠĠĠĠĠĠĠ": 4658,
      "Ġflag": 4659,
      "Ġparticip": 4660,
      "den": 4661,
      "ĠReturns": 4662,
      "Ġnote": 4663,
      "Ã¼r": 4664,
      "pm": 4665,
      "ideos": 4666,
      "Ġspecified": 4667,
      "ĠEN": 4668,
      "ester": 4669,
      "olid": 4670,
      "Ġupon": 4671,
      "uz": 4672,
      "Ġvert": 4673,
      "Ġvict": 4674,
      "Ġ\"$": 4675,
      ".k": 4676,
      "Ġgroups": 4677,
      "github": 4678,
      "Ġmut": 4679,
      "TO": 4680,
      "Ġve": 4681,
      "ĠPlease": 4682,
      "rea": 4683,
      "Ġrisk": 4684,
      "icker": 4685,
      "oggle": 4686,
      "ANG": 4687,
      "Ġwoman": 4688,
      "Ġgets": 4689,
      "Ġign": 4690,
      "ĠId": 4691,
      "ONE": 4692,
      "Ġevid": 4693,
      "ĠHar": 4694,
      "Ġincluded": 4695,
      "ĠAp": 4696,
      "igr": 4697,
      "Ġsem": 4698,
      "ĠBlack": 4699,
      "doc": 4700,
      "_table": 4701,
      "ĠĠĠĠĠĠĠĠĠĠĠĠĠĠĠĠĠĠĠĠĠĠĠĠĠĠĠĠĠĠĠĠĠĠĠĠĠĠĠĠĠĠĠĠĠĠĠĠĠĠĠĠĠĠĠĠĠĠĠĠĠĠĠĠ": 4702,
      "-up": 4703,
      "Ġcause": 4704,
      "Ġ..": 4705,
      "Ġvan": 4706,
      "Ġfocus": 4707,
      "IND": 4708,
      "Ġmultiple": 4709,
      "Ġregard": 4710,
      "-M": 4711,
      "ourse": 4712,
      "Ġdeg": 4713,
      "Ġaddition": 4714,
      "Ġvarious": 4715,
      "Ġreceive": 4716,
      "ĠHT": 4717,
      "DF": 4718,
      "Ġincrease": 4719,
      "ĠOpen": 4720,
      "];": 4721,
      "Ġcommit": 4722,
      "?Ċ": 4723,
      "ategories": 4724,
      "atory": 4725,
      "ship": 4726,
      "ĠMich": 4727,
      "romise": 4728,
      "Ġleave": 4729,
      "Ġstrateg": 4730,
      "aven": 4731,
      "known": 4732,
      "-n": 4733,
      "Ġbre": 4734,
      "Session": 4735,
      "iance": 4736,
      "Ġalign": 4737,
      "Ġreading": 4738,
      "FAULT": 4739,
      "Ġclo": 4740,
      "Ġnotice": 4741,
      "arter": 4742,
      "Ġlock": 4743,
      "Ġstandard": 4744,
      "etic": 4745,
      "ellow": 4746,
      "Ġpadding": 4747,
      "ĠHis": 4748,
      "Ġstates": 4749,
      "(P": 4750,
      "aa": 4751,
      "Ġinternal": 4752,
      "ean": 4753,
      "ĠPRO": 4754,
      "ĠKey": 4755,
      "Ġespecially": 4756,
      "ming": 4757,
      "Ġcross": 4758,
      "Ġnational": 4759,
      "filter": 4760,
      "Ġscript": 4761,
      "_i": 4762,
      "ĠAssert": 4763,
      "/core": 4764,
      "Ġproblems": 4765,
      "istor": 4766,
      "Ġarch": 4767,
      "Ġwritten": 4768,
      "Ġmilit": 4769,
      "MENT": 4770,
      "cape": 4771,
      "ĠMus": 4772,
      "_config": 4773,
      "ĠAPI": 4774,
      "foot": 4775,
      "Ġimages": 4776,
      "First": 4777,
      "Ġplatform": 4778,
      ".prot": 4779,
      "Option": 4780,
      "ste": 4781,
      "Ġforce": 4782,
      "ĠDav": 4783,
      "(B": 4784,
      "RT": 4785,
      "ĠBase": 4786,
      "Ġannounc": 4787,
      "ĠPy": 4788,
      "ds": 4789,
      "Ġprevent": 4790,
      "apan": 4791,
      "ĠService": 4792,
      "ĠSen": 4793,
      "Top": 4794,
      "po": 4795,
      "IES": 4796,
      "JSON": 4797,
      "IE": 4798,
      "iant": 4799,
      "ãĢģ": 4800,
      "_j": 4801,
      "ĠSept": 4802,
      "_map": 4803,
      "bum": 4804,
      "ĠHome": 4805,
      "ians": 4806,
      "GB": 4807,
      "Ġliving": 4808,
      "Ġpattern": 4809,
      "icient": 4810,
      "Core": 4811,
      "Ġentity": 4812,
      "Ġinteg": 4813,
      "Ġuseful": 4814,
      "Ġtool": 4815,
      "Ġok": 4816,
      "Ġfeed": 4817,
      "IX": 4818,
      "Ã©s": 4819,
      "ĠNews": 4820,
      "erry": 4821,
      "ipment": 4822,
      "ares": 4823,
      "Do": 4824,
      "Current": 4825,
      "ustral": 4826,
      "})": 4827,
      "Ġpopular": 4828,
      "Ġstre": 4829,
      "Ġmethods": 4830,
      "_ERROR": 4831,
      "Left": 4832,
      "cal": 4833,
      "bsp": 4834,
      "Ġdir": 4835,
      "Ġallowed": 4836,
      "Ġimpact": 4837,
      "\")]Ċ": 4838,
      "Ġelements": 4839,
      "Ġprote": 4840,
      "Ġtrain": 4841,
      "rs": 4842,
      "ĠRepublic": 4843,
      "ĠTask": 4844,
      "aries": 4845,
      "(D": 4846,
      "âĢ¦ĊĊ": 4847,
      "Ġrelated": 4848,
      "Ġvers": 4849,
      "Ġsil": 4850,
      "Ġcmd": 4851,
      "Ġtechnology": 4852,
      "Float": 4853,
      "ĠUse": 4854,
      "Body": 4855,
      "should": 4856,
      "ycle": 4857,
      "ĠBrit": 4858,
      "Ġmit": 4859,
      "Ġscale": 4860,
      "\"))Ċ": 4861,
      "Ġscore": 4862,
      "/v": 4863,
      "Ġstudent": 4864,
      "UC": 4865,
      "Ġaverage": 4866,
      "Enabled": 4867,
      "imation": 4868,
      "chie": 4869,
      "Ġ...ĊĊ": 4870,
      "ĠMarch": 4871,
      "Ġcourt": 4872,
      "Server": 4873,
      "Ġcontainer": 4874,
      "-st": 4875,
      "Ġparts": 4876,
      "Ġdecision": 4877,
      "obs": 4878,
      "oub": 4879,
      "mitted": 4880,
      "Ġsaw": 4881,
      "Ġapproach": 4882,
      "ICE": 4883,
      "Ġsaying": 4884,
      "Ġanyone": 4885,
      "meta": 4886,
      "SD": 4887,
      "Ġsong": 4888,
      "display": 4889,
      "Oper": 4890,
      "outes": 4891,
      "Ġchannel": 4892,
      "Ġchanged": 4893,
      "Ãª": 4894,
      "Ġfinally": 4895,
      "Please": 4896,
      "à¤": 4897,
      "oring": 4898,
      "-re": 4899,
      "Ġkill": 4900,
      "Ġdrug": 4901,
      "Ġconvert": 4902,
      "Ġways": 4903,
      "ĠFirst": 4904,
      "urity": 4905,
      "ĠWindows": 4906,
      "ees": 4907,
      "Ġmat": 4908,
      "rapper": 4909,
      "Ġplus": 4910,
      "anges": 4911,
      "azon": 4912,
      "/t": 4913,
      "aste": 4914,
      "Ġprofile": 4915,
      "Ġready": 4916,
      "rote": 4917,
      "Ġsense": 4918,
      "Gener": 4919,
      "omy": 4920,
      "ĠJune": 4921,
      "Ġlatest": 4922,
      "Ġsaf": 4923,
      "Ġregion": 4924,
      "Ġdeep": 4925,
      "witch": 4926,
      "ĠPark": 4927,
      "ĠFrom": 4928,
      "II": 4929,
      "Ġreach": 4930,
      "Ġcounter": 4931,
      "ĠWork": 4932,
      "ĠURL": 4933,
      "ĠUpdate": 4934,
      "Ġimmedi": 4935,
      "close": 4936,
      "ados": 4937,
      "ferred": 4938,
      "Ġweeks": 4939,
      "urg": 4940,
      "Ġdamage": 4941,
      "Ġlost": 4942,
      "ani": 4943,
      "Ġhimself": 4944,
      "Ġdog": 4945,
      ")]Ċ": 4946,
      "pir": 4947,
      "tt": 4948,
      "Ġpaper": 4949,
      "Ġthems": 4950,
      "second": 4951,
      "Ġstaff": 4952,
      "ĠInput": 4953,
      "ĠFacebook": 4954,
      "Ġalloc": 4955,
      "Ġsched": 4956,
      "ACE": 4957,
      "Ġthemselves": 4958,
      "Ġdriver": 4959,
      "ja": 4960,
      "Ġcategory": 4961,
      "alls": 4962,
      "ĠAction": 4963,
      "istics": 4964,
      "Ġoil": 4965,
      "Ġstock": 4966,
      "Ġdead": 4967,
      "VAL": 4968,
      "Ġcharg": 4969,
      "Return": 4970,
      "Ġful": 4971,
      "dom": 4972,
      "Ġrules": 4973,
      "Ġmodify": 4974,
      "Ġeval": 4975,
      "ham": 4976,
      "atement": 4977,
      "ula": 4978,
      "RA": 4979,
      "Ġcontains": 4980,
      "Ġstack": 4981,
      "mar": 4982,
      "Ass": 4983,
      "ĠChina": 4984,
      "vey": 4985,
      "*Ċ": 4986,
      "Ġplaying": 4987,
      ")/": 4988,
      "Ġbottom": 4989,
      "lier": 4990,
      "ĠNumber": 4991,
      "Ġcouple": 4992,
      "DC": 4993,
      "ĠSO": 4994,
      "gor": 4995,
      "command": 4996,
      "Filter": 4997,
      "ĠOur": 4998,
      "Ġroad": 4999,
      "Version": 5000,
      "case": 5001,
      "urt": 5002,
      "avior": 5003,
      "ych": 5004,
      "sembly": 5005,
      "ĠProduct": 5006,
      "Ġheld": 5007,
      "afe": 5008,
      "Ġincludes": 5009,
      "Ġavoid": 5010,
      "ĠFin": 5011,
      "ĠMod": 5012,
      "Ġtab": 5013,
      "ano": 5014,
      "ipping": 5015,
      "-e": 5016,
      "Ġinsert": 5017,
      "target": 5018,
      "chan": 5019,
      "\\Ċ": 5020,
      "Ġmachine": 5021,
      "avy": 5022,
      "ĠNO": 5023,
      "ĠInter": 5024,
      "Ġoperation": 5025,
      "modal": 5026,
      "Tag": 5027,
      "]:": 5028,
      "Ġproduction": 5029,
      "Ġareas": 5030,
      "_from": 5031,
      "nbsp": 5032,
      "Ġoperator": 5033,
      "men": 5034,
      "apped": 5035,
      "zen": 5036,
      "Ġtor": 5037,
      "Ġcandid": 5038,
      "Ġconv": 5039,
      "ailed": 5040,
      "ĠLib": 5041,
      "comp": 5042,
      "ura": 5043,
      "ĠHere": 5044,
      "Ġargument": 5045,
      "hood": 5046,
      "Ġestablish": 5047,
      "ography": 5048,
      "ambda": 5049,
      "Ġsch": 5050,
      "Ġmovie": 5051,
      "Ġsec": 5052,
      "Ġactivity": 5053,
      "Ø§": 5054,
      "incip": 5055,
      "Ġprovides": 5056,
      "Ġwasn": 5057,
      "Ġuses": 5058,
      "ĠFunction": 5059,
      "ĠResult": 5060,
      "elcome": 5061,
      "ĠSy": 5062,
      "ĠCent": 5063,
      "aciÃ³n": 5064,
      "Ġlicense": 5065,
      "ĠLong": 5066,
      "Ġaccom": 5067,
      "Ġability": 5068,
      "ological": 5069,
      "oly": 5070,
      ")),": 5071,
      "Ġparameter": 5072,
      "ĠGroup": 5073,
      "ining": 5074,
      "Ġjud": 5075,
      "ims": 5076,
      "inder": 5077,
      "agram": 5078,
      "Ġfunctions": 5079,
      "Ġexperi": 5080,
      "ĠEm": 5081,
      "Ġrot": 5082,
      "Ġpen": 5083,
      ".btn": 5084,
      "ĠAS": 5085,
      "Ġchoice": 5086,
      "ĠPage": 5087,
      "QU": 5088,
      "åı": 5089,
      "antity": 5090,
      "ÂŃ": 5091,
      "Ġflex": 5092,
      "ĠAny": 5093,
      "Ġcharacters": 5094,
      "enced": 5095,
      "ĠJuly": 5096,
      "iler": 5097,
      "Card": 5098,
      "urance": 5099,
      "Ġrev": 5100,
      "aly": 5101,
      "Ġwonder": 5102,
      "ĠPort": 5103,
      "Ġlegal": 5104,
      "Ġten": 5105,
      "Ġgoes": 5106,
      "MP": 5107,
      "white": 5108,
      "Ġreference": 5109,
      "Ġmis": 5110,
      "ĠProject": 5111,
      "icks": 5112,
      ">&": 5113,
      "CON": 5114,
      "Ġrepl": 5115,
      "Ġregular": 5116,
      "Storage": 5117,
      "ramework": 5118,
      "Ġgoal": 5119,
      "Ġtouch": 5120,
      "Ġbuilt": 5121,
      "des": 5122,
      "Part": 5123,
      "Ġworth": 5124,
      "hib": 5125,
      "ĠWhite": 5126,
      "Ġnatural": 5127,
      "Ġinj": 5128,
      "Ġcalcul": 5129,
      "ĠApril": 5130,
      "Ġassociated": 5131,
      "Ġstorage": 5132,
      "Ġbytes": 5133,
      "Ġtravel": 5134,
      "Ġsou": 5135,
      "Ġpassed": 5136,
      "Ġgrid": 5137,
      "Ġbus": 5138,
      "Ġrecogn": 5139,
      "Ab": 5140,
      "Ġhon": 5141,
      "ĠCenter": 5142,
      "Ġprec": 5143,
      "build": 5144,
      "ĠSan": 5145,
      "Ġcountries": 5146,
      "aled": 5147,
      "kt": 5148,
      "Ġqual": 5149,
      "Last": 5150,
      "adow": 5151,
      "Ġmanufact": 5152,
      "Next": 5153,
      "xf": 5154,
      ".a": 5155,
      "ĠPM": 5156,
      "erve": 5157,
      "iting": 5158,
      "ci": 5159,
      "gs": 5160,
      "atives": 5161,
      "Ġill": 5162,
      "IA": 5163,
      "children": 5164,
      "DO": 5165,
      "Ġlevels": 5166,
      "Ġlooks": 5167,
      "Ġnecessary": 5168,
      "cell": 5169,
      "Entry": 5170,
      "Ġextrem": 5171,
      "Load": 5172,
      "Ġreleased": 5173,
      "ĠTV": 5174,
      "SET": 5175,
      "ĠDepartment": 5176,
      "Ġproperties": 5177,
      "Ġrespond": 5178,
      "Search": 5179,
      "ael": 5180,
      "Ġrequ": 5181,
      "ĠBook": 5182,
      "/Ċ": 5183,
      "Ġfinancial": 5184,
      "icket": 5185,
      "Ġthreat": 5186,
      "(in": 5187,
      "Ġevidence": 5188,
      "ĠBro": 5189,
      "Script": 5190,
      "Ġrule": 5191,
      "=\"/": 5192,
      "Ġstarting": 5193,
      "ae": 5194,
      "Ġcontrib": 5195,
      "ober": 5196,
      "Ġrecently": 5197,
      "Ġreturned": 5198,
      "itions": 5199,
      "Ġseek": 5200,
      "Ġcommunic": 5201,
      "DS": 5202,
      "Ġotherwise": 5203,
      "ĠGerman": 5204,
      "Ġsystems": 5205,
      "Ġdrop": 5206,
      "Ġstructure": 5207,
      "encies": 5208,
      "anning": 5209,
      "ĠLink": 5210,
      "ĠResponse": 5211,
      "Ġstri": 5212,
      "ĠDB": 5213,
      "æĹ": 5214,
      "otion": 5215,
      "Ġdirectly": 5216,
      "Ġ\"%": 5217,
      "ris": 5218,
      "elta": 5219,
      "mine": 5220,
      "ĠĠĠĠĠĠĠĠĠĠĠĠĠĠĠĠĠĠĠĠĠĠĠĠĠĠ": 5221,
      "(k": 5222,
      "bon": 5223,
      "asic": 5224,
      "pite": 5225,
      "___": 5226,
      "Max": 5227,
      "Ġerrors": 5228,
      "ĠWhile": 5229,
      "Ġarguments": 5230,
      "Ġensure": 5231,
      "Right": 5232,
      "-based": 5233,
      "Web": 5234,
      "Ġintrodu": 5235,
      "ĠInst": 5236,
      "ĠWash": 5237,
      "ordin": 5238,
      "Ġgrad": 5239,
      "Ġusually": 5240,
      "ĠGo": 5241,
      "REF": 5242,
      "ĠAustral": 5243,
      "Ġist": 5244,
      "Ġserious": 5245,
      "Ġcustomer": 5246,
      ".prototype": 5247,
      "cor": 5248,
      "Ġdoor": 5249,
      "Ġplant": 5250,
      "Ġbegan": 5251,
      "Ġdistance": 5252,
      "Ġchance": 5253,
      "Ġord": 5254,
      "came": 5255,
      "Ġprotect": 5256,
      "ĠNode": 5257,
      "ening": 5258,
      "Ġroute": 5259,
      "ĠSchool": 5260,
      "hi": 5261,
      "Ġneighb": 5262,
      "After": 5263,
      "licit": 5264,
      "Ġcontr": 5265,
      "Ġprimary": 5266,
      "AA": 5267,
      "Ġbi": 5268,
      "Red": 5269,
      "Ġleaders": 5270,
      "unities": 5271,
      "Ġgun": 5272,
      "onth": 5273,
      "ĠDev": 5274,
      "Ġcomments": 5275,
      "arrow": 5276,
      "Range": 5277,
      "sert": 5278,
      "Ġupdated": 5279,
      "ĠMo": 5280,
      "Ġinform": 5281,
      "ociety": 5282,
      "ala": 5283,
      "Access": 5284,
      "Ġhab": 5285,
      "Ġcreat": 5286,
      "ĠJanuary": 5287,
      "ĠDay": 5288,
      "gorith": 5289,
      "menu": 5290,
      "ĠOver": 5291,
      "bb": 5292,
      "Ġled": 5293,
      "uri": 5294,
      "gl": 5295,
      "Ġbank": 5296,
      "MD": 5297,
      "Ġsample": 5298,
      "Ġhands": 5299,
      "ĠVersion": 5300,
      "Ġoffers": 5301,
      "Ġshape": 5302,
      "Ġsleep": 5303,
      "Settings": 5304,
      "Ġachie": 5305,
      "Ġsold": 5306,
      "ota": 5307,
      "Am": 5308,
      "Ġsafe": 5309,
      "Store": 5310,
      "Ġshared": 5311,
      "Ġpriv": 5312,
      "Ġsens": 5313,
      "){": 5314,
      "Ġremember": 5315,
      "element": 5316,
      "Ġshoot": 5317,
      "run": 5318,
      "Ġscene": 5319,
      "agon": 5320,
      "aby": 5321,
      "Ġbecame": 5322,
      "Ġpark": 5323,
      "ĠCode": 5324,
      "upload": 5325,
      "riday": 5326,
      "ĠSeptember": 5327,
      "Fe": 5328,
      "Ġsen": 5329,
      "cing": 5330,
      "FL": 5331,
      "Col": 5332,
      "uts": 5333,
      "inn": 5334,
      "Ġimplied": 5335,
      "aling": 5336,
      "Ġyourself": 5337,
      "Ġaud": 5338,
      ".)": 5339,
      "Ġwrote": 5340,
      "NG": 5341,
      "ä»": 5342,
      "Ġequal": 5343,
      "ĠRequest": 5344,
      "Ġserial": 5345,
      "Ġallows": 5346,
      "XX": 5347,
      "Ġmiddle": 5348,
      "reading": 5349,
      "ĠAugust": 5350,
      "Ġquickly": 5351,
      "Ġweap": 5352,
      "ropri": 5353,
      "ho": 5354,
      "Ġcop": 5355,
      "ĠBig": 5356,
      "Ġvs": 5357,
      "Ġfrequ": 5358,
      ".Value": 5359,
      "Ġactions": 5360,
      "Ġproper": 5361,
      "Ġinn": 5362,
      "Ġobjects": 5363,
      "Ġmatrix": 5364,
      "Ġones": 5365,
      "Ġgreen": 5366,
      "Ġpaint": 5367,
      "ools": 5368,
      "ycl": 5369,
      "olt": 5370,
      "Dir": 5371,
      "izont": 5372,
      "Ġdesigned": 5373,
      "avi": 5374,
      "iring": 5375,
      "tab": 5376,
      "Ġlayer": 5377,
      "Ġviews": 5378,
      "Ġreve": 5379,
      "rael": 5380,
      "ĠON": 5381,
      "rics": 5382,
      "Ġcore": 5383,
      "Main": 5384,
      "Ġexpert": 5385,
      "Ġ/>": 5386,
      "utter": 5387,
      "IAL": 5388,
      "ails": 5389,
      "ĠKing": 5390,
      "ĠMet": 5391,
      "ora": 5392,
      "Ġir": 5393,
      "Min": 5394,
      "Ġsurpr": 5395,
      "Ġrepe": 5396,
      "Ġdirectory": 5397,
      "-S": 5398,
      "Ġelection": 5399,
      "haps": 5400,
      "cm": 5401,
      "Values": 5402,
      "column": 5403,
      "ivil": 5404,
      "inue": 5405,
      "Ġbeautiful": 5406,
      "Ġsecret": 5407,
      "Ġchat": 5408,
      "ums": 5409,
      "Ġorigin": 5410,
      "Ġeffects": 5411,
      "Ġmanagement": 5412,
      "illa": 5413,
      "Ġsetting": 5414,
      "ĠCour": 5415,
      "ĉend": 5416,
      "Ġhappy": 5417,
      "Ġfinish": 5418,
      "Ġcamera": 5419,
      "ĠVer": 5420,
      "ĠDemocr": 5421,
      "ĠHer": 5422,
      "cons": 5423,
      "ita": 5424,
      "{}": 5425,
      "Ġstuff": 5426,
      "ĠAR": 5427,
      "Task": 5428,
      "atio": 5429,
      "ĠHealth": 5430,
      "olute": 5431,
      "ĠTwitter": 5432,
      "ĠCounty": 5433,
      "Ġhy": 5434,
      "fit": 5435,
      "Ġmilitary": 5436,
      "Ġsale": 5437,
      "non": 5438,
      "hold": 5439,
      "rim": 5440,
      "-old": 5441,
      "ĠDown": 5442,
      "Ġmention": 5443,
      "_group": 5444,
      "oday": 5445,
      "Ġtown": 5446,
      "Ġsolution": 5447,
      "uate": 5448,
      "elling": 5449,
      "otes": 5450,
      "ental": 5451,
      "omen": 5452,
      "ospital": 5453,
      "ĠSup": 5454,
      "_EN": 5455,
      "Ġslow": 5456,
      "Ġblue": 5457,
      "ago": 5458,
      "Ġlives": 5459,
      "Ġ^": 5460,
      "inst": 5461,
      "enge": 5462,
      "Ġcustomers": 5463,
      "Ġcast": 5464,
      "udget": 5465,
      "ï¼ģ": 5466,
      "icens": 5467,
      "Ġdetermin": 5468,
      "Selected": 5469,
      "Ġdark": 5470,
      "si": 5471,
      "thern": 5472,
      "ĠJapan": 5473,
      "/w": 5474,
      "PU": 5475,
      "ĠEast": 5476,
      "Ġpackage": 5477,
      "Ġnor": 5478,
      "Ġapi": 5479,
      "bot": 5480,
      "ulate": 5481,
      "Ġclub": 5482,
      "Ġloop": 5483,
      "PIO": 5484,
      "ione": 5485,
      "Ġplayed": 5486,
      "rought": 5487,
      "acement": 5488,
      "AST": 5489,
      "Ġexisting": 5490,
      "Ġcomplex": 5491,
      "DA": 5492,
      "mo": 5493,
      "ito": 5494,
      "Ġanalysis": 5495,
      "Ġdeliver": 5496,
      "ĠEnglish": 5497,
      "<!--": 5498,
      "Ġcomputer": 5499,
      "Ġrais": 5500,
      "Hash": 5501,
      "Ġmobile": 5502,
      "Ġowner": 5503,
      "ĠĠĠĠĠĠĠĠĠĠĠĠĠĠĠĠĠĠĠĠĠĠĠĠĠĠĠĠĠĠĠĠĠĠĠĠĠĠĠĠĠĠĠĠĠĠĠĠĠĠĠ": 5504,
      "thes": 5505,
      "Ġattr": 5506,
      "Ġtreatment": 5507,
      "ĠAc": 5508,
      "impl": 5509,
      "more": 5510,
      "pass": 5511,
      "Ġha": 5512,
      ".from": 5513,
      "Ġleading": 5514,
      "atar": 5515,
      "aders": 5516,
      "dates": 5517,
      "Ġzu": 5518,
      "Ġflow": 5519,
      "Target": 5520,
      "Ġinvolved": 5521,
      "Ġio": 5522,
      "$_": 5523,
      "hest": 5524,
      "-item": 5525,
      "asy": 5526,
      "Sp": 5527,
      "Ġshift": 5528,
      "NT": 5529,
      "CS": 5530,
      "Ġeyes": 5531,
      "');čĊ": 5532,
      "iforn": 5533,
      "Ġnice": 5534,
      ".list": 5535,
      "Ġfloor": 5536,
      "ĠUK": 5537,
      "Ġwish": 5538,
      "Ġcapt": 5539,
      "legal": 5540,
      "Ġstage": 5541,
      ".String": 5542,
      "ĠAfr": 5543,
      "igen": 5544,
      "ĠSH": 5545,
      "ells": 5546,
      "Ġsolid": 5547,
      "Ġmeeting": 5548,
      "Ġworked": 5549,
      "Ġeditor": 5550,
      "iny": 5551,
      "eff": 5552,
      "cha": 5553,
      "ipped": 5554,
      "ĠRun": 5555,
      "Ġang": 5556,
      "Ġmedical": 5557,
      "Ġhour": 5558,
      "Ġcontroller": 5559,
      "Gr": 5560,
      "anded": 5561,
      "_CH": 5562,
      "Ġbooks": 5563,
      "Ġspeak": 5564,
      "aming": 5565,
      "Ġmount": 5566,
      "ondon": 5567,
      "Ġfelt": 5568,
      "idge": 5569,
      "PR": 5570,
      "Ġmodern": 5571,
      "Collection": 5572,
      "CD": 5573,
      "ĠLo": 5574,
      "Ġseconds": 5575,
      "ibly": 5576,
      "Ġinternational": 5577,
      "ooth": 5578,
      "iate": 5579,
      "Ġcele": 5580,
      "ĠBit": 5581,
      "ivery": 5582,
      "rd": 5583,
      "Ġcache": 5584,
      "Ġroll": 5585,
      "Ġsetup": 5586,
      "izontal": 5587,
      "Ġconsidered": 5588,
      "=\"../": 5589,
      "ĠRel": 5590,
      "Ġgrowth": 5591,
      "Ġmix": 5592,
      "ĠWashington": 5593,
      "ĠIM": 5594,
      "Ġturned": 5595,
      "ĠWed": 5596,
      "Ġletter": 5597,
      "Async": 5598,
      "ĠĠĠĠĠĠĠĠĠĠĠĠĠĠĠĠĠĠĠĠĠĠĠĠĠĠĠĠ": 5599,
      "ĠOctober": 5600,
      "Ġattention": 5601,
      "Ġcollect": 5602,
      "ĠHash": 5603,
      "Ġimag": 5604,
      "Tree": 5605,
      "Ġsituation": 5606,
      "ette": 5607,
      "IVE": 5608,
      "Ġvon": 5609,
      "Ġknowledge": 5610,
      "Ġdrive": 5611,
      "Ġblood": 5612,
      "Ġcit": 5613,
      "primary": 5614,
      "Ġconfiguration": 5615,
      "tee": 5616,
      "Ġphoto": 5617,
      "isode": 5618,
      "Ġgave": 5619,
      "Ġshot": 5620,
      "ĠAir": 5621,
      "Ġmother": 5622,
      "Ġmorning": 5623,
      "-x": 5624,
      "Ġtrade": 5625,
      "Ġparents": 5626,
      "åĪ": 5627,
      "ted": 5628,
      "wer": 5629,
      "Ġæ": 5630,
      "Ġsy": 5631,
      "ĠKe": 5632,
      "åħ": 5633,
      "ancy": 5634,
      "Ġpiece": 5635,
      "ifornia": 5636,
      "ran": 5637,
      "iding": 5638,
      "comes": 5639,
      "El": 5640,
      "Long": 5641,
      "Ġprofessional": 5642,
      "rupt": 5643,
      "va": 5644,
      "Ġcompletely": 5645,
      "Ġpractice": 5646,
      "Ġselection": 5647,
      "Rem": 5648,
      "ini": 5649,
      "Ġcam": 5650,
      "Ġsites": 5651,
      "pa": 5652,
      "*(": 5653,
      "ĠFriday": 5654,
      "sequ": 5655,
      "Ġreader": 5656,
      "Ġmessages": 5657,
      "è¯": 5658,
      "Ke": 5659,
      "Ġnov": 5660,
      "HP": 5661,
      "Msg": 5662,
      "align": 5663,
      "arily": 5664,
      "Ġdas": 5665,
      "Ġheard": 5666,
      "rial": 5667,
      "Ġdise": 5668,
      "Ġgold": 5669,
      "Ġfair": 5670,
      "Ġsales": 5671,
      "strict": 5672,
      "Ġmeasure": 5673,
      "ecause": 5674,
      "ĠTable": 5675,
      "Ġdecided": 5676,
      "INFO": 5677,
      "Ġopportunity": 5678,
      "Te": 5679,
      "ccording": 5680,
      "ki": 5681,
      "ĠUN": 5682,
      "Ġcontain": 5683,
      "Ġmanager": 5684,
      "Ġpain": 5685,
      "ĠFire": 5686,
      "rome": 5687,
      "Ġplans": 5688,
      "lay": 5689,
      "ĠDecember": 5690,
      "Ġinflu": 5691,
      "Ãº": 5692,
      "rench": 5693,
      "ĠĠĠĠĠĠĠĠĠĠĠĠĠĠĠĠĠĠĠĠĠĠĠĠĠĠĠĠĠĠĠĠĠ": 5694,
      "azing": 5695,
      "call": 5696,
      "wood": 5697,
      "Ġloaded": 5698,
      "Ġgrand": 5699,
      "/f": 5700,
      "imp": 5701,
      "STR": 5702,
      "âĢ¢": 5703,
      "Ġcredit": 5704,
      "orge": 5705,
      "Ġdifference": 5706,
      "ĠPC": 5707,
      "Ġpub": 5708,
      "unday": 5709,
      "Ġfra": 5710,
      "Ġtried": 5711,
      "annels": 5712,
      "Ġreports": 5713,
      "Ġadult": 5714,
      "äº": 5715,
      "Ġconsist": 5716,
      "ĠStreet": 5717,
      "ĠProgram": 5718,
      "SQL": 5719,
      "ouncil": 5720,
      "-A": 5721,
      "Ġwhose": 5722,
      "Ġrelig": 5723,
      "ĠSex": 5724,
      "Ġgives": 5725,
      "none": 5726,
      "(G": 5727,
      "-right": 5728,
      "ĠNovember": 5729,
      "ellig": 5730,
      "utive": 5731,
      "overn": 5732,
      "Ġeasily": 5733,
      "Ġideas": 5734,
      "lying": 5735,
      "elle": 5736,
      "Can": 5737,
      "Ġpair": 5738,
      "ngth": 5739,
      "Ġsplit": 5740,
      "drop": 5741,
      "ona": 5742,
      "Ġcapital": 5743,
      "Ġhear": 5744,
      "Ġexists": 5745,
      "Run": 5746,
      "oi": 5747,
      "ĠMethod": 5748,
      "Ġeducation": 5749,
      "Ġlibrary": 5750,
      "Ġcalls": 5751,
      "here": 5752,
      "Rel": 5753,
      "Ġbrand": 5754,
      "background": 5755,
      "ga": 5756,
      "ĠIndia": 5757,
      "Ġing": 5758,
      "Ġpet": 5759,
      "FC": 5760,
      "ĠAnt": 5761,
      "Ġcharge": 5762,
      "ened": 5763,
      "grad": 5764,
      "EO": 5765,
      "Ġdepend": 5766,
      "Ġ.ĊĊ": 5767,
      "frame": 5768,
      "Ġhuge": 5769,
      "eds": 5770,
      "ĠAM": 5771,
      "Ġbasic": 5772,
      "ĠLet": 5773,
      "Ġarm": 5774,
      "Ġstar": 5775,
      "Ġfederal": 5776,
      "Work": 5777,
      "Ġcarry": 5778,
      "ĠIsrael": 5779,
      "Ġsaved": 5780,
      "Ġsyn": 5781,
      "Ġconstant": 5782,
      "Ġpositive": 5783,
      "Ġconduct": 5784,
      "Ġskin": 5785,
      "Ġearlier": 5786,
      "Ġlayout": 5787,
      "ĠIP": 5788,
      "OUR": 5789,
      "Ġtim": 5790,
      "ĠCard": 5791,
      "Ġtemper": 5792,
      "ĠDavid": 5793,
      "Ġwants": 5794,
      "Ġpicture": 5795,
      "Ġvideos": 5796,
      "ĠComm": 5797,
      "isions": 5798,
      "-content": 5799,
      "ĠEar": 5800,
      "-de": 5801,
      "Ġprem": 5802,
      "bruary": 5803,
      "Ġcomponents": 5804,
      "Ġthroughout": 5805,
      "Ġpull": 5806,
      "Ġpages": 5807,
      "ente": 5808,
      "respond": 5809,
      "Ġgas": 5810,
      "Ġedge": 5811,
      "Ġbound": 5812,
      "ACT": 5813,
      "Ġcreating": 5814,
      "ĠCH": 5815,
      "Br": 5816,
      ".co": 5817,
      ">::": 5818,
      "Ġlearning": 5819,
      "Ġpatients": 5820,
      "AIN": 5821,
      "Ġkids": 5822,
      "Ġcomfort": 5823,
      "Ġshown": 5824,
      "ĠBack": 5825,
      "ella": 5826,
      "Ġlat": 5827,
      "Ġclasses": 5828,
      "Ġsuccessful": 5829,
      "ban": 5830,
      "Ġobtain": 5831,
      "ĠSl": 5832,
      "Ġlack": 5833,
      "Ġnone": 5834,
      "_X": 5835,
      "bin": 5836,
      "ĠCanada": 5837,
      "They": 5838,
      "ĠMat": 5839,
      "Ġhair": 5840,
      "Ġlaws": 5841,
      "ped": 5842,
      "Ġpow": 5843,
      "Ġknew": 5844,
      "_,": 5845,
      "ĠMag": 5846,
      "idents": 5847,
      "Ġ),": 5848,
      "-center": 5849,
      "Ġwide": 5850,
      "ĠAuthor": 5851,
      "Ġjobs": 5852,
      "Ġmath": 5853,
      "etimes": 5854,
      "Ġscope": 5855,
      "Ġmeas": 5856,
      "Ġkeys": 5857,
      "Ġexactly": 5858,
      "ĠPaul": 5859,
      "mas": 5860,
      "fd": 5861,
      "irit": 5862,
      "ields": 5863,
      "oman": 5864,
      "ĠTop": 5865,
      "Ġvote": 5866,
      "Ġmask": 5867,
      "Ġtheme": 5868,
      "-Ċ": 5869,
      "Ġfine": 5870,
      "Ġwriter": 5871,
      "car": 5872,
      "Ġaltern": 5873,
      "Ġcopyright": 5874,
      "Ġdestroy": 5875,
      "pper": 5876,
      "Ġgenerate": 5877,
      "pped": 5878,
      "âĢĻd": 5879,
      "make": 5880,
      "ĠShow": 5881,
      "Ġbrowser": 5882,
      "Ġfavorite": 5883,
      "Ġcareer": 5884,
      "Ġhappened": 5885,
      "Ġrecommend": 5886,
      "Ġliter": 5887,
      "grade": 5888,
      "ĠÂ£": 5889,
      "Phone": 5890,
      "oms": 5891,
      "Ġnamed": 5892,
      "-label": 5893,
      "ĠOther": 5894,
      "Ġpanel": 5895,
      "Ġrock": 5896,
      "Ġtrust": 5897,
      "front": 5898,
      "Ġdemon": 5899,
      "Ar": 5900,
      "Net": 5901,
      "Ġeconomic": 5902,
      "footer": 5903,
      "Ġrace": 5904,
      "ĠOption": 5905,
      "Ġphysical": 5906,
      "ifest": 5907,
      "Ġremoved": 5908,
      ".http": 5909,
      "Ġlooked": 5910,
      "ding": 5911,
      "gest": 5912,
      "aturday": 5913,
      "Price": 5914,
      "Ġdro": 5915,
      "Ġtowards": 5916,
      "Ġuns": 5917,
      "ĠCL": 5918,
      "Ġrows": 5919,
      "Ġdefine": 5920,
      "Ġfather": 5921,
      "ĠDesign": 5922,
      "mut": 5923,
      "Did": 5924,
      "ometry": 5925,
      "Ġhistor": 5926,
      "ĠBoolean": 5927,
      "Ġnature": 5928,
      "Ġjs": 5929,
      "Ġnation": 5930,
      "ih": 5931,
      "Ġdiscover": 5932,
      "ĠTechn": 5933,
      "Ġwall": 5934,
      "{$": 5935,
      "Ġexam": 5936,
      "opping": 5937,
      "Ġnearly": 5938,
      "Ġcool": 5939,
      "Ġindepend": 5940,
      "ĠMonday": 5941,
      "Ġsun": 5942,
      "ously": 5943,
      "vest": 5944,
      "atically": 5945,
      "Ġpredict": 5946,
      "ying": 5947,
      "Ġsometimes": 5948,
      "\"]Ċ": 5949,
      "Ġdrink": 5950,
      "Ġbul": 5951,
      "ifications": 5952,
      "Ġtests": 5953,
      "Ġattribute": 5954,
      "ĠNote": 5955,
      "Ġmyself": 5956,
      "arts": 5957,
      "Now": 5958,
      "Ġinteresting": 5959,
      "lients": 5960,
      "Ġpopulation": 5961,
      "ĠCalifornia": 5962,
      "\"I": 5963,
      "å¹": 5964,
      "Ġgreater": 5965,
      "uesday": 5966,
      "Ġthous": 5967,
      "Ġcosts": 5968,
      "Ġlaunch": 5969,
      "ker": 5970,
      "band": 5971,
      "ĠPlay": 5972,
      "Ġband": 5973,
      "esome": 5974,
      "Ġwer": 5975,
      "embers": 5976,
      "usr": 5977,
      "BA": 5978,
      "ican": 5979,
      "ett": 5980,
      "ulti": 5981,
      "Ġimmediately": 5982,
      "zer": 5983,
      "Ġfigure": 5984,
      "oes": 5985,
      "eller": 5986,
      "ĠSign": 5987,
      "Ġrank": 5988,
      "Ġprojects": 5989,
      "API": 5990,
      "ĠLine": 5991,
      "Port": 5992,
      "Ġpoll": 5993,
      "Ġgiving": 5994,
      "idence": 5995,
      "--Ċ": 5996,
      "Ġplot": 5997,
      "icial": 5998,
      "ĠDouble": 5999,
      "Ġbillion": 6000,
      "gorithm": 6001,
      "Ġequipment": 6002,
      "EE": 6003,
      "Ġple": 6004,
      "iation": 6005,
      "Ġproced": 6006,
      "ĠObama": 6007,
      "ĠBest": 6008,
      "imately": 6009,
      ".\\": 6010,
      "mploy": 6011,
      "Ġraw": 6012,
      "undred": 6013,
      "Ġbrought": 6014,
      "CP": 6015,
      "eps": 6016,
      "Op": 6017,
      "Ġinterview": 6018,
      "\"\"\"Ċ": 6019,
      "Ġpartial": 6020,
      "bing": 6021,
      "Author": 6022,
      "Book": 6023,
      "ĠPat": 6024,
      "uman": 6025,
      "ĠDirect": 6026,
      "venue": 6027,
      "alpha": 6028,
      "ĠCall": 6029,
      "imated": 6030,
      "Ġremain": 6031,
      "Ġanti": 6032,
      "ĠLondon": 6033,
      "Ġsafety": 6034,
      "oles": 6035,
      "ĠCourt": 6036,
      "ĠPhil": 6037,
      "ĠAssoci": 6038,
      "ena": 6039,
      "åĲ": 6040,
      "reshold": 6041,
      "Ġbatch": 6042,
      "enty": 6043,
      "Ġbeginning": 6044,
      "Ġzero": 6045,
      "Ġterr": 6046,
      "Ġpaid": 6047,
      "Ġincreased": 6048,
      "-size": 6049,
      "activity": 6050,
      "ĠInternational": 6051,
      "ursday": 6052,
      "Ġscient": 6053,
      "allow": 6054,
      "Ġappropri": 6055,
      ":\\": 6056,
      "Ġmaximum": 6057,
      "arks": 6058,
      "Ġbirth": 6059,
      "Ġmaybe": 6060,
      "Ġlimited": 6061,
      "look": 6062,
      "plies": 6063,
      "Ġmovement": 6064,
      "Ġbroad": 6065,
      "ĠBE": 6066,
      "ĠEvery": 6067,
      "Ġfans": 6068,
      "pared": 6069,
      "Ġforeign": 6070,
      "Ġpan": 6071,
      "Ġtour": 6072,
      "ĠOrder": 6073,
      "Ġmoving": 6074,
      "Call": 6075,
      "cb": 6076,
      "ÅŁ": 6077,
      "ventory": 6078,
      "Ġfully": 6079,
      "Ġannounced": 6080,
      "Ġagreed": 6081,
      "rie": 6082,
      "Ġearn": 6083,
      "Ġmaterials": 6084,
      ",p": 6085,
      "ffff": 6086,
      "ĠÂ©": 6087,
      "Ġunless": 6088,
      "Ġsexual": 6089,
      "Ġ\\\"": 6090,
      "-time": 6091,
      "Ġcoach": 6092,
      "Ġsupported": 6093,
      "Ġphotos": 6094,
      "iform": 6095,
      ")]": 6096,
      "rier": 6097,
      "Ġdialog": 6098,
      "aver": 6099,
      "ige": 6100,
      ")+": 6101,
      "ĠCong": 6102,
      "Ġpressure": 6103,
      "Ġteams": 6104,
      "Sign": 6105,
      "begin": 6106,
      "rian": 6107,
      "LS": 6108,
      "Ġimprove": 6109,
      "ĠSunday": 6110,
      "Ġdefinition": 6111,
      "iger": 6112,
      "Ġthinking": 6113,
      "Template": 6114,
      "-F": 6115,
      "Ġemerg": 6116,
      "ĠUSA": 6117,
      "ĠAlso": 6118,
      "rev": 6119,
      "Ġenable": 6120,
      "ĠCO": 6121,
      "Ġconcept": 6122,
      ")-": 6123,
      "ĠâĢ¢": 6124,
      "Ġsets": 6125,
      "Ġmeaning": 6126,
      "emon": 6127,
      "ĠCons": 6128,
      "eder": 6129,
      "anned": 6130,
      "icensed": 6131,
      "ĠSuper": 6132,
      "Ġdaily": 6133,
      "Ġmulti": 6134,
      "_u": 6135,
      "Ġchalleng": 6136,
      "Ġstrict": 6137,
      "jo": 6138,
      "inton": 6139,
      "Only": 6140,
      "Ġvehicle": 6141,
      "ĠDel": 6142,
      "Ġpool": 6143,
      ".url": 6144,
      "nesday": 6145,
      "Local": 6146,
      "Ġorganization": 6147,
      "ĠApplication": 6148,
      "Ġsummer": 6149,
      "expected": 6150,
      "NA": 6151,
      "Ġrap": 6152,
      "Ġsurface": 6153,
      "Ġvariables": 6154,
      "Ġopin": 6155,
      "Ġworkers": 6156,
      "vm": 6157,
      "Co": 6158,
      "ughter": 6159,
      "Ġmaster": 6160,
      "Ġstories": 6161,
      "Ġcelebr": 6162,
      "inese": 6163,
      "BS": 6164,
      "ĠCommand": 6165,
      "kg": 6166,
      "Ġsteps": 6167,
      "ĠBen": 6168,
      "ĠPerson": 6169,
      "Ġofficials": 6170,
      "|Ċ": 6171,
      "Ġskills": 6172,
      "vc": 6173,
      "Ġbuilder": 6174,
      "Ġgar": 6175,
      "Account": 6176,
      "çĶ": 6177,
      "ĠAT": 6178,
      "nn": 6179,
      "Ġeffective": 6180,
      "Ġtools": 6181,
      "ARD": 6182,
      "Ġdigital": 6183,
      "ĠFind": 6184,
      "RC": 6185,
      "Ġinline": 6186,
      "/r": 6187,
      "Ġintent": 6188,
      "aight": 6189,
      "Ġrequests": 6190,
      "Ġspent": 6191,
      "Ġprincip": 6192,
      "Ġsurv": 6193,
      "media": 6194,
      "ĠFebruary": 6195,
      "ĠMac": 6196,
      "Ġmissing": 6197,
      "Ġwife": 6198,
      "Ġtalking": 6199,
      "ĠMake": 6200,
      "Ġcart": 6201,
      "Ġlocated": 6202,
      "-a": 6203,
      "Ġcards": 6204,
      "Ġguy": 6205,
      "Ġpers": 6206,
      "ĠYes": 6207,
      "atever": 6208,
      "ĠAng": 6209,
      "olar": 6210,
      "ĠEven": 6211,
      "Ġaccur": 6212,
      "ĠPower": 6213,
      "ĠGold": 6214,
      "Process": 6215,
      "Ġrecords": 6216,
      "Ġkilled": 6217,
      "Ġpurpose": 6218,
      "panel": 6219,
      "Ġexerc": 6220,
      "WS": 6221,
      "/L": 6222,
      "Ġsin": 6223,
      "roke": 6224,
      "ugh": 6225,
      "ears": 6226,
      "Ġpointer": 6227,
      "Ġhop": 6228,
      "allery": 6229,
      "Ġobs": 6230,
      "covery": 6231,
      "ocity": 6232,
      "itchen": 6233,
      "ulations": 6234,
      "straints": 6235,
      "vention": 6236,
      "Ġrequires": 6237,
      "ĠOper": 6238,
      "ME": 6239,
      "Ġnorm": 6240,
      "IRE": 6241,
      "exas": 6242,
      "Ġprograms": 6243,
      "Ġweak": 6244,
      "uing": 6245,
      "Ġmil": 6246,
      "Ġfirm": 6247,
      "initely": 6248,
      "apse": 6249,
      "atisf": 6250,
      "Ġdemand": 6251,
      "Ġdescribed": 6252,
      "Ġplaces": 6253,
      "VID": 6254,
      "Ġalone": 6255,
      "Ġexport": 6256,
      "ĠMax": 6257,
      "Ġactivities": 6258,
      "ictures": 6259,
      "Ġma": 6260,
      "Ĥ¬": 6261,
      "Ġexpression": 6262,
      "Callback": 6263,
      "ĠMost": 6264,
      "Ġtesting": 6265,
      "EC": 6266,
      "Ġadjust": 6267,
      "Ġagree": 6268,
      "ighest": 6269,
      "ĠLaw": 6270,
      "-lg": 6271,
      "âĢĿĊĊ": 6272,
      "Ġdescribe": 6273,
      "ĠEuropean": 6274,
      "-sh": 6275,
      "Ġconvers": 6276,
      "ĠAv": 6277,
      "?\"": 6278,
      "chen": 6279,
      "ima": 6280,
      "Document": 6281,
      "Ġoperations": 6282,
      "win": 6283,
      "Ġscen": 6284,
      "/h": 6285,
      "ĠSC": 6286,
      "Ġexplo": 6287,
      "æĪ": 6288,
      "Ġdirector": 6289,
      "Ġyield": 6290,
      "Ġfeet": 6291,
      "ĠSearch": 6292,
      "ĠIl": 6293,
      "Ġrestaur": 6294,
      "duc": 6295,
      "Ġinteger": 6296,
      "Ġhighly": 6297,
      "ï¼ī": 6298,
      "Ġoptim": 6299,
      "itation": 6300,
      "Ġtransport": 6301,
      "ission": 6302,
      "fill": 6303,
      "usion": 6304,
      "ĠĠĠĠĠĠĠĠĠĠĠĠĠĠĠĠĠĠĠĠĠĠĠĠĠĠĠĠĠĠ": 6305,
      "-th": 6306,
      "Ġessential": 6307,
      "anted": 6308,
      "Ġbenefits": 6309,
      "iki": 6310,
      "Ġgirls": 6311,
      "iced": 6312,
      "]+": 6313,
      "Ġprices": 6314,
      "ĠFre": 6315,
      "Ġsat": 6316,
      "Ġwood": 6317,
      "ĠAdmin": 6318,
      "Ġreset": 6319,
      "Ġforms": 6320,
      "æĸ": 6321,
      "ĠTuesday": 6322,
      "ĠInitialized": 6323,
      "orary": 6324,
      "Total": 6325,
      "ilies": 6326,
      "Ġguys": 6327,
      "Ġinstruction": 6328,
      "Ġinternet": 6329,
      "ady": 6330,
      "faces": 6331,
      "jection": 6332,
      "ĠJack": 6333,
      "Ġrect": 6334,
      "ĠLeg": 6335,
      "Ġdevices": 6336,
      "OC": 6337,
      "oration": 6338,
      "ertain": 6339,
      "Ġguard": 6340,
      "ĠOk": 6341,
      "Home": 6342,
      "Ġdelay": 6343,
      "Ġpurchase": 6344,
      "dc": 6345,
      "Ġaren": 6346,
      "ror": 6347,
      "draw": 6348,
      "lik": 6349,
      "Ġfish": 6350,
      "Ġjo": 6351,
      "andard": 6352,
      "Ġdoll": 6353,
      "Ġleader": 6354,
      "Ġcompar": 6355,
      "Ġdoub": 6356,
      "ĠVis": 6357,
      "-C": 6358,
      "ĠStud": 6359,
      "stitute": 6360,
      "More": 6361,
      "ĠDescription": 6362,
      "ads": 6363,
      "employ": 6364,
      "-B": 6365,
      "&&": 6366,
      "alm": 6367,
      "Ġculture": 6368,
      "house": 6369,
      "Ġsuffer": 6370,
      "Ġstraight": 6371,
      "ĠStar": 6372,
      "Ġded": 6373,
      "ĠCOM": 6374,
      "Ġconfirm": 6375,
      "ĠGood": 6376,
      "________________": 6377,
      "DR": 6378,
      "Configuration": 6379,
      "Ġadvert": 6380,
      "Ġcouldn": 6381,
      "Ġhous": 6382,
      "Ġmechan": 6383,
      "rate": 6384,
      "Ġaudio": 6385,
      "cores": 6386,
      "Ġspot": 6387,
      "Ġincreasing": 6388,
      "Ġcompared": 6389,
      "lig": 6390,
      "Ġbehavior": 6391,
      "ĠBY": 6392,
      "ĠAtt": 6393,
      "craft": 6394,
      "ete": 6395,
      "Ġdetail": 6396,
      "ĠCommon": 6397,
      "ston": 6398,
      "Ġfresh": 6399,
      "berg": 6400,
      "Ġmoved": 6401,
      "ĠSaturday": 6402,
      "):ĊĊ": 6403,
      "Ġbey": 6404,
      "urer": 6405,
      "Ġsymbol": 6406,
      "Ġassum": 6407,
      "Ġpul": 6408,
      "Ġhundred": 6409,
      "aked": 6410,
      "Ġvoice": 6411,
      "Ġtransaction": 6412,
      "Ġlinks": 6413,
      "Err": 6414,
      "ĠIndian": 6415,
      "TC": 6416,
      "ni": 6417,
      "ji": 6418,
      "ya": 6419,
      "Ġdemonstr": 6420,
      "ulated": 6421,
      "Ġinstit": 6422,
      "Ġboost": 6423,
      "Ġcells": 6424,
      "olic": 6425,
      ":</": 6426,
      "ifying": 6427,
      "ĠDi": 6428,
      "orrow": 6429,
      "Ġcollege": 6430,
      "Your": 6431,
      "Ġlargest": 6432,
      ".dis": 6433,
      "Ġindividuals": 6434,
      "Ġng": 6435,
      "SA": 6436,
      "ĠControl": 6437,
      "Ġsing": 6438,
      "Ġsuit": 6439,
      "Ġjump": 6440,
      "Ġsmart": 6441,
      "oma": 6442,
      "ĠExp": 6443,
      "Ġassist": 6444,
      "Ġsuccessfully": 6445,
      "ĠCre": 6446,
      "_ref": 6447,
      "ĠThursday": 6448,
      "Ġbur": 6449,
      "Ġbeyond": 6450,
      "Ġnodes": 6451,
      "Details": 6452,
      "inct": 6453,
      "ĠJames": 6454,
      "Ġaffect": 6455,
      "-se": 6456,
      "`,": 6457,
      "}.": 6458,
      "Show": 6459,
      "Ġrates": 6460,
      "-icon": 6461,
      "ĠMedia": 6462,
      "Ġfuck": 6463,
      "acks": 6464,
      "Ġstudies": 6465,
      "Me": 6466,
      "Ġowners": 6467,
      "Ġgrowing": 6468,
      "ĠBel": 6469,
      "vement": 6470,
      "onym": 6471,
      "(F": 6472,
      "Ġtorch": 6473,
      "igo": 6474,
      "structure": 6475,
      "Ġcertainly": 6476,
      "ĠGreen": 6477,
      "Ġadding": 6478,
      "ĠDevelop": 6479,
      "Ġmach": 6480,
      "=%": 6481,
      "Project": 6482,
      "Ġreject": 6483,
      "ĠÎ": 6484,
      "Ġpoor": 6485,
      "Ġaware": 6486,
      "ĠBuild": 6487,
      "ĠBritish": 6488,
      "ĠNE": 6489,
      "Ġnumer": 6490,
      "rees": 6491,
      "Ġom": 6492,
      "Ġscre": 6493,
      "OLD": 6494,
      "eler": 6495,
      "Ġcorrespond": 6496,
      "Ġbinary": 6497,
      "ĠSQL": 6498,
      "Ġadvant": 6499,
      ".[": 6500,
      "arp": 6501,
      "Ġclosed": 6502,
      "Ġencour": 6503,
      "aud": 6504,
      "Ġdeveloped": 6505,
      "Ġpermission": 6506,
      "Ġsym": 6507,
      "atively": 6508,
      "Ã©e": 6509,
      "-color": 6510,
      "ky": 6511,
      "Ġalthough": 6512,
      "................": 6513,
      "Ġamazing": 6514,
      "Ġfailure": 6515,
      "Ġdream": 6516,
      "Ġdistr": 6517,
      "Ġgenerated": 6518,
      "æķ": 6519,
      "ĠTeam": 6520,
      "USE": 6521,
      "Ġincome": 6522,
      "Ġeye": 6523,
      "Support": 6524,
      "orders": 6525,
      "ville": 6526,
      "ĠWednesday": 6527,
      "Ġoppos": 6528,
      "isation": 6529,
      "ola": 6530,
      "<p": 6531,
      "Invalid": 6532,
      "Ġstrugg": 6533,
      "ĠPath": 6534,
      "alar": 6535,
      "service": 6536,
      "ĠMichael": 6537,
      "Debug": 6538,
      "She": 6539,
      "Ġguess": 6540,
      "ĠJava": 6541,
      "_PATH": 6542,
      "Ġparticularly": 6543,
      "ĠII": 6544,
      "Ġdomain": 6545,
      "å¹´": 6546,
      "Ġreduce": 6547,
      "-left": 6548,
      "real": 6549,
      "Ġappears": 6550,
      "ĠUnit": 6551,
      "ĠGovern": 6552,
      "ali": 6553,
      "allel": 6554,
      "ĠJew": 6555,
      "ĠGlobal": 6556,
      "Ġtele": 6557,
      "ben": 6558,
      "Ġreasons": 6559,
      "Ġemb": 6560,
      "ensity": 6561,
      "lines": 6562,
      "pects": 6563,
      "rent": 6564,
      "Ġaf": 6565,
      "Ġdanger": 6566,
      "iling": 6567,
      "Names": 6568,
      "Our": 6569,
      "Ġdistribution": 6570,
      "While": 6571,
      "SL": 6572,
      "Write": 6573,
      "Ġcolors": 6574,
      "Ġpowerful": 6575,
      "kin": 6576,
      "Ġdepth": 6577,
      "ercial": 6578,
      "ĠCongress": 6579,
      "ĠMarket": 6580,
      "under": 6581,
      "ĠLast": 6582,
      "Ġposts": 6583,
      "Don": 6584,
      "Ġmicro": 6585,
      "Ġarrest": 6586,
      "ĠHot": 6587,
      "ĠIndex": 6588,
      ";&": 6589,
      "ĠNor": 6590,
      "ĠCap": 6591,
      "Ġinterested": 6592,
      "pear": 6593,
      "Ġrent": 6594,
      "Ġalbum": 6595,
      "olicy": 6596,
      ".lang": 6597,
      "phere": 6598,
      "Ġaxis": 6599,
      "ĠBusiness": 6600,
      "urr": 6601,
      "Ġminimum": 6602,
      "ĠSD": 6603,
      "ĠInternet": 6604,
      "å¤": 6605,
      "Exp": 6606,
      "iverse": 6607,
      "MM": 6608,
      "Ġobvious": 6609,
      "Ġbasis": 6610,
      "Ġscience": 6611,
      "Ġbudget": 6612,
      "izations": 6613,
      "PA": 6614,
      "Ġflags": 6615,
      "pret": 6616,
      "Ġvariety": 6617,
      "Ġtruth": 6618,
      "dt": 6619,
      "Ġgone": 6620,
      "Ġbattle": 6621,
      "ĠSil": 6622,
      "rf": 6623,
      "ĠCam": 6624,
      "Ġstation": 6625,
      "cheme": 6626,
      "ĠSun": 6627,
      "Ġfinished": 6628,
      "Ġshop": 6629,
      "ĠKore": 6630,
      "Ġeight": 6631,
      "_REG": 6632,
      "ND": 6633,
      ">,": 6634,
      "Ġmail": 6635,
      "rey": 6636,
      "Make": 6637,
      "åĬ": 6638,
      "ĠSur": 6639,
      "Ġoverall": 6640,
      "ĠInformation": 6641,
      "Ġconstruction": 6642,
      "but": 6643,
      "Ġmedic": 6644,
      "Ġduration": 6645,
      "itness": 6646,
      "AV": 6647,
      "Ġseven": 6648,
      "olf": 6649,
      "Ġcalling": 6650,
      "ĠStatus": 6651,
      "ĠOnline": 6652,
      "RR": 6653,
      "ĠRich": 6654,
      "ĠHill": 6655,
      "Ġbrain": 6656,
      "Ġfollowed": 6657,
      "emic": 6658,
      "Ġslight": 6659,
      "Ġinsurance": 6660,
      "Ġabstract": 6661,
      "ĠSum": 6662,
      "ĠClinton": 6663,
      "Non": 6664,
      "Ġvolume": 6665,
      "-L": 6666,
      "ĠDim": 6667,
      "ĠMart": 6668,
      "Ġcursor": 6669,
      "Ġimplementation": 6670,
      "urred": 6671,
      "Ġlarger": 6672,
      "ĠĠĠĠĠĠĠĠĠĠĠĠĠĠĠĠĠĠĠĠĠĠĠĠĠĠĠĠĠĠĠĠĠĠĠĠĠĠĠĠĠĠĠĠĠĠĠĠĠĠĠĠĠĠĠ": 6673,
      "nel": 6674,
      "qrt": 6675,
      "ĠNetwork": 6676,
      "Ġtit": 6677,
      "Ġcompleted": 6678,
      "Ġmur": 6679,
      "Ġcolumns": 6680,
      "Ġsupply": 6681,
      "iminal": 6682,
      "Ġspr": 6683,
      "Ġunits": 6684,
      "mi": 6685,
      "antic": 6686,
      "Ġpayment": 6687,
      "ĠApple": 6688,
      "gin": 6689,
      "lands": 6690,
      "Ġsqu": 6691,
      "Ġfactor": 6692,
      "Ġstrength": 6693,
      "Ġboy": 6694,
      "Ġbalance": 6695,
      "Ġsources": 6696,
      "-top": 6697,
      "ĠAmazon": 6698,
      "Ġhidden": 6699,
      "Ġeat": 6700,
      "ĠÂ»": 6701,
      "Ġtrigger": 6702,
      "Ġtro": 6703,
      "Ġclaims": 6704,
      "ford": 6705,
      "ĠCompany": 6706,
      "Ġgift": 6707,
      "Ġproduce": 6708,
      "/lib": 6709,
      "arc": 6710,
      "ander": 6711,
      "ĠEngine": 6712,
      "Ġattributes": 6713,
      "(N": 6714,
      "Ġwarm": 6715,
      "which": 6716,
      "ĠFore": 6717,
      "agnost": 6718,
      "Ġtal": 6719,
      "ĠSal": 6720,
      "gi": 6721,
      "ĠPrint": 6722,
      "Ġflash": 6723,
      "ĠMill": 6724,
      "bi": 6725,
      "ĠSam": 6726,
      "Ġnegative": 6727,
      "kit": 6728,
      "Ġsett": 6729,
      "abe": 6730,
      "Ġburn": 6731,
      "Ġsociety": 6732,
      "Cache": 6733,
      "ĠSecurity": 6734,
      "ceive": 6735,
      "Ġclients": 6736,
      "Ġproviding": 6737,
      "Ġrout": 6738,
      "ĠSer": 6739,
      "ĠOffice": 6740,
      "Ġfoc": 6741,
      "Ġexcell": 6742,
      "Ġcat": 6743,
      "normal": 6744,
      "Ġdetermine": 6745,
      "Ġemployees": 6746,
      "ĠTexas": 6747,
      "Ġtraff": 6748,
      "ĠReport": 6749,
      "anta": 6750,
      "ĠBox": 6751,
      "Ġpartner": 6752,
      "EB": 6753,
      "Ġfeeling": 6754,
      "Ġcivil": 6755,
      "Ġwouldn": 6756,
      "-v": 6757,
      "AF": 6758,
      "Ġloading": 6759,
      "ĠOnly": 6760,
      "Ġcookies": 6761,
      "ĠGl": 6762,
      "CO": 6763,
      "Ġstrategy": 6764,
      "Ġship": 6765,
      "poses": 6766,
      "Ġsignal": 6767,
      "Ġalpha": 6768,
      "Ġreplace": 6769,
      "_DIR": 6770,
      "counter": 6771,
      "ela": 6772,
      "hash": 6773,
      "ĠEmail": 6774,
      "Ġrefer": 6775,
      "iques": 6776,
      "Step": 6777,
      "Ġahead": 6778,
      "ĠServices": 6779,
      "essor": 6780,
      "Ġpun": 6781,
      "Ġappropriate": 6782,
      "akers": 6783,
      "osen": 6784,
      "Ġagent": 6785,
      "fc": 6786,
      "Ġtransfer": 6787,
      "Ġinvalid": 6788,
      "ĠResearch": 6789,
      "Ġgay": 6790,
      "Ġjournal": 6791,
      "[x": 6792,
      "ĠWell": 6793,
      "Spec": 6794,
      "Ġol": 6795,
      "Ġspend": 6796,
      "ĠAustralia": 6797,
      "Match": 6798,
      "ĠĠĠĠĠĠĠĠĠĠĠĠĠĠĠĠĠĠĠĠĠĠĠĠĠĠĠĠĠĠĠĠĠĠĠĠĠ": 6799,
      "clusive": 6800,
      "Ġquarter": 6801,
      "yan": 6802,
      "arden": 6803,
      "Ġfrag": 6804,
      "zi": 6805,
      "aine": 6806,
      "udd": 6807,
      "Ġcash": 6808,
      "Ġcommercial": 6809,
      "ĠVideo": 6810,
      "Ġfixed": 6811,
      "Ġapplications": 6812,
      "ĠRussia": 6813,
      "itect": 6814,
      "ĠBlock": 6815,
      "Ġsan": 6816,
      "ĠTom": 6817,
      "Ġperhaps": 6818,
      "levant": 6819,
      "Ġcorpor": 6820,
      "ronic": 6821,
      "Ġeth": 6822,
      "Some": 6823,
      "Ġtend": 6824,
      "Ġreviews": 6825,
      "Ġwild": 6826,
      "Ġdegree": 6827,
      ".O": 6828,
      "Ġdisabled": 6829,
      "Parent": 6830,
      "Ġnotes": 6831,
      "istrict": 6832,
      "Ġlogging": 6833,
      "ĠMal": 6834,
      "DM": 6835,
      "ĠRobert": 6836,
      "elen": 6837,
      "fol": 6838,
      ",b": 6839,
      "ĠJer": 6840,
      "Ġfan": 6841,
      "ĠDie": 6842,
      "Ġtrip": 6843,
      "MB": 6844,
      "Ġsoft": 6845,
      "Ġapplicable": 6846,
      "Ġupper": 6847,
      "Here": 6848,
      "ĠServer": 6849,
      "Ġchem": 6850,
      "Ġhighest": 6851,
      "ĠSelect": 6852,
      "ĠWhy": 6853,
      "Sec": 6854,
      "heel": 6855,
      "Operation": 6856,
      "Ġconnected": 6857,
      "irmed": 6858,
      "Ġcitiz": 6859,
      "ĠChe": 6860,
      "Ġforces": 6861,
      "Ġwww": 6862,
      "Root": 6863,
      "ANCE": 6864,
      "Many": 6865,
      "icip": 6866,
      "rgan": 6867,
      "ĠTor": 6868,
      "ĠPress": 6869,
      "ĠMor": 6870,
      "-line": 6871,
      "uled": 6872,
      "Ġthus": 6873,
      "ĠRegister": 6874,
      "hol": 6875,
      "ĠChinese": 6876,
      "Ġposted": 6877,
      "Ġmagn": 6878,
      "abilities": 6879,
      "Ġdisease": 6880,
      "Ġremains": 6881,
      "ĠProf": 6882,
      "-form": 6883,
      "organ": 6884,
      "icate": 6885,
      "Ġstress": 6886,
      "]*": 6887,
      "orry": 6888,
      "Ġdied": 6889,
      "mat": 6890,
      "Ġstarts": 6891,
      "Ġruns": 6892,
      "Ġguide": 6893,
      "ĠSize": 6894,
      "uler": 6895,
      "Ġresponsible": 6896,
      "Ġcontaining": 6897,
      "ĠPrice": 6898,
      "||": 6899,
      "FS": 6900,
      "Ġemp": 6901,
      "Ġsuff": 6902,
      "pth": 6903,
      "Ġdefinitely": 6904,
      "pute": 6905,
      "Ġmarketing": 6906,
      "ĠWH": 6907,
      "Ġconsult": 6908,
      "Ġsigned": 6909,
      "Ġsequence": 6910,
      "lee": 6911,
      "Ġrequirements": 6912,
      "hy": 6913,
      "MT": 6914,
      "sey": 6915,
      "Ġult": 6916,
      "å®": 6917,
      "elligence": 6918,
      "Ġanaly": 6919,
      "Ġdress": 6920,
      "ĠGreat": 6921,
      "ĠAndroid": 6922,
      "ĠAlex": 6923,
      "mode": 6924,
      "ä½": 6925,
      "Ġfamilies": 6926,
      "ĠRussian": 6927,
      "ĠTimes": 6928,
      "$(": 6929,
      "Ġfolder": 6930,
      "ches": 6931,
      "Ġlegis": 6932,
      "unes": 6933,
      "ÙĦ": 6934,
      "ĠHand": 6935,
      "Ġbiggest": 6936,
      "Ġpolic": 6937,
      "Ġpermissions": 6938,
      "Ġshowed": 6939,
      "ĠElement": 6940,
      "Ġtopic": 6941,
      "âĢĶâĢĶ": 6942,
      "road": 6943,
      "ĠBank": 6944,
      "Ġpartners": 6945,
      "ĠRef": 6946,
      "essions": 6947,
      "Ġassess": 6948,
      "UST": 6949,
      "ĠParty": 6950,
      "produ": 6951,
      "LC": 6952,
      "Ġul": 6953,
      ".form": 6954,
      "copy": 6955,
      "ĠLin": 6956,
      "una": 6957,
      "ugar": 6958,
      "Ġadministration": 6959,
      "Ġopening": 6960,
      "Ġscan": 6961,
      "Ġcontinued": 6962,
      "Ġhappens": 6963,
      "ĠPR": 6964,
      "di": 6965,
      "Ġwaiting": 6966,
      "Ġeconomy": 6967,
      "ĠFrench": 6968,
      "Ġfant": 6969,
      "SH": 6970,
      "Ġstreet": 6971,
      "Ġmale": 6972,
      "anging": 6973,
      "ĠBill": 6974,
      "Ġpreviously": 6975,
      "BI": 6976,
      "ĠSecret": 6977,
      "Ġmist": 6978,
      "ĠField": 6979,
      "ups": 6980,
      "ĠProcess": 6981,
      "Ġkept": 6982,
      "Ġtraditional": 6983,
      ".i": 6984,
      "amin": 6985,
      "Ġhelps": 6986,
      "Any": 6987,
      "ju": 6988,
      "ĠAccount": 6989,
      "ktop": 6990,
      "olly": 6991,
      "Ġut": 6992,
      "Ġcentral": 6993,
      "Ġsatisf": 6994,
      "GR": 6995,
      "ĠFull": 6996,
      "Ġheat": 6997,
      "iber": 6998,
      "Ġonto": 6999,
      "mos": 7000,
      "Schema": 7001,
      "Ġfactory": 7002,
      "aws": 7003,
      "Ġguest": 7004,
      "Ġmal": 7005,
      "ARY": 7006,
      "Ġreached": 7007,
      "Ġmouse": 7008,
      "Ġchallenge": 7009,
      "ĠTem": 7010,
      "Ġterror": 7011,
      "Ġextract": 7012,
      "Ġseparate": 7013,
      "Ġmir": 7014,
      "help": 7015,
      "Ġcapacity": 7016,
      "ĠProperty": 7017,
      "kan": 7018,
      "ĠLight": 7019,
      "Ġunderstanding": 7020,
      "Ġeasier": 7021,
      "Ġenh": 7022,
      "Ġfat": 7023,
      "Ġprotest": 7024,
      "amm": 7025,
      "_AT": 7026,
      "-of": 7027,
      "ils": 7028,
      "ĠOh": 7029,
      "Ġpsych": 7030,
      "inds": 7031,
      "Ġrelative": 7032,
      "shop": 7033,
      "ĠSand": 7034,
      "uestion": 7035,
      "Ġfear": 7036,
      "/ĊĊ": 7037,
      "Ġschools": 7038,
      "Ġserve": 7039,
      "Ġmajority": 7040,
      "example": 7041,
      "Register": 7042,
      "Ġprocessing": 7043,
      "Ġeg": 7044,
      "COM": 7045,
      "ĠBlue": 7046,
      "iro": 7047,
      "Ġremote": 7048,
      "ĠIT": 7049,
      "raz": 7050,
      "ĠSince": 7051,
      "ĠTur": 7052,
      "===": 7053,
      "Ġreflect": 7054,
      "Ġpros": 7055,
      "cmd": 7056,
      "Ġwhom": 7057,
      "ĠAre": 7058,
      "ĠThom": 7059,
      "gu": 7060,
      "Ġmonitor": 7061,
      "rm": 7062,
      "Ġpatient": 7063,
      "Ġgain": 7064,
      "Ġdies": 7065,
      "Area": 7066,
      "Ġreality": 7067,
      "ordinate": 7068,
      "olved": 7069,
      "Contact": 7070,
      "Ġcompliance": 7071,
      "dl": 7072,
      "Ġappend": 7073,
      "GER": 7074,
      "Ġdynamic": 7075,
      "ordinates": 7076,
      "Ġbatter": 7077,
      "space": 7078,
      "La": 7079,
      "ĠSource": 7080,
      "/bin": 7081,
      "Ġdos": 7082,
      "ĠBoard": 7083,
      "ĠAL": 7084,
      "ĠMer": 7085,
      "Ġmiles": 7086,
      "Ġbenefit": 7087,
      "Ġintegr": 7088,
      "ĠDiv": 7089,
      "Ġton": 7090,
      "oth": 7091,
      "ervation": 7092,
      "edom": 7093,
      "Ġbaby": 7094,
      "ceived": 7095,
      "ĠLocal": 7096,
      "riage": 7097,
      "Ġattacks": 7098,
      "Ġhospital": 7099,
      "Ġfemale": 7100,
      "ĠFlor": 7101,
      "Ġchain": 7102,
      "ashion": 7103,
      "Ġfarm": 7104,
      "Ġknows": 7105,
      "Ġgenerally": 7106,
      "ipeline": 7107,
      "Ġmeant": 7108,
      "Ġcontents": 7109,
      "PM": 7110,
      "chedule": 7111,
      "CG": 7112,
      "ĠReal": 7113,
      "uer": 7114,
      "\"`Ċ": 7115,
      "Ġspeech": 7116,
      "Ġthr": 7117,
      "Ġwarn": 7118,
      "Ġheavy": 7119,
      "<li": 7120,
      "Ne": 7121,
      "Ġinvestigation": 7122,
      "Math": 7123,
      "-title": 7124,
      "Ġchurch": 7125,
      "Ġdespite": 7126,
      "Ġwhatever": 7127,
      "arian": 7128,
      "fn": 7129,
      "Ġmeta": 7130,
      "Ġregarding": 7131,
      "mes": 7132,
      "Ġresolve": 7133,
      "poss": 7134,
      "ira": 7135,
      "force": 7136,
      "Ã¢": 7137,
      "Ġpm": 7138,
      "Ġupdates": 7139,
      "Ġtoward": 7140,
      "Ġlisten": 7141,
      "Ġgoals": 7142,
      "Dr": 7143,
      "Ġrare": 7144,
      "Ġtrail": 7145,
      "Cal": 7146,
      "Car": 7147,
      "ĠPeople": 7148,
      "Reference": 7149,
      "emb": 7150,
      "Ġprim": 7151,
      "Ġrad": 7152,
      "æķ°": 7153,
      "Ġspread": 7154,
      "Ġclock": 7155,
      "Ġvir": 7156,
      "editor": 7157,
      "Ġefforts": 7158,
      "Ġbranch": 7159,
      "Ġindust": 7160,
      "Ġmotor": 7161,
      "ĠChristian": 7162,
      "ĠAmericans": 7163,
      "Ġfmt": 7164,
      "Ġcaused": 7165,
      "_update": 7166,
      "ĠContent": 7167,
      "Ġbath": 7168,
      "ĠEach": 7169,
      "Ġradio": 7170,
      "achment": 7171,
      "uzz": 7172,
      "Ġrestrict": 7173,
      "ĠLoad": 7174,
      "Ġextension": 7175,
      "Ġessay": 7176,
      "Ġhat": 7177,
      "aviour": 7178,
      "Ġoffered": 7179,
      "Ġvill": 7180,
      "æĹ¥": 7181,
      "bc": 7182,
      "ĠMiss": 7183,
      "ĠBer": 7184,
      "Ġè": 7185,
      "ĠLike": 7186,
      "Ġhelped": 7187,
      "Ġspirit": 7188,
      "ĠApache": 7189,
      "ws": 7190,
      "Ġtherefore": 7191,
      "Ġpeace": 7192,
      "Ġincor": 7193,
      "Ġminor": 7194,
      "ipes": 7195,
      "trie": 7196,
      "_frame": 7197,
      "Ġopened": 7198,
      "LY": 7199,
      "nu": 7200,
      "margin": 7201,
      "Ġpi": 7202,
      "Ġeq": 7203,
      "bd": 7204,
      "Fields": 7205,
      "ĠTree": 7206,
      "Ġban": 7207,
      "istan": 7208,
      "Ġproduced": 7209,
      "system": 7210,
      "Mark": 7211,
      "_hash": 7212,
      "Ġconstit": 7213,
      "ĠLeague": 7214,
      "Ġmission": 7215,
      "clusion": 7216,
      "!\"": 7217,
      "break": 7218,
      "Ġther": 7219,
      "Ġfootball": 7220,
      "-link": 7221,
      "Ġbag": 7222,
      "overs": 7223,
      "Ġenabled": 7224,
      "Ġrac": 7225,
      "CR": 7226,
      "ancing": 7227,
      "Ġmanaged": 7228,
      "Ġmac": 7229,
      "Ġpin": 7230,
      "acking": 7231,
      "Ġoccas": 7232,
      "person": 7233,
      "Ġhaven": 7234,
      "Ġglass": 7235,
      "ĠSimple": 7236,
      "Print": 7237,
      "Ġsurround": 7238,
      "NO": 7239,
      "ãĢĤĊ": 7240,
      "ĠMany": 7241,
      "Ġweekend": 7242,
      "Ġsomew": 7243,
      "small": 7244,
      "ATED": 7245,
      "oon": 7246,
      "ye": 7247,
      "Ġolder": 7248,
      "Ġgam": 7249,
      "Ġextremely": 7250,
      "enum": 7251,
      "ĠSET": 7252,
      "/index": 7253,
      "Ġcritical": 7254,
      "Ġexecute": 7255,
      "Ġshowing": 7256,
      "-list": 7257,
      "typename": 7258,
      "that": 7259,
      "cher": 7260,
      "ĠâĨ": 7261,
      "Ġthousands": 7262,
      "olut": 7263,
      "Ag": 7264,
      "ĠTwo": 7265,
      "Ġbecomes": 7266,
      "Ġhus": 7267,
      "Ġlose": 7268,
      "Ġvel": 7269,
      "Ġdefense": 7270,
      "Ġbes": 7271,
      "Ġdry": 7272,
      "ĠRest": 7273,
      "Where": 7274,
      "ĠJes": 7275,
      "Ġwire": 7276,
      "Ġstrings": 7277,
      "gment": 7278,
      "Ġmatches": 7279,
      "Ġelectric": 7280,
      "Ġexcellent": 7281,
      "ĠCouncil": 7282,
      "Ġtasks": 7283,
      "Ġrich": 7284,
      "sa": 7285,
      "ĠSmith": 7286,
      "pective": 7287,
      "ista": 7288,
      "Ġagency": 7289,
      "Ġsich": 7290,
      "ologies": 7291,
      "Ġtrial": 7292,
      "alysis": 7293,
      "about": 7294,
      "Ġplaced": 7295,
      "Ġdan": 7296,
      "Ġweather": 7297,
      "Ġdestination": 7298,
      "Ġprovider": 7299,
      ".last": 7300,
      "Note": 7301,
      "Ġplanning": 7302,
      "attribute": 7303,
      "PRO": 7304,
      "Ġ<-": 7305,
      "Ġseeing": 7306,
      "Ġvisual": 7307,
      "ĠCurrent": 7308,
      "ĠCollege": 7309,
      "ĠRock": 7310,
      "Ġagreement": 7311,
      "ĠStore": 7312,
      "oving": 7313,
      "Ġcorner": 7314,
      "Fin": 7315,
      "Ġprotection": 7316,
      "Ġfi": 7317,
      "Play": 7318,
      ")}": 7319,
      "Ġtransition": 7320,
      "Ġcandidate": 7321,
      "ĠUnion": 7322,
      "cle": 7323,
      "Ġtrend": 7324,
      "wide": 7325,
      "ĠBay": 7326,
      "Ġsmaller": 7327,
      "ius": 7328,
      "well": 7329,
      "Ġcriminal": 7330,
      "Ġconflic": 7331,
      "bert": 7332,
      "_INT": 7333,
      "Ġinvestment": 7334,
      "custom": 7335,
      "ĠSession": 7336,
      "ania": 7337,
      "ĠMass": 7338,
      "Ġviolence": 7339,
      "Argument": 7340,
      "Ġbelong": 7341,
      "Ġenemy": 7342,
      "ema": 7343,
      "ĠAddress": 7344,
      "Ġinner": 7345,
      "ĠContact": 7346,
      "ĠCA": 7347,
      "Ġpictures": 7348,
      "ĠSupport": 7349,
      "ĠClick": 7350,
      "Sum": 7351,
      "Ã¦": 7352,
      "ĠLook": 7353,
      "uous": 7354,
      "EP": 7355,
      "hat": 7356,
      "Ġlabels": 7357,
      "quis": 7358,
      "ĠCommit": 7359,
      "ĉM": 7360,
      "Ġangle": 7361,
      "ĠBecause": 7362,
      "Ġaim": 7363,
      "Ġstick": 7364,
      "agraph": 7365,
      "Ġclin": 7366,
      "ĠIsl": 7367,
      "ĠINT": 7368,
      "Ġstyles": 7369,
      "Ġborn": 7370,
      "Ġscr": 7371,
      "Ġexpand": 7372,
      "Ġraised": 7373,
      "ILL": 7374,
      "------------------------------------------------": 7375,
      "HTTP": 7376,
      ">)": 7377,
      "Ġepisode": 7378,
      "ĠEs": 7379,
      "ĠEarth": 7380,
      "ÂłÂł": 7381,
      "ĠSou": 7382,
      "Ġfav": 7383,
      "Ġconstruct": 7384,
      "eras": 7385,
      "Ġ|Ċ": 7386,
      "Ġexternal": 7387,
      "Ġapplied": 7388,
      "oted": 7389,
      "lers": 7390,
      "Ġcold": 7391,
      "ĠSP": 7392,
      "ĠChurch": 7393,
      "ĠOutput": 7394,
      "çļ": 7395,
      "ificate": 7396,
      "operation": 7397,
      "herit": 7398,
      "_err": 7399,
      "osh": 7400,
      "ĠFrank": 7401,
      "Ġfinding": 7402,
      ".)ĊĊ": 7403,
      "ses": 7404,
      "Ġcrow": 7405,
      "Ġsand": 7406,
      "Ġrid": 7407,
      "iture": 7408,
      "Ġobserv": 7409,
      "Ġvac": 7410,
      "-T": 7411,
      "Art": 7412,
      "night": 7413,
      "Ġexchange": 7414,
      "Ġdistrict": 7415,
      "Ġdepartment": 7416,
      "Ġdocuments": 7417,
      "Ġcentury": 7418,
      "ĠNext": 7419,
      "Host": 7420,
      "Ġsusp": 7421,
      "-P": 7422,
      "isters": 7423,
      "ĠAnn": 7424,
      "wt": 7425,
      "ati": 7426,
      "ĠHTML": 7427,
      "when": 7428,
      "Ġshut": 7429,
      "<a": 7430,
      "edy": 7431,
      "Ġhealthy": 7432,
      "Ġtemperature": 7433,
      "ĠGen": 7434,
      "Ġmetal": 7435,
      "Ġsubmit": 7436,
      "ĠDO": 7437,
      "Ġattract": 7438,
      "ĠWord": 7439,
      "Ġseemed": 7440,
      "ko": 7441,
      "Ġlabor": 7442,
      "Ġasset": 7443,
      "you": 7444,
      "Ġcars": 7445,
      "Ġsquare": 7446,
      "âĢĿ,": 7447,
      "apes": 7448,
      "...Ċ": 7449,
      "Ġthanks": 7450,
      "Ġtick": 7451,
      "Ġexperiment": 7452,
      "Ġprison": 7453,
      "-text": 7454,
      "-width": 7455,
      "fast": 7456,
      "-body": 7457,
      "-header": 7458,
      "Ġguar": 7459,
      "crete": 7460,
      "ĠTim": 7461,
      "Ġclearly": 7462,
      "ĠRepublican": 7463,
      "Ġjustify": 7464,
      "Ġpresence": 7465,
      "Ġfactors": 7466,
      "Ġemployee": 7467,
      "ĠMex": 7468,
      "çļĦ": 7469,
      "ĠNet": 7470,
      "Ġreli": 7471,
      "EG": 7472,
      "Ġteen": 7473,
      "loss": 7474,
      "Ġleaving": 7475,
      "Ġbeat": 7476,
      "Ġminute": 7477,
      "Ġcancer": 7478,
      "/{": 7479,
      "BL": 7480,
      "Ġspan": 7481,
      "ĠChild": 7482,
      "Center": 7483,
      "Ġearth": 7484,
      "YS": 7485,
      "ĠLevel": 7486,
      "Ġsea": 7487,
      "illing": 7488,
      "ĠEst": 7489,
      "cos": 7490,
      "Failed": 7491,
      "swers": 7492,
      "ĠMP": 7493,
      "ĠLife": 7494,
      "Ġattend": 7495,
      "ĠQue": 7496,
      "Ġspecies": 7497,
      "-D": 7498,
      "Ġadvantage": 7499,
      "oston": 7500,
      "-block": 7501,
      "CRE": 7502,
      "Ġtruly": 7503,
      "Ġcompare": 7504,
      "orney": 7505,
      "Ġspect": 7506,
      "Full": 7507,
      "bes": 7508,
      "Ġvisible": 7509,
      "Ġmess": 7510,
      "stances": 7511,
      "Ġcloud": 7512,
      "_version": 7513,
      "Ġfurn": 7514,
      "icago": 7515,
      "Ġtraffic": 7516,
      "Ġfol": 7517,
      "ĠExt": 7518,
      "ĠEngland": 7519,
      "ĠUnder": 7520,
      "Ġta": 7521,
      "Ġofficer": 7522,
      "ĠDonald": 7523,
      "Yes": 7524,
      "ĠUSE": 7525,
      "Ġopinion": 7526,
      "ĠAut": 7527,
      "border": 7528,
      "Ġadvice": 7529,
      "Ġautomatically": 7530,
      "isco": 7531,
      "Ġmm": 7532,
      "Ġgeneration": 7533,
      "Ġbits": 7534,
      "Ġunf": 7535,
      "isis": 7536,
      "Ġlimitations": 7537,
      "Ġended": 7538,
      "ĠMad": 7539,
      "ilm": 7540,
      "These": 7541,
      "ĠMinister": 7542,
      "Ġchart": 7543,
      "Ġindependent": 7544,
      "Year": 7545,
      "Ġinstr": 7546,
      "Ġtags": 7547,
      "ĠArch": 7548,
      "Ġmi": 7549,
      "Ġlearned": 7550,
      "Ge": 7551,
      "Ġhotel": 7552,
      "SM": 7553,
      "Ġcy": 7554,
      "ERSION": 7555,
      "unately": 7556,
      "sel": 7557,
      "Ġmovies": 7558,
      "Ġsteel": 7559,
      "oz": 7560,
      "gb": 7561,
      "ĠCamp": 7562,
      "site": 7563,
      "ĠCore": 7564,
      "Ġmixed": 7565,
      "Ġputs": 7566,
      "Ġinnov": 7567,
      "Ġdeck": 7568,
      "apers": 7569,
      "](": 7570,
      "ĠRoad": 7571,
      "iliar": 7572,
      "Ġcontinues": 7573,
      "Ġappoint": 7574,
      "Ġ#Ċ": 7575,
      "ĠVir": 7576,
      "Ġbin": 7577,
      "going": 7578,
      "BD": 7579,
      "ĠAccess": 7580,
      "ĠManagement": 7581,
      "asket": 7582,
      "Ġestablished": 7583,
      "INS": 7584,
      "Ġneighbor": 7585,
      "lor": 7586,
      "Ġgather": 7587,
      "Ġidentity": 7588,
      "Ġfab": 7589,
      "padding": 7590,
      "ĠRoute": 7591,
      "Ġforced": 7592,
      "resents": 7593,
      "ĠHam": 7594,
      "Ġeventually": 7595,
      "pub": 7596,
      "Ġtra": 7597,
      "ĠFlorida": 7598,
      "ĠClean": 7599,
      "ĠÂ·": 7600,
      "Expression": 7601,
      "vin": 7602,
      "owl": 7603,
      "ifies": 7604,
      "ĠContext": 7605,
      "Ġofficers": 7606,
      "/n": 7607,
      "Ġaccounts": 7608,
      "Section": 7609,
      "icians": 7610,
      "Ġadvis": 7611,
      "ĠFrance": 7612,
      "Func": 7613,
      "icious": 7614,
      "ĠAD": 7615,
      "reme": 7616,
      "uj": 7617,
      "uclear": 7618,
      "[Ċ": 7619,
      "Ġbal": 7620,
      "Ġguid": 7621,
      "-align": 7622,
      "ĠWrite": 7623,
      "ĠOnce": 7624,
      "Ġpitch": 7625,
      "CF": 7626,
      "ĠCommission": 7627,
      "Ġincred": 7628,
      "ĠLos": 7629,
      "Ġassume": 7630,
      "-term": 7631,
      "Ġremaining": 7632,
      "Ġpieces": 7633,
      "apy": 7634,
      "ĠLess": 7635,
      "prise": 7636,
      "Ġbusinesses": 7637,
      "Ġparties": 7638,
      "ĠPrivate": 7639,
      "ĠPlan": 7640,
      "Ġregistered": 7641,
      "Ġjour": 7642,
      "acker": 7643,
      "sect": 7644,
      "Ġcreation": 7645,
      "olutely": 7646,
      "Ġinstant": 7647,
      "Ġdelivery": 7648,
      "icken": 7649,
      "yes": 7650,
      "ĠFranc": 7651,
      "bling": 7652,
      "enda": 7653,
      "ĠĠĠĠĠĠĠĠĠĠĠĠĠĠĠĠĠĠĠĠĠĠĠĠĠĠĠĠĠĠĠĠĠĠ": 7654,
      "Ġschedule": 7655,
      "Ġthank": 7656,
      "Ġhook": 7657,
      "Ġdocumentation": 7658,
      "Parameters": 7659,
      "Hello": 7660,
      "Ġarticles": 7661,
      "Ġwest": 7662,
      ".select": 7663,
      "ĠVAL": 7664,
      "ĠMA": 7665,
      "Ġcities": 7666,
      "related": 7667,
      "åĽ": 7668,
      "Ġappeared": 7669,
      "Ġwid": 7670,
      "ĠIns": 7671,
      "Ġdecre": 7672,
      "ĠLou": 7673,
      "ĠThank": 7674,
      "Ġmentioned": 7675,
      "ĠTry": 7676,
      "ĠWall": 7677,
      "/images": 7678,
      "ĠEr": 7679,
      "Ġcritic": 7680,
      "ĠYear": 7681,
      "Ġflo": 7682,
      "NN": 7683,
      "ĠAff": 7684,
      "rooms": 7685,
      "Ġhyp": 7686,
      "global": 7687,
      "æľĪ": 7688,
      "Ġcompletion": 7689,
      "Ġcond": 7690,
      "onymous": 7691,
      "Ġstars": 7692,
      "Ġrelevant": 7693,
      "Ġcovered": 7694,
      "Ġelim": 7695,
      "Ġtu": 7696,
      "Ġsecure": 7697,
      "Ġstored": 7698,
      "MI": 7699,
      "ĠDen": 7700,
      "Ġannual": 7701,
      "-and": 7702,
      "Ġcrime": 7703,
      "bel": 7704,
      "Ġkitchen": 7705,
      "ĠSocial": 7706,
      "ĠSpecial": 7707,
      "Ġtail": 7708,
      "Ġunknown": 7709,
      "ded": 7710,
      "Ġapprec": 7711,
      "cf": 7712,
      "Ġassign": 7713,
      "-out": 7714,
      "ĠMont": 7715,
      "dp": 7716,
      "Ġstone": 7717,
      "-primary": 7718,
      "Results": 7719,
      "Ġdaughter": 7720,
      "Ġsouth": 7721,
      "forms": 7722,
      "ĠOUT": 7723,
      "aks": 7724,
      "igure": 7725,
      "ĠEU": 7726,
      "Ġbrief": 7727,
      "ĠScott": 7728,
      "Ġconference": 7729,
      "anda": 7730,
      "oral": 7731,
      "Ġris": 7732,
      "Ġgender": 7733,
      "estic": 7734,
      "See": 7735,
      "Ġwilling": 7736,
      "aze": 7737,
      "Ġsports": 7738,
      "Ġyes": 7739,
      "lu": 7740,
      "Ġpurs": 7741,
      "-pro": 7742,
      "navbar": 7743,
      "_product": 7744,
      "Ġdriving": 7745,
      "Ġpropos": 7746,
      "Ġapprox": 7747,
      "Ġwear": 7748,
      "Ġreply": 7749,
      "Ġice": 7750,
      "ĠGermany": 7751,
      "ĠGeorge": 7752,
      "Ġpoly": 7753,
      "voice": 7754,
      "Ġanimal": 7755,
      "ĠLocation": 7756,
      "Ġnative": 7757,
      "Ġprepar": 7758,
      "Ġinterval": 7759,
      "plementation": 7760,
      "Ġbug": 7761,
      "stat": 7762,
      "<span": 7763,
      "Ġfaith": 7764,
      "Ġrom": 7765,
      "ĠElect": 7766,
      "Find": 7767,
      "Ġgod": 7768,
      "original": 7769,
      "ĠSenate": 7770,
      "Ġpositions": 7771,
      "Ġweapons": 7772,
      "Ġcoff": 7773,
      "Ġpurposes": 7774,
      "Ġimpress": 7775,
      "Ġanimals": 7776,
      "Ġmurder": 7777,
      "Ġsolutions": 7778,
      "ĠActive": 7779,
      "Ġbright": 7780,
      "Ġsitu": 7781,
      "ï¼Ī": 7782,
      "Ġsie": 7783,
      "akt": 7784,
      "Space": 7785,
      ".dat": 7786,
      "han": 7787,
      "azine": 7788,
      "ĠZe": 7789,
      "Ġcrash": 7790,
      "iva": 7791,
      "ĠLat": 7792,
      "Ġreverse": 7793,
      "Ġprompt": 7794,
      "onto": 7795,
      "ĠJournal": 7796,
      ")\"": 7797,
      "-xs": 7798,
      "lets": 7799,
      "Will": 7800,
      "Ġafford": 7801,
      "Ġskill": 7802,
      "-toggle": 7803,
      "NC": 7804,
      "TS": 7805,
      "Just": 7806,
      "Ġwind": 7807,
      "Ġwarning": 7808,
      "ĠWater": 7809,
      "Ġdraft": 7810,
      "Ġcm": 7811,
      "Ġsam": 7812,
      "Ġholding": 7813,
      "ĠScience": 7814,
      "Ġsupposed": 7815,
      "Gen": 7816,
      "Ġdiet": 7817,
      "ĠPass": 7818,
      "vi": 7819,
      "Ġhusband": 7820,
      "note": 7821,
      "ĠAbout": 7822,
      "ĠInstitute": 7823,
      "Ġclimate": 7824,
      "Ġnut": 7825,
      "ested": 7826,
      "Ġapparent": 7827,
      "Ġholds": 7828,
      "fi": 7829,
      "news": 7830,
      "CM": 7831,
      "video": 7832,
      "ping": 7833,
      "Ġsenior": 7834,
      "wa": 7835,
      "ĠDatabase": 7836,
      "nergy": 7837,
      "Ġrise": 7838,
      "Ġoffering": 7839,
      "ĠCS": 7840,
      "Ġlisted": 7841,
      "Ġmostly": 7842,
      "enger": 7843,
      "Ġblocks": 7844,
      "olo": 7845,
      "Ġgoverning": 7846,
      "Ġconcent": 7847,
      "Ġoccurred": 7848,
      "Ġchanging": 7849,
      "\"The": 7850,
      "ĠAssociation": 7851,
      "alty": 7852,
      "odies": 7853,
      "iated": 7854,
      "Ġprepared": 7855,
      "possible": 7856,
      "Ġmort": 7857,
      "TEST": 7858,
      "Ġignore": 7859,
      "Ġcalc": 7860,
      "ĠTHIS": 7861,
      ".\"Ċ": 7862,
      "Ġdut": 7863,
      ".input": 7864,
      "Ġaux": 7865,
      "Sup": 7866,
      "Ġartist": 7867,
      "etween": 7868,
      "ĠCategory": 7869,
      "ĠJul": 7870,
      "Ġring": 7871,
      ".ed": 7872,
      "Let": 7873,
      "Ġflat": 7874,
      "adian": 7875,
      "Ġchecked": 7876,
      "standing": 7877,
      "Ġlab": 7878,
      "ucky": 7879,
      "ĠChristmas": 7880,
      "Ġlots": 7881,
      "Ġslightly": 7882,
      "erge": 7883,
      "è¿": 7884,
      "ĠPolice": 7885,
      "ĠRight": 7886,
      "Ġaward": 7887,
      "ĠOS": 7888,
      "icated": 7889,
      "Ġmanage": 7890,
      "oliday": 7891,
      "BB": 7892,
      "Ġwatching": 7893,
      "arios": 7894,
      "Ġoptional": 7895,
      "_K": 7896,
      "ĠAP": 7897,
      "ĠRev": 7898,
      ",c": 7899,
      "umin": 7900,
      "etailed": 7901,
      "ĠHy": 7902,
      "Ġblank": 7903,
      "ĠSelf": 7904,
      "earn": 7905,
      "blem": 7906,
      "icing": 7907,
      "ez": 7908,
      "Ġtheory": 7909,
      "ĠTer": 7910,
      ",n": 7911,
      "ĠHTTP": 7912,
      "World": 7913,
      "Ġlif": 7914,
      "Ġtrav": 7915,
      "Ġconven": 7916,
      "ĠClub": 7917,
      "Ver": 7918,
      "Ġzone": 7919,
      "ĠEduc": 7920,
      "Ġverify": 7921,
      "ĠMil": 7922,
      "Ġpacket": 7923,
      "Ġcer": 7924,
      "formed": 7925,
      "Ġoccup": 7926,
      "Ġexercise": 7927,
      "Day": 7928,
      "Ġasking": 7929,
      "Ġorders": 7930,
      "Ġspending": 7931,
      "âĢľI": 7932,
      "\\'": 7933,
      "?)": 7934,
      "Ġemot": 7935,
      "Ġinfluence": 7936,
      "ĠAfrica": 7937,
      "atters": 7938,
      "Ùħ": 7939,
      "Ġchief": 7940,
      "Ġtom": 7941,
      "cluded": 7942,
      "aped": 7943,
      "Ġpolicies": 7944,
      "-ex": 7945,
      "-tr": 7946,
      "Ġcoverage": 7947,
      "Ġcharges": 7948,
      "ĠBoston": 7949,
      "Pe": 7950,
      "Ġcircum": 7951,
      "Ġfilled": 7952,
      "Ġnorth": 7953,
      "è®": 7954,
      "Ġtermin": 7955,
      "Ġber": 7956,
      "retch": 7957,
      "ĠGovernment": 7958,
      "ĠLord": 7959,
      "asi": 7960,
      "Ġdiscussion": 7961,
      "enance": 7962,
      "typeof": 7963,
      "Ġserved": 7964,
      "ĠPut": 7965,
      "Ġsweet": 7966,
      "Before": 7967,
      "ategy": 7968,
      "ĠMaterial": 7969,
      "igital": 7970,
      "Why": 7971,
      "Ġsust": 7972,
      "Ġç": 7973,
      "abet": 7974,
      "Ġsegment": 7975,
      "ĠMuslim": 7976,
      "cut": 7977,
      "ĠMary": 7978,
      "Ġloved": 7979,
      "Ġlie": 7980,
      "Ġprime": 7981,
      "ti": 7982,
      "ĠCarol": 7983,
      "Use": 7984,
      "ĠPop": 7985,
      "ĠSave": 7986,
      "dy": 7987,
      "ĠIran": 7988,
      "Ġphase": 7989,
      "Ġhide": 7990,
      "Ġju": 7991,
      "Custom": 7992,
      "burg": 7993,
      "/M": 7994,
      "Ġquant": 7995,
      "Ġrub": 7996,
      "Ġinstalled": 7997,
      "Ġdump": 7998,
      "Ġproperly": 7999,
      "Ġdecide": 8000,
      "Ġkeeping": 8001,
      "Ġcitizens": 8002,
      "Ġjoint": 8003,
      "Ġweapon": 8004,
      "ĠExec": 8005,
      "otten": 8006,
      "ĠMS": 8007,
      "Ġ(-": 8008,
      "ĠReview": 8009,
      "Ġexamples": 8010,
      "Ġtight": 8011,
      "!(": 8012,
      "DP": 8013,
      "Ġphotograph": 8014,
      "Ã©t": 8015,
      "low": 8016,
      "ĠGrand": 8017,
      "Ġmaintain": 8018,
      "ials": 8019,
      "rastructure": 8020,
      "ĠPL": 8021,
      "uen": 8022,
      "Ġseed": 8023,
      "Ġexperienced": 8024,
      "Ġodd": 8025,
      "Ġkick": 8026,
      "Ġprocedure": 8027,
      "-on": 8028,
      ",j": 8029,
      "ĠAlthough": 8030,
      "Ġends": 8031,
      ".table": 8032,
      "Ġdataset": 8033,
      "bus": 8034,
      "Ġexplain": 8035,
      "ĠCommittee": 8036,
      "Ġnoted": 8037,
      "ĠWeek": 8038,
      "Ġoperating": 8039,
      "ipl": 8040,
      "Ġproceed": 8041,
      "Ġanimation": 8042,
      "ĠWatch": 8043,
      "Ġoppon": 8044,
      "/A": 8045,
      "Report": 8046,
      "Ġsounds": 8047,
      "Ġkid": 8048,
      "Ġyang": 8049,
      "math": 8050,
      "redients": 8051,
      "Ġvent": 8052,
      "avigate": 8053,
      "Look": 8054,
      "Ġreligious": 8055,
      "uan": 8056,
      "iciency": 8057,
      "ĠChange": 8058,
      "ĠRet": 8059,
      "uries": 8060,
      "Definition": 8061,
      "zz": 8062,
      "ĠOK": 8063,
      "Ġacad": 8064,
      "tc": 8065,
      "Ġtips": 8066,
      "Ġhomes": 8067,
      "Ġfuel": 8068,
      "âĸ": 8069,
      "_helper": 8070,
      "ĠRoom": 8071,
      "ĠMount": 8072,
      "ĠEv": 8073,
      "eah": 8074,
      "ãĢį": 8075,
      "uke": 8076,
      "Ġusage": 8077,
      "aria": 8078,
      "Ġtexture": 8079,
      "Ġconversation": 8080,
      "eper": 8081,
      "done": 8082,
      "ĠSecond": 8083,
      "Ġshooting": 8084,
      "stitution": 8085,
      "Ġpresented": 8086,
      "Ġwa": 8087,
      "-ĊĊ": 8088,
      "iner": 8089,
      "Ġbecoming": 8090,
      "Ġincident": 8091,
      "Ġrevealed": 8092,
      "forc": 8093,
      "Ġboot": 8094,
      "Photo": 8095,
      "Ġspring": 8096,
      "ĠDictionary": 8097,
      "Ġlocations": 8098,
      "Ġsamples": 8099,
      "ĠBrown": 8100,
      "quality": 8101,
      "Ġhelping": 8102,
      "Ġped": 8103,
      "ĠWho": 8104,
      "alian": 8105,
      "Ġft": 8106,
      "->{": 8107,
      "Ġmine": 8108,
      "Ġsector": 8109,
      "Ġgro": 8110,
      "Ġopportunities": 8111,
      "Ġmp": 8112,
      "Ġdoubt": 8113,
      "About": 8114,
      "Ġchair": 8115,
      "Ġstopped": 8116,
      "Ġapps": 8117,
      "ansion": 8118,
      "Ġmental": 8119,
      "ĠĠĠĠĠĠĠĠĠĠĠĠĠĠĠĠĠĠĠĠĠĠĠĠĠĠĠĠĠĠĠĠĠĠĠĠĠĠĠĠĠ": 8120,
      "FR": 8121,
      "Ġdefend": 8122,
      "care": 8123,
      "Ġideal": 8124,
      "/api": 8125,
      "Ġele": 8126,
      "ĠRights": 8127,
      "anguages": 8128,
      "Ġfunds": 8129,
      "Ġadapt": 8130,
      "Ġdeploy": 8131,
      "Ġconcerns": 8132,
      "uce": 8133,
      "ulture": 8134,
      "ila": 8135,
      "Ġcup": 8136,
      "Ġpure": 8137,
      "asm": 8138,
      "MO": 8139,
      "Ġstores": 8140,
      "Ġcommunication": 8141,
      "mem": 8142,
      "Ġidentify": 8143,
      "enerated": 8144,
      "Ġswe": 8145,
      "ĠAccording": 8146,
      "Ġprepare": 8147,
      "Ġrob": 8148,
      "Pool": 8149,
      "Ġsport": 8150,
      "Ġalternative": 8151,
      "ĠChicago": 8152,
      "ĠDirector": 8153,
      "kl": 8154,
      "ĠWil": 8155,
      "keys": 8156,
      "Ġwelcome": 8157,
      "king": 8158,
      "ĠManager": 8159,
      "Ġcaught": 8160,
      ")}Ċ": 8161,
      "Ġsurvey": 8162,
      "hab": 8163,
      "Headers": 8164,
      "Ġturns": 8165,
      "Ġradius": 8166,
      "Cor": 8167,
      "Ġmel": 8168,
      "Ġintr": 8169,
      "ĠAC": 8170,
      "ĠJesus": 8171,
      "ĠĠĠĠĠĠĠĠĠĠĠĠĠĠĠĠĠĠĠĠĠĠĠĠĠĠĠĠĠĠĠĠĠĠĠĠ": 8172,
      "Ġlinked": 8173,
      "free": 8174,
      "Ġfaster": 8175,
      "ctr": 8176,
      "DT": 8177,
      "Ġcombination": 8178,
      "Ġintended": 8179,
      "-the": 8180,
      "-type": 8181,
      "ectors": 8182,
      "ami": 8183,
      "uting": 8184,
      "Ġran": 8185,
      "itory": 8186,
      "Ġpriority": 8187,
      "ĠGal": 8188,
      "ĠOld": 8189,
      "ĠCare": 8190,
      "Kind": 8191,
      "rase": 8192,
      "ĠRT": 8193,
      "Ġentered": 8194,
      "Ġbrother": 8195,
      "Ġnavigation": 8196,
      "Ġaudience": 8197,
      "Ġdur": 8198,
      "Ġcluster": 8199,
      "unched": 8200,
      "Ġ],": 8201,
      "Ġcomfortable": 8202,
      "ĠTotal": 8203,
      "Ġstandards": 8204,
      "Ġperformed": 8205,
      "hand": 8206,
      "åŃ": 8207,
      "Ġphil": 8208,
      "ibr": 8209,
      "Ġforget": 8210,
      "Ġdoctor": 8211,
      "ĠOp": 8212,
      "Sm": 8213,
      "_VERSION": 8214,
      "rb": 8215,
      "ĠCentral": 8216,
      "raq": 8217,
      "Ġputting": 8218,
      "ĠLove": 8219,
      "Program": 8220,
      "oor": 8221,
      "Ġallowing": 8222,
      "after": 8223,
      "Ġentries": 8224,
      "ĠMaybe": 8225,
      "ĠShort": 8226,
      ")\\": 8227,
      "Ġprefer": 8228,
      "ĠGPIO": 8229,
      "osis": 8230,
      "Ġskip": 8231,
      "Ġcompetition": 8232,
      "lications": 8233,
      "\"We": 8234,
      "lan": 8235,
      "ĠMusic": 8236,
      "asis": 8237,
      "Ġbind": 8238,
      "ĠIsland": 8239,
      "rum": 8240,
      "Ġseat": 8241,
      "Video": 8242,
      "Ġack": 8243,
      "reek": 8244,
      "Ġrating": 8245,
      "Ġrestaurant": 8246,
      "pping": 8247,
      "uality": 8248,
      "Ġleague": 8249,
      "Ġfocused": 8250,
      "Ġabsolute": 8251,
      "Ġtells": 8252,
      "Ġcommunities": 8253,
      "Ġhonest": 8254,
      "oking": 8255,
      "Ġapart": 8256,
      "arity": 8257,
      "ĠEnc": 8258,
      "Ġshock": 8259,
      "ĠArab": 8260,
      "/re": 8261,
      "Ġretrie": 8262,
      "isa": 8263,
      "ĠOrgan": 8264,
      "Ġpossibly": 8265,
      "ĠJapanese": 8266,
      "Ġcraft": 8267,
      "ĠPlace": 8268,
      "Ġtalent": 8269,
      "Ġfunding": 8270,
      "Ġconfirmed": 8271,
      "Ġcycle": 8272,
      "/x": 8273,
      "GE": 8274,
      "Ġhearing": 8275,
      "Ġplants": 8276,
      "Ġmouth": 8277,
      "oria": 8278,
      "ĠRemove": 8279,
      "Ġod": 8280,
      "door": 8281,
      "Ġbought": 8282,
      "dden": 8283,
      "Ġdecades": 8284,
      "Ġversions": 8285,
      "fire": 8286,
      "Ġmoves": 8287,
      "fb": 8288,
      "Ġcoffee": 8289,
      "ĠRow": 8290,
      "Ġfighting": 8291,
      "Ġretail": 8292,
      "Ġmodified": 8293,
      "Files": 8294,
      "stone": 8295,
      "Ġbond": 8296,
      "ĠDevelopment": 8297,
      "plet": 8298,
      "Ġidentified": 8299,
      "Ġcoding": 8300,
      "oked": 8301,
      "ĠMaster": 8302,
      "Ġresidents": 8303,
      "redit": 8304,
      "ĠPhoto": 8305,
      "unte": 8306,
      "ĠSing": 8307,
      "Ġsheet": 8308,
      "Ġhers": 8309,
      "Ġdetermined": 8310,
      "Common": 8311,
      "Ġwed": 8312,
      "PH": 8313,
      "ĠAtl": 8314,
      "Ġadvanced": 8315,
      "Go": 8316,
      "Ġpal": 8317,
      "Ġtruck": 8318,
      "Ġcombined": 8319,
      "Ġ\"${": 8320,
      "ĠCorpor": 8321,
      "Ġjoined": 8322,
      "ĠJose": 8323,
      "ĠCup": 8324,
      "uns": 8325,
      "estival": 8326,
      "levision": 8327,
      "Ġbroken": 8328,
      "Ġmarriage": 8329,
      "ĠWestern": 8330,
      "Ġrepresents": 8331,
      "ĠTitle": 8332,
      ".Ass": 8333,
      "Ġabsolutely": 8334,
      "Ġsmooth": 8335,
      "ĠUnless": 8336,
      "Word": 8337,
      "igan": 8338,
      "ĠVol": 8339,
      "Ġseeking": 8340,
      "Ġinjury": 8341,
      "Ġissued": 8342,
      "Ġpatch": 8343,
      "Ġleaves": 8344,
      "Ġadopt": 8345,
      "ãĢĲ": 8346,
      "Ġexecutive": 8347,
      "outing": 8348,
      "cluding": 8349,
      "-R": 8350,
      "Ġsubstant": 8351,
      "Ġtechnical": 8352,
      "Ġtwice": 8353,
      "Ġunivers": 8354,
      "yr": 8355,
      "Ġdrag": 8356,
      "ĠDC": 8357,
      "Ġsed": 8358,
      "ĠPal": 8359,
      "ĠHall": 8360,
      "forcement": 8361,
      "_flag": 8362,
      "Ġresolution": 8363,
      "Ġbott": 8364,
      "Free": 8365,
      "ĠDistrict": 8366,
      ":-": 8367,
      "ĠJo": 8368,
      "ĠRiver": 8369,
      "Ġhelpful": 8370,
      "Ġmassive": 8371,
      "Ġmeasures": 8372,
      "Ġworry": 8373,
      "ĠSpec": 8374,
      "ĉD": 8375,
      "ãĢĳ": 8376,
      "Ġworse": 8377,
      "Ġlay": 8378,
      "Ġmagic": 8379,
      "ĠTheir": 8380,
      "oul": 8381,
      "ĠWhere": 8382,
      "Ġsudden": 8383,
      "Ġdefe": 8384,
      "Ġbinding": 8385,
      "Ġflight": 8386,
      "ĠWomen": 8387,
      "ĠPolicy": 8388,
      "Ġdrugs": 8389,
      "ishing": 8390,
      "ĠMel": 8391,
      "Ġproposed": 8392,
      "Ġstated": 8393,
      "Ġeast": 8394,
      "Ġwinning": 8395,
      "folio": 8396,
      "ĠPan": 8397,
      "ĠAnge": 8398,
      "Ġcopies": 8399,
      "LM": 8400,
      "åį": 8401,
      "Ġdictionary": 8402,
      "elines": 8403,
      "ĠSend": 8404,
      "Ġiron": 8405,
      "ĠFort": 8406,
      "Ġdebate": 8407,
      "eq": 8408,
      "acher": 8409,
      "Ġlawy": 8410,
      "ÄŁ": 8411,
      "ĠMen": 8412,
      "Ġpad": 8413,
      "Ġfollows": 8414,
      "ĠEp": 8415,
      "fortunately": 8416,
      "Ġwindows": 8417,
      "Ġplane": 8418,
      "uard": 8419,
      "}\\": 8420,
      "andon": 8421,
      "ĠRoy": 8422,
      "emies": 8423,
      "itz": 8424,
      "ĠPeter": 8425,
      "Ġtough": 8426,
      "Ġreduced": 8427,
      "Ġcalculate": 8428,
      "Ġrapid": 8429,
      "Ġefficient": 8430,
      "Ġmedium": 8431,
      "Ġfell": 8432,
      "ĠCas": 8433,
      "Ġfeedback": 8434,
      "Speed": 8435,
      "Ġcategories": 8436,
      "Ġfee": 8437,
      "};": 8438,
      "reh": 8439,
      "Ġproof": 8440,
      "Build": 8441,
      "Ġsides": 8442,
      "ĠĠĠĠĠĠĠĠĠĠĠĠĠĠĠĠĠĠĠĠĠĠĠĠĠĠĠĠĠĠĠĠĠĠĠĠĠĠ": 8443,
      "Ø±": 8444,
      "Ġfeels": 8445,
      "Ġachieve": 8446,
      "Ġclim": 8447,
      "ĠCD": 8448,
      "Ġteacher": 8449,
      "bn": 8450,
      "Ġplays": 8451,
      "Ġdiscount": 8452,
      "ĠKE": 8453,
      "ĠIraq": 8454,
      "Ġappearance": 8455,
      "Mon": 8456,
      "ĠHuman": 8457,
      "iot": 8458,
      "ĠHistory": 8459,
      "Ġsac": 8460,
      "ĠCollection": 8461,
      "Ġrecommended": 8462,
      "Ġorganizations": 8463,
      "Ġdiscovered": 8464,
      "cohol": 8465,
      "ĠThomas": 8466,
      "May": 8467,
      "Ġconserv": 8468,
      "Ġdomin": 8469,
      "ĠFollow": 8470,
      "ĠSection": 8471,
      "ĠThanks": 8472,
      "Ġrecipe": 8473,
      "Ġwonderful": 8474,
      "_target": 8475,
      "à¦": 8476,
      "Ġinputs": 8477,
      "Ġfif": 8478,
      "Ġvision": 8479,
      "cy": 8480,
      "ĠSeries": 8481,
      "Ġtrading": 8482,
      "Ġmarker": 8483,
      "Ġtypically": 8484,
      "Ġcauses": 8485,
      "dropdown": 8486,
      "Ġdetect": 8487,
      "ĠLE": 8488,
      "Ġadministr": 8489,
      "Ġfashion": 8490,
      "Ġsuc": 8491,
      "ĠLive": 8492,
      "issue": 8493,
      "Ġcommitted": 8494,
      "Ġrough": 8495,
      "Ġhighlight": 8496,
      "Ġrain": 8497,
      "reatest": 8498,
      "ĠEND": 8499,
      "Ġcandidates": 8500,
      "Ġsav": 8501,
      "Ġdecisions": 8502,
      "Ġcollabor": 8503,
      "ridge": 8504,
      "ression": 8505,
      "Ġpersons": 8506,
      "VM": 8507,
      "According": 8508,
      "acked": 8509,
      "Ġdollars": 8510,
      "ĠCost": 8511,
      "Ġauthority": 8512,
      "ĠToday": 8513,
      "istant": 8514,
      "ĠHead": 8515,
      "âĢĿ.": 8516,
      "ertainment": 8517,
      "cean": 8518,
      "However": 8519,
      "Graph": 8520,
      "ĠJud": 8521,
      "ĠVirgin": 8522,
      "unning": 8523,
      "agers": 8524,
      "Ġdeveloping": 8525,
      "Ġinstructions": 8526,
      "Ġpromise": 8527,
      "Ġrequested": 8528,
      "-day": 8529,
      "Ġintelligence": 8530,
      "ĠHard": 8531,
      "idential": 8532,
      "Ġselling": 8533,
      "CI": 8534,
      "tle": 8535,
      "Ġbigger": 8536,
      "Ġrat": 8537,
      "Ġfamous": 8538,
      "Ġtypename": 8539,
      "Ġexplained": 8540,
      "}}Ċ": 8541,
      "Ġnuclear": 8542,
      "-N": 8543,
      "Ġcrisis": 8544,
      "Ġanswers": 8545,
      "Ġsequ": 8546,
      "Ġstanding": 8547,
      "Ġplenty": 8548,
      "ĠCross": 8549,
      "dro": 8550,
      "ĠCast": 8551,
      "=true": 8552,
      "ĠChris": 8553,
      "ĠMike": 8554,
      "Ġcock": 8555,
      "URN": 8556,
      "Ġauthorities": 8557,
      "-H": 8558,
      "puter": 8559,
      "esterday": 8560,
      "since": 8561,
      "Ġfamiliar": 8562,
      ",i": 8563,
      "VC": 8564,
      "Ġment": 8565,
      "Ġfreedom": 8566,
      "Ġroutes": 8567,
      "ĠBuy": 8568,
      "Ġcommands": 8569,
      "Ġmesh": 8570,
      "/C": 8571,
      "-style": 8572,
      "Ġwitness": 8573,
      "Ġcle": 8574,
      "Ġunion": 8575,
      "aret": 8576,
      "Ġthoughts": 8577,
      "ingly": 8578,
      "UES": 8579,
      "Ġreward": 8580,
      "ï¼Ł": 8581,
      "Ġexecution": 8582,
      "Ġbeach": 8583,
      "Ġabort": 8584,
      "ĠSingle": 8585,
      "ĠMa": 8586,
      "ĠPet": 8587,
      "%)": 8588,
      "éĢ": 8589,
      "Rule": 8590,
      "Ġquiet": 8591,
      "Ġratio": 8592,
      "osoph": 8593,
      "ĠIL": 8594,
      "Ġadvent": 8595,
      ";</": 8596,
      "ĠUSB": 8597,
      "Ġours": 8598,
      "ĠJohnson": 8599,
      ".K": 8600,
      "ĠPDF": 8601,
      "acts": 8602,
      "ĠGirl": 8603,
      "Ġprocesses": 8604,
      "Ġadds": 8605,
      "Ġentirely": 8606,
      "Ġwash": 8607,
      "Ġprofit": 8608,
      "encing": 8609,
      "/S": 8610,
      "Ġmanual": 8611,
      "Download": 8612,
      "Ġmotion": 8613,
      "-bottom": 8614,
      "PG": 8615,
      "Ġera": 8616,
      "Ġho": 8617,
      "ĠJim": 8618,
      "quir": 8619,
      "Ã¡n": 8620,
      "Ġexpensive": 8621,
      "Well": 8622,
      "ĠDemocratic": 8623,
      "ĠâĨĴ": 8624,
      "ĠPS": 8625,
      "Ġdangerous": 8626,
      "Other": 8627,
      "Ġcurrency": 8628,
      "Ġpercentage": 8629,
      "Ġclassic": 8630,
      "ĠMO": 8631,
      "FE": 8632,
      "Ġaccident": 8633,
      "Ġvariant": 8634,
      "Ġmyst": 8635,
      "ĠLand": 8636,
      "ĠBre": 8637,
      "Ġharm": 8638,
      "ĠAcc": 8639,
      "Ġcharged": 8640,
      "ĠLanguage": 8641,
      "Ġwalking": 8642,
      "\".ĊĊ": 8643,
      "ifer": 8644,
      "Ġleadership": 8645,
      "ynam": 8646,
      "ĠHas": 8647,
      "ĠIts": 8648,
      "Ġexperiences": 8649,
      "Ġcreates": 8650,
      "RS": 8651,
      "Ġchoices": 8652,
      "war": 8653,
      "Ġ'''": 8654,
      "Ġordered": 8655,
      "Ġevening": 8656,
      "Ġpil": 8657,
      "Ġtun": 8658,
      "ĠBad": 8659,
      "Ġexplicit": 8660,
      "Ġarrived": 8661,
      "Ġfly": 8662,
      "Ġeconom": 8663,
      "-mail": 8664,
      "Ġlists": 8665,
      "Ġarchitect": 8666,
      "ĠPay": 8667,
      "ĠSol": 8668,
      "Ġvehicles": 8669,
      "-com": 8670,
      "Ġking": 8671,
      "ĠHelp": 8672,
      "Ġabuse": 8673,
      "Ġextr": 8674,
      "Ġchemical": 8675,
      "ä¿": 8676,
      "Ġorient": 8677,
      "Ġbreath": 8678,
      "ĠSpace": 8679,
      "wait": 8680,
      "Ġentr": 8681,
      "-name": 8682,
      "Ġaffected": 8683,
      "ika": 8684,
      "Ġcoal": 8685,
      "Ġhundreds": 8686,
      "Ġpolitics": 8687,
      "Ġconsumer": 8688,
      "Ġrepeated": 8689,
      "Send": 8690,
      "Ġ#[": 8691,
      "Ġprotocol": 8692,
      "Ġleads": 8693,
      "useum": 8694,
      "Every": 8695,
      "Ġchallenges": 8696,
      "Ġnovel": 8697,
      "Ġdepart": 8698,
      "oting": 8699,
      "(\\": 8700,
      "Ġcreative": 8701,
      "Ġintroduced": 8702,
      "Are": 8703,
      "omething": 8704,
      "Ġhun": 8705,
      "åº": 8706,
      "aters": 8707,
      "Ġimplemented": 8708,
      "ĠCase": 8709,
      "Children": 8710,
      "Ġnotification": 8711,
      "Ġforg": 8712,
      "Ġpermit": 8713,
      "Ġtargets": 8714,
      "ĠIF": 8715,
      "Ġtip": 8716,
      "Ġsupports": 8717,
      "Ġfold": 8718,
      "Ġgoogle": 8719,
      "Ġsharing": 8720,
      "Ġgoods": 8721,
      "ĠDan": 8722,
      "ĠMartin": 8723,
      "Ġmanner": 8724,
      "lie": 8725,
      ".The": 8726,
      "Ġcontrols": 8727,
      "Ġmand": 8728,
      "Ġextended": 8729,
      "Ok": 8730,
      "Ġembed": 8731,
      "Ġplanet": 8732,
      "ĠNon": 8733,
      "-ch": 8734,
      "epar": 8735,
      "Ġbelieved": 8736,
      "ĠEnvironment": 8737,
      "ĠFriend": 8738,
      "-res": 8739,
      "Ġhandling": 8740,
      "nic": 8741,
      "-level": 8742,
      "BE": 8743,
      "Ġalter": 8744,
      "Ġshipping": 8745,
      "Ġbattery": 8746,
      "MC": 8747,
      "ĠLab": 8748,
      "ĠGames": 8749,
      "Two": 8750,
      "ĠLes": 8751,
      "Â°": 8752,
      "Ġjourney": 8753,
      "eting": 8754,
      "æĺ": 8755,
      "çĶ¨": 8756,
      "Ġperman": 8757,
      "Ġsolve": 8758,
      "Ġlaunched": 8759,
      "Ġnine": 8760,
      "Ġsending": 8761,
      "Ġtelling": 8762,
      "eric": 8763,
      "Ġgrab": 8764,
      "ĠLibrary": 8765,
      "Ġdebt": 8766,
      "Ġfrequency": 8767,
      "Ġnegot": 8768,
      "ĠAfrican": 8769,
      "Å¡": 8770,
      "Global": 8771,
      "Ġexperts": 8772,
      "Ġdepending": 8773,
      "Ġjudge": 8774,
      "Ġsentence": 8775,
      "Ac": 8776,
      "Ġtrace": 8777,
      "Ġfriendly": 8778,
      "Ġconcerned": 8779,
      "Ġclaimed": 8780,
      "xi": 8781,
      "Ġaccepted": 8782,
      "ĠEducation": 8783,
      "outs": 8784,
      "Ġmining": 8785,
      "Ġsongs": 8786,
      "Ġherself": 8787,
      "Ġgranted": 8788,
      "Ġpassion": 8789,
      "ĠLake": 8790,
      "Ġloan": 8791,
      "Ġdetailed": 8792,
      "ĠHE": 8793,
      "Related": 8794,
      "zt": 8795,
      "Ġspecifically": 8796,
      "Ġcarried": 8797,
      "ANS": 8798,
      "Ġcul": 8799,
      "FP": 8800,
      "Ġsitting": 8801,
      "ĠEqu": 8802,
      "Ġassault": 8803,
      "kins": 8804,
      "ancer": 8805,
      "ogen": 8806,
      "Ġvoters": 8807,
      "ĠProt": 8808,
      ".Assert": 8809,
      "bsites": 8810,
      "oster": 8811,
      "-menu": 8812,
      "Ġarms": 8813,
      "avity": 8814,
      "Ġvul": 8815,
      "Ġhousing": 8816,
      "Ġbear": 8817,
      "pired": 8818,
      "Ġmarkets": 8819,
      "ĠStudent": 8820,
      "Ġticket": 8821,
      "Ġmillions": 8822,
      ")=": 8823,
      "Ġrecover": 8824,
      "ĠForce": 8825,
      "ĠBoth": 8826,
      "Ġvictim": 8827,
      "ĠDisc": 8828,
      "Ġfourth": 8829,
      "ĠAssembly": 8830,
      "/user": 8831,
      "Ġath": 8832,
      "Ġ([": 8833,
      "Ġchannels": 8834,
      "ĠJustice": 8835,
      "emale": 8836,
      "Ġresponsibility": 8837,
      "ĠTw": 8838,
      "Ġfo": 8839,
      "asts": 8840,
      "Ġtreated": 8841,
      "ĠVict": 8842,
      "Ġast": 8843,
      "ĠResource": 8844,
      "ĠStandard": 8845,
      "ivalent": 8846,
      "Ġassets": 8847,
      "Ġinterests": 8848,
      "Ġhardware": 8849,
      "ĠRom": 8850,
      "ĠShare": 8851,
      "Ġ*,": 8852,
      "ĠTake": 8853,
      "ĠImages": 8854,
      "ĠJun": 8855,
      "Ġliqu": 8856,
      "Ġworst": 8857,
      "ymbols": 8858,
      "Ġdrivers": 8859,
      "ĠDocument": 8860,
      "eno": 8861,
      "ĠTechnology": 8862,
      "Ġapproved": 8863,
      "umps": 8864,
      "Ġsnow": 8865,
      "formance": 8866,
      "uits": 8867,
      "ÙĨ": 8868,
      "Ġdifferences": 8869,
      "ĠPs": 8870,
      "urers": 8871,
      "Ġresearchers": 8872,
      "ĠRO": 8873,
      "Ġillegal": 8874,
      "lg": 8875,
      "Ġhero": 8876,
      "Ġpp": 8877,
      "Ġsuggested": 8878,
      "aching": 8879,
      "ĠRo": 8880,
      "ĠProperties": 8881,
      "ĠSi": 8882,
      "Ġbuying": 8883,
      "Ġlands": 8884,
      "ifiers": 8885,
      "ĠSon": 8886,
      "Ġsympt": 8887,
      ")?": 8888,
      "Ġfort": 8889,
      "Ġforum": 8890,
      "Tube": 8891,
      "ems": 8892,
      "imize": 8893,
      "aus": 8894,
      "Ġacknow": 8895,
      "ĠKorea": 8896,
      "pling": 8897,
      "Ġworker": 8898,
      "hal": 8899,
      "ĠRichard": 8900,
      "star": 8901,
      "Ġrelationships": 8902,
      "Ġcheap": 8903,
      "ACH": 8904,
      "ĠXML": 8905,
      "ĠLouis": 8906,
      "Ġride": 8907,
      "Ġchosen": 8908,
      "ĠJeff": 8909,
      "ĠCanadian": 8910,
      "Ġunable": 8911,
      "high": 8912,
      "Ġlift": 8913,
      "(){": 8914,
      "elly": 8915,
      "Ġradi": 8916,
      "ĠAngeles": 8917,
      "ĠSpan": 8918,
      "itors": 8919,
      "Ġmigration": 8920,
      "AK": 8921,
      "Oh": 8922,
      "Â®": 8923,
      "Ġadvance": 8924,
      "ĠStyle": 8925,
      "ection": 8926,
      "rog": 8927,
      "Ġshopping": 8928,
      "OU": 8929,
      "Ġsubstantial": 8930,
      "Ġpregn": 8931,
      "Ġpromote": 8932,
      "Ġsigns": 8933,
      "/.": 8934,
      "Ġletters": 8935,
      "ĠJones": 8936,
      "Ġja": 8937,
      "Ġaffili": 8938,
      "Ġwealth": 8939,
      "Ġsignificantly": 8940,
      "Ġec": 8941,
      "Ġtransl": 8942,
      "ĠĠĠĠĠĠĠĠĠĠĠĠĠĠĠĠĠĠĠĠĠĠĠĠĠĠĠĠĠĠĠĠĠĠĠĠĠĠĠĠĠĠĠĠĠĠĠĠĠĠĠĠĠĠĠĠĠĠĠ": 8943,
      "agnostic": 8944,
      "ĠDuring": 8945,
      "ĠDEFAULT": 8946,
      "Ġtill": 8947,
      "Ġsignature": 8948,
      "Ġbird": 8949,
      "ĠOl": 8950,
      "ĠIr": 8951,
      "HS": 8952,
      "Ġelev": 8953,
      "ĠNav": 8954,
      "Ġrelax": 8955,
      "Ġplate": 8956,
      "Ġgrade": 8957,
      "?\"ĊĊ": 8958,
      "iences": 8959,
      "High": 8960,
      "disabled": 8961,
      "Ġnoise": 8962,
      "ĠUP": 8963,
      "osa": 8964,
      "Ġvoc": 8965,
      "ĠDb": 8966,
      ",d": 8967,
      "ĠDraw": 8968,
      "Ġvisited": 8969,
      "ĠâĪ": 8970,
      "Ġsucceed": 8971,
      "Ġimpossible": 8972,
      "ĠTurn": 8973,
      "Ġdish": 8974,
      "Ġsensor": 8975,
      "ANN": 8976,
      "aba": 8977,
      "Ġsurg": 8978,
      "-J": 8979,
      "-G": 8980,
      "ĠJob": 8981,
      "ĠKEY": 8982,
      "Ġauthors": 8983,
      "\\r": 8984,
      "flex": 8985,
      "Ġsoc": 8986,
      "Ġsalt": 8987,
      "ĠClear": 8988,
      "-danger": 8989,
      "Ġrooms": 8990,
      "ĠArea": 8991,
      "Ġbegins": 8992,
      "-y": 8993,
      "Ġexcited": 8994,
      "Ġignored": 8995,
      "ĠMember": 8996,
      "Ġrelatively": 8997,
      "ĠLow": 8998,
      "ĠProdu": 8999,
      "posure": 9000,
      "Ġthick": 9001,
      "aniel": 9002,
      "Il": 9003,
      "eed": 9004,
      "LOC": 9005,
      "Ġconflict": 9006,
      "uv": 9007,
      "iser": 9008,
      "Ġwave": 9009,
      "Mar": 9010,
      "ĠCommunity": 9011,
      "ĠNothing": 9012,
      "ĠLee": 9013,
      "riends": 9014,
      "!!!": 9015,
      "anz": 9016,
      "Ġdemocr": 9017,
      "\"It": 9018,
      "razy": 9019,
      "aser": 9020,
      "Ġactor": 9021,
      "ĠInstead": 9022,
      "ĠUsing": 9023,
      "Self": 9024,
      "Ġspeaking": 9025,
      "ĠParis": 9026,
      "ĠFood": 9027,
      "ĠBi": 9028,
      "Ġuniversity": 9029,
      "etc": 9030,
      "rical": 9031,
      "books": 9032,
      "Ġalgorithm": 9033,
      "Ġnumerous": 9034,
      "Share": 9035,
      "Have": 9036,
      "Ġrecru": 9037,
      "Ġprove": 9038,
      "health": 9039,
      "Ġdecimal": 9040,
      "Ġcommission": 9041,
      "Ġsummary": 9042,
      "Ġcloser": 9043,
      "ĠWood": 9044,
      "ku": 9045,
      "Ġconfidence": 9046,
      "ĠFederal": 9047,
      "Ġcompat": 9048,
      "Ġvertical": 9049,
      "IDE": 9050,
      "ĠWay": 9051,
      "ĠCEO": 9052,
      "ĠGuid": 9053,
      "Ġenvironmental": 9054,
      "Ġcorresponding": 9055,
      "Ġjustice": 9056,
      "Ġlived": 9057,
      "gar": 9058,
      "ĠGraph": 9059,
      "ĠStat": 9060,
      "ĠiPhone": 9061,
      "ĠHD": 9062,
      "Ġoccur": 9063,
      "Ġthreshold": 9064,
      "Å¾": 9065,
      "Ġcum": 9066,
      "Ġobtained": 9067,
      "Ġcomplaint": 9068,
      "Ġeating": 9069,
      "Ġtar": 9070,
      "Pass": 9071,
      "Ġplastic": 9072,
      "ĠWin": 9073,
      "ĠGar": 9074,
      "Ġquantity": 9075,
      "Ġgreatest": 9076,
      "ĠUsed": 9077,
      "riting": 9078,
      "blue": 9079,
      "Ġscores": 9080,
      "Then": 9081,
      "***": 9082,
      "Ġhate": 9083,
      "Ġpand": 9084,
      "Ġlogic": 9085,
      "Ġnur": 9086,
      "OG": 9087,
      "Ġmarried": 9088,
      "Ġdropped": 9089,
      "Ġregistration": 9090,
      "ultiple": 9091,
      "izers": 9092,
      "shape": 9093,
      "Ġwearing": 9094,
      "ĠCath": 9095,
      "Ġdedicated": 9096,
      "Ġadvoc": 9097,
      "ĠFamily": 9098,
      "Ġstatements": 9099,
      "ematic": 9100,
      "Ġmotiv": 9101,
      "ĠHave": 9102,
      "Ġblow": 9103,
      "cert": 9104,
      "install": 9105,
      "DIR": 9106,
      "ĠSpring": 9107,
      "Ġexhib": 9108,
      "ĠComment": 9109,
      "ĠDark": 9110,
      "ĠShould": 9111,
      "Ġcentre": 9112,
      "ĠGuard": 9113,
      "Ġtrouble": 9114,
      "uling": 9115,
      "ĠMexico": 9116,
      "ĠNY": 9117,
      "åľ": 9118,
      "Mr": 9119,
      "-fl": 9120,
      "rible": 9121,
      "Ġsizes": 9122,
      "ĠJon": 9123,
      "Ġspoke": 9124,
      "Ġwaste": 9125,
      "Join": 9126,
      "Ġillustr": 9127,
      "eli": 9128,
      "cient": 9129,
      "Ġaid": 9130,
      "Ġpassing": 9131,
      "Ġfaces": 9132,
      "Shape": 9133,
      "iti": 9134,
      "Ġrobot": 9135,
      "ĠSpe": 9136,
      "Ġreceiving": 9137,
      "ĠDetails": 9138,
      "mg": 9139,
      "Ġcomparison": 9140,
      "*,": 9141,
      "/F": 9142,
      "Ġxxx": 9143,
      "ders": 9144,
      "Ġcapture": 9145,
      "Ġcorre": 9146,
      "ĠLtd": 9147,
      "ĠAdv": 9148,
      "Ġclip": 9149,
      "ĠProfile": 9150,
      "Ġendif": 9151,
      "Ġoblig": 9152,
      "LD": 9153,
      "ered": 9154,
      "Ġfavour": 9155,
      "Ġchecks": 9156,
      "ĠPlus": 9157,
      "Ġscientific": 9158,
      "Ġprivacy": 9159,
      "Ġfeat": 9160,
      "Ġdegrees": 9161,
      "Ġfilms": 9162,
      "ĠEnergy": 9163,
      "itar": 9164,
      "Ġfellow": 9165,
      "ĠTri": 9166,
      "ĠDemocrats": 9167,
      "ĠAcad": 9168,
      "Ġreb": 9169,
      "ĠBur": 9170,
      "ĠWilliam": 9171,
      "Ġpractices": 9172,
      "Ġanywhere": 9173,
      "ĠPosition": 9174,
      "iams": 9175,
      "ĠSecretary": 9176,
      "mond": 9177,
      "?âĢĿ": 9178,
      "Ġattached": 9179,
      "Ġestate": 9180,
      "Ġfigures": 9181,
      "nam": 9182,
      "noon": 9183,
      "liament": 9184,
      "Character": 9185,
      "Ġwinter": 9186,
      "Ġtrees": 9187,
      "Ġproud": 9188,
      "Ġhier": 9189,
      "ĠEcon": 9190,
      "Ġvictims": 9191,
      "iana": 9192,
      "Ġfake": 9193,
      "Ġsad": 9194,
      "Ġble": 9195,
      "Ġbuttons": 9196,
      "Ġtelevision": 9197,
      "Ġlogo": 9198,
      "stein": 9199,
      "Ġrecorded": 9200,
      "Ġbrings": 9201,
      "Ġprincipal": 9202,
      "Ġfees": 9203,
      "Ġcorrectly": 9204,
      "-button": 9205,
      "scale": 9206,
      "Ġ---": 9207,
      "Ġescape": 9208,
      "ician": 9209,
      "Ġchapter": 9210,
      "ĠTYPE": 9211,
      "Ġshadow": 9212,
      "Ġawesome": 9213,
      "WE": 9214,
      "Ġdistinct": 9215,
      "Ġbare": 9216,
      "-off": 9217,
      "Ġcolour": 9218,
      "olec": 9219,
      "aga": 9220,
      "Ġadj": 9221,
      "Ġtotally": 9222,
      "VD": 9223,
      "vements": 9224,
      "Ġfundament": 9225,
      "Follow": 9226,
      "Ġfacility": 9227,
      "Ġhappening": 9228,
      "OF": 9229,
      "ĠÂ«": 9230,
      "Ġexceed": 9231,
      "ç»": 9232,
      "Ġhasn": 9233,
      "Ġpri": 9234,
      "Ġconsequ": 9235,
      "ĠINTO": 9236,
      "ĠFuture": 9237,
      "Ġcarbon": 9238,
      "Ġspl": 9239,
      "-info": 9240,
      "Ġdeals": 9241,
      "ea": 9242,
      "Div": 9243,
      "Ġtested": 9244,
      "ĠCook": 9245,
      "Ġpaying": 9246,
      "ĠIll": 9247,
      "Ġarrested": 9248,
      "ĠPrime": 9249,
      ">,Ċ": 9250,
      "Once": 9251,
      "abb": 9252,
      "Ġshell": 9253,
      "ctors": 9254,
      ")</": 9255,
      "Ġneighborhood": 9256,
      "ailability": 9257,
      "vol": 9258,
      "Ġyouth": 9259,
      "Ġtechniques": 9260,
      "uh": 9261,
      "JS": 9262,
      "Since": 9263,
      "Ġlaugh": 9264,
      "ĠDoes": 9265,
      "ĠWalk": 9266,
      "what": 9267,
      "kes": 9268,
      "Ġmultip": 9269,
      "iments": 9270,
      "eur": 9271,
      "Ġvictory": 9272,
      "ĠMos": 9273,
      "rovers": 9274,
      "Ġproviders": 9275,
      "ĠMedic": 9276,
      "LP": 9277,
      "sters": 9278,
      "Ġreplaced": 9279,
      "-free": 9280,
      "-container": 9281,
      "Ġmatching": 9282,
      "ĠEditor": 9283,
      "ĠSaf": 9284,
      "åĩ": 9285,
      ".edu": 9286,
      "aya": 9287,
      "Ġdogs": 9288,
      "Ġdesire": 9289,
      "ĠMiddle": 9290,
      "Ġmob": 9291,
      "Ġdisplayed": 9292,
      "Ġadults": 9293,
      "Ġdelivered": 9294,
      "ĠGO": 9295,
      "Ġassigned": 9296,
      "Ġcombat": 9297,
      "ĠHaw": 9298,
      ".-": 9299,
      "Ġsupporting": 9300,
      "ircraft": 9301,
      "Ġspin": 9302,
      "ĠCR": 9303,
      "à¥": 9304,
      "Ġspaces": 9305,
      "ĠSyria": 9306,
      "Ġpatterns": 9307,
      "-box": 9308,
      "Ġframework": 9309,
      "Ġteaching": 9310,
      "Ġtables": 9311,
      "inations": 9312,
      "-weight": 9313,
      "ĠPac": 9314,
      "ring": 9315,
      "Ġquote": 9316,
      "anna": 9317,
      "Ġcream": 9318,
      "Ġmachines": 9319,
      "-k": 9320,
      "Ġstim": 9321,
      "ĠStock": 9322,
      "rick": 9323,
      "Ġimportance": 9324,
      "ÙĪ": 9325,
      "Ġstroke": 9326,
      "Ġtaste": 9327,
      "Thanks": 9328,
      "ĠRequired": 9329,
      "ova": 9330,
      "Ġinterrupt": 9331,
      "Ġcircle": 9332,
      "Ġiniti": 9333,
      "Ġcompreh": 9334,
      "Public": 9335,
      "Ġhumans": 9336,
      "Ġbringing": 9337,
      "ographic": 9338,
      "-like": 9339,
      "idebar": 9340,
      "Ġvotes": 9341,
      "Ġdesired": 9342,
      "Ġrelation": 9343,
      "Help": 9344,
      "Ġinspir": 9345,
      "ometimes": 9346,
      "Ġrotation": 9347,
      "Ġmari": 9348,
      "INSERT": 9349,
      "phy": 9350,
      "Ġincreases": 9351,
      "ĠVan": 9352,
      "Ġlights": 9353,
      "ĠGuide": 9354,
      "Ġdates": 9355,
      "aman": 9356,
      "Ġpaths": 9357,
      "Ġreaction": 9358,
      "ĠBeach": 9359,
      "Ġminister": 9360,
      "Ġreaders": 9361,
      "Ġdomestic": 9362,
      "Ġfiled": 9363,
      "Ġmapping": 9364,
      "Ġrepair": 9365,
      "zo": 9366,
      "ĠCarolina": 9367,
      "ĠDer": 9368,
      "ĠInvest": 9369,
      "ĠRoman": 9370,
      "Ġcultural": 9371,
      "Ġdiam": 9372,
      "Ġsurprise": 9373,
      "Ġvirt": 9374,
      "Ġbomb": 9375,
      "aron": 9376,
      "Ġvast": 9377,
      "Real": 9378,
      "epend": 9379,
      "Ġpicked": 9380,
      "ĠFL": 9381,
      "ĠRepublicans": 9382,
      "sup": 9383,
      "iveness": 9384,
      "Ġpdf": 9385,
      "Ġroles": 9386,
      "ras": 9387,
      "Ġindustrial": 9388,
      "Ġfacilities": 9389,
      "è¡": 9390,
      "Ġimagine": 9391,
      "Ġexports": 9392,
      "Ġmad": 9393,
      "Ġfro": 9394,
      "hus": 9395,
      "Ġcommittee": 9396,
      "Ġdivision": 9397,
      "ĠPhys": 9398,
      "ingu": 9399,
      "ĠNa": 9400,
      "Ġextent": 9401,
      "VA": 9402,
      "clar": 9403,
      "Ġedges": 9404,
      "Ġindeed": 9405,
      "ĠNight": 9406,
      "Ġreporting": 9407,
      "Ġencounter": 9408,
      "Ġkinds": 9409,
      "Ġconsidering": 9410,
      ".(": 9411,
      "Ġprotein": 9412,
      "gricult": 9413,
      "ĠBall": 9414,
      "ĠĠĠĠĠĠĠĠĠĠĠĠĠĠĠĠĠĠĠĠĠĠĠĠĠĠĠĠĠĠĠĠĠĠĠĠĠĠĠĠ": 9415,
      "itud": 9416,
      "Ġspell": 9417,
      "ĠJoe": 9418,
      "Ġmatters": 9419,
      "Ġemergency": 9420,
      "uated": 9421,
      "æĪĲ": 9422,
      "iper": 9423,
      "Ġscheme": 9424,
      "Ġmarked": 9425,
      "Ġbodies": 9426,
      "Ġcorporate": 9427,
      "Ġdimension": 9428,
      "Ġcontrast": 9429,
      "erview": 9430,
      "Ġcapable": 9431,
      "Ġadvertising": 9432,
      "ĠPA": 9433,
      "ĠFrancisco": 9434,
      "Ġfacing": 9435,
      "ãĢĮ": 9436,
      "Ġbeer": 9437,
      "Ġsky": 9438,
      "ĠCur": 9439,
      "mc": 9440,
      "Ġcriteria": 9441,
      "Ġaspect": 9442,
      "Ġtank": 9443,
      "Ġhurt": 9444,
      "Ġbroadcast": 9445,
      "ownt": 9446,
      "Ġalcohol": 9447,
      "ĠAf": 9448,
      "Ġplanned": 9449,
      "ĠSite": 9450,
      "Ġresc": 9451,
      "Ġparking": 9452,
      "Ġisland": 9453,
      "Ġsister": 9454,
      "ĠAust": 9455,
      "Ġgap": 9456,
      "ĠPO": 9457,
      "-scale": 9458,
      "lambda": 9459,
      "Ġowned": 9460,
      "ĠMedical": 9461,
      "Ġsolar": 9462,
      "Ġresulting": 9463,
      "Ġestimated": 9464,
      "Ġimproved": 9465,
      "$.": 9466,
      "Like": 9467,
      "Ġrevenue": 9468,
      "ogram": 9469,
      "ĠLA": 9470,
      "ĠMachine": 9471,
      "ĠØ§": 9472,
      "Ġfle": 9473,
      "Ġbike": 9474,
      "Ġconsistent": 9475,
      "ĠThose": 9476,
      "perience": 9477,
      "Ġrush": 9478,
      "Ġneck": 9479,
[...]
