{
  "<|endoftext|>": 0,
  "<|im_start|>": 1,
  "<|im_end|>": 2,
  ",": 3,
  ".": 4,
  "Ġthe": 5,
  "ï¼Į": 6,
  "Ġand": 7,
  "Ġto": 8,
  "Ġa": 9,
  "ĠI": 10,
  "Ġof": 11,
  "Ġwas": 12,
  "çļĦ": 13,
  "Ġher": 14,
  "Ġin": 15,
  ".ĊĊ": 16,
  "Ġ": 17,
  "Ġhis": 18,
  "Ġthat": 19,
  "Ġmy": 20,
  "ĊĊ": 21,
  "Ġit": 22,
  "Ġhe": 23,
  "Ġhad": 24,
  "Ġwith": 25,
  "Ġon": 26,
  "Ġas": 27,
  "Ġshe": 28,
  "Ġyou": 29,
  "æĪĳ": 30,
  "Ġfor": 31,
  "Ġme": 32,
  "Ġat": 33,
  "ãĢĤ": 34,
  "'s": 35,
  "ãĢĤĊĊ": 36,
  ":": 37,
  "Ġup": 38,
  "Ġbut": 39,
  "äºĨ": 40,
  "Ġ\"": 41,
  "å¥¹": 42,
  "'t": 43,
  "Ġout": 44,
  "Ġis": 45,
  "Ġhim": 46,
  "Ġbe": 47,
  "Ġfrom": 48,
  "ĠThe": 49,
  "ĠHe": 50,
  "Ġwere": 51,
  "Ġthis": 52,
  "Ġhave": 53,
  "èĳĹ": 54,
  "ĠShe": 55,
  "Ġso": 56,
  "Ġnot": 57,
  "Ġjust": 58,
  "Ġall": 59,
  "\"": 60,
  "Ġwould": 61,
  "Ġback": 62,
  "Ġone": 63,
  "1": 64,
  "Ġwe": 65,
  "I": 66,
  "Ġabout": 67,
  "Ġinto": 68,
  "Ġthey": 69,
  "Ġsaid": 70,
  "ãĢĮ": 71,
  "Ġlike": 72,
  "Ġdown": 73,
  "Ġwhat": 74,
  "Ġover": 75,
  "Ġcould": 76,
  "Âł": 77,
  "åľ¨": 78,
  "Ġtime": 79,
  "Ġbeen": 80,
  "Ġby": 81,
  "Ġan": 82,
  "Ġwhen": 83,
  "Ġthem": 84,
  "æĺ¯": 85,
  "Ġor": 86,
  "2": 87,
  "ä¾Ĩ": 88,
  "Ġget": 89,
  "èªª": 90,
  "ä¸Ģ": 91,
  "Ġthere": 92,
  "0": 93,
  "ĠIt": 94,
  "Ġmore": 95,
  "ä¸Ĭ": 96,
  "å°ı": 97,
  "Ġaround": 98,
  "Ġsome": 99,
  "ed": 100,
  "Ġif": 101,
  "Ġtheir": 102,
  "Ġdo": 103,
  "Ġare": 104,
  "ĉ": 105,
  "Ġoff": 106,
  "Ġthen": 107,
  "âĢĻt": 108,
  ".\"": 109,
  "Ġbefore": 110,
  "æľī": 111,
  "âĢĻs": 112,
  "ing": 113,
  "ä»ĸ": 114,
  "æĻĤ": 115,
  "Ġother": 116,
  "åĴĮ": 117,
  "åĪ°": 118,
  "å°±": 119,
  "ĠâĢľ": 120,
  "éĤ£": 121,
  "Ġlittle": 122,
  "Ġeyes": 123,
  "Ġdidn": 124,
  "Ġlooked": 125,
  ".\"ĊĊ": 126,
  "Ġgot": 127,
  "åĢĭ": 128,
  "?": 129,
  "ä¸į": 130,
  "éĢĻ": 131,
  "Ġknow": 132,
  "The": 133,
  "Ġno": 134,
  "Ġyour": 135,
  "3": 136,
  "Ġonly": 137,
  "å¤§": 138,
  "Ġcan": 139,
  "Ġfirst": 140,
  "Ġsee": 141,
  "ï¼ģ": 142,
  "Ġnow": 143,
  "Ġway": 144,
  "Title": 145,
  "Tags": 146,
  "Ġstill": 147,
  "Ġroom": 148,
  "Ġtwo": 149,
  "Ġdid": 150,
  "Ġgoing": 151,
  "Ġeven": 152,
  "è£¡": 153,
  "Ġhead": 154,
  "...": 155,
  "!": 156,
  "Ġwho": 157,
  "Ġstory": 158,
  "ä¹Ł": 159,
  "Ġhow": 160,
  "åŃĲ": 161,
  "æĪĳçļĦ": 162,
  "ãĢįĊĊ": 163,
  "5": 164,
  "Ġgo": 165,
  "Ġthrough": 166,
  "Ġthan": 167,
  "Ġlong": 168,
  "å¾Į": 169,
  "Ġday": 170,
  "Ġfew": 171,
  "Introduction": 172,
  "Ġdoor": 173,
  "æľĥ": 174,
  "?\"": 175,
  "å°į": 176,
  "ä½ł": 177,
  "Ġafter": 178,
  "ĠA": 179,
  "Ġnight": 180,
  "Ġmuch": 181,
  "Ġour": 182,
  ",\"": 183,
  "éģİ": 184,
  "åľ°": 185,
  "Ġvery": 186,
  "Ġmade": 187,
  "'m": 188,
  "Ġgood": 189,
  "ãĢģ": 190,
  "éłŃ": 191,
  "Ġthought": 192,
  "å¥½": 193,
  "Ġwhile": 194,
  "Ġasked": 195,
  "ĠSex": 196,
  "Ġdon": 197,
  "Ġhere": 198,
  "Ġreally": 199,
  "åİ»": 200,
  ";": 201,
  "éĤĦ": 202,
  "Ġtoo": 203,
  "æĪĳåĢĳ": 204,
  "Ġsomething": 205,
  "Ġany": 206,
  "éĸĭ": 207,
  "ĠMale": 208,
  "Ġstarted": 209,
  "Ġwill": 210,
  "Ġwent": 211,
  "äºº": 212,
  "Ġright": 213,
  "Ġbody": 214,
  "Ġagain": 215,
  "âĢ¦": 216,
  "ï¼ļ": 217,
  "æ²Ĵ": 218,
  "ä¸ĭ": 219,
  "4": 220,
  "Ġwell": 221,
  "Ġfelt": 222,
  "éķ·": 223,
  "âĢľ": 224,
  "ĠFemale": 225,
  "Ġface": 226,
  "Ġwasn": 227,
  "ï¼Ł": 228,
  "å¥¹çļĦ": 229,
  "Ġnever": 230,
  "'d": 231,
  "Ġwant": 232,
  "Ġbeing": 233,
  "Ġwhere": 234,
  "Ġaway": 235,
  "Ġhand": 236,
  "Ġhome": 237,
  "Ġtook": 238,
  "Ġknew": 239,
  "Ġbed": 240,
  "å®¶": 241,
  "ãĢį": 242,
  "ly": 243,
  "ĠWe": 244,
  "Ġlook": 245,
  "6": 246,
  "Ġmake": 247,
  "Ġcame": 248,
  "å¾ŀ": 249,
  "Ġlooking": 250,
  "Ġalways": 251,
  "Ġwhich": 252,
  "æ²Ĵæľī": 253,
  "Ġwork": 254,
  "Ġthink": 255,
  "Ġus": 256,
  "å¾Ĺ": 257,
  "Ġturned": 258,
  "åıĪ": 259,
  "âĢ¦âĢ¦": 260,
  "ĠMy": 261,
  "å¾Ī": 262,
  "Ġcock": 263,
  "Ġnext": 264,
  "Ġwanted": 265,
  "ä¸Ń": 266,
  "éĥ½": 267,
  "Ġleft": 268,
  "ä¸ĢåĢĭ": 269,
  "Ġtold": 270,
  "Ġsex": 271,
  "Ġhas": 272,
  "Ġlast": 273,
  "èĢĮ": 274,
  "8": 275,
  "Ġschool": 276,
  "Ġyears": 277,
  "çľĭ": 278,
  "Ġtake": 279,
  "Ġam": 280,
  "ĠThis": 281,
  "éĸĵ": 282,
  "Ġnew": 283,
  "Ġ(": 284,
  "æŃ²": 285,
  "Ġlet": 286,
  "Ġwalked": 287,
  "éĸĢ": 288,
  "è¦ģ": 289,
  "?\"ĊĊ": 290,
  "æīĭ": 291,
  "Ġsmall": 292,
  "ĠThey": 293,
  "ä½Ĩ": 294,
  "y": 295,
  "Ġhair": 296,
  "Ġman": 297,
  "Ġ-": 298,
  "é»ŀ": 299,
  "Ġhouse": 300,
  "Ġboth": 301,
  "Ġlife": 302,
  "Ġblack": 303,
  "Ġcome": 304,
  "Ġhard": 305,
  "Ġeach": 306,
  "åĩº": 307,
  "Ġanother": 308,
  "åĽłçĤº": 309,
  "ĠFiction": 310,
  "ĠHer": 311,
  "æĥ³": 312,
  "Ġbecause": 313,
  "åħ§": 314,
  "éĢ²": 315,
  "åħ©": 316,
  ".âĢĿĊĊ": 317,
  "Ġbit": 318,
  "Ġold": 319,
  "çķ¶": 320,
  "èº«": 321,
  "Ġagainst": 322,
  "Ġsaw": 323,
  "Ġthings": 324,
  "çĦ¡": 325,
  "Ġmost": 326,
  "è¦ĭ": 327,
  "led": 328,
  "è¢«": 329,
  "Ġput": 330,
  "He": 331,
  "Ġsure": 332,
  "Ġgetting": 333,
  "Ġthough": 334,
  "çµ¦": 335,
  "'": 336,
  "ĠBut": 337,
  "Ġsat": 338,
  "ç¾İ": 339,
  "äºĨä¸Ģ": 340,
  "Ġgirl": 341,
  "Ġund": 342,
  "å¤©": 343,
  "Ġfeel": 344,
  "Ġenough": 345,
  "ç©¿": 346,
  "Ġside": 347,
  "Ġmind": 348,
  "Ġcouldn": 349,
  "ĠAs": 350,
  "Ġ/": 351,
  "éĺ¿": 352,
  "Ġplace": 353,
  "Ġsince": 354,
  "Ġfound": 355,
  "'re": 356,
  "çĻ¼": 357,
  "æĦĽ": 358,
  "Ġbehind": 359,
  "å¿ĥ": 360,
  "é«ĺ": 361,
  "å¥³": 362,
  "Ġhimself": 363,
  "Ġpeople": 364,
  "Ġown": 365,
  "-": 366,
  "!\"": 367,
  "åīĽ": 368,
  "æĪ¿": 369,
  "Ġfront": 370,
  "å·²ç¶ĵ": 371,
  "ĠHis": 372,
  "Ġpart": 373,
  "Ġsay": 374,
  "æ°£": 375,
  "Ġmyself": 376,
  "æĬĬ": 377,
  "Ġthing": 378,
  "åķĬ": 379,
  "9": 380,
  "è»Ĭ": 381,
  "æīĵ": 382,
  "Ġmorning": 383,
  "åĭķ": 384,
  "Ġbig": 385,
  "Ġalso": 386,
  "å¹´": 387,
  "Ġhelp": 388,
  "ĠYou": 389,
  "éĽĻ": 390,
  "Ġlove": 391,
  "ä»Ģéº¼": 392,
  "æīĢä»¥": 393,
  "It": 394,
  "s": 395,
  "è¤²": 396,
  "Ġthose": 397,
  "Ġfriend": 398,
  "Ġalmost": 399,
  "7": 400,
  "Ġanything": 401,
  "She": 402,
  "Ġneed": 403,
  "Ġfind": 404,
  "Ġbegan": 405,
  "en": 406,
  "åı«": 407,
  "Ġyear": 408,
  "Ġevery": 409,
  "Ġtell": 410,
  "Ġfriends": 411,
  "/": 412,
  "ĠAnd": 413,
  "å¹¾": 414,
  "A": 415,
  "Ġuntil": 416,
  "'ve": 417,
  "Ġseemed": 418,
  "Ġunder": 419,
  "'ll": 420,
  "åį»": 421,
  "åª½åª½": 422,
  "æīį": 423,
  "Ġyoung": 424,
  "èĩªå·±": 425,
  "Ġever": 426,
  "æĢ§": 427,
  "Ġpulled": 428,
  "èī²": 429,
  "Ġf": 430,
  "Ġsame": 431,
  "éĸĭå§ĭ": 432,
  "Ġmouth": 433,
  "ĠTeen": 434,
  "Ġits": 435,
  "Ġbetween": 436,
  "èģ²": 437,
  "èĢģå©Ĩ": 438,
  "èµ·": 439,
  "Ġsmiled": 440,
  "Ġopen": 441,
  "\"I": 442,
  "Ġbest": 443,
  "ĠBlowjob": 444,
  "åģļ": 445,
  "èĩī": 446,
  "åĢĳ": 447,
  "Ġmany": 448,
  "ä¾¿": 449,
  "åĲ§": 450,
  "Ġhaving": 451,
  "å¤ļ": 452,
  "Ġtogether": 453,
  "Ġass": 454,
  "çĤº": 455,
  "éĤĬ": 456,
  "ç·Ĭ": 457,
  "ensual": 458,
  "Ġgirls": 459,
  "Ġstood": 460,
  "Ġslowly": 461,
  "Ġwhite": 462,
  "çĻ½": 463,
  "ï¼Įåľ¨": 464,
  ",âĢĿ": 465,
  ".âĢĿ": 466,
  "Ġhands": 467,
  "Ġgave": 468,
  "è·Ł": 469,
  "è®ĵ": 470,
  "ĠCons": 471,
  "Ġshould": 472,
  "Ġdoing": 473,
  "Ġwoman": 474,
  "æ»¿": 475,
  "éģĵ": 476,
  "Ġvoice": 477,
  "Ġthree": 478,
  "Ġwife": 479,
  "Ġlegs": 480,
  "Ġlot": 481,
  "Ġlight": 482,
  "Ġheard": 483,
  "Ġalready": 484,
  "Ġp": 485,
  "çĶ¨": 486,
  "Ġnothing": 487,
  "Ġname": 488,
  "è¼ķ": 489,
  "å°ĩ": 490,
  "ĠChapter": 491,
  "âĢĻm": 492,
  "èĢģ": 493,
  "èµ·ä¾Ĩ": 494,
  "Ġinside": 495,
  "Ġtop": 496,
  "åŃ¸": 497,
  "Ġquickly": 498,
  "Ġlarge": 499,
  "ĠThere": 500,
  "ä»ĸåĢĳ": 501,
  "æ¨£": 502,
  "Ġdark": 503,
  "å©ļ": 504,
  "âĢĿ": 505,
  "Ġherself": 506,
  "Ġnice": 507,
  "é«Ķ": 508,
  "Ġbetter": 509,
  "ie": 510,
  "©": 511,
  "!ĊĊ": 512,
  "åīį": 513,
  "ç´ħ": 514,
  "Ġfur": 515,
  "Ġtrying": 516,
  "Ġread": 517,
  "Ġhot": 518,
  "çĿ¡": 519,
  "Ġpussy": 520,
  "ä½ı": 521,
  "éĿ¢": 522,
  "Ġopened": 523,
  "åı¯": 524,
  "Ġonce": 525,
  "Ġmoment": 526,
  "è¡£": 527,
  "éĢĻåĢĭ": 528,
  "Ġpretty": 529,
  "èµ°": 530,
  "Ġdecided": 531,
  "er": 532,
  "ĠThat": 533,
  "å¼µ": 534,
  "Ġwhy": 535,
  "Ġmaking": 536,
  "Ġsoon": 537,
  "Ġcar": 538,
  "Ġend": 539,
  "Ġi": 540,
  "èĪĩ": 541,
  "in": 542,
  "åķı": 543,
  "Ġ'": 544,
  "Ġacross": 545,
  "Ġhigh": 546,
  "ĠIn": 547,
  "Ġsomeone": 548,
  "æľīä¸Ģ": 549,
  "Ġkeep": 550,
  "ĠK": 551,
  "Ġsmile": 552,
  "Ġdays": 553,
  "çĶ·äºº": 554,
  "ĠIf": 555,
  "å¸¶": 556,
  "ĠM": 557,
  "Ġwater": 558,
  "éĽĸçĦ¶": 559,
  "Ġdie": 560,
  "Ġfar": 561,
  "Ġwolf": 562,
  "éĢĻæ¨£": 563,
  "Ġred": 564,
  "Ġcouple": 565,
  "Ġguy": 566,
  "åı£": 567,
  "çļĦæĻĤåĢĻ": 568,
  "You": 569,
  "Ġt": 570,
  "Ġmoved": 571,
  "Ġh": 572,
  "äºĭ": 573,
  "Ġtried": 574,
  "Ġgreat": 575,
  "Ġfinally": 576,
  "æŃ£": 577,
  ")": 578,
  "Ġquite": 579,
  "ĠPart": 580,
  "å°±æĺ¯": 581,
  "Ġ=": 582,
  "Ġclose": 583,
  "åĨį": 584,
  "ĠOral": 585,
  "Ġlater": 586,
  "Ġfeeling": 587,
  "Ġshort": 588,
  "Ġleast": 589,
  "çľĭåĪ°": 590,
  "ĠâĢĵ": 591,
  "ĠAfter": 592,
  "Ġdone": 593,
  "ĠSo": 594,
  "Ġfuck": 595,
  "èĻķ": 596,
  "Ġblue": 597,
  "ĠWhen": 598,
  "Ġalong": 599,
  "a": 600,
  "¾": 601,
  "èģ½": 602,
  "Ġset": 603,
  "Ġseen": 604,
  "Ġmight": 605,
  "çĶŁ": 606,
  "Ġcalled": 607,
  "Ġtimes": 608,
  "èĩª": 609,
  "âĢĻd": 610,
  "Ġwithout": 611,
  "Ġgive": 612,
  "èº«æĿĲ": 613,
  "Ġguys": 614,
  "Chapter": 615,
  "åħī": 616,
  "Ġthese": 617,
  "çı¾åľ¨": 618,
  "åıª": 619,
  "åħĴ": 620,
  "Ġhappened": 621,
  "èħ¿": 622,
  "å¿«": 623,
  "å¥³äºº": 624,
  "åĽŀ": 625,
  "Ġfull": 626,
  "Ġmother": 627,
  "Ġwomen": 628,
  "Ġarms": 629,
  "åħ¬": 630,
  "çİ©": 631,
  "Ġused": 632,
  "Ġnaked": 633,
  ")ĊĊ": 634,
  "Ġbeautiful": 635,
  "Ġeverything": 636,
  "åĹİ": 637,
  "Ġcourse": 638,
  "Ġshower": 639,
  "Ġhalf": 640,
  "æľĪ": 641,
  "ĠStory": 642,
  "Ġweek": 643,
  "Ġfloor": 644,
  "Ġpast": 645,
  "?âĢĿ": 646,
  "çľ¼": 647,
  "Ġneeded": 648,
  "Ġlips": 649,
  "ä¸ī": 650,
  "åĪ°äºĨ": 651,
  "Ġchest": 652,
  "Ġworld": 653,
  "Ġtowards": 654,
  "Ġyet": 655,
  "Ġminutes": 656,
  "My": 657,
  "éĻ°": 658,
  "éĤĦæĺ¯": 659,
  "Ġsuch": 660,
  "äºĮ": 661,
  "\"ĊĊ": 662,
  "an": 663,
  "?âĢĿĊĊ": 664,
  "åª½": 665,
  "Ġfun": 666,
  "Ġstart": 667,
  "Ġkind": 668,
  "Ġsh": 669,
  "çµĲ": 670,
  "ç´Ħ": 671,
  "Ġjob": 672,
  "çļĦä¸Ģ": 673,
  "Ġsitting": 674,
  "Ġdeep": 675,
  "/F": 676,
  "æ·«": 677,
  "Ġcoming": 678,
  "We": 679,
  "ĠWhat": 680,
  "Ġkept": 681,
  "æ°´": 682,
  "Ġwearing": 683,
  "Ġenjoy": 684,
  "Ġm": 685,
  "Ġtable": 686,
  "ç´°": 687,
  "Ġsecond": 688,
  "Ġfamily": 689,
  "As": 690,
  "emale": 691,
  "ä½Ĩæĺ¯": 692,
  "Ġfeet": 693,
  "ers": 694,
  "Ġrest": 695,
  "Ġphone": 696,
  "å¤ĸ": 697,
  "ĠT": 698,
  "æĦŁè¦º": 699,
  "ä¸įéģİ": 700,
  "ĠSw": 701,
  "ĠCum": 702,
  "Ġ.": 703,
  "èĢģå¸«": 704,
  "Ġstop": 705,
  "æīĢ": 706,
  "allow": 707,
  "«": 708,
  "ĠFirst": 709,
  "ĠD": 710,
  "ä¹³": 711,
  "Ġair": 712,
  "Ġreplied": 713,
  "æĻĤéĸĵ": 714,
  "Ġelse": 715,
  "åĩºä¾Ĩ": 716,
  "Ġmet": 717,
  "Ġonto": 718,
  "åĳ¢": 719,
  "Ġsleep": 720,
  "Ġready": 721,
  "Ġtaking": 722,
  "Ġsoft": 723,
  "èĤī": 724,
  "Ġtail": 725,
  "ï¼Ī": 726,
  "çĨ±": 727,
  "?ĊĊ": 728,
  "i": 729,
  "æ¨ĵ": 730,
  "Ġbreasts": 731,
  "This": 732,
  "Ġbad": 733,
  "èĢģåħ¬": 734,
  "Ġdifferent": 735,
  "ĠAnal": 736,
  "ä¹ĭ": 737,
  "åĲĥ": 738,
  "èĢĮä¸Ķ": 739,
  "Ġcall": 740,
  "ling": 741,
  "Ġago": 742,
  "åı¯ä»¥": 743,
  "ä¸įæĺ¯": 744,
  "Ġtown": 745,
  "on": 746,
  "ï¼ģĊĊ": 747,
  "Ġtry": 748,
  "ä»ĸçļĦ": 749,
  "Ġw": 750,
  "çľŁ": 751,
  "âĢĻ": 752,
  "Teen": 753,
  "Ġmust": 754,
  "Ġfox": 755,
  "å¯¦": 756,
  "Ġhours": 757,
  "æĥħ": 758,
  "Ġstopped": 759,
  "Ġnoticed": 760,
  "å¼·": 761,
  "Ġparents": 762,
  "Ġleave": 763,
  "Ġalone": 764,
  "Ġeveryone": 765,
  "æĢİéº¼": 766,
  "è£Ļ": 767,
  "åĲĳ": 768,
  "Ġwatching": 769,
  "çļĦå°ı": 770,
  "åħ¬åı¸": 771,
  "Ġable": 772,
  "ļ": 773,
  "Ġclothes": 774,
  "å·¥ä½ľ": 775,
  "ism": 776,
  "ç¨®": 777,
  "es": 778,
  "Ġwouldn": 779,
  "¸": 780,
  "éĽ£": 781,
  "Ġreached": 782,
  "Ġslightly": 783,
  "æĻļä¸Ĭ": 784,
  "éĢ£": 785,
  "Ġreal": 786,
  "Ġactually": 787,
  "Ġtight": 788,
  "åĥı": 789,
  "è©±": 790,
  "Ġgone": 791,
  "å®¤": 792,
  "æĳ¸": 793,
  "Ġun": 794,
  "ä¸¦": 795,
  "åĸľæŃ¡": 796,
  "æĽ´": 797,
  "æĦı": 798,
  "æĶ¾": 799,
  "çŃī": 800,
  "çµ²": 801,
  "Ġhadn": 802,
  "ĠAll": 803,
  "ä¸Ģä¸ĭ": 804,
  "Ġage": 805,
  "Ġtalk": 806,
  "Ġbrown": 807,
  "é¢¨": 808,
  "Ġhear": 809,
  "Ĩ": 810,
  "Ġy": 811,
  "Ġidea": 812,
  "èĬ±": 813,
  "Ġheld": 814,
  "Ġboy": 815,
  "Ġwarm": 816,
  "æĪĳå°±": 817,
  "ĠThen": 818,
  "Ġsexual": 819,
  "Ġtoday": 820,
  "èĪĪ": 821,
  "Ġthinking": 822,
  "Ġprobably": 823,
  "æ©Ł": 824,
  "Ġworking": 825,
  "å¤ª": 826,
  "ä¹Łä¸į": 827,
  "Ġshirt": 828,
  "æĻĤåĢĻ": 829,
  "Ġhope": 830,
  "äººçļĦ": 831,
  "te": 832,
  "Ġder": 833,
  "Ġmove": 834,
  "ä»Ĭå¤©": 835,
  "ĠTime": 836,
  "Ġran": 837,
  "è¦ª": 838,
  "Ġplease": 839,
  "Ġwatched": 840,
  "Ġoutside": 841,
  "Ġmen": 842,
  "éĥ½æĺ¯": 843,
  "Ġuse": 844,
  "çĦ¶å¾Į": 845,
  "ĠOne": 846,
  "åľ¨æĪĳ": 847,
  "Ġlate": 848,
  "!\"ĊĊ": 849,
  "çŁŃ": 850,
  "ĠTrue": 851,
  "å§Ĳ": 852,
  "·": 853,
  "Ġsister": 854,
  ",ĊĊ": 855,
  "h": 856,
  "èĥ¸": 857,
  "Ġseveral": 858,
  "ales": 859,
  "è¦ºå¾Ĺ": 860,
  "Ġg": 861,
  "Ġearly": 862,
  "Ġmay": 863,
  "Ġcum": 864,
  "ĠNo": 865,
  "æĪĲ": 866,
  "é¦¬": 867,
  "Ġrather": 868,
  "Ġneck": 869,
  "æĸ¼": 870,
  "Ġfucking": 871,
  "å©¦": 872,
  "o": 873,
  "Ġhappy": 874,
  "è¦º": 875,
  "ç¬ĳ": 876,
  "ĠFantasy": 877,
  "ç¸½": 878,
  "K": 879,
  "è£Ŀ": 880,
  "Ġgrabbed": 881,
  "Ġfact": 882,
  "Ġturn": 883,
  "Ġmo": 884,
  "ating": 885,
  "Ġbar": 886,
  "Ġmean": 887,
  "Ġshow": 888,
  "çľĭèĳĹ": 889,
  "Ġkiss": 890,
  "åħ©åĢĭ": 891,
  "Ġbreath": 892,
  "Ġpoint": 893,
  "å¦Ĥ": 894,
  "Ġsound": 895,
  "Ġanyone": 896,
  "Ġstanding": 897,
  "ä¹³æĪ¿": 898,
  "Ġplay": 899,
  "»": 900,
  "us": 901,
  "Ġfather": 902,
  "åħĪ": 903,
  "åĪ¥": 904,
  "Ġcare": 905,
  "éĥ¨": 906,
  "æĸĩ": 907,
  "Ġliving": 908,
  "Ġheart": 909,
  "çĻ¼çı¾": 910,
  "el": 911,
  "åįĬ": 912,
  "å·²": 913,
  "Ġc": 914,
  "å¹«": 915,
  "D": 916,
  "çªģçĦ¶": 917,
  "Ġcontinued": 918,
  "æĽ¸": 919,
  "ĠF": 920,
  "ä¹ĭå¾Į": 921,
  "Ġattention": 922,
  "èĦ«": 923,
  "Ġwalk": 924,
  "éĿľ": 925,
  "Ġarm": 926,
  "Ġeither": 927,
  "Ġwhole": 928,
  "èº«é«Ķ": 929,
  "çĽ¸": 930,
  "éĢĻéº¼": 931,
  "Ġsun": 932,
  "åĿĲ": 933,
  "ä¸ĬçļĦ": 934,
  "Ġ*": 935,
  "ĠL": 936,
  "Ġolder": 937,
  "¹": 938,
  "æľĢ": 939,
  "Ġb": 940,
  "Ġothers": 941,
  "ĠS": 942,
  "è±Ĳ": 943,
  "ï¼ģãĢį": 944,
  "æī¾": 945,
  "çİī": 946,
  "Ġstories": 947,
  "Ġlooks": 948,
  "è¥": 949,
  "Ġcollege": 950,
  "åĪĨ": 951,
  "Ġoffice": 952,
  "What": 953,
  "Ġtongue": 954,
  "Ġloved": 955,
  "Ġwalking": 956,
  "èħ³": 957,
  "è®ĵæĪĳ": 958,
  "Ġhusband": 959,
  "Ġrunning": 960,
  "..": 961,
  "äº¤": 962,
  "æ¢Ŀ": 963,
  "ĠNot": 964,
  "Ġtall": 965,
  "çļĦå¤§": 966,
  "Ġmom": 967,
  "Ġl": 968,
  "èĩªå·±çļĦ": 969,
  "S": 970,
  "Į": 971,
  "åı¯æĺ¯": 972,
  "Ġwet": 973,
  "ĠAt": 974,
  "or": 975,
  "Ġmaybe": 976,
  "Ġcaught": 977,
  "ity": 978,
  "Ġclass": 979,
  "Ġguess": 980,
  "Ġpants": 981,
  "Ġcity": 982,
  "ä¸Ģæ¨£": 983,
  "Ġwar": 984,
  "Ġchapter": 985,
  "éĽª": 986,
  "Ġremember": 987,
  "Ġbathroom": 988,
  "Ġmonths": 989,
  "Ġworked": 990,
  "Ġwaiting": 991,
  "Ġdragon": 992,
  "Ġdick": 993,
  "Hey": 994,
  "åĽŀä¾Ĩ": 995,
  "åľĭ": 996,
  "Ġpaw": 997,
  "æĪĳåĴĮ": 998,
  "Ġfingers": 999,
  "ç¶ĵ": 1000,
  "Ġtalking": 1001,
  "Ġduring": 1002,
  "T": 1003,
  "Ġs": 1004,
  "Ġdressed": 1005,
  "Ġask": 1006,
  "Ġbedroom": 1007,
  "åĽŀå®¶": 1008,
  "Ġcold": 1009,
  "Ġclosed": 1010,
  "Ġwindow": 1011,
  "Ġliked": 1012,
  "ĺ": 1013,
  "ĠDom": 1014,
  "Ġstay": 1015,
  "å®Į": 1016,
  "Ġmeet": 1017,
  "æĺ¯ä¸Ģ": 1018,
  "ination": 1019,
  "ĠYoung": 1020,
  "è½ī": 1021,
  "Ġer": 1022,
  "Ī": 1023,
  "åŃ¸æł¡": 1024,
  "is": 1025,
  "Ġears": 1026,
  "Ġkitchen": 1027,
  "C": 1028,
  "åł´": 1029,
  "ĠWith": 1030,
  "Ġnodded": 1031,
  "ä¹Łæĺ¯": 1032,
  "ĸ": 1033,
  "å¹¹": 1034,
  "Ġmale": 1035,
  "Ġpair": 1036,
  "å«Ĥ": 1037,
  "Ġground": 1038,
  "ĠR": 1039,
  "Ġhour": 1040,
  "Ġtits": 1041,
  "Ġeye": 1042,
  "åħ¥": 1043,
  ":ĊĊ": 1044,
  "å¿Ļ": 1045,
  "Ġweeks": 1046,
  "ï¼ŁãĢį": 1047,
  "Ġparty": 1048,
  "çĶ±æĸ¼": 1049,
  "le": 1050,
  "å¦³": 1051,
  "Ġbrought": 1052,
  "æ¯Ķ": 1053,
  "è¡£æľį": 1054,
  "åĽĽ": 1055,
  "Ġtaken": 1056,
  "æ¯įè¦ª": 1057,
  "é«®": 1058,
  "Ġskin": 1059,
  "å°ĳ": 1060,
  "å®¢": 1061,
  "èĥ½": 1062,
  "æľīé»ŀ": 1063,
  "ĠNow": 1064,
  "èª²": 1065,
  "æİ¥": 1066,
  "èĨ": 1067,
  "å§Ĭ": 1068,
  "èħ°": 1069,
  "æĺİ": 1070,
  "it": 1071,
  "å¹³": 1072,
  "Ġsays": 1073,
  "Ġhit": 1074,
  "æĴ": 1075,
  "çĪ¸çĪ¸": 1076,
  "Ġwatch": 1077,
  "ies": 1078,
  "æĮº": 1079,
  "ï¼İ": 1080,
  "Ġforward": 1081,
  "he": 1082,
  "Ġfree": 1083,
  "Ġwoke": 1084,
  "æľ¬": 1085,
  "é£¯": 1086,
  "çļĦäºº": 1087,
  "éºĹ": 1088,
  "Ġr": 1089,
  "æĻļ": 1090,
  "al": 1091,
  "çıŃ": 1092,
  "Ġfour": 1093,
  "ä¸Ģèµ·": 1094,
  "åķ¦": 1095,
  "å¤ľ": 1096,
  "ĠC": 1097,
  "æĺ¯ä¸ĢåĢĭ": 1098,
  "Ġshoulder": 1099,
  "Ġbrother": 1100,
  "and": 1101,
  "\"You": 1102,
  "Ġperson": 1103,
  "åŃ¸çĶŁ": 1104,
  "ĠâĢĺ": 1105,
  "ĠH": 1106,
  "éħĴ": 1107,
  "Ġsn": 1108,
  "Ġstepped": 1109,
  "Ġsummer": 1110,
  "¢": 1111,
  "æĩī": 1112,
  "éĮ¢": 1113,
  "Ġarea": 1114,
  "Ġtrue": 1115,
  "çķ¶çĦ¶": 1116,
  "Ġoften": 1117,
  "å¸¸": 1118,
  "âĢľI": 1119,
  "ª": 1120,
  "Ġfinished": 1121,
  "æĪĳä¹Ł": 1122,
  "Ġrun": 1123,
  "å¥³åıĭ": 1124,
  "Ġmine": 1125,
  "æĭī": 1126,
  "Ġd": 1127,
  "è¡¨": 1128,
  "Ġgreen": 1129,
  "Ġgently": 1130,
  "Ġwall": 1131,
  "æŁĶ": 1132,
  "ä»¥": 1133,
  "Ġquick": 1134,
  "ĠB": 1135,
  "Ġmoney": 1136,
  "ä½ľ": 1137,
  "After": 1138,
  "è£¡éĿ¢": 1139,
  "Ġstraight": 1140,
  "éĽ»è©±": 1141,
  "å¬": 1142,
  "Ġsighed": 1143,
  "Ġsexy": 1144,
  "ç©º": 1145,
  "Ġgr": 1146,
  "æĺ¯æĪĳ": 1147,
  "ĠRomance": 1148,
  "è«ĭ": 1149,
  "Ġreading": 1150,
  "åĳĢ": 1151,
  "çĶ·": 1152,
  "Ġpassed": 1153,
  "Ġwait": 1154,
  "Ġbl": 1155,
  "ģ": 1156,
  "çĽ´": 1157,
  "Oh": 1158,
  "th": 1159,
  "M": 1160,
  "Ġgiving": 1161,
  "éĻ£": 1162,
  "ĠBoy": 1163,
  "When": 1164,
  "¶": 1165,
  "æĸ°": 1166,
  "ia": 1167,
  "...\"": 1168,
  "Ġcompletely": 1169,
  "Ġbecame": 1170,
  "ĠN": 1171,
  "åĸĿ": 1172,
  "å¾Ģ": 1173,
  "åıªæľī": 1174,
  "æĭ¿": 1175,
  "åĵ¥": 1176,
  "è¿·": 1177,
  "æľĽ": 1178,
  "Ġst": 1179,
  "Ġchange": 1180,
  "ä¸ĢçĽ´": 1181,
  "So": 1182,
  "Ġpushed": 1183,
  "Ġperfect": 1184,
  "ä¸ĭä¾Ĩ": 1185,
  "Ġspent": 1186,
  "Ġchair": 1187,
  "Ġthick": 1188,
  "ĠCh": 1189,
  "åĲĮåŃ¸": 1190,
  "ĠFor": 1191,
  "Ġsich": 1192,
  "And": 1193,
  "Ġfell": 1194,
  "Ġwords": 1195,
  "Ġlay": 1196,
  "ç½©": 1197,
  "ä½į": 1198,
  "Ġdoes": 1199,
  "éĤ£åĢĭ": 1200,
  "Ġshorts": 1201,
  "Ĭ": 1202,
  "Ġupon": 1203,
  "å¼Ħ": 1204,
  "¥": 1205,
  "ä¸ĢéĤĬ": 1206,
  "é": 1207,
  "Ġdress": 1208,
  "éĻ½": 1209,
  "çİ²": 1210,
  "âĢĻve": 1211,
  "å§Ĳå§Ĳ": 1212,
  "Ġcloser": 1213,
  "åĿĲåľ¨": 1214,
  "é»ĳ": 1215,
  "king": 1216,
  "åıªæĺ¯": 1217,
  "Ġbarely": 1218,
  "Ġdad": 1219,
  "Ġreason": 1220,
  "æıĽ": 1221,
  "æ¸ħ": 1222,
  "Ġkissed": 1223,
  "æ¼": 1224,
  "Ġblood": 1225,
  "Ġmiddle": 1226,
  "Ġlost": 1227,
  "èģ²éŁ³": 1228,
  "åºĬ": 1229,
  "Ġseeing": 1230,
  "ä¸Īå¤«": 1231,
  "ï¼Ľ": 1232,
  "æľĭåıĭ": 1233,
  "å¤§åŃ¸": 1234,
  "Ġfine": 1235,
  "Ġfive": 1236,
  "Ġpain": 1237,
  "That": 1238,
  "Ġden": 1239,
  "aws": 1240,
  "çļ®": 1241,
  "æĿİ": 1242,
  "...ĊĊ": 1243,
  "é¦Ļ": 1244,
  "Ġnear": 1245,
  "Ġevening": 1246,
  "æĹ¥": 1247,
  "Ġwrong": 1248,
  "ä¿®": 1249,
  "Ġpicked": 1250,
  "Ġdoesn": 1251,
  "Ġboys": 1252,
  "Ġfemale": 1253,
  "Ġhell": 1254,
  "Ġzu": 1255,
  "Ġfoot": 1256,
  "Ġcut": 1257,
  "Ġusually": 1258,
  "ĠJust": 1259,
  "Ġfigure": 1260,
  "Ġmoving": 1261,
  "t": 1262,
  "ĠMast": 1263,
  "Ġstuff": 1264,
  "less": 1265,
  "Ġusual": 1266,
  "èº«ä¸Ĭ": 1267,
  "ĠTh": 1268,
  "ä¸Ģé»ŀ": 1269,
  "å¦¹å¦¹": 1270,
  "ir": 1271,
  "Ġlaughed": 1272,
  "Ġstand": 1273,
  "çļĦæĺ¯": 1274,
  "æĸ¼æĺ¯": 1275,
  "Ġfilled": 1276,
  "Ġchanged": 1277,
  "éĹľ": 1278,
  "ç§Ģ": 1279,
  "Ġfollowed": 1280,
  "åıĬ": 1281,
  "H": 1282,
  "âĢĻre": 1283,
  "Ġwon": 1284,
  "Ġsorry": 1285,
  "è£ı": 1286,
  "åħ¶å¯¦": 1287,
  "urbation": 1288,
  "Ġbelieve": 1289,
  "Ġbecome": 1290,
  "åĲĮ": 1291,
  "Ġholding": 1292,
  "ĠG": 1293,
  "å±ģèĤ¡": 1294,
  "æĪĳåľ¨": 1295,
  "æ´Ĺ": 1296,
  "Ĺ": 1297,
  "Ġbuilding": 1298,
  "Ġstarting": 1299,
  "Ġthoughts": 1300,
  "Ġheaded": 1301,
  "Ġarrived": 1302,
  "Ġleaving": 1303,
  "Ġshook": 1304,
  "Ġapartment": 1305,
  "Well": 1306,
  "Ġgroup": 1307,
  "æĪĳæĺ¯": 1308,
  "çŁ¥éģĵ": 1309,
  "æĹ©": 1310,
  "Ġsit": 1311,
  "Ġhappen": 1312,
  "åĢĭäºº": 1313,
  "ĠJohn": 1314,
  "st": 1315,
  "Ġauf": 1316,
  "æ¯Ķè¼ĥ": 1317,
  "äºĶ": 1318,
  "Ġgro": 1319,
  "Ġsoftly": 1320,
  "çĲĨ": 1321,
  "Ġgrow": 1322,
  "æ¬¡": 1323,
  "éĿŀå¸¸": 1324,
  "Ġwore": 1325,
  "ist": 1326,
  "Ġcouch": 1327,
  "Ġless": 1328,
  "Ġfl": 1329,
  "èı¯": 1330,
  "âĢĻll": 1331,
  "è²·": 1332,
  "æľīäºĽ": 1333,
  "çĶ±": 1334,
  "ica": 1335,
  "Ġpleasure": 1336,
  "åĺ´": 1337,
  "ar": 1338,
  "Ġhuman": 1339,
  "Ġdaughter": 1340,
  "e": 1341,
  "Ġdinner": 1342,
  "åĲį": 1343,
  "æŀĹ": 1344,
  "ï¸°": 1345,
  "éĽ¢": 1346,
  "Ġlonger": 1347,
  "æĦŁ": 1348,
  "Ġseat": 1349,
  "Ĳ": 1350,
  "æĥ³åĪ°": 1351,
  "z": 1352,
  "ĠJ": 1353,
  "Ġcovered": 1354,
  "åĮħ": 1355,
  "Ġimmediately": 1356,
  "æĢ§æĦŁ": 1357,
  "ä»Ĭå¹´": 1358,
  "ĠMr": 1359,
  "Ġcorner": 1360,
  "Ġsort": 1361,
  "b": 1362,
  "But": 1363,
  "as": 1364,
  "Ġleaned": 1365,
  "åĤ³": 1366,
  "å¸«": 1367,
  "Ġrealized": 1368,
  "é»ĥ": 1369,
  "èª": 1370,
  "å¦¹": 1371,
  "Ġtonight": 1372,
  "Ġnormal": 1373,
  "ion": 1374,
  "n": 1375,
  "Ġgiven": 1376,
  "Ġquiet": 1377,
  "aned": 1378,
  "Ġgets": 1379,
  "Ġstaring": 1380,
  "æŃ»": 1381,
  "Ġpanties": 1382,
  "Ġmatter": 1383,
  "èĥĮ": 1384,
  "Ġgl": 1385,
  "æĿ±è¥¿": 1386,
  "¯": 1387,
  "Ġdrink": 1388,
  "å«©": 1389,
  "çģ«": 1390,
  "å¤ªå¤ª": 1391,
  "åľĵ": 1392,
  "éĤ£éº¼": 1393,
  "ĠOlder": 1394,
  "èģĬ": 1395,
  "å¥®": 1396,
  "è¦ĸ": 1397,
  "æ¯į": 1398,
  "Ġsaying": 1399,
  "ĠWife": 1400,
  "è¾¦": 1401,
  "Ġchance": 1402,
  "éĹľä¿Ĥ": 1403,
  "Ġj": 1404,
  "åįģåĪĨ": 1405,
  "the": 1406,
  "éĢĻè£¡": 1407,
  "éĽŀ": 1408,
  "Ġsingle": 1409,
  "Ġhuge": 1410,
  "Ġbag": 1411,
  "Ġstrong": 1412,
  "Ġsweet": 1413,
  "Ġlived": 1414,
  "çİĭ": 1415,
  "éĢĻç¨®": 1416,
  "Ġabove": 1417,
  "æºĸåĤĻ": 1418,
  "B": 1419,
  "åĬĽ": 1420,
  "æµģ": 1421,
  "ç¶ĵå¸¸": 1422,
  "Ġweekend": 1423,
  "Ġmarried": 1424,
  "ah": 1425,
  "å¹´è¼ķ": 1426,
  "éĻ³": 1427,
  "ine": 1428,
  "ic": 1429,
  "æº«": 1430,
  "éĤĦæľī": 1431,
  "Ġform": 1432,
  "k": 1433,
  "åĸ®": 1434,
  "ĠHow": 1435,
  "Ġdream": 1436,
  "Ġnearly": 1437,
  "at": 1438,
  "æķĻ": 1439,
  "é©ļ": 1440,
  "Ġplaying": 1441,
  "Ġknown": 1442,
  "Ġfood": 1443,
  "Ġkids": 1444,
  "å¤§å®¶": 1445,
  "\"Oh": 1446,
  "å¥³åħĴ": 1447,
  "Ġsl": 1448,
  "Ġmeant": 1449,
  "ĠV": 1450,
  "çĶŁæ´»": 1451,
  "Ġfucked": 1452,
  "Ġsie": 1453,
  "ated": 1454,
  "Ġdesk": 1455,
  "\",": 1456,
  "Ġwriting": 1457,
  "æľīäºº": 1458,
  "ľ": 1459,
  "Ġgotten": 1460,
  "Ġbusiness": 1461,
  "è«ĩ": 1462,
  "æł¡": 1463,
  "Ġproblem": 1464,
  "No": 1465,
  "ch": 1466,
  "les": 1467,
  "çĪ¶è¦ª": 1468,
  "Ġrolled": 1469,
  "Ġafternoon": 1470,
  "Ġpool": 1471,
  "Ġsw": 1472,
  "çī¹åĪ¥": 1473,
  "åħŃ": 1474,
  "ä¸ĢäºĽ": 1475,
  "Ġsuddenly": 1476,
  "am": 1477,
  "é¡¯": 1478,
  "Ġfinger": 1479,
  "Ġfire": 1480,
  "æħ": 1481,
  "Ġseries": 1482,
  "Ġcoffee": 1483,
  "Ġsix": 1484,
  "They": 1485,
  "ï½ŀ": 1486,
  "å¹¾åĢĭ": 1487,
  "Ġbreak": 1488,
  "p": 1489,
  "Ġtouch": 1490,
  "ĳ": 1491,
  "éģİä¾Ĩ": 1492,
  "Ġch": 1493,
  "ĠZ": 1494,
  "åİŁä¾Ĩ": 1495,
  "Ġhips": 1496,
  "ĠExhibition": 1497,
  "ual": 1498,
  "İ": 1499,
  "ç²¾": 1500,
  "Ġcharacters": 1501,
  "Ġnumber": 1502,
  "ç¬¬ä¸Ģæ¬¡": 1503,
  "Ġgame": 1504,
  "åģ·": 1505,
  "Ġear": 1506,
  "ĠTo": 1507,
  "èĩĢ": 1508,
  "ĠJack": 1509,
  "åĢĴ": 1510,
  "çļĦå¥³äºº": 1511,
  "Ġdas": 1512,
  "Ġson": 1513,
  "äºĤ": 1514,
  "Ġde": 1515,
  "Ġwide": 1516,
  "Ġfast": 1517,
  "çĻ¼çĶŁ": 1518,
  "ro": 1519,
  "f": 1520,
  "ĠBlack": 1521,
  "Ġcute": 1522,
  "um": 1523,
  "Ġentire": 1524,
  "\"What": 1525,
  "ĠErot": 1526,
  "è©¦": 1527,
  "ĠChe": 1528,
  "º": 1529,
  "ĠSchool": 1530,
  "åľį": 1531,
  "Ġclear": 1532,
  "Ġhowever": 1533,
  "ĠAn": 1534,
  "By": 1535,
  "Ġenjoyed": 1536,
  "Ġknowing": 1537,
  "Ġseem": 1538,
  "Ġhold": 1539,
  "ı": 1540,
  "Ġsurprised": 1541,
  "Ġnipples": 1542,
  "å¤§çļĦ": 1543,
  "Ġgirlfriend": 1544,
  "âĢŀ": 1545,
  "Ġsc": 1546,
  "ç·ļ": 1547,
  "å¥Ĺ": 1548,
  "Ġexcited": 1549,
  "æĩīè©²": 1550,
  "Ġshowed": 1551,
  "æķ¸": 1552,
  "ish": 1553,
  "Ġshoulders": 1554,
  "Ġn": 1555,
  "u": 1556,
  "ĠEven": 1557,
  "ä¸įæľĥ": 1558,
  "éģł": 1559,
  "ĉThe": 1560,
  "Ġstared": 1561,
  "Ġstep": 1562,
  "çľ¼çĿĽ": 1563,
  "Ġlive": 1564,
  "Ġth": 1565,
  "Ġroad": 1566,
  "æ¼Ĥäº®": 1567,
  "å¾Įä¾Ĩ": 1568,
  "Ġwear": 1569,
  "æĹģ": 1570,
  "ç¸½æĺ¯": 1571,
  "Ġwithin": 1572,
  "æ©Łæľĥ": 1573,
  "Ġsight": 1574,
  "æĬ±": 1575,
  "å»": 1576,
  "Ġspoke": 1577,
  "åĽł": 1578,
  "*": 1579,
  "å°ĳå¥³": 1580,
  "ĠW": 1581,
  "ĠGay": 1582,
  "Ġblonde": 1583,
  "ĠFem": 1584,
  "Ġview": 1585,
  "Ġstreet": 1586,
  "âĢ¦âĢ¦ĊĊ": 1587,
  "çľŁçļĦ": 1588,
  "ky": 1589,
  "Ġpower": 1590,
  "ness": 1591,
  "çľŁæĺ¯": 1592,
  "æ£Ĵ": 1593,
  "Ġunderstand": 1594,
  "éĽ»": 1595,
  "Ġisn": 1596,
  "æĪĳä¸į": 1597,
  "ĠBi": 1598,
  "ç¾İå¥³": 1599,
  "Ġcompany": 1600,
  "Ġstrange": 1601,
  "ç´ļ": 1602,
  "Ġgas": 1603,
  "Ġsimply": 1604,
  "Ġdead": 1605,
  "Ġslid": 1606,
  "Ŀ": 1607,
  "Ġbright": 1608,
  "Ġstomach": 1609,
  "Ġmuzzle": 1610,
  "Ġsurprise": 1611,
  "çĤºäºĨ": 1612,
  "Ġentered": 1613,
  "çµĤæĸ¼": 1614,
  "ched": 1615,
  "-sex": 1616,
  "Ġglass": 1617,
  "ç¡¬": 1618,
  "Ġexperience": 1619,
  "Ġbring": 1620,
  "ant": 1621,
  "ä»¶": 1622,
  "è¡Į": 1623,
  "L": 1624,
  "Ġsent": 1625,
  "æŃ£åľ¨": 1626,
  "çīĩ": 1627,
  "å¥¶": 1628,
  "å¥½åĥı": 1629,
  "Ġdrive": 1630,
  "ĠSt": 1631,
  "æ¨Ĥ": 1632,
  "Ġsense": 1633,
  "åĵ¡": 1634,
  "å»³": 1635,
  "ç¦®": 1636,
  "ĠGroup": 1637,
  "!âĢĿ": 1638,
  "ess": 1639,
  "Ġhorny": 1640,
  "ç¾İéºĹ": 1641,
  "éļ»": 1642,
  "éľ²": 1643,
  "å¦»åŃĲ": 1644,
  "Ġskirt": 1645,
  "In": 1646,
  "æĺ¯åľ¨": 1647,
  "mission": 1648,
  "ç«Ļ": 1649,
  "Ġgigg": 1650,
  "éłĨ": 1651,
  "å±±": 1652,
  "Ġbra": 1653,
  "ped": 1654,
  "Ġpulling": 1655,
  "Ġheavy": 1656,
  "èĥ¸éĥ¨": 1657,
  "Ġfurther": 1658,
  "åīĩ": 1659,
  "Ł": 1660,
  "ä»¤": 1661,
  "åĢ": 1662,
  "è¿ĳ": 1663,
  "F": 1664,
  "/sub": 1665,
  "éľ²åĩº": 1666,
  "Ġrubbing": 1667,
  "Ġtrip": 1668,
  "ä½¿": 1669,
  "Ġround": 1670,
  "Ġcool": 1671,
  "Ġspecial": 1672,
  "Ġcontrol": 1673,
  "åħĴåŃĲ": 1674,
  "Ġwhispered": 1675,
  "Ġeasy": 1676,
  "èª°": 1677,
  "ily": 1678,
  "l": 1679,
  "åİ»äºĨ": 1680,
  "Ġmeeting": 1681,
  "Ġhurt": 1682,
  "Ġwrapped": 1683,
  "Ġbook": 1684,
  "ĠP": 1685,
  "æĩ·": 1686,
  "ian": 1687,
  "çķ¶æĻĤ": 1688,
  "Ġmanaged": 1689,
  "Ġword": 1690,
  "Ġline": 1691,
  "Ġrelationship": 1692,
  "Ġclean": 1693,
  "ĠSh": 1694,
  "å©·": 1695,
  "ÂłÂłÂłÂłÂłÂłÂłÂł": 1696,
  "Ġes": 1697,
  "ter": 1698,
  "æĪĳæĥ³": 1699,
  "æ·±": 1700,
  "Ġyounger": 1701,
  "Ġjeans": 1702,
  "Ľ": 1703,
  "ä¸įè¦ģ": 1704,
  "m": 1705,
  "¦": 1706,
  "ãĢİ": 1707,
  "There": 1708,
  "P": 1709,
  "id": 1710,
  "å½±": 1711,
  "åĹ¯": 1712,
  "Ġteam": 1713,
  "èªŀ": 1714,
  "Ġpick": 1715,
  "Ġedge": 1716,
  "Ġletting": 1717,
  "Ġsigh": 1718,
  "çķ¢æ¥Ń": 1719,
  "Ġworry": 1720,
  "Ġsmiling": 1721,
  "Ļ": 1722,
  "et": 1723,
  "ç²ī": 1724,
  "Ġbox": 1725,
  "¤": 1726,
  "Ġlaid": 1727,
  "è·¯": 1728,
  "æĢ¥": 1729,
  "åĲ»": 1730,
  "Ġmirror": 1731,
  "Ġnotice": 1732,
  "Ġmate": 1733,
  "Ġnicht": 1734,
  "Ġinstead": 1735,
  "Ġleg": 1736,
  "Ġasleep": 1737,
  "ä¸Ģæ¬¡": 1738,
  "ĠOn": 1739,
  "Ġfit": 1740,
  "ĠE": 1741,
  "Ġlow": 1742,
  "Ġten": 1743,
  "èĸĦ": 1744,
  "è·³": 1745,
  "æľį": 1746,
  "å¿ĥè£¡": 1747,
  "ĠWell": 1748,
  "Ġbreakfast": 1749,
  "Ġespecially": 1750,
  "ra": 1751,
  "Ġpink": 1752,
  "Ġnose": 1753,
  "Ġein": 1754,
  "è£¸": 1755,
  "Ġwaist": 1756,
  "çľĭè¦ĭ": 1757,
  "ä½İ": 1758,
  "Ġlocal": 1759,
  "éļ¨": 1760,
  "Ġones": 1761,
  "è¬Ľ": 1762,
  "Ġre": 1763,
  "Ġloud": 1764,
  "æ¥Ń": 1765,
  "Ġstore": 1766,
  "Ġturning": 1767,
  "ãĢı": 1768,
  "²": 1769,
  "Ġcl": 1770,
  "âĢ¦ĊĊ": 1771,
  "éĹ": 1772,
  "Ġwhatever": 1773,
  "Ġexactly": 1774,
  "Ġsmell": 1775,
  "reesome": 1776,
  "çį¨": 1777,
  "çĨŁ": 1778,
  "éı¡": 1779,
  "è¶ķ": 1780,
  "åħ¨": 1781,
  "èģ·": 1782,
  "ï¼īĊĊ": 1783,
  "ĠVirgin": 1784,
  "Ġsize": 1785,
  "Ġbeach": 1786,
  "âĢ¦.": 1787,
  "Ġsleeping": 1788,
  "....": 1789,
  "æĦŁåĪ°": 1790,
  "Ġpull": 1791,
  "Ġdropped": 1792,
  "Ġcheck": 1793,
  "æµ·": 1794,
  "Ġcup": 1795,
  "Ġsky": 1796,
  "Part": 1797,
  "Ġempty": 1798,
  "ung": 1799,
  "ä¸įçŁ¥éģĵ": 1800,
  "å§¨": 1801,
  "Ġyes": 1802,
  "éĢģ": 1803,
  "ĠHarry": 1804,
  "ĠJake": 1805,
  "Ġsnow": 1806,
  "G": 1807,
  "uck": 1808,
  "Ġposition": 1809,
  "ä½ľèĢħ": 1810,
  "Ġplaced": 1811,
  "Ġanswer": 1812,
  "Ġwaited": 1813,
  "ä»Ķ": 1814,
  "ä¸įéĮ¯": 1815,
  "ä½ķ": 1816,
  "Ġanswered": 1817,
  "ï¼Ĭ": 1818,
  "Ġreturned": 1819,
  "ä¸įèĥ½": 1820,
  "Ġtalked": 1821,
  "ä¸ĬäºĨ": 1822,
  "ä¸ĬçıŃ": 1823,
  "å¹¾ä¹İ": 1824,
  "Ġfollowing": 1825,
  "R": 1826,
  "Ġknees": 1827,
  "å¥½çļĦ": 1828,
  "Ġboyfriend": 1829,
  "Ġthroat": 1830,
  "ĠMom": 1831,
  "¿": 1832,
  "åįģ": 1833,
  "Ġnervous": 1834,
  "Ġsp": 1835,
  "ĠNew": 1836,
  "ç©´": 1837,
  "æĺ¥": 1838,
  "ath": 1839,
  "éĩĳ": 1840,
  "Ġquietly": 1841,
  "ĠHowever": 1842,
  "Ġtoward": 1843,
  "ĠOf": 1844,
  "Ġwake": 1845,
  "by": 1846,
  "çľĭçľĭ": 1847,
  "Ġevents": 1848,
  "Ġslipped": 1849,
  "ĠSam": 1850,
  "Ġanyway": 1851,
  "Ġcase": 1852,
  "Ġdue": 1853,
  "\"Well": 1854,
  "Ġshot": 1855,
  "Ġgay": 1856,
  "ç®Ĺ": 1857,
  "Ġshit": 1858,
  "Yeah": 1859,
  "Ġper": 1860,
  "è»Ł": 1861,
  "Ġquestion": 1862,
  "Ġbeside": 1863,
  "Ġmonth": 1864,
  "èªįèŃĺ": 1865,
  "Ġfall": 1866,
  "çº": 1867,
  "æ¿ķ": 1868,
  "è®Ģ": 1869,
  "ig": 1870,
  "åĲĮäºĭ": 1871,
  "Ġhall": 1872,
  "ĠAlex": 1873,
  "ĠSarah": 1874,
  "å½": 1875,
  "Ġv": 1876,
  "éĽ»è¦ĸ": 1877,
  "Ġplan": 1878,
  "Ġbeginning": 1879,
  "ï¼ī": 1880,
  "Ġslow": 1881,
  "Ġokay": 1882,
  "Ġpossible": 1883,
  "Ġhung": 1884,
  "æĺŁæľŁ": 1885,
  "Ġmakes": 1886,
  "ä»¥å¾Į": 1887,
  "æ¯ıæ¬¡": 1888,
  "ad": 1889,
  "å¤«": 1890,
  "è³ª": 1891,
  ".html": 1892,
  "J": 1893,
  "Ġended": 1894,
  "Ġminute": 1895,
  "Ġgrin": 1896,
  "Ġgrew": 1897,
  "äºĽ": 1898,
  "Ġheat": 1899,
  "åħ¶": 1900,
  "è®Ĭ": 1901,
  "ä¸ŃçļĦ": 1902,
  "Ġpay": 1903,
  "age": 1904,
  "g": 1905,
  "Ġwondered": 1906,
  "ç¥ŀ": 1907,
  "æĿ±": 1908,
  "N": 1909,
  "åĳĬè¨´": 1910,
  "æľª": 1911,
  "æľĢå¾Į": 1912,
  "ĭ": 1913,
  "è·ŁæĪĳ": 1914,
  "Ġgonna": 1915,
  "çĩĪ": 1916,
  "Ġmostly": 1917,
  "é»ĳèī²": 1918,
  "Ġpressed": 1919,
  "Ġshut": 1920,
  "åĸĶ": 1921,
  "ĠMark": 1922,
  "æıĴ": 1923,
  "ä¸įçŁ¥": 1924,
  "Ġstairs": 1925,
  "ä¸ĢåĢĭäºº": 1926,
  "Ġstro": 1927,
  "Ġbusy": 1928,
  "æ¥µ": 1929,
  "ĠMike": 1930,
  "Ġshowing": 1931,
  "ç¯Ģ": 1932,
  "Ġrubbed": 1933,
  "Ġspot": 1934,
  "ĠHardcore": 1935,
  "æħ§": 1936,
  "éĩį": 1937,
  "Ġtwenty": 1938,
  "æ¯Ľ": 1939,
  "ance": 1940,
  "èħ¦": 1941,
  "çĪ¶æ¯į": 1942,
  "Ġcomputer": 1943,
  "Ġspread": 1944,
  "Y": 1945,
  "çĽ¡": 1946,
  "Ġsometimes": 1947,
  "éĽħ": 1948,
  "éģİåİ»": 1949,
  "éŀĭ": 1950,
  "åķıé¡Į": 1951,
  "my": 1952,
  "æĪĸ": 1953,
  "å¦Ĥæŀľ": 1954,
  "çı¾": 1955,
  "w": 1956,
  "å±ĭ": 1957,
  "Ġballs": 1958,
  "ĠWritten": 1959,
  "æĭį": 1960,
  "ak": 1961,
  "Ġthemselves": 1962,
  "å®Įåħ¨": 1963,
  "çŁ¥": 1964,
  "éļ±": 1965,
  "å°ıå§Ĳ": 1966,
  "Ġtelling": 1967,
  "ä»¥åīį": 1968,
  "Ġusing": 1969,
  "-of": 1970,
  "åĩºåİ»": 1971,
  "Ġearlier": 1972,
  "Ġbutt": 1973,
  "Ġsimple": 1974,
  "ç¶": 1975,
  "Ġflick": 1976,
  "å·´": 1977,
  "iff": 1978,
  "Ġcheek": 1979,
  "éĺ¿å§¨": 1980,
  "é£Ľ": 1981,
  "Ġtired": 1982,
  "Ġthin": 1983,
  "æ¬£": 1984,
  "Ġgoes": 1985,
  "os": 1986,
  "Ġwrite": 1987,
  "Ġfirm": 1988,
  "éĢĻæĺ¯": 1989,
  "çī©": 1990,
  "Ġorder": 1991,
  "Ġlunch": 1992,
  "Ġforest": 1993,
  "Ġled": 1994,
  "åľ¨å®¶": 1995,
  "Ġputting": 1996,
  "ĠOh": 1997,
  "´": 1998,
  "èģ½åĪ°": 1999,
  "Ġjumped": 2000,
  "Ġdeal": 2001,
  "Ġsuck": 2002,
  "ĠJob": 2003,
  "Ġfantasy": 2004,
  "Ġbelow": 2005,
  "Now": 2006,
  "èķ": 2007,
  "ä½łçļĦ": 2008,
  "Ġclub": 2009,
  "Ġtrouble": 2010,
  "çĽ®": 2011,
  "åªļ": 2012,
  "Ġeat": 2013,
  "éĢĻäºĽ": 2014,
  "æİ¨": 2015,
  "eur": 2016,
  "ä½łåĢĳ": 2017,
  "Ġstuck": 2018,
  "Ġenjoying": 2019,
  "èĬ³": 2020,
  "ut": 2021,
  "Ġglanced": 2022,
  "Ġtakes": 2023,
  "Ġcatch": 2024,
  "èĭ¥": 2025,
  "°": 2026,
  "å¤¢": 2027,
  "ened": 2028,
  "æ²Ļ": 2029,
  "éĤ£å¤©": 2030,
  "µ": 2031,
  "Sh": 2032,
  "ķ": 2033,
  "Ġdog": 2034,
  "ĠDavid": 2035,
  "able": 2036,
  "å·¥": 2037,
  "Ġbaby": 2038,
  "å¥³çĶŁ": 2039,
  "Ġship": 2040,
  "Ġclock": 2041,
  "Ġsupposed": 2042,
  "åºĹ": 2043,
  "³": 2044,
  "å¾Ĺå¾Ī": 2045,
  "å¿µ": 2046,
  "ix": 2047,
  "Ġremembered": 2048,
  "Ġwish": 2049,
  "ĠĠ": 2050,
  "Ġbear": 2051,
  "Ġporn": 2052,
  "ç¨±": 2053,
  "Ġweren": 2054,
  "æİī": 2055,
  "Ġhotel": 2056,
  "ged": 2057,
  "æĮĳ": 2058,
  "è¨Ģ": 2059,
  "è¡Ŀ": 2060,
  "å¥³åŃ©": 2061,
  "åŀĭ": 2062,
  "éĿł": 2063,
  "åĳ³": 2064,
  "âĢĶ": 2065,
  "èĹ¥": 2066,
  "Ġmain": 2067,
  "ful": 2068,
  "Ġspend": 2069,
  "ç´Ķ": 2070,
  "c": 2071,
  "ĠOnce": 2072,
  "äºĨä¸Ģä¸ĭ": 2073,
  "å°±åľ¨": 2074,
  "Ġself": 2075,
  "Ġcomments": 2076,
  "ge": 2077,
  "åı°": 2078,
  "Ġraised": 2079,
  "Ġspace": 2080,
  "Ġdate": 2081,
  "r": 2082,
  "Ġmid": 2083,
  "ting": 2084,
  "çļĦè©±": 2085,
  "man": 2086,
  "åĪĿ": 2087,
  "å¦ĤæŃ¤": 2088,
  "Ġhaven": 2089,
  "ur": 2090,
  "Ġeasily": 2091,
  "ĠMatt": 2092,
  "Ġalthough": 2093,
  "æ¶¼": 2094,
  "Ġle": 2095,
  "æĿ¯": 2096,
  "è²¼": 2097,
  "Hi": 2098,
  "èº«é«ĺ": 2099,
  "Ġbroke": 2100,
  "Ġfight": 2101,
  "åºĬä¸Ĭ": 2102,
  "Ġagreed": 2103,
  "éł": 2104,
  "±": 2105,
  "One": 2106,
  "çļĦäºĭ": 2107,
  "aw": 2108,
  "Ġplaces": 2109,
  "ä¹¾": 2110,
  "ÃĤ": 2111,
  "ĠBy": 2112,
  "çŃĶ": 2113,
  "ç¿": 2114,
  "Ġreturn": 2115,
  "ging": 2116,
  "åĪºæ¿Ģ": 2117,
  "åĵ¥åĵ¥": 2118,
  "Ġexcept": 2119,
  "å·¦åı³": 2120,
  "ç´Ģ": 2121,
  "åŃ©åŃĲ": 2122,
  "è©²": 2123,
  "åı¯èĥ½": 2124,
  "Ġyourself": 2125,
  "ans": 2126,
  "è§£": 2127,
  "_(": 2128,
  "Ķ": 2129,
  "éłĤ": 2130,
  "å§¿": 2131,
  "æĬ½": 2132,
  "ç¹¼çºĮ": 2133,
  "Ġhole": 2134,
  "Ġmusic": 2135,
  "-work": 2136,
  "Ġcomes": 2137,
  "æĪ¶": 2138,
  "æ¥Ĭ": 2139,
  "Ġtip": 2140,
  "Good": 2141,
  "æĢª": 2142,
  "Ġhoping": 2143,
  "ä¼¼ä¹İ": 2144,
  "ĠY": 2145,
  "Ģ": 2146,
  "è¨ĺ": 2147,
  "~": 2148,
  "åĬłä¸Ĭ": 2149,
  "å°Ħ": 2150,
  "Ġinches": 2151,
  "Ġvisit": 2152,
  "Ġappeared": 2153,
  "Ġcat": 2154,
  "æ¯ıå¤©": 2155,
  "Ġfully": 2156,
  "åı¯æĦĽ": 2157,
  "æŁĲ": 2158,
  "Place": 2159,
  "Ġplayed": 2160,
  "ĠFriday": 2161,
  "Ġchuckled": 2162,
  "åħĪçĶŁ": 2163,
  "ĠWhy": 2164,
  "Ġprevious": 2165,
  "åĺ": 2166,
  "åıªå¥½": 2167,
  "è³": 2168,
  "ä»»": 2169,
  "om": 2170,
  "Ġbare": 2171,
  "Ġwind": 2172,
  "ĠTwo": 2173,
  "Ġsm": 2174,
  "å§": 2175,
  "éļĶ": 2176,
  "ap": 2177,
  "äº®": 2178,
  "Ġexpected": 2179,
  "Ġhanging": 2180,
  "Ġseems": 2181,
  "Ġtiny": 2182,
  "Ġtrees": 2183,
  "åĶĩ": 2184,
  "ç«ŁçĦ¶": 2185,
  "éŁ¿": 2186,
  "å£ĵ": 2187,
  "Ġgod": 2188,
  "Ġgrowing": 2189,
  "Ġhide": 2190,
  "æ¯ı": 2191,
  "ate": 2192,
  "æĪĳçľĭ": 2193,
  "çĻ": 2194,
  "ĠDr": 2195,
  "å°Ī": 2196,
  "re": 2197,
  "Ġgym": 2198,
  "of": 2199,
  "ä¸Ģä»¶": 2200,
  "è§¸": 2201,
  "ĠSaturday": 2202,
  "ç¿Ĵ": 2203,
  "Ĵ": 2204,
  "Ġgrinned": 2205,
  "æ¬²": 2206,
  "Ġlights": 2207,
  "Ġfamiliar": 2208,
  "Ġlifted": 2209,
  "Her": 2210,
  "Ġanymore": 2211,
  "Ġnote": 2212,
  "Ġstayed": 2213,
  "umbled": 2214,
  "Ġfigured": 2215,
  "d": 2216,
  "éĢļ": 2217,
  "å¯«": 2218,
  "çĭĤ": 2219,
  "å®ī": 2220,
  "åĳ¨": 2221,
  "urred": 2222,
  "æ®µ": 2223,
  "ĠPlease": 2224,
  "Ġitself": 2225,
  "éĿŀ": 2226,
  "Ġhelped": 2227,
  "æĢķ": 2228,
  "Ġcomfortable": 2229,
  "æŃ¤": 2230,
  "Ġwh": 2231,
  "Ġich": 2232,
  "Ġawake": 2233,
  "ĠWhile": 2234,
  "Ġamazing": 2235,
  "ered": 2236,
  "\"No": 2237,
  "Ġim": 2238,
  "ared": 2239,
  "Then": 2240,
  "old": 2241,
  "Ġwonderful": 2242,
  "ier": 2243,
  "Ġshape": 2244,
  "Ġchildren": 2245,
  "ä¸Ģå¹´": 2246,
  "Ġasking": 2247,
  "åģ¥": 2248,
  "åģľ": 2249,
  "éĽ¢éĸĭ": 2250,
  "Ġpe": 2251,
  "åħ¨èº«": 2252,
  "Ġbelly": 2253,
  "åįĢ": 2254,
  "Ġmit": 2255,
  "Are": 2256,
  "--": 2257,
  "Ġkissing": 2258,
  "Ġparts": 2259,
  "Ġallowed": 2260,
  "çĦ¡æ³ķ": 2261,
  "Ġlength": 2262,
  "éĻ¤äºĨ": 2263,
  "Ħ": 2264,
  "åħ·": 2265,
  "éłĺ": 2266,
  "im": 2267,
  "çļĦåľ°æĸ¹": 2268,
  "å¾Īå¥½": 2269,
  "çĶļèĩ³": 2270,
  "çķ°": 2271,
  "Yes": 2272,
  "ä¼¸": 2273,
  "§": 2274,
  "éĻª": 2275,
  "ä»ĭç´¹": 2276,
  "If": 2277,
  "est": 2278,
  "Ġcover": 2279,
  "fully": 2280,
  "èª¿": 2281,
  "æ¶²": 2282,
  "Ġ&": 2283,
  "Ġlying": 2284,
  "çħ§": 2285,
  "æµ´å®¤": 2286,
  "å¦»": 2287,
  "åĽłæŃ¤": 2288,
  "Ġdrove": 2289,
  "èĩ": 2290,
  "ä»¥çĤº": 2291,
  "ĠVoy": 2292,
  "Ġbottom": 2293,
  "æ¸": 2294,
  "åĸľ": 2295,
  "W": 2296,
  "åı¦ä¸Ģ": 2297,
  "åħ«": 2298,
  "Ġcontinue": 2299,
  "Ġwalls": 2300,
  "Ġshop": 2301,
  "E": 2302,
  "ä¸Ģå®ļ": 2303,
  "Ġex": 2304,
  "Ġteacher": 2305,
  "åĩºäºĨ": 2306,
  "éĨī": 2307,
  "awn": 2308,
  "\"It": 2309,
  "Ġsituation": 2310,
  "Ġfear": 2311,
  "ä¸ĭåįĪ": 2312,
  "x": 2313,
  "Ġ...": 2314,
  "ĉI": 2315,
  "çĶ·çĶŁ": 2316,
  "èĤ©": 2317,
  "uct": 2318,
  "Ġahead": 2319,
  "éº¼": 2320,
  "å¸¶èĳĹ": 2321,
  "èī": 2322,
  "Ġdeath": 2323,
  "æĢİ": 2324,
  "you": 2325,
  "All": 2326,
  "Ġstate": 2327,
  "Ġthird": 2328,
  "è¬Ŀ": 2329,
  "çĻ½èī²": 2330,
  "Ġvon": 2331,
  "æ±Ĥ": 2332,
  "Ġmassive": 2333,
  "Ġscreen": 2334,
  "Ġleather": 2335,
  "é¾į": 2336,
  "åħ©äºº": 2337,
  "Hello": 2338,
  "Ġworried": 2339,
  "çĪ½": 2340,
  "ĠMaybe": 2341,
  "Ġfollow": 2342,
  "Ġsteps": 2343,
  "Ġcr": 2344,
  "Ġchild": 2345,
  "At": 2346,
  "çĹĽ": 2347,
  "æ»ĳ": 2348,
  "Ġbegin": 2349,
  "Ġthrew": 2350,
  "ĠDon": 2351,
  "Ġstudents": 2352,
  "Ġsmooth": 2353,
  "èĽĭ": 2354,
  "æĪĢ": 2355,
  "è·ĳ": 2356,
  "Ġsounds": 2357,
  "Ġtype": 2358,
  "Ġgrey": 2359,
  "How": 2360,
  "Ġspeak": 2361,
  "éĿ¢åīį": 2362,
  "Ġsucking": 2363,
  "Ġpass": 2364,
  "Ġmaster": 2365,
  "Ġstretched": 2366,
  "ĠTom": 2367,
  "ä¸ĭçļĦ": 2368,
  "Ġtowel": 2369,
  "æķ£": 2370,
  "æİĽ": 2371,
  "Ġdefinitely": 2372,
  "å¸¸å¸¸": 2373,
  "çĦ¶": 2374,
  "ÂłÂł": 2375,
  "éĤ£äºĽ": 2376,
  "ç±³": 2377,
  "Ġteeth": 2378,
  "ä¸Ģçľĭ": 2379,
  "ne": 2380,
  "é«ĺä¸Ń": 2381,
  "Ġparticular": 2382,
  "å·®": 2383,
  "Ġconversation": 2384,
  "ï¼ŁĊĊ": 2385,
  "Ġsecret": 2386,
  "ĠWolf": 2387,
  "His": 2388,
  "æľĢè¿ĳ": 2389,
  "Just": 2390,
  "èĲ½": 2391,
  "Ġkid": 2392,
  "ç¬¬ä¸Ģ": 2393,
  "Ġfavorite": 2394,
  "éº»": 2395,
  "Ġbodies": 2396,
  "Ġtone": 2397,
  "ĠMary": 2398,
  "æ´»": 2399,
  "Ġways": 2400,
  "ĩ": 2401,
  "Ġride": 2402,
  "Ġvirgin": 2403,
  "åľ¨ä¸Ģèµ·": 2404,
  "ä¸īåĢĭ": 2405,
  "ĠTV": 2406,
  "Ġslut": 2407,
  "åĦª": 2408,
  "Ġmoments": 2409,
  "urs": 2410,
  "æĥ³è¦ģ": 2411,
  "å¤ł": 2412,
  "Ġcheeks": 2413,
  "ress": 2414,
  "ç¶ĵéģİ": 2415,
  "æĮĩ": 2416,
  "æıī": 2417,
  "Ġfiction": 2418,
  "Ġbus": 2419,
  "pped": 2420,
  "Ġnamed": 2421,
  "æĸ¹": 2422,
  "\"Yeah": 2423,
  "éĨĴ": 2424,
  "Ġtiger": 2425,
  "eline": 2426,
  "ings": 2427,
  "äºĭæĥħ": 2428,
  "Ġsuit": 2429,
  "ç«ĭ": 2430,
  "Ġwondering": 2431,
  "Ġdrinks": 2432,
  "å¹»æĥ³": 2433,
  "åĵ¦": 2434,
  "Ġum": 2435,
  "Ġseconds": 2436,
  "Ġsilence": 2437,
  "åĺĽ": 2438,
  "æĵº": 2439,
  "æĲĸ": 2440,
  ").": 2441,
  "æŃ¥": 2442,
  "ten": 2443,
  "Ġpark": 2444,
  "Ġok": 2445,
  "æ½Ķ": 2446,
  "Ġflat": 2447,
  "éĽĸ": 2448,
  "ç®¡": 2449,
  "æķ´": 2450,
  "éĽ¯": 2451,
  "Ġshy": 2452,
  "éĥ½ä¸į": 2453,
  "Ġhang": 2454,
  "å±¤": 2455,
  "é¬Ĩ": 2456,
  "åŃĹ": 2457,
  "Ġring": 2458,
  "Ġattractive": 2459,
  "èĪ¬": 2460,
  "ushed": 2461,
  "Ġwants": 2462,
  "æĥł": 2463,
  "éĮ¯": 2464,
  "åıĹ": 2465,
  "ĠLesbian": 2466,
  "Ġboss": 2467,
  "Ġlightly": 2468,
  "çļĦçĶ·äºº": 2469,
  "è£ĻåŃĲ": 2470,
  "çĪ¸": 2471,
  "Ġwonder": 2472,
  "ĠOur": 2473,
  "éĽ²": 2474,
  "With": 2475,
  "Ġclothing": 2476,
  "Ġdoors": 2477,
  "Ġlady": 2478,
  "Ġrock": 2479,
  "æļĹ": 2480,
  "ä¸Ģå¤©": 2481,
  "å¾Īå¤ļ": 2482,
  "ł": 2483,
  "mm": 2484,
  "Ġwanting": 2485,
  "åĵª": 2486,
  "èªªè©±": 2487,
  "ç¶²": 2488,
  "v": 2489,
  "éļ¨èĳĹ": 2490,
  "è²Į": 2491,
  "éĢı": 2492,
  "èµ°äºĨ": 2493,
  "ä¸ĢèĪ¬": 2494,
  "å±ħ": 2495,
  "one": 2496,
  "çļĦæīĭ": 2497,
  "\".": 2498,
  "ä¹ĭéĸĵ": 2499,
  "Ġlocked": 2500,
  "å¾®": 2501,
  "Ġorgasm": 2502,
  "ĠGod": 2503,
  "Ġtree": 2504,
  "Ġinterested": 2505,
  "ç²Ĺ": 2506,
  "ous": 2507,
  "Ġist": 2508,
  "Ġsqu": 2509,
  "Ġlives": 2510,
  "Ġvideo": 2511,
  "Ġthighs": 2512,
  "¨": 2513,
  "Ġshare": 2514,
  "Ġcomplete": 2515,
  "Ġbutton": 2516,
  "end": 2517,
  "åłħ": 2518,
  "æĩ": 2519,
  "æĶ¾åľ¨": 2520,
  "Ġglad": 2521,
  "æĽī": 2522,
  "ĠDo": 2523,
  "Ġdem": 2524,
  "ĠJames": 2525,
  "Ġtent": 2526,
  "çĶļ": 2527,
  "Ġgrab": 2528,
  "é¤Ĭ": 2529,
  "åĨ·": 2530,
  "Ġcertain": 2531,
  "Ġkill": 2532,
  "æĵį": 2533,
  "Ġpiece": 2534,
  "Ġturns": 2535,
  "èĤ¥": 2536,
  "ĠMichael": 2537,
  "Ġimportant": 2538,
  "ŀ": 2539,
  "æ´Ĺæ¾¡": 2540,
  "Ġadded": 2541,
  "å¤§èħ¿": 2542,
  "il": 2543,
  "åĲĪ": 2544,
  "è¡«": 2545,
  "Ġsch": 2546,
  "èĲ¬": 2547,
  "çªĹ": 2548,
  "Ġbeer": 2549,
  "Ġscent": 2550,
  "Ġtext": 2551,
  "Ġkeeping": 2552,
  "Ġbuild": 2553,
  "Ġsign": 2554,
  "çª": 2555,
  "å²³": 2556,
  "Ġlower": 2557,
  "æĳ": 2558,
  "éĢĻæ¨£çļĦ": 2559,
  "Ġdamn": 2560,
  "Ġpaper": 2561,
  "Ġsomewhat": 2562,
  "Ġextra": 2563,
  "Ġjoin": 2564,
  "Ġbitch": 2565,
  "Ġknows": 2566,
  "Ġapproached": 2567,
  "Ġinteresting": 2568,
  "åģĩ": 2569,
  "Ġinterest": 2570,
  "Ġrub": 2571,
  "Ġopening": 2572,
  "Ġreach": 2573,
  "Ġforth": 2574,
  "ĠMind": 2575,
  "Ġcenter": 2576,
  "Ġpack": 2577,
  "Ġapart": 2578,
  "Ġfinding": 2579,
  "çµķ": 2580,
  "é½¡": 2581,
  "Ġvarious": 2582,
  "ri": 2583,
  "Ġlaugh": 2584,
  "Ġoffered": 2585,
  "éĥ½æľĥ": 2586,
  "į": 2587,
  "é¨": 2588,
  "èªį": 2589,
  "Ġsafe": 2590,
  "Ġstudent": 2591,
  "Ġtruck": 2592,
  "ana": 2593,
  "Ġthanks": 2594,
  "æĢ¡": 2595,
  "è§Ģ": 2596,
  "Ġnone": 2597,
  "Ġmagic": 2598,
  "Ġfinal": 2599,
  "Ġmeans": 2600,
  "Ġlearned": 2601,
  "Ġrain": 2602,
  "Ġlover": 2603,
  "å¼Ł": 2604,
  "ï¹": 2605,
  "Ġpersonal": 2606,
  "Ġz": 2607,
  "Ġlead": 2608,
  "Ġdistance": 2609,
  "Ġsweat": 2610,
  "ik": 2611,
  "åł±": 2612,
  "Ġrang": 2613,
  "Ġcomment": 2614,
  "Ġpath": 2615,
  "Ġharder": 2616,
  "æķı": 2617,
  "Ġmuscular": 2618,
  "Ġsmirk": 2619,
  "å°ıæĻĤ": 2620,
  "ely": 2621,
  "ĠTrans": 2622,
  "Ġdirty": 2623,
  "elt": 2624,
  "ç´": 2625,
  "ç¹": 2626,
  "è³ĵ": 2627,
  "Don": 2628,
  "Ġlust": 2629,
  "èģĬå¤©": 2630,
  "Ġyeah": 2631,
  "è¨Ī": 2632,
  "ĠSome": 2633,
  "ĠCindy": 2634,
  "èİ": 2635,
  "Ġwild": 2636,
  "Ġ,": 2637,
  "...\"ĊĊ": 2638,
  "ina": 2639,
  "éĢ±": 2640,
  "çĽ¸çķ¶": 2641,
  "Ġmetal": 2642,
  "Ġo": 2643,
  "ĠOr": 2644,
  "Ġmassage": 2645,
  "un": 2646,
  "âĢĿĊĊ": 2647,
  "æ±ºå®ļ": 2648,
  "ç«Ļåľ¨": 2649,
  "èĢħ": 2650,
  "Ġlit": 2651,
  "ens": 2652,
  "Ġaus": 2653,
  "Ġwritten": 2654,
  "gy": 2655,
  "ĠChris": 2656,
  "çķĻ": 2657,
  "Ġheading": 2658,
  "Ġsomewhere": 2659,
  "Ġnights": 2660,
  "ked": 2661,
  "ĠRel": 2662,
  "ĠJason": 2663,
  "éĽ¨": 2664,
  "éĩı": 2665,
  "Ġk": 2666,
  "Ġclearly": 2667,
  "Ġcertainly": 2668,
  "Ġgaze": 2669,
  "Ġtaste": 2670,
  "èĤ²": 2671,
  "Ġmovie": 2672,
  "Ġwelcome": 2673,
  "Ġdespite": 2674,
  "Ġpushing": 2675,
  "è¶³": 2676,
  "å¥¹æĺ¯": 2677,
  "Ġbuilt": 2678,
  "åĳ¼": 2679,
  "åıªèĥ½": 2680,
  "èĳī": 2681,
  "Ġcolor": 2682,
  "Ġgorgeous": 2683,
  "Ġlaying": 2684,
  "ger": 2685,
  "å¾ħ": 2686,
  "å¿įä¸įä½ı": 2687,
  "Ġcounter": 2688,
  "ag": 2689,
  "æĮī": 2690,
  "Ġslim": 2691,
  "Ãĥ": 2692,
  "Ġmuscles": 2693,
  "ĠLove": 2694,
  "èµ°åĪ°": 2695,
  "æĪĲçĨŁ": 2696,
  "Ġmoon": 2697,
  "æıĲ": 2698,
  "åģī": 2699,
  "è¶ħ": 2700,
  "âĢľYou": 2701,
  "Ġslight": 2702,
  "ä¾Ŀ": 2703,
  "Ġlap": 2704,
  "Ġfairly": 2705,
  "Ġlie": 2706,
  "éģĶ": 2707,
  "O": 2708,
  "çľĭèµ·ä¾Ĩ": 2709,
  "ï¼į": 2710,
  "çķ«": 2711,
  "ï¼ļ\"": 2712,
  "Ġtraining": 2713,
  "çļĦæĥħ": 2714,
  "ç«Ł": 2715,
  "å¿ĥä¸Ń": 2716,
  "åļĩ": 2717,
  "Ġtr": 2718,
  "Ġmember": 2719,
  "Ġhoped": 2720,
  "Ġbeneath": 2721,
  "äº«åıĹ": 2722,
  "Ġslept": 2723,
  "to": 2724,
  "Ġlicked": 2725,
  "For": 2726,
  "éĢ²åħ¥": 2727,
  "Ġcontent": 2728,
  "Not": 2729,
  "unk": 2730,
  "äººéĥ½": 2731,
  "Ġforce": 2732,
  "Ġtears": 2733,
  "Ġfinish": 2734,
  "Ġpush": 2735,
  "Ġsmaller": 2736,
  "Ġen": 2737,
  "Ġtomorrow": 2738,
  "çĲ³": 2739,
  "Ġenergy": 2740,
  "(": 2741,
  "è®ĵäºº": 2742,
  "Ġbath": 2743,
  "æĵł": 2744,
  "å¥½äºĨ": 2745,
  "ç¾İçļĦ": 2746,
  "éĽ»èħ¦": 2747,
  "çĲĥ": 2748,
  "èĩªçĦ¶": 2749,
  "Ġexplained": 2750,
  "æĪĳè¦ģ": 2751,
  "å£ŀ": 2752,
  "åĳĨ": 2753,
  "Ġinch": 2754,
  "è¨ĺå¾Ĺ": 2755,
  "ane": 2756,
  "Ġbase": 2757,
  "å¤§æ¦Ĥ": 2758,
  "å¿Ĺ": 2759,
  "Ġstupid": 2760,
  "od": 2761,
  "Ġbeat": 2762,
  "ä¹ħ": 2763,
  "Ġsave": 2764,
  "ĉS": 2765,
  "Ġcell": 2766,
  "Ġnearby": 2767,
  "Why": 2768,
  "Ġforced": 2769,
  "Ġpaid": 2770,
  "çĳ": 2771,
  "Ġconfused": 2772,
  "Ġcausing": 2773,
  "Ġneeds": 2774,
  "-shirt": 2775,
  "ĠIs": 2776,
  "å¥³æĢ§": 2777,
  "çĻ¾": 2778,
  "Ġse": 2779,
  "Ġball": 2780,
  "Ġbroken": 2781,
  "Ġamount": 2782,
  "Ġobviously": 2783,
  "V": 2784,
  "Ġodd": 2785,
  "Ġcrazy": 2786,
  "Ġresponded": 2787,
  "Ġland": 2788,
  "Ġadult": 2789,
  "ay": 2790,
  "æ¢¯": 2791,
  "Ġbirthday": 2792,
  "ä½ĨæĪĳ": 2793,
  "em": 2794,
  "æĽ´æĺ¯": 2795,
  "å½Ī": 2796,
  "Ġgentle": 2797,
  "å¤±": 2798,
  "Ġpre": 2799,
  "Ġmess": 2800,
  "Ġserious": 2801,
  "èº«éĤĬ": 2802,
  "äººå®¶": 2803,
  "åºķ": 2804,
  "Ġbreast": 2805,
  "ard": 2806,
  "å³°": 2807,
  "æĤ": 2808,
  "âĢĿ,": 2809,
  "Ġpointed": 2810,
  "æĸĻ": 2811,
  "è¶Ĭ": 2812,
  "ck": 2813,
  "Ġstarts": 2814,
  "ĠMe": 2815,
  "Ġvillage": 2816,
  "ç¿»": 2817,
  "æľīäºĨ": 2818,
  "Ġsucked": 2819,
  "æŃ¡": 2820,
  "åĲŁ": 2821,
  "Ġcreature": 2822,
  "Ġdarkness": 2823,
  "Ġnoise": 2824,
  "æĪĳå®¶": 2825,
  "Ġfeels": 2826,
  "Ġexhibition": 2827,
  "Ġband": 2828,
  "Ġbigger": 2829,
  "Ġpictures": 2830,
  "åįĥ": 2831,
  "Ġresponse": 2832,
  "Ġbreathing": 2833,
  "ĠAss": 2834,
  "ĠFrom": 2835,
  "ĠAl": 2836,
  "Ġscene": 2837,
  "Ġloose": 2838,
  "åº¦": 2839,
  "Ġla": 2840,
  "ä¼ĳæģ¯": 2841,
  "Ġweight": 2842,
  "èŃ·": 2843,
  "Ġworse": 2844,
  "åĬī": 2845,
  "æħĭ": 2846,
  "Ġprivate": 2847,
  "çĶ·æľĭåıĭ": 2848,
  "ä¸Ģæ¢Ŀ": 2849,
  "é¾": 2850,
  "Ġshouted": 2851,
  "Ġcheer": 2852,
  "Ġhallway": 2853,
  "æħ¢æħ¢": 2854,
  "ub": 2855,
  "Ġaverage": 2856,
  "ä¸įä½ı": 2857,
  "Ġpost": 2858,
  "Come": 2859,
  "Ġyellow": 2860,
  "Ġsite": 2861,
  "Ġstr": 2862,
  "),": 2863,
  "æĲŀ": 2864,
  "Ġwine": 2865,
  "èł": 2866,
  "Ġnon": 2867,
  "Ġshaking": 2868,
  "éĨ«éĻ¢": 2869,
  "Ġlaughing": 2870,
  "ä¸ĭéĿ¢": 2871,
  "ĠDad": 2872,
  "ä¹Łæľī": 2873,
  "Ġentrance": 2874,
  "!âĢĿĊĊ": 2875,
  "ĠBDSM": 2876,
  "æ·ĳ": 2877,
  "éĲĺ": 2878,
  "Ġver": 2879,
  "èĨ½": 2880,
  "äº¦": 2881,
  "Ġdrop": 2882,
  "ow": 2883,
  "Ġcontact": 2884,
  "å£«": 2885,
  "ĠLisa": 2886,
  "èĥ¡": 2887,
  "åĲ¸": 2888,
  "Ġframe": 2889,
  "Ġhug": 2890,
  "èĪĮ": 2891,
  "æĨ": 2892,
  "å¥³æľĭåıĭ": 2893,
  "åĳ½": 2894,
  "ä¸ĥ": 2895,
  "Ġyelled": 2896,
  "é¡": 2897,
  "æł¹": 2898,
  "ä¸įæĸ·": 2899,
  "ĠHum": 2900,
  "Ġfresh": 2901,
  "å¼Łå¼Ł": 2902,
  "éĥİ": 2903,
  "çļĦèĢģ": 2904,
  "Ġadmit": 2905,
  "ä¹Łå¾Ī": 2906,
  "Ġclit": 2907,
  "Ġshared": 2908,
  "Ġtruth": 2909,
  "é¡ŀ": 2910,
  "âĢ¦\"": 2911,
  "åĬł": 2912,
  "ç³»": 2913,
  "ä¸Ģå®¶": 2914,
  "âĢĿ.": 2915,
  "è¨±": 2916,
  "ĠMost": 2917,
  "Ġexpect": 2918,
  "Ġreality": 2919,
  "Ch": 2920,
  "Ġbul": 2921,
  "çĦ¶æĺ¯": 2922,
  "Let": 2923,
  "ent": 2924,
  "å¯¶": 2925,
  "aking": 2926,
  "è£ľ": 2927,
  "éĸĴ": 2928,
  "æĶ": 2929,
  "all": 2930,
  "Ġconsidered": 2931,
  "U": 2932,
  "Ġdriving": 2933,
  "è²¨": 2934,
  "Ġlearn": 2935,
  "Ġplanned": 2936,
  "Ġpowerful": 2937,
  "Ġchapters": 2938,
  "èĭ±": 2939,
  "Ġweird": 2940,
  "æĢĿ": 2941,
  "Ġmiles": 2942,
  "ä½ıåľ¨": 2943,
  "Ġhus": 2944,
  "ĠRe": 2945,
  "èĪī": 2946,
  "åłĤ": 2947,
  "Ġcalm": 2948,
  "Ĥ": 2949,
  "Ġ***": 2950,
  "Ġobvious": 2951,
  "Ġmissed": 2952,
  "å¾Īå¿«": 2953,
  "aning": 2954,
  "Ġsilver": 2955,
  "_": 2956,
  "èĺŃ": 2957,
  "*ĊĊ": 2958,
  "Ġexcitement": 2959,
  "Ġcoat": 2960,
  "med": 2961,
  "Ġgrown": 2962,
  "ied": 2963,
  "Ġthank": 2964,
  "ĠBe": 2965,
  "æīĭæĮĩ": 2966,
  "çľ¾": 2967,
  "Ġaren": 2968,
  "ĠCo": 2969,
  "Ġpl": 2970,
  "\"Yes": 2971,
  "å¥³åŃ©åŃĲ": 2972,
  "Ġbeauty": 2973,
  "ice": 2974,
  "ation": 2975,
  "æĪĳçŁ¥éģĵ": 2976,
  "Ġwood": 2977,
  "å¤ĸéĿ¢": 2978,
  "çļĦå¥½": 2979,
  "ĠBill": 2980,
  "Ġcarried": 2981,
  "çľĭäºĨ": 2982,
  "Ġeventually": 2983,
  "Ġnews": 2984,
  "çħ": 2985,
  "ĠGirl": 2986,
  "Ġcaused": 2987,
  "èĪħ": 2988,
  "è³ŀ": 2989,
  "Ġhers": 2990,
  "Ġstone": 2991,
  "ab": 2992,
  "\"So": 2993,
  "Ġmotion": 2994,
  "åĲĮæĻĤ": 2995,
  "Ġchecked": 2996,
  "we": 2997,
  "ft": 2998,
  "ç·©": 2999,
  "å": 3000,
  "è²": 3001,
  "å¸Ĥ": 3002,
  "åĽŀåĪ°": 3003,
  "Ġkn": 3004,
  "uff": 3005,
  "Ġtouched": 3006,
  "å®ļ": 3007,
  "Ġtwitch": 3008,
  "ä¸Ĭä¸ĭ": 3009,
  "åŁİ": 3010,
  "Ġar": 3011,
  "Ġstare": 3012,
  "Ġque": 3013,
  "\"That": 3014,
  "ä¿Ĭ": 3015,
  "Ġbeyond": 3016,
  "Ġperfectly": 3017,
  "Ġrecently": 3018,
  "èĤĮ": 3019,
  "é¤¨": 3020,
  "Ġrooms": 3021,
  "è²´": 3022,
  "Ġwhenever": 3023,
  "Ġlion": 3024,
  "å¯Ĩ": 3025,
  "âĢľOh": 3026,
  "æĬĬæĪĳ": 3027,
  "Ġafraid": 3028,
  "èĪĴæľį": 3029,
  "ä¸»": 3030,
  "ile": 3031,
  "ĠJosh": 3032,
  "åıªè¦ģ": 3033,
  "ĠBefore": 3034,
  "ol": 3035,
  "ill": 3036,
  "ĠAuthor": 3037,
  "Ġfalling": 3038,
  "ĠâĢŀ": 3039,
  "Ġcamp": 3040,
  "åĮĸ": 3041,
  "so": 3042,
  "Ġbought": 3043,
  "Ġtrain": 3044,
  "Ġsettled": 3045,
  "Ġcarefully": 3046,
  "åĭ¢": 3047,
  "Ġdes": 3048,
  "å¾®å¾®": 3049,
  "èģ": 3050,
  "lich": 3051,
  "ically": 3052,
  "åĭ": 3053,
  "æĻĥ": 3054,
  "Ġtied": 3055,
  "Ġtruly": 3056,
  "å«ģ": 3057,
  "ĵ": 3058,
  "Ġsk": 3059,
  "é£½": 3060,
  "®": 3061,
  "åħ¶ä¸Ń": 3062,
  "Ġregular": 3063,
  "rotch": 3064,
  "Ġcunt": 3065,
  "Ġgolden": 3066,
  "Ġguard": 3067,
  "Ġscared": 3068,
  "bed": 3069,
  "Ġwarmth": 3070,
  "Ġdance": 3071,
  "ĠKim": 3072,
  "Ġlocker": 3073,
  "é¡§": 3074,
  "åľĺ": 3075,
  "Ġsudden": 3076,
  "Ġcrowd": 3077,
  "Ġplenty": 3078,
  "Ġnames": 3079,
  "ĠChristmas": 3080,
  "çł´": 3081,
  "éľĢè¦ģ": 3082,
  "åħ¬åı¸çļĦ": 3083,
  "çĶ·åıĭ": 3084,
  "ĠAmy": 3085,
  "Okay": 3086,
  "ach": 3087,
  "Ġclasses": 3088,
  "ĠJim": 3089,
  "ĠLike": 3090,
  "è¡Ģ": 3091,
  "ĠBen": 3092,
  "atted": 3093,
  "Ġrelax": 3094,
  "Ġhospital": 3095,
  "å½¢": 3096,
  "Ġco": 3097,
  "è¥¿": 3098,
  "Ġfield": 3099,
  "ä¸ĭåİ»": 3100,
  "ys": 3101,
  "Ġlo": 3102,
  "ening": 3103,
  "Ġca": 3104,
  "ĠNight": 3105,
  "æľīçļĦ": 3106,
  "æ½¤": 3107,
  "éļĬ": 3108,
  "ĠTheir": 3109,
  "ĠMiss": 3110,
  "Ġlevel": 3111,
  "çĥĪ": 3112,
  "Ġnoch": 3113,
  "å¥Ī": 3114,
  "Ġhate": 3115,
  "å¨ĺ": 3116,
  "ī": 3117,
  "-f": 3118,
  "Ġsir": 3119,
  "asm": 3120,
  "Ġlucky": 3121,
  "Ġpublic": 3122,
  "æŃ£å¥½": 3123,
  "ä¼¯": 3124,
  "åĲ«": 3125,
  "æŃ¤æĻĤ": 3126,
  "Ġdied": 3127,
  "Ġjacket": 3128,
  "æ»¿è¶³": 3129,
  "Ġsomehow": 3130,
  "\"H": 3131,
  "out": 3132,
  "åħħæ»¿": 3133,
  "æİ¥èĳĹ": 3134,
  "ĠO": 3135,
  "éĸĥ": 3136,
  "els": 3137,
  "åģ·åģ·": 3138,
  "Ġbr": 3139,
  "no": 3140,
  "Ġdirection": 3141,
  "ĠControl": 3142,
  "Ġpocket": 3143,
  "Ġpale": 3144,
  "ç¾ŀ": 3145,
  "æ¸ħæ¥ļ": 3146,
  "èĩ³": 3147,
  "Ġsetting": 3148,
  "Ġbottle": 3149,
  "ping": 3150,
  "ç§Ł": 3151,
  "Ġsharp": 3152,
  "ons": 3153,
  "Ġmessage": 3154,
  "ĠMaster": 3155,
  "Ġthrust": 3156,
  "Ġworth": 3157,
  "Ġhumans": 3158,
  "åĢ«": 3159,
  "ç¸": 3160,
  "å®ĥ": 3161,
  "å¸ĮæľĽ": 3162,
  "Ġab": 3163,
  "èĵĭ": 3164,
  "Ġstaying": 3165,
  "éĿĪ": 3166,
  "Ġbent": 3167,
  "ĠDay": 3168,
  "ç°¡": 3169,
  "Ġcurious": 3170,
  "å¼ķ": 3171,
  "ry": 3172,
  "Ġfuture": 3173,
  "æĽ²": 3174,
  "çĤºä»Ģéº¼": 3175,
  "Ġquestions": 3176,
  "ering": 3177,
  "é¬§": 3178,
  "æĽ´åĬł": 3179,
  "Ġshaft": 3180,
  "Ġwings": 3181,
  "Ġlarger": 3182,
  "Ġtotally": 3183,
  "æĪ°": 3184,
  "se": 3185,
  "Ġupstairs": 3186,
  "Ġro": 3187,
  "çħ§é¡§": 3188,
  "Ġfocus": 3189,
  "Ġknock": 3190,
  "Ġslave": 3191,
  "Ġdrunk": 3192,
  "Ġfaster": 3193,
  "Ń": 3194,
  "Sure": 3195,
  "è¨±å¤ļ": 3196,
  "erc": 3197,
  "Ġpresent": 3198,
  "la": 3199,
  "ç¢°": 3200,
  "Who": 3201,
  "Ġpicture": 3202,
  "ren": 3203,
  "ä¹Łè¨±": 3204,
  "æĲŃ": 3205,
  "è³£": 3206,
  "Ġdrinking": 3207,
  "Ġlikely": 3208,
  "å¤«å¦»": 3209,
  "Ġtill": 3210,
  "ä¹Ŀ": 3211,
  "Ġtwice": 3212,
  "iously": 3213,
  "oh": 3214,
  "çıł": 3215,
  "ĠSpan": 3216,
  "çĶ·å¥³": 3217,
  "ized": 3218,
  "ĠWas": 3219,
  "that": 3220,
  "ĠTim": 3221,
  "æīĢä»¥æĪĳ": 3222,
  "æµª": 3223,
  "Ġeine": 3224,
  "Ġdifficult": 3225,
  "è¼ª": 3226,
  "Ġaside": 3227,
  "Ġrose": 3228,
  "Thank": 3229,
  "åľ°æĸ¹": 3230,
  "Is": 3231,
  "Ġeating": 3232,
  "Ġhidden": 3233,
  "ä¿¡": 3234,
  "Ġsilent": 3235,
  "j": 3236,
  "ara": 3237,
  "Ġplans": 3238,
  "ĠRyan": 3239,
  "åĩºçı¾": 3240,
  "Ġhorse": 3241,
  "æĶ¶": 3242,
  "Ġalarm": 3243,
  "Ġnatural": 3244,
  "æĻ¯": 3245,
  "éĳ": 3246,
  "å¥³åŃĲ": 3247,
  "åĤ·": 3248,
  "Ġbrief": 3249,
  "Ġhanded": 3250,
  "Ġdesire": 3251,
  "ĠEvery": 3252,
  "Ġact": 3253,
  "èĪĶ": 3254,
  "Ġnormally": 3255,
  "iliation": 3256,
  "å¿½çĦ¶": 3257,
  "¬": 3258,
  "èİī": 3259,
  "Ġpaused": 3260,
  "è±": 3261,
  "ats": 3262,
  "Ġgrass": 3263,
  "çĽĪ": 3264,
  "å¤ļäºĨ": 3265,
  "Ġflesh": 3266,
  "ä¸įçĶ¨": 3267,
  "éĤ£æĺ¯": 3268,
  "ously": 3269,
  "Ġgold": 3270,
  "ä¸Ģä½į": 3271,
  "Ġgames": 3272,
  "éĽľ": 3273,
  "Ġcountry": 3274,
  "ured": 3275,
  "¼": 3276,
  "ç³Ĭ": 3277,
  "con": 3278,
  "Ġdreams": 3279,
  "ug": 3280,
  "Ġsounded": 3281,
  "Ġhated": 3282,
  "ins": 3283,
  "Ġcontains": 3284,
  "Ġdry": 3285,
  "çĶ°": 3286,
  "Ġrealize": 3287,
  "pt": 3288,
  "ĠThough": 3289,
  "å·§": 3290,
  "woke": 3291,
  "ĠLife": 3292,
  "Ġawkward": 3293,
  "å°įæĸ¼": 3294,
  "Ġstation": 3295,
  "Ġcause": 3296,
  "ç«¯": 3297,
  "ä¸įåľ¨": 3298,
  "ä¸¦ä¸Ķ": 3299,
  "ĠInterracial": 3300,
  "å£¯": 3301,
  "int": 3302,
  "æĬĬå¥¹": 3303,
  "æľīä¸Ģå¤©": 3304,
  "Ġfeelings": 3305,
  "ħ": 3306,
  "Ġfair": 3307,
  "-ĊĊ": 3308,
  "å¨ľ": 3309,
  "éģ¸": 3310,
  "Ġshoes": 3311,
  "ĠMature": 3312,
  "éĢĻæ¬¡": 3313,
  "çĽ´åĪ°": 3314,
  "ĠLet": 3315,
  "å®³": 3316,
  "ä»½": 3317,
  "ise": 3318,
  "åıĭ": 3319,
  "ä¸īå¹´": 3320,
  "Of": 3321,
  "Ġshock": 3322,
  "ä½³": 3323,
  "èĥ¸åīį": 3324,
  "ä¸įåĪ°": 3325,
  "ä¼¼": 3326,
  "Ġlovely": 3327,
  "æīŃ": 3328,
  "æĵ": 3329,
  "Ġkilled": 3330,
  "Ġwalks": 3331,
  "åĳ»": 3332,
  "Ġbased": 3333,
  "Ġsimilar": 3334,
  "Ġopportunity": 3335,
  "èĢ³": 3336,
  "ĠSch": 3337,
  "éģĬ": 3338,
  "æĭľ": 3339,
  "ä¼¼çļĦ": 3340,
  "æķ´åĢĭ": 3341,
  "ber": 3342,
  "æ³ķ": 3343,
  "nd": 3344,
  "ä»¤äºº": 3345,
  "çľī": 3346,
  "Ġremoved": 3347,
  "ĠDan": 3348,
  "Ġborn": 3349,
  "Ġinvited": 3350,
  "Ġot": 3351,
  "Ġleaning": 3352,
  "Ġchoice": 3353,
  "but": 3354,
  "-s": 3355,
  "éİĸ": 3356,
  "éĤĦæ²Ĵ": 3357,
  "Ġsuggested": 3358,
  "ä¸ĬéĿ¢": 3359,
  "Ġrabbit": 3360,
  "æ¡Į": 3361,
  "ĠBond": 3362,
  "å®¶ä¸Ń": 3363,
  "çĪº": 3364,
  "ä»ĬæĻļ": 3365,
  "æµ´": 3366,
  "èµ¤": 3367,
  "é§": 3368,
  "ite": 3369,
  "Ġoffer": 3370,
  "ĠEnjoy": 3371,
  "Ġblow": 3372,
  "æĵģ": 3373,
  "Ġhatte": 3374,
  "Ġmiss": 3375,
  "well": 3376,
  "æ²ĸ": 3377,
  "ĠU": 3378,
  "Ġwindows": 3379,
  "Ġalive": 3380,
  "ĠLooking": 3381,
  "eth": 3382,
  "Ġe": 3383,
  "âĢľWhat": 3384,
  "Ġsides": 3385,
  "Ġnature": 3386,
  "çļĦäºĭæĥħ": 3387,
  "æĢ§çļĦ": 3388,
  "me": 3389,
  "Ġtan": 3390,
  "éłĵ": 3391,
  "Ġpenis": 3392,
  "Ġpurple": 3393,
  "Ġsick": 3394,
  "åıį": 3395,
  "ä¸įèµ·": 3396,
  "ä¹ĭåīį": 3397,
  "Ġfantasies": 3398,
  "çĶ¨åĬĽ": 3399,
  "ä¸īåįģ": 3400,
  "è¶ģ": 3401,
  "Ġwilling": 3402,
  "Ġunderneath": 3403,
  "Ġperhaps": 3404,
  "ĠMax": 3405,
  "ĠMrs": 3406,
  "åĩ¸": 3407,
  "ugging": 3408,
  "æīĵæī®": 3409,
  "Where": 3410,
  "ä¸įå¾Ĺ": 3411,
  "åį³": 3412,
  "Ġwash": 3413,
  "ĠTr": 3414,
  "ĠAlice": 3415,
  "è¨İ": 3416,
  "éħĴåºĹ": 3417,
  "On": 3418,
  "Ġcur": 3419,
  "æº": 3420,
  "çĪ¶": 3421,
  "ç¦ģ": 3422,
  "çĽ¯": 3423,
  "Ġdriver": 3424,
  "æĺı": 3425,
  "é¤ĺ": 3426,
  "_k": 3427,
  "aked": 3428,
  "Ġshrugged": 3429,
  "Ġspending": 3430,
  "Ġdis": 3431,
  "éŁ": 3432,
  "è±¡": 3433,
  "èµ·äºĨ": 3434,
  "Ġforever": 3435,
  "åģ¶": 3436,
  "Ġmemory": 3437,
  "åı¥": 3438,
  "å¨Ł": 3439,
  "ĠSteve": 3440,
  "ĠRon": 3441,
  "ade": 3442,
  "Ġaction": 3443,
  "èĩ¨": 3444,
  "Ġloving": 3445,
  "æĪĳéĥ½": 3446,
  "ĠAlso": 3447,
  "éĸī": 3448,
  "å¥¹åľ¨": 3449,
  "å°±æľĥ": 3450,
  "ĠYour": 3451,
  "åľ¨æĪĳçļĦ": 3452,
  "ä¸įæķ¢": 3453,
  "Ġcalling": 3454,
  "Ġmaterial": 3455,
  "ack": 3456,
  "å°įæĸ¹": 3457,
  "ç¸¾": 3458,
  "¡": 3459,
  "Ġrobe": 3460,
  "ç¿Ĵæħ£": 3461,
  "Ġhandle": 3462,
  "_s": 3463,
  "æ·¨": 3464,
  "å¤": 3465,
  "åŃ«": 3466,
  "éĥŃ": 3467,
  "è»": 3468,
  "Ġtightly": 3469,
  "å®¶åºŃ": 3470,
  "æģ¯": 3471,
  "ä¸ĭçıŃ": 3472,
  "Ġbecoming": 3473,
  "Ġthigh": 3474,
  "åľĴ": 3475,
  "Ġdating": 3476,
  "ĠJan": 3477,
  "ç·´": 3478,
  "Ġshift": 3479,
  "æĪ¿åŃĲ": 3480,
  "Ġgreeted": 3481,
  "ç«ĭåĪ»": 3482,
  "ste": 3483,
  "èĭ¦": 3484,
  "Ġslender": 3485,
  "ĠSince": 3486,
  "Ġhundred": 3487,
  "Ġpant": 3488,
  "æĺ¯ä¸įæĺ¯": 3489,
  "Ġextremely": 3490,
  "Ġpounds": 3491,
  "Ġheads": 3492,
  "Ġqu": 3493,
  "Ġnude": 3494,
  "åĽŀçŃĶ": 3495,
  "æİ¢": 3496,
  "èģŀ": 3497,
  "Ġerection": 3498,
  "Ġalright": 3499,
  "ump": 3500,
  "Ġsliding": 3501,
  "æįı": 3502,
  "up": 3503,
  "ä»¥åıĬ": 3504,
  "ç¾İäºº": 3505,
  "éĥ½åľ¨": 3506,
  "Ġluck": 3507,
  "Ġteasing": 3508,
  "é¼ĵ": 3509,
  "Ġceiling": 3510,
  "çĺ¦": 3511,
  "ĠDaniel": 3512,
  "èĢĮå·²": 3513,
  "Ġauch": 3514,
  "An": 3515,
  "ĠBoth": 3516,
  "éĿĴ": 3517,
  "è¶Ĭä¾Ĩè¶Ĭ": 3518,
  "Ġpractice": 3519,
  "æ¼Ĥäº®çļĦ": 3520,
  "Ġglasses": 3521,
  "åĪ¥äºº": 3522,
  "!!": 3523,
  "çĶ¨æīĭ": 3524,
  "Ġremained": 3525,
  "Ġwoods": 3526,
  "Ġattack": 3527,
  "Ġfunny": 3528,
  "éĦī": 3529,
  "Ġrough": 3530,
  "Ġentirely": 3531,
  "ç·£": 3532,
  "what": 3533,
  "æĪĳåİ»": 3534,
  "ä¸ĭäºĨ": 3535,
  "Ġmus": 3536,
  "çĸĳ": 3537,
  "èĪ¬çļĦ": 3538,
  "Ġel": 3539,
  "Ġorange": 3540,
  "Ġforget": 3541,
  "éĤĦè¦ģ": 3542,
  "Ġuniform": 3543,
  "åĪ©": 3544,
  "Do": 3545,
  "if": 3546,
  "Ġspeed": 3547,
  "Ġeight": 3548,
  "Ġdeeper": 3549,
  "åº§": 3550,
  "èĢĥ": 3551,
  "æĪĲçĤº": 3552,
  "èĵī": 3553,
  "Ġinvolved": 3554,
  "è¾¦æ³ķ": 3555,
  "Ġrestriction": 3556,
  "é¦Ļæ¸¯": 3557,
  "Ġstage": 3558,
  "Ġlab": 3559,
  "é«ĺæ½®": 3560,
  "Ġhearing": 3561,
  "é¡ĺ": 3562,
  "Ġhappening": 3563,
  "æĽ¿": 3564,
  "éĽĦ": 3565,
  "çıį": 3566,
  "ĠHigh": 3567,
  "æ³¨æĦı": 3568,
  "ive": 3569,
  "Ġdouble": 3570,
  "åħ¶ä»ĸ": 3571,
  "igg": 3572,
  "å¿ĺ": 3573,
  "æ«": 3574,
  "æĲĵ": 3575,
  "Ġgray": 3576,
  "èĻŁ": 3577,
  "æľ¨": 3578,
  "Ġice": 3579,
  "Ġshopping": 3580,
  "ot": 3581,
  "ĠSl": 3582,
  "å·®ä¸įå¤ļ": 3583,
  "ä½ıäºĨ": 3584,
  "bing": 3585,
  "Ġsenior": 3586,
  "å°İ": 3587,
  "ä¸įä¹ħ": 3588,
  "ĠFant": 3589,
  "Ġreaching": 3590,
  "ï¼īï¼Į": 3591,
  "Ġordered": 3592,
  "Ġmood": 3593,
  "çľ¼åīį": 3594,
  "Ġfat": 3595,
  "Ġoutfit": 3596,
  "ĠThree": 3597,
  "é®®": 3598,
  "ĠJenny": 3599,
  "Ġweather": 3600,
  "ä¸įå¥½": 3601,
  "Ġseven": 3602,
  "ipped": 3603,
  "Ġmarriage": 3604,
  "ĠX": 3605,
  "Ġsend": 3606,
  "ĠThanks": 3607,
  "Ġblond": 3608,
  "mon": 3609,
  "ĠJill": 3610,
  "Ġknocked": 3611,
  "ĠToys": 3612,
  "Ġmass": 3613,
  "Ġheels": 3614,
  "ä¸Ķ": 3615,
  "Ġfootball": 3616,
  "Ġcrossed": 3617,
  "Ġglow": 3618,
  "ud": 3619,
  "Ġ:": 3620,
  "çī¹": 3621,
  "æİĴ": 3622,
  "ÂłÂłÂłÂł": 3623,
  "Ġchuck": 3624,
  "èĪŀ": 3625,
  "éĻ¢": 3626,
  "Ġsheets": 3627,
  "Ġsed": 3628,
  "Ġbattle": 3629,
  "Ġresting": 3630,
  "per": 3631,
  "Ġpoor": 3632,
  "åĩºå·®": 3633,
  "çľĭå¾Ĺ": 3634,
  "Ġgun": 3635,
  "Ġals": 3636,
  "ä¾Ĩèªª": 3637,
  "Ġreceived": 3638,
  "ĠWho": 3639,
  "Ġjoined": 3640,
  "Ġpromise": 3641,
  "Ġfacing": 3642,
  "ä¸ĸ": 3643,
  "yn": 3644,
  "Ġya": 3645,
  "æĪĳæĬĬ": 3646,
  "Ġattempt": 3647,
  "æĹ©ä¸Ĭ": 3648,
  "éĥ½æľī": 3649,
  "è·Łå¥¹": 3650,
  "æľĿ": 3651,
  "Ġstaff": 3652,
  "å¦Ĥä½ķ": 3653,
  "Ġvacation": 3654,
  "Ġlick": 3655,
  "Ġasks": 3656,
  "Ġlicking": 3657,
  "æ³ģ": 3658,
  "-b": 3659,
  "æĵ¦": 3660,
  "Thanks": 3661,
  "âĢľWell": 3662,
  "å¾®ç¬ĳ": 3663,
  "hh": 3664,
  "Ġbuy": 3665,
  "æĻ´": 3666,
  "âĢĺ": 3667,
  "çķĻä¸ĭ": 3668,
  "her": 3669,
  "Ġparking": 3670,
  "Ġlose": 3671,
  "åģ´": 3672,
  "izing": 3673,
  "Ġhelping": 3674,
  "Ġtest": 3675,
  "ok": 3676,
  "å¥½å¥½": 3677,
  "æ´ŀ": 3678,
  "æķħ": 3679,
  "Ġspring": 3680,
  "Ġcharacter": 3681,
  "ĠDave": 3682,
  "è¡Ľ": 3683,
  "æĿĳ": 3684,
  "åı°åĮĹ": 3685,
  "Ġamong": 3686,
  "Ġleaves": 3687,
  "Ġexpression": 3688,
  "Ġsurface": 3689,
  "Ġ--": 3690,
  "Ġhugged": 3691,
  "als": 3692,
  "sh": 3693,
  "Ġdoctor": 3694,
  "Ġshocked": 3695,
  "ĠSara": 3696,
  "é£": 3697,
  "lo": 3698,
  "Ġcloset": 3699,
  "çĭ¼": 3700,
  "æł¹æľ¬": 3701,
  "éĽ»å½±": 3702,
  "Ġcovers": 3703,
  "Ġblouse": 3704,
  "èİĬ": 3705,
  "Ġcareful": 3706,
  "Ġexplain": 3707,
  "Ġvor": 3708,
  "ĠEr": 3709,
  "çĹħ": 3710,
  "Ġdeeply": 3711,
  "Ġjump": 3712,
  "amon": 3713,
  "Ġmissing": 3714,
  "Ġconcerned": 3715,
  "æĭ¿åĩº": 3716,
  "Ġunderwear": 3717,
  "ery": 3718,
  "éĨ«çĶŁ": 3719,
  "ĠAshley": 3720,
  "åıĥåĬł": 3721,
  "ĠAmanda": 3722,
  "Alright": 3723,
  "Ġdownstairs": 3724,
  "çµĲæŀľ": 3725,
  "Ġhappily": 3726,
  "_d": 3727,
  "åĭķä½ľ": 3728,
  "Ġdecent": 3729,
  "Ġneighbor": 3730,
  "Ġclaws": 3731,
  "ç®Ĺæĺ¯": 3732,
  "è²»": 3733,
  "èĬ¬": 3734,
  "é¡Į": 3735,
  "ther": 3736,
  "å±ķ": 3737,
  "çĽ´æİ¥": 3738,
  "ĠStill": 3739,
  "Ġapparently": 3740,
  "å°ıåŃ©": 3741,
  "å°ĭ": 3742,
  "çĶ·åŃĲ": 3743,
  "Ġdoubt": 3744,
  "Ah": 3745,
  "ick": 3746,
  "-up": 3747,
  "è»į": 3748,
  "ĠAlthough": 3749,
  "are": 3750,
  "be": 3751,
  "Ġyesterday": 3752,
  "èĪĪè¶£": 3753,
  "ĠAr": 3754,
  "ong": 3755,
  "ä¸Ģç¨®": 3756,
  "Ġgrabbing": 3757,
  "åİŁæľ¬": 3758,
  "Ġdass": 3759,
  "Ġbrain": 3760,
  "å§ĳ": 3761,
  "ang": 3762,
  "ç´¯": 3763,
  "Ġimagine": 3764,
  "èĪĬ": 3765,
  "åıįæŃ£": 3766,
  "Ġopposite": 3767,
  "Ġclimbed": 3768,
  "çļĦçĶŁæ´»": 3769,
  "ĠJessica": 3770,
  "éģĭ": 3771,
  "Ġfeedback": 3772,
  "æ³¢": 3773,
  "Ġcave": 3774,
  "ç¨ĭ": 3775,
  "èķ¾": 3776,
  "icon": 3777,
  "Ġheavily": 3778,
  "åı«æĪĳ": 3779,
  "Ġheight": 3780,
  "åĽŀåİ»": 3781,
  "de": 3782,
  "éĩİ": 3783,
  "Ġleading": 3784,
  "çµĤ": 3785,
  "éĦ°": 3786,
  "æĥ¡": 3787,
  "æĪĳåıĪ": 3788,
  "Ġlistening": 3789,
  "Ġsports": 3790,
  "Ġescape": 3791,
  "Ġrestaurant": 3792,
  "Ġhandsome": 3793,
  "Ġfighting": 3794,
  "âĢ¦\"ĊĊ": 3795,
  "éĮĦ": 3796,
  "å¡Ĭ": 3797,
  "ĠRed": 3798,
  "Ġhardly": 3799,
  "æĪ´": 3800,
  "Ġembarrassed": 3801,
  "ĠEnglish": 3802,
  "ob": 3803,
  "åĲĦ": 3804,
  "Ġexposed": 3805,
  "åīįéĿ¢": 3806,
  "éģĬæĪ²": 3807,
  "Please": 3808,
  "Ġmemories": 3809,
  "åĸĺ": 3810,
  "å°±ä¸į": 3811,
  "Ġproblems": 3812,
  "ä¹Łå°±": 3813,
  "åĭĻ": 3814,
  "åĺī": 3815,
  "ley": 3816,
  "èıľ": 3817,
  "Ġrushed": 3818,
  "ew": 3819,
  "å±": 3820,
  "Can": 3821,
  "çĲ´": 3822,
  "æĹ©å°±": 3823,
  "Ok": 3824,
  "æķħæĦı": 3825,
  "Ġboring": 3826,
  "æ±Ĺ": 3827,
  "åĲ¸å¼ķ": 3828,
  "ĠPro": 3829,
  "Ġinformation": 3830,
  "è¼ī": 3831,
  "Ġslide": 3832,
  "éĩĮ": 3833,
  "Ġbet": 3834,
  "æ²ī": 3835,
  "ĠEl": 3836,
  "Ġgiant": 3837,
  "Ġcabin": 3838,
  "æķ¢": 3839,
  "ody": 3840,
  "Ġallow": 3841,
  "-c": 3842,
  "Ġfallen": 3843,
  "Ġmad": 3844,
  "Ġangry": 3845,
  "gle": 3846,
  "itarian": 3847,
  "Ġanywhere": 3848,
  "Ġaber": 3849,
  "Ġsque": 3850,
  "Ġchecking": 3851,
  "red": 3852,
  "Ġrelief": 3853,
  "äºĮåįģ": 3854,
  "çĪ¾": 3855,
  "ressed": 3856,
  "Ġfr": 3857,
  "ä½": 3858,
  "Ġmuscle": 3859,
  "Ġsystem": 3860,
  "Ġbelt": 3861,
  "æĲ¬": 3862,
  "å¥ĩæĢª": 3863,
  "é¬¼": 3864,
  "Ġdiscovered": 3865,
  "Ġmatch": 3866,
  "æģ¤": 3867,
  "å¿ĥæĥ³": 3868,
  "Ġphysical": 3869,
  "Ġpet": 3870,
  "Ġhappens": 3871,
  "ace": 3872,
  "son": 3873,
  "Ġlanded": 3874,
  "Ġthirty": 3875,
  "Ġstall": 3876,
  "Ġboard": 3877,
  "æ··": 3878,
  "Ġproud": 3879,
  "Ġtrust": 3880,
  "ĠTeens": 3881,
  "ently": 3882,
  "Ġmeat": 3883,
  "Ġscreamed": 3884,
  "Ġpeek": 3885,
  "Ġstyle": 3886,
  "¬¸": 3887,
  "Ġglance": 3888,
  "ç´Ļ": 3889,
  "åİŃ": 3890,
  "Ġwooden": 3891,
  "Ġbikini": 3892,
  "ĠFinally": 3893,
  "Ġreply": 3894,
  "Ġaware": 3895,
  "½": 3896,
  "ora": 3897,
  "å¥ĩ": 3898,
  "å·¦": 3899,
  "æ±ª": 3900,
  "ä¿ı": 3901,
  "Ġpure": 3902,
  "æħ°": 3903,
  "æ¯ĶæĪĳ": 3904,
  "Ġå": 3905,
  "Ġload": 3906,
  "Ġdear": 3907,
  "è¼ĥ": 3908,
  "å»ļ": 3909,
  "Ġcard": 3910,
  "Ġfriendly": 3911,
  "Ġstrength": 3912,
  "Ġexpecting": 3913,
  "Ġbegins": 3914,
  "æħ¢æħ¢çļĦ": 3915,
  "Ġparticularly": 3916,
  "ÂłÂłÂł": 3917,
  "Ġbrushed": 3918,
  "ä»į": 3919,
  "Ġflying": 3920,
  "Sorry": 3921,
  "ä»»ä½ķ": 3922,
  "é£²": 3923,
  "Ġblanket": 3924,
  "Ġprepared": 3925,
  "ä¸ģ": 3926,
  "Once": 3927,
  "Ġtrack": 3928,
  "Ġshouldn": 3929,
  "ari": 3930,
  "ç¾¤": 3931,
  "was": 3932,
  "éĢıæĺİ": 3933,
  "çħĻ": 3934,
  "ä¿Ŀ": 3935,
  "Ġclosing": 3936,
  "Ġfictional": 3937,
  "ĠPt": 3938,
  "å¹´åīį": 3939,
  "Ġincluding": 3940,
  "ĠOnly": 3941,
  "ively": 3942,
  "åĵģ": 3943,
  "æİ": 3944,
  "ĉA": 3945,
  "Ġpresence": 3946,
  "æ¿ĥ": 3947,
  "ĠMar": 3948,
  "Ġgrip": 3949,
  "Ġsupport": 3950,
  "å±ħçĦ¶": 3951,
  "Ġneither": 3952,
  "å°¾": 3953,
  "å¯¬": 3954,
  "Ġswim": 3955,
  "Ġbell": 3956,
  "å°±åĥı": 3957,
  "Ġhiding": 3958,
  "Ġweak": 3959,
  "Ġcollar": 3960,
  "å¹´çļĦ": 3961,
  "Ġthro": 3962,
  "Ġnod": 3963,
  "Ġstar": 3964,
  "Ġhonest": 3965,
  "bling": 3966,
  "æĪĳå¾Ī": 3967,
  "æļĳåģĩ": 3968,
  "ĠDid": 3969,
  "ble": 3970,
  "æĸ·": 3971,
  "éĲµ": 3972,
  "Ġjerk": 3973,
  "éĥ½å¾Ī": 3974,
  "Ġbooks": 3975,
  "Ġflight": 3976,
  "åĸĬ": 3977,
  "Ġnach": 3978,
  "Ġdecide": 3979,
  "ĠUn": 3980,
  "Ġdorm": 3981,
  "é¡ĺæĦı": 3982,
  "åļ´": 3983,
  "ĠBeing": 3984,
  "ink": 3985,
  "çĽ¤": 3986,
  "Ġonline": 3987,
  "å¤ıå¤©": 3988,
  "çļĦå·¥ä½ľ": 3989,
  "\"We": 3990,
  "ĠWill": 3991,
  "aring": 3992,
  "âĢľNo": 3993,
  "ty": 3994,
  "Ġworn": 3995,
  "åĽĽåįģ": 3996,
  "Ġladies": 3997,
  "ĠYes": 3998,
  "Ġkey": 3999,
  "ä¹Łæľĥ": 4000,
  "èģļ": 4001,
  "æĴŀ": 4002,
  "ac": 4003,
  "Ġsnapped": 4004,
  "å¤§åĵ¥": 4005,
  "Ġwrote": 4006,
  "Ġsa": 4007,
  "Ġbringing": 4008,
  "Ġboobs": 4009,
  "Ġsmiles": 4010,
  "Ġstreets": 4011,
  "ä¸įæĥ³": 4012,
  "æĬĸ": 4013,
  "ines": 4014,
  "æĬĵ": 4015,
  "Ġgrade": 4016,
  "åıįæĩī": 4017,
  "Ġcocks": 4018,
  "ĠEric": 4019,
  "Ġcars": 4020,
  "æĶĿ": 4021,
  "ĠRachel": 4022,
  "Ġcrack": 4023,
  "Ġsmoke": 4024,
  "Ġwaking": 4025,
  "Ġoh": 4026,
  "Ġmouse": 4027,
  "ern": 4028,
  "Ġrelaxed": 4029,
  "Ġwhether": 4030,
  "Ġsurrounded": 4031,
  "ç§ģ": 4032,
  "åķĨ": 4033,
  "æĹ©å·²": 4034,
  "å°ĸ": 4035,
  "æ¹": 4036,
  "ek": 4037,
  "å¹³å¸¸": 4038,
  "Ġlake": 4039,
  "ä¸įå¤ª": 4040,
  "Ġmales": 4041,
  "Ġpassing": 4042,
  "åľĸ": 4043,
  "Ġdr": 4044,
  "Ġcamera": 4045,
  "æļ": 4046,
  "èĹį": 4047,
  "Ġwie": 4048,
  "ious": 4049,
  "Ġwin": 4050,
  "åĤĳ": 4051,
  "é½Ĭ": 4052,
  "Ġabsolutely": 4053,
  "Ġslip": 4054,
  "aged": 4055,
  "Ġcrew": 4056,
  "å°¤åħ¶æĺ¯": 4057,
  "ĠMonday": 4058,
  "åĶĶ": 4059,
  "âĢ¦..": 4060,
  "ĠÃ¼ber": 4061,
  "Ġdancing": 4062,
  "ĠAre": 4063,
  "Ġmention": 4064,
  "Ġsore": 4065,
  "Ġaccepted": 4066,
  "Ġnor": 4067,
  "åĬŁ": 4068,
  "ith": 4069,
  "Ġknee": 4070,
  "Ġdrew": 4071,
  "Ġtouching": 4072,
  "ell": 4073,
  "Ã¼": 4074,
  "Ġbother": 4075,
  "éģĭåĭķ": 4076,
  "åĭģ": 4077,
  "ĠFox": 4078,
  "èĲį": 4079,
  "Ġsad": 4080,
  "æľīä¸Ģæ¬¡": 4081,
  "Ġpressing": 4082,
  "Ġcried": 4083,
  "ĠSunday": 4084,
  "çĺĭ": 4085,
  "æī£": 4086,
  "æĺİå¤©": 4087,
  "æĭĸ": 4088,
  "åĲ¹": 4089,
  "Ġtank": 4090,
  "Ġspotted": 4091,
  "é¡ı": 4092,
  "Ġad": 4093,
  "Ġate": 4094,
  "Ġrevealing": 4095,
  "Ġlip": 4096,
  "Ġwhim": 4097,
  "èĦ": 4098,
  "Ġshake": 4099,
  "Ġworks": 4100,
  "Ġnipple": 4101,
  "é¼»": 4102,
  "æŃ¢": 4103,
  "Ġmuttered": 4104,
  "çīĽ": 4105,
  "Ġcloth": 4106,
  "æł¼": 4107,
  "Ġinstantly": 4108,
  "Ġpartner": 4109,
  "ally": 4110,
  "æĻ¶": 4111,
  "Ġlisten": 4112,
  "Ġneighborhood": 4113,
  "ä¸įå°ĳ": 4114,
  "-h": 4115,
  "Ġtaller": 4116,
  "ning": 4117,
  "Ġsuper": 4118,
  "ĠSomething": 4119,
  "æ¿": 4120,
  "ena": 4121,
  "ç§»": 4122,
  "Ġcross": 4123,
  "ash": 4124,
  "Ġguards": 4125,
  "è±ª": 4126,
  "Ġswimming": 4127,
  "éĸ": 4128,
  "åįĬå¹´": 4129,
  "ä¸įäºĨ": 4130,
  "ake": 4131,
  "ĠHermione": 4132,
  "æ¨¡": 4133,
  "Ġgives": 4134,
  "Ġintended": 4135,
  "Ġsocial": 4136,
  "Ġcovering": 4137,
  "Ġsecurity": 4138,
  "Ġlikes": 4139,
  "Ġintroduced": 4140,
  "åŀĤ": 4141,
  "ished": 4142,
  "åı¯èĥ½æĺ¯": 4143,
  "åŃķ": 4144,
  "Ġal": 4145,
  "Ġmeal": 4146,
  "ĥ": 4147,
  "ä¸ĢèĤ¡": 4148,
  "Ġsexually": 4149,
  "çĶ¢": 4150,
  "ĠMaria": 4151,
  "Ġsending": 4152,
  "è¢ĭ": 4153,
  "Ġfaint": 4154,
  "Ġwished": 4155,
  "Ġactual": 4156,
  "æ³¨": 4157,
  "Ġtoy": 4158,
  "Ġmajor": 4159,
  "oo": 4160,
  "Ġstiff": 4161,
  "çļĦå¥³åŃ©": 4162,
  "Ġrolling": 4163,
  "å°±è¦ģ": 4164,
  "Ġeager": 4165,
  "ĠSometimes": 4166,
  "Ġfinds": 4167,
  "ç§ĳ": 4168,
  "æİ©": 4169,
  "Ġroll": 4170,
  "ke": 4171,
  "Ġshall": 4172,
  "Ġbored": 4173,
  "its": 4174,
  "urry": 4175,
  "Ġlock": 4176,
  "Ġshadow": 4177,
  "Ġcontinues": 4178,
  "ax": 4179,
  "Ġvision": 4180,
  "ä¹ĭä¸ĭ": 4181,
  "Ġriver": 4182,
  "Ġlist": 4183,
  "Ġdim": 4184,
  "Ġblock": 4185,
  "ail": 4186,
  "ze": 4187,
  "çļĻ": 4188,
  "éį": 4189,
  "ĠThese": 4190,
  "çĵ": 4191,
  "ç": 4192,
  "å®¿èĪį": 4193,
  "ert": 4194,
  "ined": 4195,
  "To": 4196,
  "æĽ¾ç¶ĵ": 4197,
  "nt": 4198,
  "Ġcom": 4199,
  "ç°¡åĸ®": 4200,
  "æī¶": 4201,
  "Ġfaces": 4202,
  "ĠLe": 4203,
  "æ¾¡": 4204,
  "åįģåħŃ": 4205,
  "Ġpromised": 4206,
  "ĠCan": 4207,
  "Ġthroughout": 4208,
  "åĬį": 4209,
  "ors": 4210,
  "ĠAny": 4211,
  "ĠTHE": 4212,
  "æ«ĥ": 4213,
  "å¦Ŀ": 4214,
  "Ġsensation": 4215,
  "Ġencounter": 4216,
  "ĠFrank": 4217,
  "itel": 4218,
  "Ġskinny": 4219,
  "åıĪæĺ¯": 4220,
  "ä¸¦ä¸į": 4221,
  "ç§ĺ": 4222,
  "ael": 4223,
  "Ġfocused": 4224,
  "Ġcommon": 4225,
  "æ´¾": 4226,
  "ä¸Ģçīĩ": 4227,
  "æķħäºĭ": 4228,
  "\"A": 4229,
  "ĠAnother": 4230,
  "Z": 4231,
  "Ġevent": 4232,
  "ĠDragon": 4233,
  "Ġservice": 4234,
  "uch": 4235,
  "Ġshifted": 4236,
  "pe": 4237,
  "Ġearth": 4238,
  "Ġwaved": 4239,
  "ai": 4240,
  "æľįåĭĻ": 4241,
  "apping": 4242,
  "Ġfill": 4243,
  "è¶Ļ": 4244,
  "Ġcurrent": 4245,
  "Ġtypical": 4246,
  "Ġcomfort": 4247,
  "igh": 4248,
  "Ġcrying": 4249,
  "éģĩ": 4250,
  "Ġboots": 4251,
  "Ġsqueezed": 4252,
  "iver": 4253,
  "Ġcre": 4254,
  "ĠAd": 4255,
  "our": 4256,
  "åıĸ": 4257,
  "æĵĬ": 4258,
  "Ġcreatures": 4259,
  "uzz": 4260,
  "ç§ĭ": 4261,
  "èı²": 4262,
  "çĩķ": 4263,
  "Ġpopular": 4264,
  "ale": 4265,
  "mail": 4266,
  "éĢĢ": 4267,
  "Ġworst": 4268,
  "Ġotherwise": 4269,
  "ete": 4270,
  "Ã¤": 4271,
  "ĠTony": 4272,
  "Ġstrip": 4273,
  "è®Ĭå¾Ĺ": 4274,
  "Ġspeaking": 4275,
  "éģ®": 4276,
  "Ġwinter": 4277,
  "çĶ·åŃ©": 4278,
  "Ġbreeze": 4279,
  "Ġsmart": 4280,
  "åĢŁ": 4281,
  "Ġpregnant": 4282,
  "Ġscream": 4283,
  "ĠThank": 4284,
  "Ġstorm": 4285,
  "Ġrush": 4286,
  "ming": 4287,
  "ĠKay": 4288,
  "é£Ł": 4289,
  "ised": 4290,
  "éĢĹ": 4291,
  "Ġlack": 4292,
  "ted": 4293,
  "elle": 4294,
  "Ġjoy": 4295,
  "å½¼æŃ¤": 4296,
  "Ġprocess": 4297,
  "æĪĳæīį": 4298,
  "å¾ĹåĪ°": 4299,
  "åĪĢ": 4300,
  "é©": 4301,
  "æ¨¹": 4302,
  "ĠPaul": 4303,
  "Ġlots": 4304,
  "éĻĦè¿ĳ": 4305,
  "Ġwhisper": 4306,
  "Your": 4307,
  "åıįèĢĮ": 4308,
  "Ġent": 4309,
  "Ġnerv": 4310,
  "ä¼ĳ": 4311,
  "åįģåħ«": 4312,
  "Ġgarage": 4313,
  "ä¸įç¦ģ": 4314,
  "å®¢äºº": 4315,
  "Ġhat": 4316,
  "ĠBob": 4317,
  "ĠJennifer": 4318,
  "è¿½": 4319,
  "Ġsuppose": 4320,
  "éĥ½è¦ģ": 4321,
  "Ġtw": 4322,
  "Ġanger": 4323,
  "wolf": 4324,
  "åĭ¾": 4325,
  "ĠDe": 4326,
  "let": 4327,
  "çļĦè¡£æľį": 4328,
  "io": 4329,
  "ĠSe": 4330,
  "ĠKyle": 4331,
  "éģº": 4332,
  "orn": 4333,
  "Ġvisible": 4334,
  "ĠJane": 4335,
  "Ġcreated": 4336,
  "ĠHope": 4337,
  "ĠMore": 4338,
  "Ġtoned": 4339,
  "Ġbags": 4340,
  "Ġrear": 4341,
  "Ġpro": 4342,
  "èªįçĤº": 4343,
  "Ġhint": 4344,
  "ĠMan": 4345,
  "ç±": 4346,
  "Ġtick": 4347,
  "Ġrelease": 4348,
  "æĪ²": 4349,
  "æļ´": 4350,
  "Ġthrow": 4351,
  "éĢĽ": 4352,
  "Ġpan": 4353,
  "å¾Īæľī": 4354,
  "ãĢĤãĢĮ": 4355,
  "Ġyard": 4356,
  "Ġcurves": 4357,
  "Ġroommate": 4358,
  "ĠâĢ¦": 4359,
  "ĠWhere": 4360,
  "å±¬æĸ¼": 4361,
  "çŃĨ": 4362,
  "Ġarmor": 4363,
  "å¼ı": 4364,
  "Ġsword": 4365,
  "Ġhistory": 4366,
  "bo": 4367,
  "å¾©": 4368,
  "æ¼²": 4369,
  "è¡Ĺ": 4370,
  "éĢĻä¸Ģ": 4371,
  "åĴª": 4372,
  "ĠJoe": 4373,
  "åįĪ": 4374,
  "Ġpace": 4375,
  "bbing": 4376,
  "Ġforgotten": 4377,
  "Ġmentioned": 4378,
  "Ġtravel": 4379,
  "Here": 4380,
  "ä¸ĢåĪĩ": 4381,
  "ĠAsian": 4382,
  "God": 4383,
  "Did": 4384,
  "Ġchanging": 4385,
  "Ġpub": 4386,
  "ock": 4387,
  "Ġplane": 4388,
  "ĠHere": 4389,
  "Ġpolice": 4390,
  "Ġdetails": 4391,
  "åĲĲ": 4392,
  "ä¸ĢæĬĬ": 4393,
  "Ġwanna": 4394,
  "-like": 4395,
  "ä»£": 4396,
  "ä¸Ģçľ¼": 4397,
  "Ġerotic": 4398,
  "æŁ³": 4399,
  "Ġwashed": 4400,
  "Ġroutine": 4401,
  "Ġfeatures": 4402,
  "ĠCity": 4403,
  "Ġavoid": 4404,
  "Ġchin": 4405,
  "ably": 4406,
  "åĻ¨": 4407,
  "res": 4408,
  "Ġeasier": 4409,
  "ary": 4410,
  "Ġtossed": 4411,
  "Ġboat": 4412,
  "èĮ¶": 4413,
  "Ġhungry": 4414,
  "Ġcurled": 4415,
  "Ġinnocent": 4416,
  "·»": 4417,
  "åĲįåŃĹ": 4418,
  "Ġblush": 4419,
  "éģ©": 4420,
  "£": 4421,
  "Ġloudly": 4422,
  "-F": 4423,
  "Ġconstantly": 4424,
  "Ġsisters": 4425,
  "å¿ĥæĥħ": 4426,
  "Ġdirectly": 4427,
  "Ġjourney": 4428,
  "Ġplanet": 4429,
  "æľ«": 4430,
  "èľľ": 4431,
  "Ġloves": 4432,
  "çĶŁæĦı": 4433,
  "Ġshadows": 4434,
  "Ġstick": 4435,
  "-d": 4436,
  "ĠDark": 4437,
  "èŃĺ": 4438,
  "ĠThose": 4439,
  "æĵĶ": 4440,
  "ĠKatie": 4441,
  "åİŁ": 4442,
  "Ġstands": 4443,
  "èº«åŃĲ": 4444,
  "Ġwink": 4445,
  "ipping": 4446,
  "Ġmovement": 4447,
  "she": 4448,
  "ĠEveryone": 4449,
  "-old": 4450,
  "âĢĶâĢĶ": 4451,
  "ĠLittle": 4452,
  "åĥħ": 4453,
  "ING": 4454,
  "Ġconsider": 4455,
  "Ġmembers": 4456,
  "æĪĲäºĨ": 4457,
  "..ĊĊ": 4458,
  "-year": 4459,
  "æĹ¥åŃĲ": 4460,
  "Ġsea": 4461,
  "åįģäºĮ": 4462,
  "Ġcarrying": 4463,
  "æļĸ": 4464,
  "Ġexciting": 4465,
  "Ġcanine": 4466,
  "Ġdu": 4467,
  "èŃ°": 4468,
  "-in": 4469,
  "è¿·äºº": 4470,
  "èĤ¡": 4471,
  "ä¸Ģæīĭ": 4472,
  "Maybe": 4473,
  "Ġintense": 4474,
  "Ġconsidering": 4475,
  "light": 4476,
  "Ġgathered": 4477,
  "Ġfix": 4478,
  "Ġfish": 4479,
  "Ġstruggled": 4480,
  "X": 4481,
  "Ġpossibly": 4482,
  "Ġlbs": 4483,
  "ãĢįãĢĮ": 4484,
  "Ġappearance": 4485,
  "Ġsong": 4486,
  "ä¸Ĭåİ»": 4487,
  "Ġkinda": 4488,
  "Ġsand": 4489,
  "uh": 4490,
  "ä¸įåĩº": 4491,
  "amed": 4492,
  "æ¼¢": 4493,
  "æı¡": 4494,
  "ms": 4495,
  "å±¬": 4496,
  "Ġdragged": 4497,
  "Ġdecision": 4498,
  "Ġdragons": 4499,
  "åĮĹ": 4500,
  "åıĶ": 4501,
  "Ġsession": 4502,
  "Ġadd": 4503,
  "ä¿ĿæĮģ": 4504,
  "unted": 4505,
  "Ġdoorway": 4506,
  "Ġcleaning": 4507,
  "Ġuniversity": 4508,
  "æķ²": 4509,
  "æĦĪ": 4510,
  "æŃ¦": 4511,
  "Ġflash": 4512,
  "çģ": 4513,
  "zen": 4514,
  "Ġdirt": 4515,
  "\"How": 4516,
  "åĲµ": 4517,
  "Ġfly": 4518,
  "æĮīæĳ©": 4519,
  "Ġcon": 4520,
  "Ġpleasant": 4521,
  "ĠNothing": 4522,
  "åı¦å¤ĸ": 4523,
  "åĸ®ä½į": 4524,
  "å¸ĥ": 4525,
  "Ġleader": 4526,
  "ere": 4527,
  "é¡Ĩ": 4528,
  "Ġbite": 4529,
  "Ġeffort": 4530,
  "éļĶå£ģ": 4531,
  "op": 4532,
  "Ġhoney": 4533,
  "Ġcampus": 4534,
  "ĠShadow": 4535,
  "æ¢ħ": 4536,
  "Ġstopping": 4537,
  "å¤ļå°ĳ": 4538,
  "å¡ŀ": 4539,
  "Ġtwisted": 4540,
  "ä¼´": 4541,
  "è¦ģæ±Ĥ": 4542,
  "Ġenter": 4543,
  "Ġunless": 4544,
  "åĪ¶æľį": 4545,
  "Ġpaying": 4546,
  "æľŁ": 4547,
  "Ġerect": 4548,
  "ions": 4549,
  "Ġins": 4550,
  "olf": 4551,
  "èĹı": 4552,
  "way": 4553,
  "ye": 4554,
  "Ġburning": 4555,
  "Ġsubject": 4556,
  "ĠInstead": 4557,
  "Ġrich": 4558,
  "ass": 4559,
  "åįģäºĶ": 4560,
  "ee": 4561,
  "æīĢæľī": 4562,
  "Ġwhom": 4563,
  "Ġvan": 4564,
  "å¹¸": 4565,
  "æİĥ": 4566,
  "âĤ¬": 4567,
  "ç½µ": 4568,
  "Ġupper": 4569,
  "Ġblinked": 4570,
  "ps": 4571,
  "è¨": 4572,
  "Ġchat": 4573,
  "æ³³": 4574,
  "çŁ³": 4575,
  "ĠGood": 4576,
  "Ġsituations": 4577,
  "æīįèĥ½": 4578,
  "uffed": 4579,
  "ç©": 4580,
  "Ġelevator": 4581,
  "ä¸įå¥½æĦıæĢĿ": 4582,
  "çĻ½èī²çļĦ": 4583,
  "çĩ": 4584,
  "Ġrules": 4585,
  "è«ĸ": 4586,
  "Ġoriginal": 4587,
  "åı¯æĥľ": 4588,
  "ip": 4589,
  "ĠKing": 4590,
  "Ġking": 4591,
  "Ġforehead": 4592,
  "âĢľYes": 4593,
  "Ġspecies": 4594,
  "Ġasshole": 4595,
  "æ¥ŃåĭĻ": 4596,
  "çķ¥": 4597,
  "Ġfond": 4598,
  "æķ´çĲĨ": 4599,
  "æ´»åĭķ": 4600,
  "åĦĢ": 4601,
  ".com": 4602,
  "-t": 4603,
  "Ġfemales": 4604,
  "çªĦ": 4605,
  "St": 4606,
  "_t": 4607,
  "äºŀ": 4608,
  "Ġreasons": 4609,
  "Ġkicked": 4610,
  "ils": 4611,
  "éŁ³": 4612,
  "åĻ": 4613,
  "Ġlean": 4614,
  "_S": 4615,
  "Ġeinen": 4616,
  "Ġstroke": 4617,
  "ĠLiz": 4618,
  "ira": 4619,
  "Ġowner": 4620,
  "æŃ£æĺ¯": 4621,
  "æ®º": 4622,
  "Ġactions": 4623,
  "çĭĹ": 4624,
  "Ġgear": 4625,
  "Ġperiod": 4626,
  "Ġnine": 4627,
  "Ġplate": 4628,
  "ĠPeter": 4629,
  "Ġè": 4630,
  "å¨¶": 4631,
  "Ġroof": 4632,
  "lessly": 4633,
  "Ġincluded": 4634,
  "èħ¹": 4635,
  "ä»įçĦ¶": 4636,
  "æ§į": 4637,
  "æĶ¯": 4638,
  "Ġyours": 4639,
  "çĮ¶": 4640,
  "ä¸»ä»»": 4641,
  "èĹī": 4642,
  "Ġihr": 4643,
  "ve": 4644,
  "Ġkeys": 4645,
  "Ġallowing": 4646,
  "ĉIt": 4647,
  "ä¸»äºº": 4648,
  "Ġlowered": 4649,
  "è¶£": 4650,
  "å¾Īå°ĳ": 4651,
  "ĠBrian": 4652,
  "Ġcleaned": 4653,
  "Ġcudd": 4654,
  "æ¯ıåĢĭ": 4655,
  "Ġbiggest": 4656,
  "Ġspl": 4657,
  "æŀ¶": 4658,
  "ĠHell": 4659,
  "uring": 4660,
  "Ġreaders": 4661,
  "igen": 4662,
  "åįĩ": 4663,
  "ore": 4664,
  "Ġexperiences": 4665,
  "å»ł": 4666,
  "åĲĬ": 4667,
  "çķ¢ç«Ł": 4668,
  "Ġgig": 4669,
  "Ġchose": 4670,
  "Ġpillow": 4671,
  "az": 4672,
  "Me": 4673,
  "ancing": 4674,
  "æĺİé¡¯": 4675,
  "Ġtub": 4676,
  "éĤ£ä¸Ģ": 4677,
  "Ġwir": 4678,
  "azed": 4679,
  "Ġmountain": 4680,
  "Damn": 4681,
  "av": 4682,
  "åĥıæĺ¯": 4683,
  "ç¢º": 4684,
  "Ġteen": 4685,
  "Ġflew": 4686,
  "Ġlines": 4687,
  "çīĨ": 4688,
  "æ·º": 4689,
  "ind": 4690,
  "Ġjack": 4691,
  "Ġpopped": 4692,
  "Ġposted": 4693,
  "åľ¨åºĬä¸Ĭ": 4694,
  "Ġbunch": 4695,
  "æ´ĭ": 4696,
  "Ġsized": 4697,
  "Ġmis": 4698,
  "Ġpicking": 4699,
  "èī²æĥħ": 4700,
  "Ġfurry": 4701,
  "åĺ´åĶĩ": 4702,
  "Ġrising": 4703,
  "Ġcream": 4704,
  "Ġreminded": 4705,
  "æ¯«": 4706,
  "Ġpleased": 4707,
  "Ġchurch": 4708,
  "å®īæİĴ": 4709,
  "Ġstated": 4710,
  "Ġindeed": 4711,
  "Ġdifference": 4712,
  "æ·ļ": 4713,
  "Ġmultiple": 4714,
  "ĠDiary": 4715,
  "Ġourselves": 4716,
  "åĪĨéĲĺ": 4717,
  "Ġattached": 4718,
  "ä¸»åĭķ": 4719,
  "Ġsolo": 4720,
  "æ·¡": 4721,
  ".'": 4722,
  "ç«ĭåį³": 4723,
  "not": 4724,
  "Ġhitting": 4725,
  "ç´ł": 4726,
  "Ġoccasionally": 4727,
  "æĺ¯å¾Ī": 4728,
  "æĥ³èµ·": 4729,
  "å°¤åħ¶": 4730,
  "Ġtotal": 4731,
  "ĠMal": 4732,
  "å¨ģ": 4733,
  "Ġbull": 4734,
  "åİ»å¹´": 4735,
  "ĠAsh": 4736,
  "Ġunable": 4737,
  "æĽ¾": 4738,
  "ä¸įåı¯": 4739,
  "Ġadvantage": 4740,
  "ĠBeth": 4741,
  "æ£": 4742,
  "andy": 4743,
  "Ġcrush": 4744,
  "Ġcopyright": 4745,
  "Ġwave": 4746,
  "Ġparked": 4747,
  "mer": 4748,
  "æīĵç®Ĺ": 4749,
  "Ġnobody": 4750,
  "ching": 4751,
  "èĢĲ": 4752,
  "Ġprotect": 4753,
  "Ġflowing": 4754,
  "Ġathletic": 4755,
  "Ġfantas": 4756,
  "Ġcharge": 4757,
  "ĠRose": 4758,
  "ĠAdam": 4759,
  "æĬ«": 4760,
  "Ġtie": 4761,
  "Ġbroad": 4762,
  "ĠDespite": 4763,
  "\"He": 4764,
  "å°±æĬĬ": 4765,
  "Ġpr": 4766,
  "æīĺ": 4767,
  "ĠAm": 4768,
  "Ġscales": 4769,
  "icht": 4770,
  "è®ĬæĪĲ": 4771,
  "èĩ´": 4772,
  "åĬªåĬĽ": 4773,
  "èĸĩ": 4774,
  "ä¸įè¡Į": 4775,
  "åı¸": 4776,
  "ç¶ĵé©Ĺ": 4777,
  "Ġburst": 4778,
  "Fuck": 4779,
  "åĵĩ": 4780,
  "å¾Īå¤§": 4781,
  "Ġknife": 4782,
  "ey": 4783,
  "çļĦå¿ĥ": 4784,
  "gh": 4785,
  "Ġhouses": 4786,
  "ĠEverything": 4787,
  "Ġpacked": 4788,
  "Ġability": 4789,
  "Ġcousin": 4790,
  "ĉH": 4791,
  "æĬ¬": 4792,
  "og": 4793,
  "æĽ": 4794,
  "æºĸ": 4795,
  "èĻĽ": 4796,
  "Ġbow": 4797,
  "ä¸įå¦Ĥ": 4798,
  "ark": 4799,
  "æ¡ĥ": 4800,
  "Ġtaught": 4801,
  "ĠEach": 4802,
  "Ġho": 4803,
  "è®ĵä»ĸ": 4804,
  "Ġdisappeared": 4805,
  "Ġstripped": 4806,
  "Ġnur": 4807,
  "ute": 4808,
  "Ġkisses": 4809,
  "æ´": 4810,
  "ister": 4811,
  "äºĨåĲ§": 4812,
  "Ġfabric": 4813,
  "ç©¿ä¸Ĭ": 4814,
  "ä½Ĩå¥¹": 4815,
  "çĲª": 4816,
  "Ġfan": 4817,
  "æ²Ī": 4818,
  "ĠWater": 4819,
  "'.": 4820,
  "Ġexperienced": 4821,
  "åı°çģ£": 4822,
  "Ġimage": 4823,
  "Ġnaughty": 4824,
  "åĤ²": 4825,
  "çªģ": 4826,
  "Ġowned": 4827,
  "å¤ĸè¡¨": 4828,
  "ĠSp": 4829,
  "eh": 4830,
  "Look": 4831,
  "ec": 4832,
  "add": 4833,
  "Ġmission": 4834,
  "\"And": 4835,
  "ĠOK": 4836,
  "Ġfirmly": 4837,
  "æĥ¹": 4838,
  "æķĻå®¤": 4839,
  "ĠEmily": 4840,
  "ole": 4841,
  "æķĻå¸«": 4842,
  "Ġideas": 4843,
  "Ġlaptop": 4844,
  "Ġfailed": 4845,
  "Ġimpossible": 4846,
  "Ġitems": 4847,
  "æĦŁæĥħ": 4848,
  "ĠJulie": 4849,
  "Ġsub": 4850,
  "Ġrace": 4851,
  "ä¸įåģľçļĦ": 4852,
  "Ġstudy": 4853,
  "Ġdripping": 4854,
  "ä»ĸæĺ¯": 4855,
  "Ġwaren": 4856,
  "Ġpractically": 4857,
  "éĿ¢å°į": 4858,
  "Ġsne": 4859,
  "åĭĥ": 4860,
  "ç¶ł": 4861,
  "ĠTy": 4862,
  "ä¸Ģäºº": 4863,
  "è¢«äºº": 4864,
  "æļ´éľ²": 4865,
  "Ġcoach": 4866,
  "ny": 4867,
  "çļĦæĸ°": 4868,
  "Ġknowledge": 4869,
  "Ġshorter": 4870,
  "Ġsoul": 4871,
  "å¤ļä¹ħ": 4872,
  "Ġunusual": 4873,
  "åĸĿéħĴ": 4874,
  "ĠLaura": 4875,
  "Ġjobs": 4876,
  "Ġdrawn": 4877,
  "Ġdaily": 4878,
  "Ġetwas": 4879,
  "erte": 4880,
  "Ġdozen": 4881,
  "ä¾ĿçĦ¶": 4882,
  "wyn": 4883,
  "æ¿Ģ": 4884,
  "ĠBrad": 4885,
  "ä»ĺ": 4886,
  "ately": 4887,
  "åĨįåĬłä¸Ĭ": 4888,
  "Ġ#": 4889,
  "ĠStar": 4890,
  "ç¬¬ä¸Ģç«ł": 4891,
  "Ġslammed": 4892,
  "Ġneighbors": 4893,
  "Ġsplit": 4894,
  "iv": 4895,
  "Ġwarning": 4896,
  "udd": 4897,
  "Ġwieder": 4898,
  "used": 4899,
  "ations": 4900,
  "çļĦçľ¼çĿĽ": 4901,
  "ĠSuddenly": 4902,
  "Ġlift": 4903,
  "Ġstranger": 4904,
  "äºĨæĪĳçļĦ": 4905,
  "åĲĦç¨®": 4906,
  "ĠPotter": 4907,
  "Ġbench": 4908,
  "ç¾ħ": 4909,
  "ided": 4910,
  "row": 4911,
  "Ġplanning": 4912,
  "æıĴåħ¥": 4913,
  "rot": 4914,
  "Ġavailable": 4915,
  "Ġhum": 4916,
  "Ġfilling": 4917,
  "Ġunderstood": 4918,
  "åŃ¸ç¿Ĵ": 4919,
  "Ġcalls": 4920,
  "Ġrandom": 4921,
  "Ġteenage": 4922,
  "ĠSamantha": 4923,
  "å¼±": 4924,
  "Ġmir": 4925,
  "åįĹ": 4926,
  "Ġfixed": 4927,
  "âĢľIt": 4928,
  "Ġgift": 4929,
  "éª¨": 4930,
  "åļ": 4931,
  "çĿ": 4932,
  "Ġsensitive": 4933,
  "Ġihm": 4934,
  "Ġgut": 4935,
  "ä»Ĭ": 4936,
  "Ġeffect": 4937,
  "æĭĽ": 4938,
  "Ġsteel": 4939,
  "æŀľ": 4940,
  "çĶŁæĹ¥": 4941,
  "ĠGeorge": 4942,
  "Ġwhore": 4943,
  "æ±ł": 4944,
  "Ġbreaking": 4945,
  "åĭĩ": 4946,
  "ĠPregn": 4947,
  "lyn": 4948,
  "Ġsearch": 4949,
  "Ġcast": 4950,
  "Ġpetite": 4951,
  "æħķ": 4952,
  "è¿½æ±Ĥ": 4953,
  "Ġrum": 4954,
  "Ġlanding": 4955,
  "Ġsigns": 4956,
  "Ġstretching": 4957,
  "è·¯ä¸Ĭ": 4958,
  "é¨İ": 4959,
  "ul": 4960,
  "èģ¯": 4961,
  "åĤ¾": 4962,
  "èĪĴ": 4963,
  "èµ°åĩº": 4964,
  "zy": 4965,
  "åħĭ": 4966,
  "æŃ»äºĨ": 4967,
  "Ġlaw": 4968,
  "åĮĻ": 4969,
  "ĠRobert": 4970,
  "çĵľ": 4971,
  "ç¦ı": 4972,
  "Ġswung": 4973,
  "ĠJay": 4974,
  "åĸĤ": 4975,
  "ĠNick": 4976,
  "Ġmovies": 4977,
  "æĹ¢": 4978,
  "_m": 4979,
  "Ġmal": 4980,
  "Ġeinem": 4981,
  "æ²¹": 4982,
  "ou": 4983,
  "Ġease": 4984,
  "Ġrelaxing": 4985,
  "Ġtease": 4986,
  "Ġple": 4987,
  "çĢ": 4988,
  "Ġpassion": 4989,
  "Ġpurpose": 4990,
  "ç¤¾": 4991,
  "iness": 4992,
  "Ġdisplay": 4993,
  "Ġbesides": 4994,
  "aying": 4995,
  "iled": 4996,
  "çĸ²": 4997,
  "Ġplot": 4998,
  "Ã¶": 4999,
  "Ġattracted": 5000,
  "èĤļåŃĲ": 5001,
  "è³º": 5002,
  "ï¼ļĊĊ": 5003,
  "Ġwolves": 5004,
  "çľģ": 5005,
  "Ġsunlight": 5006,
  "çĪ": 5007,
  "åª³": 5008,
  "Ġdro": 5009,
  "Ġsink": 5010,
  "Ġimagined": 5011,
  "Ġaroused": 5012,
  "è²Ŀ": 5013,
  "Ġbike": 5014,
  "Re": 5015,
  "æĶ¹": 5016,
  "çĶľ": 5017,
  "Ġeighteen": 5018,
  "ĠFour": 5019,
  "æĨ¶": 5020,
  "Ġtreated": 5021,
  "Ġfifteen": 5022,
  "çµĲæĿŁ": 5023,
  "åħĦå¼Ł": 5024,
  "è³ĩ": 5025,
  "æ±Ł": 5026,
  "Ġdumb": 5027,
  "Ġdangerous": 5028,
  "æĺ¯æĪĳçļĦ": 5029,
  "Ġlegal": 5030,
  "Ġdust": 5031,
  "Ġsits": 5032,
  "Ġpony": 5033,
  "Ġdeveloped": 5034,
  "è©©": 5035,
  "icky": 5036,
  "Ġcaptain": 5037,
  "åĶī": 5038,
  "Ġbon": 5039,
  "Ġwhose": 5040,
  "çĴ°å¢ĥ": 5041,
  "Ġforgot": 5042,
  "Ġlesbian": 5043,
  "ä¸įåĲĮ": 5044,
  "å®®": 5045,
  "From": 5046,
  "æĵĶå¿ĥ": 5047,
  "æİ¥åıĹ": 5048,
  "Ġflashed": 5049,
  "çĦ¶èĢĮ": 5050,
  "Ġschon": 5051,
  "Ġtells": 5052,
  "Ġcolored": 5053,
  "ide": 5054,
  "å«": 5055,
  "æĹ¥æľ¬": 5056,
  "ain": 5057,
  "ĠWhite": 5058,
  "Ġsolid": 5059,
  "éģ²": 5060,
  "ä¹ĭä¸Ń": 5061,
  "æī¾åĪ°": 5062,
  "æĺ¨å¤©": 5063,
  "ç¦": 5064,
  "ä¿Ĥ": 5065,
  "ĠSue": 5066,
  "ĠSorry": 5067,
  "Ġconstant": 5068,
  "Ġmilitary": 5069,
  "éĤª": 5070,
  "Ġstretch": 5071,
  "ĠMay": 5072,
  "åĵ¼": 5073,
  "Ġfreak": 5074,
  "ars": 5075,
  "åĲ³": 5076,
  "æī¯": 5077,
  "å¦®": 5078,
  "Ġfore": 5079,
  "çĭĢ": 5080,
  "çĪ²": 5081,
  "ä¼¸æīĭ": 5082,
  "Ġrealised": 5083,
  "eder": 5084,
  "ight": 5085,
  "ĠNathan": 5086,
  "issing": 5087,
  "Ġcloud": 5088,
  "Ġpurely": 5089,
  "OK": 5090,
  "Ġsein": 5091,
  "Ġkick": 5092,
  "ĠScience": 5093,
  "ure": 5094,
  "Ġurge": 5095,
  "avery": 5096,
  "Ġgate": 5097,
  "Ġblind": 5098,
  "ep": 5099,
  "æĴĲ": 5100,
  "ç¬¬äºĮ": 5101,
  "è¦ı": 5102,
  "Ġwhilst": 5103,
  "Ġweapon": 5104,
  "ene": 5105,
  "Ġeverywhere": 5106,
  "_j": 5107,
  "Ġbound": 5108,
  "Ġnoticing": 5109,
  "å¸¥": 5110,
  "Ġauthor": 5111,
  "ĠGr": 5112,
  "å¹¸ç¦ı": 5113,
  "Ġmanner": 5114,
  "ĠEarth": 5115,
  "Ġassumed": 5116,
  "%": 5117,
  "ãĢĬ": 5118,
  "åĽ": 5119,
  "~ĊĊ": 5120,
  "ĠLucy": 5121,
  "Ġgeneral": 5122,
  "Ġpulls": 5123,
  "Ġupset": 5124,
  "iction": 5125,
  "ote": 5126,
  "Ġproperty": 5127,
  "çķ¢": 5128,
  "Ġseats": 5129,
  "æĥĳ": 5130,
  "å¿į": 5131,
  "çĩŁ": 5132,
  "Ġstars": 5133,
  "Ġsqueeze": 5134,
  "Ġanimal": 5135,
  "ressing": 5136,
  "åĴĸåķ¡": 5137,
  "Ġmachine": 5138,
  "Ġaccident": 5139,
  "ph": 5140,
  "inning": 5141,
  "Ġdeck": 5142,
  "ĠII": 5143,
  "Ġcannot": 5144,
  "çĽ¸ä¿¡": 5145,
  "Ġriding": 5146,
  "Ġrequest": 5147,
  "èµ°åİ»": 5148,
  "è²¡": 5149,
  "çĩĴ": 5150,
  "Ġlately": 5151,
  "aven": 5152,
  "ĠKevin": 5153,
  "æĸ¹éĿ¢": 5154,
  "Ġcurrently": 5155,
  "Ġcry": 5156,
  "æİĮ": 5157,
  "Ġpin": 5158,
  "æĪĳèĩªå·±": 5159,
  "åĻ´": 5160,
  "éļĨ": 5161,
  "Â©": 5162,
  "è¾£": 5163,
  "ä¹Łå°±æĺ¯": 5164,
  "Ġrise": 5165,
  "Ġappreciated": 5166,
  "ä¸ŃåįĪ": 5167,
  "ler": 5168,
  "ann": 5169,
  "Ġtrail": 5170,
  "åĬĩ": 5171,
  "Ġswallowed": 5172,
  "ä¸įä¸Ĭ": 5173,
  "Ġmall": 5174,
  "ĠOver": 5175,
  "èŃ¦": 5176,
  "Ġgrand": 5177,
  "ma": 5178,
  "å¿«æ¨Ĥ": 5179,
  "ĠDaddy": 5180,
  "-m": 5181,
  "å¾·": 5182,
  "å®Ī": 5183,
  "Ġglowing": 5184,
  "ĠSoon": 5185,
  "ĠFred": 5186,
  "âĢľSo": 5187,
  "Ġwedding": 5188,
  "ĠMel": 5189,
  "çļĦçľ¼ç¥ŀ": 5190,
  "Ġstream": 5191,
  "ĠOut": 5192,
  "Ġdriveway": 5193,
  "Ġburied": 5194,
  "ust": 5195,
  "Ġjaw": 5196,
  "Ġlosing": 5197,
  "Ġthinks": 5198,
  "ying": 5199,
  "Ġapproach": 5200,
  "Ġlaughter": 5201,
  "Ġtea": 5202,
  "Ġplus": 5203,
  "Ġexclaimed": 5204,
  "Ġeggs": 5205,
  "æķ´å¤©": 5206,
  "æĬķ": 5207,
  "å®¶äºº": 5208,
  "Ġreturning": 5209,
  "æī¿": 5210,
  "Ġsection": 5211,
  "Ġemail": 5212,
  "æĪĸèĢħ": 5213,
  "åĴ¬": 5214,
  "iz": 5215,
  "ire": 5216,
  "Ġcatching": 5217,
  "pm": 5218,
  "Ġpermission": 5219,
  "Ġproper": 5220,
  "ç¤¾æľĥ": 5221,
  "Ġclaw": 5222,
  "\"M": 5223,
  "Ġreaction": 5224,
  "Ġincredibly": 5225,
  "Ġem": 5226,
  "Ġflow": 5227,
  "Ġclearing": 5228,
  "ushing": 5229,
  "å¿ħéłĪ": 5230,
  "Ġscreaming": 5231,
  "æīİ": 5232,
  "Ġending": 5233,
  "Ġshows": 5234,
  "èªł": 5235,
  "èºº": 5236,
  "Ġplant": 5237,
  "Ġlonely": 5238,
  "Ġcontinuing": 5239,
  "èĢĮæĺ¯": 5240,
  "Ġda": 5241,
  "çļĦè¡¨æĥħ": 5242,
  "ç£¨": 5243,
  "èººåľ¨": 5244,
  "Ġplain": 5245,
  "Ġblew": 5246,
  "Ġbuck": 5247,
  "Ġcontain": 5248,
  "Ġseason": 5249,
  "ï¼ģï¼ģ": 5250,
  "Ġihn": 5251,
  "Ġsoaked": 5252,
  "åĸ": 5253,
  "Ġslit": 5254,
  "çĮĽ": 5255,
  "Ġexpensive": 5256,
  "Ġsearching": 5257,
  "ize": 5258,
  "æīĢè¬Ĥ": 5259,
  "å±Ģ": 5260,
  "?\",": 5261,
  "Ġrisk": 5262,
  "éº½": 5263,
  "å°ĳå¹´": 5264,
  "ĠBody": 5265,
  "Ġbrush": 5266,
  "åħĥ": 5267,
  "Ġwrist": 5268,
  "iss": 5269,
  "Ġnicely": 5270,
  "éĢ²è¡Į": 5271,
  "æģ©": 5272,
  "Ġbeast": 5273,
  "Ġrequired": 5274,
  "Ġmilk": 5275,
  "åĽŀåĪ°å®¶": 5276,
  "Ġhood": 5277,
  "Ġcarpet": 5278,
  "çľĭåĪ°äºĨ": 5279,
  "over": 5280,
  "æĪĸè¨±": 5281,
  "itting": 5282,
  "Ġsharing": 5283,
  "py": 5284,
  "Ġsees": 5285,
  "Ġholiday": 5286,
  "ĠBesides": 5287,
  "å¾Īé«ĺ": 5288,
  "Ġlets": 5289,
  "Ġmoves": 5290,
  "Ġbackground": 5291,
  "Ġ$": 5292,
  "Ġsteady": 5293,
  "âĢĿ.ĊĊ": 5294,
  "ç¶ĵæŃ·": 5295,
  "åħį": 5296,
  "Ġflipped": 5297,
  "ĠFl": 5298,
  "\"Why": 5299,
  "ts": 5300,
  "Ġdann": 5301,
  "Ġaccess": 5302,
  "æīįçŁ¥éģĵ": 5303,
  "che": 5304,
  "Ġdemon": 5305,
  "æĭĴçµķ": 5306,
  "èµ·èº«": 5307,
  "Ġtear": 5308,
  "åĳ¼åĲ¸": 5309,
  "å¹ķ": 5310,
  "ado": 5311,
  "çıĬ": 5312,
  "éģĩåĪ°": 5313,
  "Ġuns": 5314,
  "äº¤å¾Ģ": 5315,
  "å¤§éĻ¸": 5316,
  "ĠAnna": 5317,
  "åŃ¤": 5318,
  "ĠKelly": 5319,
  "-w": 5320,
  "Ġnurse": 5321,
  "emon": 5322,
  "åħ¨éĥ¨": 5323,
  "çŃīçŃī": 5324,
  "å§ĵ": 5325,
  "ĠAgain": 5326,
  "ances": 5327,
  "åľ°ä¸Ĭ": 5328,
  "æºľ": 5329,
  "äºĨä¸ĢäºĽ": 5330,
  "ait": 5331,
  "ç¾©": 5332,
  "Be": 5333,
  "éĤĢ": 5334,
  "ĠMs": 5335,
  "ret": 5336,
  "Ġpeace": 5337,
  "åįģä¸Ģ": 5338,
  "ç¢": 5339,
  "è²łè²¬": 5340,
  "just": 5341,
  "å¤§å®¶éĥ½": 5342,
  "æ¢Ŀä»¶": 5343,
  "iley": 5344,
  "åı³": 5345,
  "åĥ¹": 5346,
  "ce": 5347,
  "Ġanal": 5348,
  "åĨ°": 5349,
  "ien": 5350,
  "Ġholes": 5351,
  "urn": 5352,
  "èįī": 5353,
  "æŃ¸": 5354,
  "Ġpage": 5355,
  "ĠNOT": 5356,
  "Ġweapons": 5357,
  "ä¸Ģå®ļè¦ģ": 5358,
  "Ġadventure": 5359,
  "Ġlistened": 5360,
  "Ġteased": 5361,
  "èĨĿ": 5362,
  "çĶ¢çĶŁ": 5363,
  "Ġtale": 5364,
  "Have": 5365,
  "ivered": 5366,
  "ç½": 5367,
  "Ġjuices": 5368,
  "åľĪ": 5369,
  "Ġbuildings": 5370,
  "apped": 5371,
  "Like": 5372,
  "åī¯": 5373,
  "use": 5374,
  "une": 5375,
  "Ġblade": 5376,
  "èĢ¶": 5377,
  "Ġremain": 5378,
  "Ġhuh": 5379,
  "åĲŀ": 5380,
  "çķĻåľ¨": 5381,
  "éĻ¸": 5382,
  "å®¢æĪ¶": 5383,
  "Ġcarry": 5384,
  "Ġcastle": 5385,
  "\"Don": 5386,
  "-on": 5387,
  "ue": 5388,
  "Ġreleased": 5389,
  "Ġlanguage": 5390,
  "ĠCaptain": 5391,
  "ita": 5392,
  "Ġbirth": 5393,
  "ment": 5394,
  "Ġlocation": 5395,
  "åħīæ»ĳ": 5396,
  "Ġaccent": 5397,
  "pping": 5398,
  "ĠHouse": 5399,
  "Ġæ": 5400,
  "å»£": 5401,
  "Ġbuddy": 5402,
  "ls": 5403,
  "Ġfrowned": 5404,
  "Even": 5405,
  "çİ©ç¬ĳ": 5406,
  "Ġnowhere": 5407,
  "Ġbro": 5408,
  "irt": 5409,
  "Ġadjusted": 5410,
  "Ġimagination": 5411,
  "Ġbriefly": 5412,
  "Ġmixed": 5413,
  "ĠSusan": 5414,
  "åĵŃ": 5415,
  "ä¸īè§Ĵ": 5416,
  "Ġinner": 5417,
  "å¥½å¥ĩ": 5418,
  "Ġtoes": 5419,
  "Ġsofa": 5420,
  "Ġuncomfortable": 5421,
  "ver": 5422,
  "nn": 5423,
  "èĥ´": 5424,
  "ugged": 5425,
  "Ġdurch": 5426,
  "ä¸įç®Ĺ": 5427,
  "æ±º": 5428,
  "ä¸Ł": 5429,
  "Ġbasically": 5430,
  "ĠSure": 5431,
  "ä¸Ģèº«": 5432,
  "Ġetc": 5433,
  "çĥı": 5434,
  "ĠSk": 5435,
  "Ġart": 5436,
  "Ġdraw": 5437,
  "çµĦ": 5438,
  "åİ²": 5439,
  "Ġoccasional": 5440,
  "ç¾İåľĭ": 5441,
  "Ġparties": 5442,
  "éĽ·": 5443,
  "oken": 5444,
  "ches": 5445,
  "ĠAb": 5446,
  "----------------------------------------------------------------": 5447,
  "èĩº": 5448,
  "Ġfridge": 5449,
  "Ġdrawing": 5450,
  "Ġpapers": 5451,
  "Ġhonestly": 5452,
  "æĵļ": 5453,
  "Ġsilly": 5454,
  "Before": 5455,
  "Ġge": 5456,
  "rr": 5457,
  "æĺ¯æľī": 5458,
  "mmm": 5459,
  "Ġradio": 5460,
  "Ġadults": 5461,
  "çĪŃ": 5462,
  "Ġpounding": 5463,
  "his": 5464,
  "Ġevil": 5465,
  "Ġliterally": 5466,
  "Ġends": 5467,
  "å©Ĩ": 5468,
  "ails": 5469,
  "ä¸Ģåī¯": 5470,
  "ä¸įå¤ļ": 5471,
  "æĴ¥": 5472,
  "Ġembrace": 5473,
  "Ġversion": 5474,
  "æĢĴ": 5475,
  "Ġfaded": 5476,
  "Ġinsisted": 5477,
  "ĠJustin": 5478,
  "ĠLuke": 5479,
  "uki": 5480,
  "ial": 5481,
  "Ġdetail": 5482,
  "Ġfist": 5483,
  "ĠGirls": 5484,
  "Ġdesperate": 5485,
  "ĠSc": 5486,
  "Ġrested": 5487,
  "Ġmum": 5488,
  "çĽ®åħī": 5489,
  "æĥ³åĥı": 5490,
  "è§Ĵ": 5491,
  "åĵĪåĵĪ": 5492,
  "Ġthrown": 5493,
  "ca": 5494,
  "ĠDie": 5495,
  "Ġbush": 5496,
  "Ġstartled": 5497,
  "éĿĴæĺ¥": 5498,
  "ored": 5499,
  "åĤĻ": 5500,
  "Ġsu": 5501,
  "Ġbunny": 5502,
  "å¾Īä¹ħ": 5503,
  "Ġmane": 5504,
  "éĢ¼": 5505,
  "ä»ĸåľ¨": 5506,
  "boy": 5507,
  "Ġsemi": 5508,
  "çµķå°į": 5509,
  "Ġeyed": 5510,
  "iving": 5511,
  "Ġimp": 5512,
  "Wow": 5513,
  "çĸ¼": 5514,
  "ĠAnn": 5515,
  "First": 5516,
  "inda": 5517,
  "Ġresearch": 5518,
  "Ġrow": 5519,
  "Ġspell": 5520,
  "ĠBack": 5521,
  "ĠRob": 5522,
  "åŁİå¸Ĥ": 5523,
  "åĪĩ": 5524,
  "ç«ł": 5525,
  "åĭĿ": 5526,
  "Ġporch": 5527,
  "***ĊĊ": 5528,
  "cl": 5529,
  "åľŁ": 5530,
  "åĤ»": 5531,
  "Ġdried": 5532,
  "ç°": 5533,
  "Ġseine": 5534,
  "Ġplastic": 5535,
  "chen": 5536,
  "ĠIts": 5537,
  "å³¶": 5538,
  "bell": 5539,
  "å¡": 5540,
  "ast": 5541,
  "Ġexcuse": 5542,
  "Ġsniff": 5543,
  "Ġslipping": 5544,
  "Ġgag": 5545,
  "çĻ½å¤©": 5546,
  "çļĦæĹ¥åŃĲ": 5547,
  "Ġsteam": 5548,
  "Ġlearning": 5549,
  "Ġsurrounding": 5550,
  "æª¢æŁ¥": 5551,
  "Ġche": 5552,
  "å¤ı": 5553,
  "Ġç": 5554,
  "ĠZack": 5555,
  "ĠCome": 5556,
  "Dr": 5557,
  "ĠSally": 5558,
  "æ¼Ķ": 5559,
  "Ġpressure": 5560,
  "ĠAngel": 5561,
  "Ġsilently": 5562,
  "èĤ": 5563,
  "Ġhigher": 5564,
  "èī¯": 5565,
  "æ¶Ī": 5566,
  "éİ®": 5567,
  "ks": 5568,
  "Ġnecessary": 5569,
  "ĠMelissa": 5570,
  "iner": 5571,
  "éŃĤ": 5572,
  "ĠSie": 5573,
  "ä¸įå¤§": 5574,
  "èĥĸ": 5575,
  "ĉM": 5576,
  "Ġsatisfied": 5577,
  "å±ģ": 5578,
  "éĬ": 5579,
  "Ġapproaching": 5580,
  "Ġopens": 5581,
  "ander": 5582,
  "èİ«": 5583,
  "æĭĽåĳ¼": 5584,
  "Ġproject": 5585,
  "Ġinternet": 5586,
  "Ġterrible": 5587,
  "iko": 5588,
  "Ġrefused": 5589,
  "ory": 5590,
  "âĢľThat": 5591,
  "Ġsilk": 5592,
  "æĤĦæĤĦ": 5593,
  "ank": 5594,
  "Ġserved": 5595,
  "Ġjunior": 5596,
  "Ġdescribe": 5597,
  "åįģä¸ĥ": 5598,
  "Ġcle": 5599,
  "itter": 5600,
  "ĠAbout": 5601,
  "è²ł": 5602,
  "Ġbo": 5603,
  "Ġisland": 5604,
  "opped": 5605,
  "Ġregret": 5606,
  "ained": 5607,
  "[": 5608,
  "owed": 5609,
  "Ġcasually": 5610,
  "pered": 5611,
  "è¡ĵ": 5612,
  "Ġstumbled": 5613,
  "Ġprey": 5614,
  "Ġcooking": 5615,
  "ros": 5616,
  "Ġsoldiers": 5617,
  "æĦıæĢĿ": 5618,
  "oked": 5619,
  "Ġgri": 5620,
  "Ġcleared": 5621,
  "Ġhurried": 5622,
  "å°±ç®Ĺ": 5623,
  "Ġguest": 5624,
  "Author": 5625,
  "Ġshr": 5626,
  "Ġacts": 5627,
  "åİļ": 5628,
  "ways": 5629,
  "æĭ": 5630,
  "è§£æ±º": 5631,
  "aled": 5632,
  "Ġblank": 5633,
  "urt": 5634,
  "Ġresist": 5635,
  "äºĴçĽ¸": 5636,
  "Ġmainly": 5637,
  "Ġarrive": 5638,
  "Ġdrank": 5639,
  "Ġfarm": 5640,
  "ä¿ĥ": 5641,
  "èº«ç©¿": 5642,
  "Harry": 5643,
  "åĭŀ": 5644,
  "åĲ®": 5645,
  "çĪ¬": 5646,
  "Ġshame": 5647,
  "å®¹": 5648,
  "Ġdesires": 5649,
  "æĺ¯ä»ĸ": 5650,
  "èººåľ¨åºĬä¸Ĭ": 5651,
  "ĠUncle": 5652,
  "ĠAunt": 5653,
  "Ġmix": 5654,
  "Ġshaped": 5655,
  "Ġpointing": 5656,
  "æ¸¡": 5657,
  "Ġlouder": 5658,
  "ingly": 5659,
  "Ġspun": 5660,
  "net": 5661,
  "éħ¥": 5662,
  "Ġclouds": 5663,
  "Ġrecent": 5664,
  "Ġstepping": 5665,
  "\"The": 5666,
  "Ġgest": 5667,
  "ĠfÃ¼r": 5668,
  "Ġwr": 5669,
  "iling": 5670,
  "Ġmanager": 5671,
  "Ġchain": 5672,
  "ĠDiscipline": 5673,
  "Ġaw": 5674,
  "uffled": 5675,
  "Ġthrowing": 5676,
  "ĠToday": 5677,
  "å¢": 5678,
  "Ġwrap": 5679,
  "ç¾": 5680,
  "Ġrec": 5681,
  "æħ¶": 5682,
  "Ġpop": 5683,
  "Ġunknown": 5684,
  "Ġletter": 5685,
  "Ġtoilet": 5686,
  "Ġaddress": 5687,
  "vy": 5688,
  "Ġbeating": 5689,
  "Ġconcern": 5690,
  "art": 5691,
  "Ġincredible": 5692,
  "Ġdildo": 5693,
  "åĵİ": 5694,
  "issa": 5695,
  "aved": 5696,
  "Ġshoved": 5697,
  "ical": 5698,
  "Ġstruck": 5699,
  "æ£Ħ": 5700,
  "Ġaccept": 5701,
  "Ġchairs": 5702,
  "Ġgraduated": 5703,
  "Ġwandered": 5704,
  "è¦ģåİ»": 5705,
  "Ġsheer": 5706,
  "ç¶Ń": 5707,
  "åĤ¬": 5708,
  "Ġfinishing": 5709,
  "ĠUnfortunately": 5710,
  "Ġcoinc": 5711,
  "Ġripped": 5712,
  "ĠSaid": 5713,
  "æĺ¯ä¸Ģä½į": 5714,
  "åĲĽ": 5715,
  "ä¸ĢéĿ¢": 5716,
  "Ġlounge": 5717,
  "Ġdelicious": 5718,
  "Ġmodification": 5719,
  "Ġpoured": 5720,
  "Ġjet": 5721,
  "ä¸įç®¡": 5722,
  "Ġareas": 5723,
  "Finally": 5724,
  "ĠYeah": 5725,
  "Ġshortly": 5726,
  "æĪĳä¸ĢçĽ´": 5727,
  "Ġrac": 5728,
  "æĺİçĻ½": 5729,
  "å°ıå¿ĥ": 5730,
  "Ġabs": 5731,
  "Ġimmer": 5732,
  "Ġfavor": 5733,
  "ĠEver": 5734,
  "âĢ¦I": 5735,
  "Uh": 5736,
  "Ġspare": 5737,
  "æµ®": 5738,
  "Ġsource": 5739,
  "Ġrare": 5740,
  "Ġres": 5741,
  "Ġcircle": 5742,
  "Ġcommand": 5743,
  "æĪĸæĺ¯": 5744,
  "æıļ": 5745,
  "éļĽ": 5746,
  "Ġpile": 5747,
  "å°±æľī": 5748,
  "ĠCat": 5749,
  "\"Not": 5750,
  "Ġseriously": 5751,
  "Ġbackpack": 5752,
  "å®³æĢķ": 5753,
  "Ġactivities": 5754,
  "Ġsorts": 5755,
  "ĠHave": 5756,
  "aging": 5757,
  "ĠJon": 5758,
  "ĠSilver": 5759,
  "sexual": 5760,
  "Ġtower": 5761,
  "Our": 5762,
  "Ġguessed": 5763,
  "Ġpositive": 5764,
  "ĉJ": 5765,
  "æĬĬæīĭ": 5766,
  "æĸ½": 5767,
  "Ġwrapping": 5768,
  "æīĵäºĨ": 5769,
  "Disclaimer": 5770,
  "Ġannoyed": 5771,
  "Ġinterrupted": 5772,
  "å§ĳå¨ĺ": 5773,
  "çĴ°": 5774,
  "æħ¢æħ¢åľ°": 5775,
  "Ġfought": 5776,
  "ä½ľçĤº": 5777,
  "Ġid": 5778,
  "Wait": 5779,
  "Ġplacing": 5780,
  "urr": 5781,
  "Ġ\"ĊĊ": 5782,
  "Ġreflection": 5783,
  "åħµ": 5784,
  "ĠGo": 5785,
  "åĿĲä¸ĭ": 5786,
  "ff": 5787,
  "Ġhook": 5788,
  "stitution": 5789,
  "Ġsticking": 5790,
  "ä¸įé«ĺ": 5791,
  "Ġplayer": 5792,
  "idental": 5793,
  "Ġpissed": 5794,
  "Ġankles": 5795,
  "ãĢĭ": 5796,
  "ĠRen": 5797,
  "Ġbrushing": 5798,
  "Ġmasturb": 5799,
  "è¼Ŀ": 5800,
  "ĠTer": 5801,
  "ĠBig": 5802,
  "ĠJess": 5803,
  "ĠKaren": 5804,
  "for": 5805,
  "Ġmature": 5806,
  "å®ĮäºĨ": 5807,
  "åĪ»": 5808,
  "anned": 5809,
  "Ġmates": 5810,
  "ĠLeo": 5811,
  "é«ĺçļĦ": 5812,
  "é£¾": 5813,
  "coon": 5814,
  "Ġmonster": 5815,
  "ĠBecky": 5816,
  "fl": 5817,
  "Ġextended": 5818,
  "_f": 5819,
  "Ġcourt": 5820,
  "attered": 5821,
  "ĠYet": 5822,
  "Ġbat": 5823,
  "Ġanticipation": 5824,
  "æ¨Ļ": 5825,
  "Ġbrunette": 5826,
  "æ¡Įä¸Ĭ": 5827,
  "ĠBest": 5828,
  "unt": 5829,
  "ella": 5830,
  "Ġseparate": 5831,
  "æ¼«": 5832,
  "Because": 5833,
  "æļ«": 5834,
  "è¢ĸ": 5835,
  "Ġboxes": 5836,
  "æĹħ": 5837,
  "leader": 5838,
  "å°¿": 5839,
  "ba": 5840,
  "æ¾¤": 5841,
  "Ġpt": 5842,
  "Ġskills": 5843,
  "acy": 5844,
  "Ġanimals": 5845,
  "Ġclient": 5846,
  "Ġhill": 5847,
  "æĸ¹ä¾¿": 5848,
  "ç¹ŀ": 5849,
  "Ġmich": 5850,
  "Ġsind": 5851,
  "Ġformed": 5852,
  "ĠBl": 5853,
  "ose": 5854,
  "ĠBecause": 5855,
  "att": 5856,
  "Ġpride": 5857,
  "æ³¨æĦıåĪ°": 5858,
  "Ġrole": 5859,
  "å¤ļå¹´": 5860,
  "antly": 5861,
  "Ġdel": 5862,
  "uous": 5863,
  "Ġdressing": 5864,
  "Ġequipment": 5865,
  "Ġtarget": 5866,
  "èĥ½å¤ł": 5867,
  "å®ĺ": 5868,
  "Ġte": 5869,
  "ç¬¬äºĮå¤©": 5870,
  "Ġbadly": 5871,
  "æ·ĭ": 5872,
  "Ġpizza": 5873,
  "æ³¡": 5874,
  "Ġappreciate": 5875,
  "Ġteach": 5876,
  "ĠZe": 5877,
  "ĠNicole": 5878,
  "åİŁåĽł": 5879,
  "ä»¶äºĭ": 5880,
  "aced": 5881,
  "Ġthousand": 5882,
  "Ġgirlfriends": 5883,
  "æħ¢": 5884,
  "Ġfreshman": 5885,
  "Ġtucked": 5886,
  "Ġdesperately": 5887,
  "Ġleopard": 5888,
  "Ġsmelled": 5889,
  "Ġhurry": 5890,
  "ä½Ķ": 5891,
  "Ġfaced": 5892,
  "å¯Ĥå¯ŀ": 5893,
  "ĠJen": 5894,
  "ashing": 5895,
  "ĠJeff": 5896,
  "Ġlovers": 5897,
  "æģĲ": 5898,
  "aph": 5899,
  "Ġjoke": 5900,
  "gender": 5901,
  "?!": 5902,
  "hood": 5903,
  "Ġnotes": 5904,
  "ä»ĭ": 5905,
  "è¿«": 5906,
  "na": 5907,
  "å¥´": 5908,
  "ä¸Ģåı£": 5909,
  "Ġawesome": 5910,
  "ex": 5911,
  "enn": 5912,
  "Die": 5913,
  "Ġeiner": 5914,
  "Ġrip": 5915,
  "æŀľçĦ¶": 5916,
  "èĦĸåŃĲ": 5917,
  "ĠAnyway": 5918,
  "ome": 5919,
  "ä¸īäºº": 5920,
  "Ġhier": 5921,
  "ase": 5922,
  "èĥ¯": 5923,
  "éŃļ": 5924,
  "ino": 5925,
  "æĭĶ": 5926,
  "Ġignored": 5927,
  "Ġmental": 5928,
  "anna": 5929,
  "Ġkeeps": 5930,
  "æĶ¶æĭ¾": 5931,
  "-p": 5932,
  "Ġexplore": 5933,
  "Ġpup": 5934,
  "å¿ł": 5935,
  "è«": 5936,
  "Ġfault": 5937,
  "ĠRick": 5938,
  "ashed": 5939,
  "Ġdaddy": 5940,
  "Ġaccount": 5941,
  "Two": 5942,
  "è¼Ľ": 5943,
  "Ġdamp": 5944,
  "Ġcareer": 5945,
  "ĠMarie": 5946,
  "Ġhabit": 5947,
  "Ġalley": 5948,
  "ĠFan": 5949,
  "ungen": 5950,
  "Ġ*ĊĊ": 5951,
  "Ġstudying": 5952,
  "ries": 5953,
  "Ġresult": 5954,
  "Ġgarden": 5955,
  "Ġtoys": 5956,
  "Ġhopefully": 5957,
  "è·Łä»ĸ": 5958,
  "Ġtwins": 5959,
  "ĠLord": 5960,
  "Ġofficer": 5961,
  "orted": 5962,
  "Ġcustomers": 5963,
  "Ġorders": 5964,
  "åľ¨å¤ĸ": 5965,
  "è¡¨çı¾": 5966,
  "~~": 5967,
  "æĿ¿": 5968,
  "ĉThis": 5969,
  "Ġexhausted": 5970,
  "Ġrevealed": 5971,
  "Ġancient": 5972,
  "Ġpot": 5973,
  "ä»ĸå°±": 5974,
  "Ġcommunity": 5975,
  "Ġuh": 5976,
  "any": 5977,
  "Ġbrothers": 5978,
  "Ġcook": 5979,
  ".....": 5980,
  "Note": 5981,
  "While": 5982,
  "ĠSolo": 5983,
  "Ġchanges": 5984,
  "ä¼°": 5985,
  "ä¹Łä¸įæĺ¯": 5986,
  "å¿ĺäºĨ": 5987,
  "åıĹä¸įäºĨ": 5988,
  "\".ĊĊ": 5989,
  "Ġnaturally": 5990,
  "Ġne": 5991,
  "Ġcrash": 5992,
  "çļĦåİŁåĽł": 5993,
  "',": 5994,
  "Ġbeg": 5995,
  "Ġlos": 5996,
  "Ġacting": 5997,
  "å¯Į": 5998,
  "Ġseed": 5999,
  "Ġdisappointed": 6000,
  "ç¹¼": 6001,
  "Ġoccasion": 6002,
  "Ġrounded": 6003,
  "About": 6004,
  "Ġocean": 6005,
  "Ġrate": 6006,
  "ä¸įçĶ±": 6007,
  "John": 6008,
  "Ġsupplies": 6009,
  "ä½¿å¾Ĺ": 6010,
  "Ġhorn": 6011,
  "åħ¬å¯ĵ": 6012,
  "ĠÃ¢": 6013,
  "eling": 6014,
  "æ¨Ļæºĸ": 6015,
  "æĺĵ": 6016,
  "æĸ°å¨ĺ": 6017,
  "ĠÂł": 6018,
  "Ġpur": 6019,
  "Ġfootsteps": 6020,
  "Ġwound": 6021,
  "å¤¥": 6022,
  "Ġissue": 6023,
  "Um": 6024,
  "Am": 6025,
  "èĭĹ": 6026,
  "é¨Ļ": 6027,
  "Ġqueen": 6028,
  "ç¯ĩ": 6029,
  "ĠSlow": 6030,
  "é¤Ĳ": 6031,
  "Ġdoch": 6032,
  "å¢ħ": 6033,
  "Ġtender": 6034,
  "Ġwiped": 6035,
  "Ġsoaking": 6036,
  "Ġtitle": 6037,
  "å®³ç¾ŀ": 6038,
  "æĥħæ³ģ": 6039,
  "Ġspots": 6040,
  "åĹ": 6041,
  "Ġshade": 6042,
  "Ġbelieved": 6043,
  "Ġstronger": 6044,
  "æĭ¿èµ·": 6045,
  "èµ°åĲĳ": 6046,
  "æ¯«ä¸į": 6047,
  "Ġrent": 6048,
  "ĠMegan": 6049,
  "Ġtough": 6050,
  "Ġarch": 6051,
  "æĻ®éĢļ": 6052,
  "éħįåĲĪ": 6053,
  "-to": 6054,
  "fox": 6055,
  "ĠSummer": 6056,
  "å¤§å§Ĳ": 6057,
  "Ġsaved": 6058,
  "Ġdull": 6059,
  "ĠWhich": 6060,
  "ä¸Ī": 6061,
  "æīĢæľīçļĦ": 6062,
  "ĠBr": 6063,
  "Ġknot": 6064,
  "Ġunderstanding": 6065,
  "avage": 6066,
  "é¦ĸ": 6067,
  "tr": 6068,
  "Ġdarker": 6069,
  "åĳĬ": 6070,
  "æ½": 6071,
  "æİ¥è¿ĳ": 6072,
  "ĠEs": 6073,
  "Ġtips": 6074,
  "Ġpanic": 6075,
  "itch": 6076,
  "Ġseemingly": 6077,
  "ner": 6078,
  "éĢıéģİ": 6079,
  "Ġrecognized": 6080,
  "=": 6081,
  "è¨º": 6082,
  "Ġactivity": 6083,
  "Ġremove": 6084,
  "ä¸Ģçķª": 6085,
  "Ġshown": 6086,
  "Ġdropping": 6087,
  "itt": 6088,
  "ä¸įä½Ĩ": 6089,
  "Ġtwelve": 6090,
  "Ġfog": 6091,
  "Ġfellow": 6092,
  "æīĭæ©Ł": 6093,
  "Ġbi": 6094,
  "ç·": 6095,
  "Ġswear": 6096,
  "æ¤ħåŃĲ": 6097,
  "å§Ĳå¦¹": 6098,
  "co": 6099,
  "logue": 6100,
  "Ġstunning": 6101,
  "-E": 6102,
  "ĠRight": 6103,
  "ä¸Ģæ®µ": 6104,
  "è¢į": 6105,
  "è·ĿéĽ¢": 6106,
  "Ġposting": 6107,
  "Ġdistant": 6108,
  "ĠStr": 6109,
  "Ġlatest": 6110,
  "å¹²": 6111,
  "æĶ¾å¿ĥ": 6112,
  "ĠDer": 6113,
  "Ġfitting": 6114,
  "Ġadventures": 6115,
  "çŀ": 6116,
  "è¼¸": 6117,
  "Ġclients": 6118,
  "Ġsquare": 6119,
  "qu": 6120,
  "Ġbuzz": 6121,
  "Ġbridge": 6122,
  "æ»´": 6123,
  "è¾Ľèĭ¦": 6124,
  "åį³ä½¿": 6125,
  "çľł": 6126,
  "ĠTina": 6127,
  "Ġchill": 6128,
  "ĠIch": 6129,
  "Ġignore": 6130,
  "rog": 6131,
  "Ġattempted": 6132,
  "Ġmagical": 6133,
  "Ġlesson": 6134,
  "Ġagree": 6135,
  "Ġtrick": 6136,
  "Ġmanage": 6137,
  "ewolf": 6138,
  "Ġreport": 6139,
  "ĠGary": 6140,
  "å·±": 6141,
  "Ġadmitted": 6142,
  "ä¸ĢåĲĳ": 6143,
  "ä½Ĩä¹Ł": 6144,
  "Was": 6145,
  "æĴ©": 6146,
  "Ġchosen": 6147,
  "Ġbegun": 6148,
  "aming": 6149,
  "Ġhey": 6150,
  "Ġhalfway": 6151,
  "Ġwashing": 6152,
  "Ġawhile": 6153,
  "å¯Ĵ": 6154,
  "Ġtwin": 6155,
  "æ»¾": 6156,
  "åī": 6157,
  "Ġalcohol": 6158,
  "Ġsettle": 6159,
  "æĤ¨": 6160,
  "Ġserve": 6161,
  "ä¹ĭå¤ĸ": 6162,
  "Ġmidnight": 6163,
  "Ġsneak": 6164,
  "ae": 6165,
  "Ġracing": 6166,
  "çŃīå¾ħ": 6167,
  "ĠScott": 6168,
  "æħĮ": 6169,
  "æĦıå¤ĸ": 6170,
  "ĠWithout": 6171,
  "ĠWould": 6172,
  "ather": 6173,
  "è¨ĪåĬĥ": 6174,
  "çļĦæľĭåıĭ": 6175,
  "å¤©å¤©": 6176,
  "ĠSnow": 6177,
  "Ġpersons": 6178,
  "Ġwaves": 6179,
  "era": 6180,
  "ĠBilly": 6181,
  "Ġbothered": 6182,
  "Ġproperly": 6183,
  "ä»¥ä¾Ĩ": 6184,
  "Ġsubmissive": 6185,
  "ĠIm": 6186,
  "ummy": 6187,
  "Ġshoot": 6188,
  "éĥ¨ä»½": 6189,
  "Ġstatement": 6190,
  "Ġhello": 6191,
  "è¦ģæĺ¯": 6192,
  "å¾ĭ": 6193,
  "Ġcompared": 6194,
  "Ġbasketball": 6195,
  "ĠWilliam": 6196,
  "èĩĤ": 6197,
  "Ġdrawer": 6198,
  "imon": 6199,
  "Ġdeer": 6200,
  "è¼©": 6201,
  "Ġdrifted": 6202,
  "Ġrid": 6203,
  "Ġmatching": 6204,
  "ige": 6205,
  "è¡ĮæĿİ": 6206,
  "illa": 6207,
  "Ġmark": 6208,
  "Ġcared": 6209,
  "ÂłÂłÂłÂłÂłÂłÂł": 6210,
  "Ġtraffic": 6211,
  "Ġcasual": 6212,
  "çĹĽèĭ¦": 6213,
  "è³¢": 6214,
  "Ġcuriosity": 6215,
  "CHAPTER": 6216,
  "ä¸įåģľ": 6217,
  "Ġdaughters": 6218,
  "Ġbasement": 6219,
  "Ġbird": 6220,
  "Ġrat": 6221,
  "ç²¾ç¥ŀ": 6222,
  "Ġliquid": 6223,
  "ĠHaving": 6224,
  "Ġchallenge": 6225,
  "Ġfolded": 6226,
  "åħ±": 6227,
  "ĠSports": 6228,
  "Ġpreferred": 6229,
  "Ġlibrary": 6230,
  "éłĲ": 6231,
  "æĦıèŃĺ": 6232,
  "æĢ¥å¿Ļ": 6233,
  "å¸³": 6234,
  "get": 6235,
  "Ġstockings": 6236,
  "æĮģ": 6237,
  "ĠSix": 6238,
  "Ġlifting": 6239,
  "è¿·ä½ł": 6240,
  "å¹½": 6241,
  "Ġcapable": 6242,
  "ĠMoon": 6243,
  "Ġgle": 6244,
  "ä½łæĺ¯": 6245,
  "Ġdare": 6246,
  "Ġfool": 6247,
  "Ġinstant": 6248,
  "ĠCal": 6249,
  "Ġechoed": 6250,
  "Ġtask": 6251,
  "ron": 6252,
  "åı³æīĭ": 6253,
  "Ġarranged": 6254,
  "Ġcrawled": 6255,
  "ĠHome": 6256,
  "Ġprovide": 6257,
  "éĢł": 6258,
  "åģı": 6259,
  "ĠTal": 6260,
  "æĥħäºº": 6261,
  "ĠPatrick": 6262,
  "Welcome": 6263,
  "Ġmin": 6264,
  "ates": 6265,
  "åŃĶ": 6266,
  "ĠMist": 6267,
  "Ġstrap": 6268,
  "Ġpassionate": 6269,
  "uta": 6270,
  "Ġtables": 6271,
  "uffy": 6272,
  "icks": 6273,
  "åıĹåĪ°": 6274,
  "ĠDrug": 6275,
  "Ġfile": 6276,
  "Ġhid": 6277,
  "ĠWar": 6278,
  "ets": 6279,
  "Ġflirt": 6280,
  "Ġreveal": 6281,
  "ä»Ļ": 6282,
  "èµ·åºĬ": 6283,
  "ç«": 6284,
  "Ġdepartment": 6285,
  "Ġcub": 6286,
  "Ġé": 6287,
  "éĬĢ": 6288,
  "Ġstops": 6289,
  "Ġromantic": 6290,
  "Ġhasn": 6291,
  "Ġhip": 6292,
  "Ġescaped": 6293,
  "æĻº": 6294,
  "å¤ĸå¥Ĺ": 6295,
  "ĠNext": 6296,
  "/P": 6297,
  "ĠBlue": 6298,
  "aku": 6299,
  "Ġsouth": 6300,
  "æ·": 6301,
  "æĸ°çļĦ": 6302,
  "Ġdelight": 6303,
  "Ġthumb": 6304,
  "ä»Ģéº½": 6305,
  "Ġdude": 6306,
  "ĠCarol": 6307,
  "ort": 6308,
  "ĠJacob": 6309,
  "åį°è±¡": 6310,
  "Ġpowers": 6311,
  "Ġconfusion": 6312,
  "Ġpersonality": 6313,
  "Ġsheet": 6314,
  "Ġcount": 6315,
  "Ġstress": 6316,
  "Ġsuggest": 6317,
  "Ġtreat": 6318,
  "éħį": 6319,
  "Ġbowl": 6320,
  "ka": 6321,
  "Ġthr": 6322,
  "Ġarousal": 6323,
  "èĹĿ": 6324,
  "\"But": 6325,
  "å¥Ķ": 6326,
  "èģĸ": 6327,
  "å¼Ħå¾Ĺ": 6328,
  "çºĮ": 6329,
  "Ġnumbers": 6330,
  "Ġrode": 6331,
  "oned": 6332,
  "Ġrespect": 6333,
  "æ¥ļ": 6334,
  "Ġinter": 6335,
  "ding": 6336,
  "ĠHalloween": 6337,
  "Nothing": 6338,
  "Ġrust": 6339,
  "èĤ¯": 6340,
  "å·¨": 6341,
  "ben": 6342,
  "Ġinstinct": 6343,
  "reak": 6344,
  "Ġsoap": 6345,
  "Morning": 6346,
  "Ġinformed": 6347,
  "Ġunter": 6348,
  "ĠJune": 6349,
  "æ½®": 6350,
  "with": 6351,
  "ĠLong": 6352,
  "ä½¿æĪĳ": 6353,
  "è¡¨ç¤º": 6354,
  "å®¹è²Į": 6355,
  "uk": 6356,
  "å¾Ĳ": 6357,
  "ĠMother": 6358,
  "å¤©çĶŁ": 6359,
  "acking": 6360,
  "Ġtops": 6361,
  "è¨ª": 6362,
  "æĢ§æł¼": 6363,
  "åĵªè£¡": 6364,
  "æľīå¤ļ": 6365,
  "åİ»æī¾": 6366,
  "èº«æĹģ": 6367,
  "Ġbounced": 6368,
  "çĨŁæĤī": 6369,
  "ĠQueen": 6370,
  "Ġnarrow": 6371,
  "ya": 6372,
  "Ġmehr": 6373,
  "Ġpackage": 6374,
  "ĠWorld": 6375,
  "ĠMistress": 6376,
  "åħ¼": 6377,
  "åħħ": 6378,
  "ĠYork": 6379,
  "Ġswinging": 6380,
  "æ¦®": 6381,
  "air": 6382,
  "è¿İ": 6383,
  "Ġstock": 6384,
  "ĠLast": 6385,
  "\\\\/": 6386,
  "ĠThursday": 6387,
  "Ġamongst": 6388,
  "å°ıèªª": 6389,
  "åģļäºĨ": 6390,
  "é¨°": 6391,
  "ida": 6392,
  "Ġdamage": 6393,
  "this": 6394,
  "room": 6395,
  "Ġentering": 6396,
  "Ġvoices": 6397,
  "Ġpress": 6398,
  "Ġbreathed": 6399,
  "Ġspreading": 6400,
  "Ġbank": 6401,
  "uz": 6402,
  "Ġannounced": 6403,
  "Ġunlike": 6404,
  "Ġmountains": 6405,
  "Ġjer": 6406,
  "Ġgang": 6407,
  "Ġappear": 6408,
  "Ġterms": 6409,
  "Ġsenses": 6410,
  "è·¨": 6411,
  "Ġrespond": 6412,
  "é³³": 6413,
  "ä¸įåĥı": 6414,
  "èº²": 6415,
  "Mom": 6416,
  "Ġglimpse": 6417,
  "æĸ¯": 6418,
  "Ġconnected": 6419,
  "ä¸įæĺ¯å¾Ī": 6420,
  "Ġcheap": 6421,
  "Ġstrike": 6422,
  "uf": 6423,
  "Ġhi": 6424,
  "Ġresemblance": 6425,
  "Ġpiss": 6426,
  "Ġknocking": 6427,
  "ä½©": 6428,
  "ĠNon": 6429,
  "ĠÂłĠÂłĠÂłĠÂł": 6430,
  "Ġdevice": 6431,
  "æĬĵä½ı": 6432,
  "å°±åı¯ä»¥": 6433,
  "ents": 6434,
  "Get": 6435,
  "éģ": 6436,
  "Ġshining": 6437,
  "Ġhunting": 6438,
  "Right": 6439,
  "çľĭä¸Ĭåİ»": 6440,
  "åłĨ": 6441,
  "Ġslapped": 6442,
  "Ġsocks": 6443,
  "Ġwheel": 6444,
  "äºĨä¸įå°ĳ": 6445,
  "å©ī": 6446,
  "ä¹İ": 6447,
  "èİİ": 6448,
  "Ġburned": 6449,
  "Ġassistant": 6450,
  "Ġpunishment": 6451,
  "ĠDanny": 6452,
  "Ġjuice": 6453,
  "çĶ·æĢ§": 6454,
  "å¹¼": 6455,
  "Ġreaches": 6456,
  "ä¸įçĦ¶": 6457,
  "org": 6458,
  "ĠLinda": 6459,
  "è¿Ķ": 6460,
  "ence": 6461,
  "ĠFuck": 6462,
  "äºĨå¥½": 6463,
  "Ġsuits": 6464,
  "Ġsil": 6465,
  "Ġterritory": 6466,
  "ani": 6467,
  "åĲĮæĦı": 6468,
  "Ġjealous": 6469,
  "Ġcursed": 6470,
  "anted": 6471,
  "lin": 6472,
  "Ġcouples": 6473,
  "Ġprogram": 6474,
  "ĠEthan": 6475,
  "ven": 6476,
  "oves": 6477,
  "Ġcough": 6478,
  "Ġremote": 6479,
  "ĠFive": 6480,
  "åĲĦä½į": 6481,
  "æĵ¾": 6482,
  "Ġwaste": 6483,
  "house": 6484,
  "arr": 6485,
  "Ġreplaced": 6486,
  "ĠNever": 6487,
  "Ġbouncing": 6488,
  "hr": 6489,
  "åįģä¸ī": 6490,
  "Ġspine": 6491,
  "Ġhunt": 6492,
  "Ġobject": 6493,
  "Ġdivorce": 6494,
  "ved": 6495,
  "ä½Ī": 6496,
  "è¨Ń": 6497,
  "Ġterm": 6498,
  "åĭ¤": 6499,
  "Ġfetish": 6500,
  "oc": 6501,
  "Ġhes": 6502,
  "ĠPerhaps": 6503,
  "iger": 6504,
  "Ġdepicted": 6505,
  "ĠNote": 6506,
  "Ġsqueezing": 6507,
  "åľ¨ä»ĸ": 6508,
  "é¤Ĳå»³": 6509,
  "ĉD": 6510,
  "ĠSeth": 6511,
  "Ġmedical": 6512,
  "ĠTe": 6513,
  "Ġembarrassment": 6514,
  "ĠDra": 6515,
  "oll": 6516,
  "Ġhired": 6517,
  "ishing": 6518,
  "ucking": 6519,
  "Ġproceeded": 6520,
  "Ġclimax": 6521,
  "Ġextreme": 6522,
  "å°±è¢«": 6523,
  "ä¿Ŀå®Ī": 6524,
  "ER": 6525,
  "ä¸įåıĬ": 6526,
  "ÃŁ": 6527,
  "æķĳ": 6528,
  "like": 6529,
  "acked": 6530,
  "va": 6531,
  ").ĊĊ": 6532,
  "Ġlim": 6533,
  "Ġemotions": 6534,
  "åº§ä½į": 6535,
  "]ĊĊ": 6536,
  "çīĮ": 6537,
  "Ġweekends": 6538,
  "ĠKitty": 6539,
  "å¯¸": 6540,
  "çĽ®åīį": 6541,
  "ä½łå¥½": 6542,
  "æİ§åĪ¶": 6543,
  "Ġenemy": 6544,
  "ĠWednesday": 6545,
  "Ġsurroundings": 6546,
  "åĪĨæīĭ": 6547,
  "Ġbob": 6548,
  "Al": 6549,
  "Another": 6550,
  "yl": 6551,
  "friend": 6552,
  "å¤ĸåľ°": 6553,
  "how": 6554,
  "åĺ´å·´": 6555,
  "Ġpieces": 6556,
  "Ġtrash": 6557,
  ">": 6558,
  "Ġduty": 6559,
  "Ġclo": 6560,
  "Ġhomework": 6561,
  "Ġfeminine": 6562,
  "Ġrocks": 6563,
  "åĪ°åºķ": 6564,
  "å¤ľæĻļ": 6565,
  "ame": 6566,
  "ura": 6567,
  "ugg": 6568,
  "Ġrarely": 6569,
  "ĠCr": 6570,
  "Ġunexpected": 6571,
  "ĠSir": 6572,
  "gr": 6573,
  "pr": 6574,
  "çĽĽ": 6575,
  "rown": 6576,
  "Copyright": 6577,
  "Ġannoying": 6578,
  "Ġdegree": 6579,
  "å°ıå°ıçļĦ": 6580,
  "hole": 6581,
  "å½·": 6582,
  "ĉK": 6583,
  "iding": 6584,
  "å°": 6585,
  "å°¬": 6586,
  "Ġdig": 6587,
  "åĵĪ": 6588,
  "Ġchatting": 6589,
  "Ġcoy": 6590,
  "Ġnorth": 6591,
  "Ġdetermined": 6592,
  "åı«åģļ": 6593,
  "æľ±": 6594,
  "Ġabandoned": 6595,
  "ĠHad": 6596,
  "Ġfeed": 6597,
  ".'ĊĊ": 6598,
  "Ġfre": 6599,
  "Ġforcing": 6600,
  "Ġruns": 6601,
  "Ġafford": 6602,
  "other": 6603,
  "éħįä¸Ĭ": 6604,
  "Will": 6605,
  "inn": 6606,
  "Ġpit": 6607,
  "Ġsurvive": 6608,
  "ä»ģ": 6609,
  "åĲĥå®Į": 6610,
  "ä¸įå·²": 6611,
  "ä¾": 6612,
  "Anyway": 6613,
  "ç¶²åıĭ": 6614,
  "ko": 6615,
  "Ġwag": 6616,
  "sed": 6617,
  "Ġbust": 6618,
  "au": 6619,
  "Ġshaved": 6620,
  "Ġsilky": 6621,
  "'ĊĊ": 6622,
  "ragon": 6623,
  "ĠThomas": 6624,
  "Ġpeaceful": 6625,
  "Ġafterwards": 6626,
  "æĪĳçļĦå¿ĥ": 6627,
  "Ġprovided": 6628,
  "çŀĦ": 6629,
  "èĻİ": 6630,
  "side": 6631,
  "Ġmile": 6632,
  "Ġcorrect": 6633,
  "ä¸įåĲĮçļĦ": 6634,
  "Ġremembering": 6635,
  "ä¹ĺ": 6636,
  "Ġconfidence": 6637,
  "éľĩ": 6638,
  "Ġtighter": 6639,
  "ried": 6640,
  "ĠCass": 6641,
  "æģ¨": 6642,
  "***": 6643,
  "iring": 6644,
  "Ġdrag": 6645,
  "è£ķ": 6646,
  "Ġchoose": 6647,
  "Ġgras": 6648,
  "ç¢ºå¯¦": 6649,
  "åľ¨ä¸Ģ": 6650,
  "cent": 6651,
  "Ġissues": 6652,
  "Ġwing": 6653,
  "ĠAmber": 6654,
  "ord": 6655,
  "Ġconfident": 6656,
  "æĶ¹è®Ĭ": 6657,
  "erv": 6658,
  "çĽ£": 6659,
  "å°¤": 6660,
  "ĠCy": 6661,
  "è¸ı": 6662,
  "è¥²": 6663,
  "ç¨įå¾®": 6664,
  "Ġcomplex": 6665,
  "alt": 6666,
  "enny": 6667,
  "ib": 6668,
  "Ġihre": 6669,
  "ief": 6670,
  "Ġreader": 6671,
  "åĢĻ": 6672,
  "Ġthreesome": 6673,
  "åĲĮæ¨£": 6674,
  "ĠCon": 6675,
  "æĨĳ": 6676,
  "Ġfrustration": 6677,
  "Ġflutter": 6678,
  "çļĦçľ¼åħī": 6679,
  "Le": 6680,
  "åıĶåıĶ": 6681,
  "ä¹ĸ": 6682,
  "æ¨¡çī¹": 6683,
  "çīĻ": 6684,
  "æĤħ": 6685,
  "èĩ³æĸ¼": 6686,
  "Ġmask": 6687,
  "å¦Ļ": 6688,
  "-g": 6689,
  "Ġscar": 6690,
  "Ġcopy": 6691,
  "åŁº": 6692,
  "Ġnoon": 6693,
  "ns": 6694,
  "Ġprofessional": 6695,
  "isch": 6696,
  "ĠFriends": 6697,
  "é¤": 6698,
  "åľ¨å¤ĸéĿ¢": 6699,
  "å®¿": 6700,
  "Ġorgas": 6701,
  "Ġcal": 6702,
  "ages": 6703,
  "eral": 6704,
  "iest": 6705,
  "èĵ®": 6706,
  "..\"": 6707,
  "Ġoffering": 6708,
  "å¤ĸåĩº": 6709,
  "Ġactive": 6710,
  "Ġmedium": 6711,
  "Ġarrival": 6712,
  "Ġblame": 6713,
  "ĉT": 6714,
  "èĤļ": 6715,
  "è³´": 6716,
  "âĢĵ": 6717,
  "Ġtorn": 6718,
  "off": 6719,
  "Jack": 6720,
  "Ġmakeup": 6721,
  "Ġsticky": 6722,
  "Ġcurtain": 6723,
  "Ġbathing": 6724,
  "Ġsleepy": 6725,
  "Ġwidened": 6726,
  "back": 6727,
  "line": 6728,
  "Ġpee": 6729,
  "ĠAndy": 6730,
  "Ġimpressive": 6731,
  "Ġharsh": 6732,
  "Ġstir": 6733,
  "ivering": 6734,
  "åı£æ°´": 6735,
  "æĺ¯åĲ¦": 6736,
  "Ġdivorced": 6737,
  "cks": 6738,
  "ĠBel": 6739,
  "éģ¿": 6740,
  "ta": 6741,
  "éģ¸æĵĩ": 6742,
  "Ġrealizing": 6743,
  "Ġloss": 6744,
  "ĠLuc": 6745,
  "ĠGinny": 6746,
  "å§ĭ": 6747,
  "ĠBrandon": 6748,
  "Ġfroze": 6749,
  "Ġuncle": 6750,
  "Ġfired": 6751,
  "æķıæĦŁ": 6752,
  "èĺĩ": 6753,
  "Really": 6754,
  "ĠJoey": 6755,
  "Ġpadded": 6756,
  "å¥½ä¸įå®¹æĺĵ": 6757,
  "Ġeyebrow": 6758,
  "Ġclan": 6759,
  "Ġwer": 6760,
  "äººçĶŁ": 6761,
  "Ġconvinced": 6762,
  "Ġcolors": 6763,
  "Ġapologize": 6764,
  "nen": 6765,
  "\"This": 6766,
  "ĠCody": 6767,
  "Ġweiter": 6768,
  "Ġtraveling": 6769,
  "ĠPl": 6770,
  "Ġhorizon": 6771,
  "Ġmistake": 6772,
  "Ġrifle": 6773,
  "_w": 6774,
  "æĪĳåı¯ä»¥": 6775,
  "å½±éŁ¿": 6776,
  "åĩĮ": 6777,
  "ĠDuring": 6778,
  "que": 6779,
  "éłħ": 6780,
  "Ġflowed": 6781,
  "éĸĭæĶ¾": 6782,
  "è¡£çī©": 6783,
  "èĴĤ": 6784,
  "ç¨Ģ": 6785,
  "Ġships": 6786,
  "Ġgotta": 6787,
  "Ġprofile": 6788,
  "ush": 6789,
  "Ġbirds": 6790,
  "ĠæĪ": 6791,
  "Ġmodel": 6792,
  "Ġcriticism": 6793,
  "æĻĤä»£": 6794,
  "Still": 6795,
  "Ġcondition": 6796,
  "æĬ±ä½ı": 6797,
  "Ġquality": 6798,
  "Ġsixteen": 6799,
  "æķ¬": 6800,
  "iden": 6801,
  "Ġmillion": 6802,
  "æı®": 6803,
  "Ġbuttons": 6804,
  "Ġmarket": 6805,
  "ĠMarcus": 6806,
  "ĠYOU": 6807,
  "åĩ¹": 6808,
  "æ¿Ģæĥħ": 6809,
  "åĳµåĳµ": 6810,
  "Ġrepeated": 6811,
  "Ġpainful": 6812,
  "Ġsessions": 6813,
  "Ġbrings": 6814,
  "af": 6815,
  "è¥Ħ": 6816,
  "Ġmaid": 6817,
  "Ġviolence": 6818,
  "å¤§å¤ļ": 6819,
  "Ġpause": 6820,
  "ĠEx": 6821,
  "ĠFather": 6822,
  "ued": 6823,
  "æ³ī": 6824,
  "Ġcap": 6825,
  "éł»": 6826,
  "Ġpat": 6827,
  "åį¡": 6828,
  "æĿŁ": 6829,
  "Ġsexuality": 6830,
  "Ġclosest": 6831,
  "å£ģ": 6832,
  "æīĵå·¥": 6833,
  "çĽ": 6834,
  "Ġhorrible": 6835,
  "Ġhighly": 6836,
  "å¹«åĬ©": 6837,
  "æĶ¾ä¸ĭ": 6838,
  "éĽ¶": 6839,
  "Ġmerely": 6840,
  "åĶ": 6841,
  "Mark": 6842,
  "oy": 6843,
  "å¥½åĲ§": 6844,
  "ä¿±": 6845,
  "Ġpar": 6846,
  "Ġatop": 6847,
  "Ġstruggling": 6848,
  "ç¸®": 6849,
  "ç©į": 6850,
  "Ġgew": 6851,
  "hey": 6852,
  "ench": 6853,
  "ube": 6854,
  "aze": 6855,
  "Ġequ": 6856,
  "å®´": 6857,
  "oring": 6858,
  "Ġremaining": 6859,
  "Ġteachers": 6860,
  "Ġgoodbye": 6861,
  "Ġspan": 6862,
  "elp": 6863,
  "Ġsold": 6864,
  "ä¸Ģä¸ĭåŃĲ": 6865,
  "Ġanswers": 6866,
  "Ġflo": 6867,
  "Ġchocolate": 6868,
  "ä¸įçŁ¥ä¸į": 6869,
  "Ġaffection": 6870,
  "Ġalle": 6871,
  "Ġwurde": 6872,
  "ĠMany": 6873,
  "Ġacted": 6874,
  "Ġpainted": 6875,
  "Ġeverybody": 6876,
  "Ġtries": 6877,
  "å¥½åıĭ": 6878,
  "ä¸įå®ī": 6879,
  "Ġmessages": 6880,
  "Ġsco": 6881,
  "Ġblowjob": 6882,
  "Ġtension": 6883,
  "ss": 6884,
  "è¾Ń": 6885,
  "ha": 6886,
  "èĩ³å°ĳ": 6887,
  "åĦĺ": 6888,
  "ĠDar": 6889,
  "ĠSlut": 6890,
  "time": 6891,
  "åŁĭ": 6892,
  "æķĻæİĪ": 6893,
  "èĺ": 6894,
  "åĢĴæĺ¯": 6895,
  "egan": 6896,
  "Ġbrow": 6897,
  "Ġeagerly": 6898,
  "æĥ³ä¸įåĪ°": 6899,
  "ĠEve": 6900,
  "æ¾": 6901,
  "æľŁå¾ħ": 6902,
  "å°¼": 6903,
  "Sarah": 6904,
  "åĲĮä¸Ģ": 6905,
  "Ġairport": 6906,
  "Ġcash": 6907,
  "-l": 6908,
  "Kelly": 6909,
  "Ġhaz": 6910,
  "Ġdistracted": 6911,
  "Sam": 6912,
  "Ġprice": 6913,
  "çľ¼ç¥ŀ": 6914,
  "ĠMY": 6915,
  "ĠSen": 6916,
  "ĠGreg": 6917,
  "çī½": 6918,
  "Ġwriter": 6919,
  "ĠWendy": 6920,
  "Ġsquad": 6921,
  "ä½Ĩæĺ¯æĪĳ": 6922,
  "Ġtrousers": 6923,
  "ides": 6924,
  "Ġschedule": 6925,
  "Ġstandard": 6926,
  "key": 6927,
  "Ġnostr": 6928,
  "Ġchamber": 6929,
  "Ġdining": 6930,
  "èĪ¹": 6931,
  "æĺŁ": 6932,
  "ada": 6933,
  "Ġcourage": 6934,
  "Ġkilling": 6935,
  "_r": 6936,
  "Ġsquirrel": 6937,
  "æĵģæľī": 6938,
  "\"Just": 6939,
  "bled": 6940,
  "è·ª": 6941,
  "Ġcrap": 6942,
  "Ġdawn": 6943,
  "éĥĬ": 6944,
  "Ġengine": 6945,
  "pen": 6946,
  "éĢĲ": 6947,
  "erry": 6948,
  "Ġbolt": 6949,
  "uss": 6950,
  "den": 6951,
  "çŃĴ": 6952,
  "åı¤": 6953,
  "ator": 6954,
  "å¯Ħ": 6955,
  "Ġdresser": 6956,
  "_T": 6957,
  "é©Ĺ": 6958,
  "Ġswollen": 6959,
  "ä¸įå°ıå¿ĥ": 6960,
  "Ġnap": 6961,
  "Ġexercise": 6962,
  "Ġpatch": 6963,
  "Ġfourth": 6964,
  "Ġarmy": 6965,
  "Ġsob": 6966,
  "æĺ¯è¦ģ": 6967,
  "è¾±": 6968,
  "ria": 6969,
  "Ġfalls": 6970,
  "Ġprincess": 6971,
  "ï¹Ĺ": 6972,
  "cm": 6973,
  "Ġjoking": 6974,
  "ĠPr": 6975,
  "Ġangel": 6976,
  "Ġrubber": 6977,
  "çİ»çĴĥ": 6978,
  "Ġvideos": 6979,
  "çļĦçľ¼": 6980,
  "å·¦æīĭ": 6981,
  "Ġsurprisingly": 6982,
  "ĠPhil": 6983,
  "HH": 6984,
  "ĠTobias": 6985,
  "Ġugly": 6986,
  "Th": 6987,
  "Ġcoll": 6988,
  "ĠGetting": 6989,
  "Ġentry": 6990,
  "Ġsoldier": 6991,
  "Ġcracked": 6992,
  "icking": 6993,
  "Ġbooth": 6994,
  "å¾Īå¿«å°±": 6995,
  "Ġdated": 6996,
  "Ġfancy": 6997,
  "ä¹Łè¦ģ": 6998,
  "æ²¿": 6999,
  "å¤§å°ı": 7000,
  "å¥½ä¹ħ": 7001,
  "Ġmar": 7002,
  "Ġscenes": 7003,
  "éĬ·": 7004,
  "Ġlazy": 7005,
  "èĦĨ": 7006,
  "æľīå¾Īå¤ļ": 7007,
  "Go": 7008,
  "ĠUp": 7009,
  "è¾²": 7010,
  "stand": 7011,
  "éĿŀå¸¸çļĦ": 7012,
  "Ġclicked": 7013,
  "å·²æĺ¯": 7014,
  "ela": 7015,
  "ĠChar": 7016,
  "Ġtend": 7017,
  "Ġmasturbating": 7018,
  "çį¸": 7019,
  "ĠStacy": 7020,
  "Ġrelieved": 7021,
  "Ġconstructive": 7022,
  "Ġu": 7023,
  "ĠHeather": 7024,
  "Ġtrade": 7025,
  "éĥ¨éĸĢ": 7026,
  "Ġshelter": 7027,
  "Ġstuffed": 7028,
  "Ġcloak": 7029,
  "åĸĿäºĨ": 7030,
  "________________________________________________________________": 7031,
  "ĠCl": 7032,
  "Ġprove": 7033,
  "yes": 7034,
  "èĭ±æĸĩ": 7035,
  "ĠJanet": 7036,
  "Ġrelatively": 7037,
  "ä¿Ĺ": 7038,
  "Ġdart": 7039,
  "Ġadjust": 7040,
  "Ġstring": 7041,
  "Ġwrists": 7042,
  "è£½": 7043,
  "fer": 7044,
  "è©": 7045,
  "Ġwarrior": 7046,
  "Ġhy": 7047,
  "Ġbei": 7048,
  "olt": 7049,
  "Ġdanced": 7050,
  "Ġswing": 7051,
  "Ġshooting": 7052,
  "ĠThings": 7053,
  "Ġmurm": 7054,
  "éĭª": 7055,
  "çŀ§": 7056,
  "Ġreception": 7057,
  "åĳ³éģĵ": 7058,
  "ika": 7059,
  "Ġtasted": 7060,
  "å¸¶ä¾Ĩ": 7061,
  "Ġdrugs": 7062,
  "Ġcutting": 7063,
  "è±«": 7064,
  "Ġdestination": 7065,
  "æľĹ": 7066,
  "Ġinterview": 7067,
  "è¬": 7068,
  "å¿«è¦ģ": 7069,
  "é«": 7070,
  "ä»¥å¤ĸ": 7071,
  "çªĹå¤ĸ": 7072,
  "Ġfed": 7073,
  "Ġbars": 7074,
  "ĠSandy": 7075,
  "ĠTara": 7076,
  "und": 7077,
  "æĶ¶åħ¥": 7078,
  "èĤ©èĨĢ": 7079,
  "ĠJeremy": 7080,
  "æį¨": 7081,
  "ĠRiley": 7082,
  "Ġoccasions": 7083,
  "ĠRobin": 7084,
  "ius": 7085,
  "?'": 7086,
  "br": 7087,
  "Ġforty": 7088,
  "Ġblah": 7089,
  "ä»°": 7090,
  "ĠVer": 7091,
  "ĠKathy": 7092,
  "Ġfigures": 7093,
  "Ġstirred": 7094,
  "çķª": 7095,
  "è¦Ĩ": 7096,
  "Ġraise": 7097,
  "ĠDrake": 7098,
  "æĪĲçĨŁçļĦ": 7099,
  "Ġstern": 7100,
  "Ġteenager": 7101,
  "unch": 7102,
  "æ´¥": 7103,
  "ç¥ŀç§ĺ": 7104,
  "Ġfrustrated": 7105,
  "Ġswitch": 7106,
  "ç¢¼": 7107,
  "rag": 7108,
  "Ġvisiting": 7109,
  "Ġfrag": 7110,
  "çĽ®æ¨Ļ": 7111,
  "ĠCollege": 7112,
  "Ġpoints": 7113,
  "ĠEn": 7114,
  "azing": 7115,
  "é¼»åŃĲ": 7116,
  "æ°¸éģł": 7117,
  "Ġbill": 7118,
  "åĶ¯ä¸Ģ": 7119,
  "aling": 7120,
  "æģ": 7121,
  "-M": 7122,
  "ĠAmerican": 7123,
  "Ġformer": 7124,
  "Ġfate": 7125,
  "ĠKat": 7126,
  "é¡į": 7127,
  "Ġcards": 7128,
  "Ġexc": 7129,
  "Ġgrim": 7130,
  "ç½®": 7131,
  "Ġfloating": 7132,
  "åĲįåı«": 7133,
  "çľŁçļĦæĺ¯": 7134,
  "ĠKe": 7135,
  "æ°Ľ": 7136,
  "Ġcollapsed": 7137,
  "ama": 7138,
  "ĠCam": 7139,
  "èº²åľ¨": 7140,
  "æķĹ": 7141,
  "Ġmeaning": 7142,
  "æ¨": 7143,
  "çĦ¡è«ĸ": 7144,
  "ĠHelen": 7145,
  "ĠMonster": 7146,
  "Ġstud": 7147,
  "ime": 7148,
  "ĠâĢĶ": 7149,
  "åıĪæľī": 7150,
  "Ġpotential": 7151,
  "Ġburn": 7152,
  "Ġhost": 7153,
  "Ġnasty": 7154,
  "Ġwarned": 7155,
  "Ġmodest": 7156,
  "Ġtilted": 7157,
  "Ġprivacy": 7158,
  "Ġassigned": 7159,
  "çĽ®çļĦ": 7160,
  "å°º": 7161,
  "ude": 7162,
  "ium": 7163,
  "elled": 7164,
  "æĺł": 7165,
  "ä¿": 7166,
  "Ġging": 7167,
  "Ġint": 7168,
  "æ²³": 7169,
  "ä½įç½®": 7170,
  "ave": 7171,
  "æ·±æ·±çļĦ": 7172,
  "æ¸´": 7173,
  "éĻ¤": 7174,
  "head": 7175,
  "Ġbay": 7176,
  "ç¨į": 7177,
  "çļĦçĽ®åħī": 7178,
  "aving": 7179,
  "endo": 7180,
  "Ġseated": 7181,
  "çĻ»": 7182,
  "Ġsometime": 7183,
  "Ġrange": 7184,
  "æĿı": 7185,
  "Ġste": 7186,
  "éĢĥ": 7187,
  "Ġhopes": 7188,
  "Ġï¼": 7189,
  "ona": 7190,
  "ving": 7191,
  "Ġflashing": 7192,
  "Ġdragging": 7193,
  "ä¸ĢåĲį": 7194,
  "aver": 7195,
  "æŃĮ": 7196,
  "ĠClub": 7197,
  "Ġcontained": 7198,
  "åĸĦ": 7199,
  "äºŃ": 7200,
  "ĠGrace": 7201,
  "æŃ·": 7202,
  "Or": 7203,
  "åŃ©åŃĲçļĦ": 7204,
  "ĠJo": 7205,
  "Ġoil": 7206,
  "Ġjetzt": 7207,
  "è": 7208,
  "ªĮ": 7209,
  "anked": 7210,
  "Ġintimate": 7211,
  "ĠDraco": 7212,
  "è·ĳåĪ°": 7213,
  "Ġfifty": 7214,
  "Ġprior": 7215,
  "Ġcotton": 7216,
  "Ġaudience": 7217,
  "ĠTaking": 7218,
  "\"Do": 7219,
  "çĭłçĭł": 7220,
  "Ġrule": 7221,
  "Ġfence": 7222,
  "ĠLuna": 7223,
  "Ġfolks": 7224,
  "ĉR": 7225,
  "Ġgen": 7226,
  "åı¯ä»¥çľĭåĪ°": 7227,
  "æ·¡æ·¡çļĦ": 7228,
  "friends": 7229,
  "åĤ¢": 7230,
  "ç¥ĸ": 7231,
  "Ġrings": 7232,
  "ced": 7233,
  "çŀ¬": 7234,
  "èĩªä¸»": 7235,
  "Ġdrug": 7236,
  "ä¸Ģç¬ĳ": 7237,
  "ĠHey": 7238,
  "izz": 7239,
  "_l": 7240,
  "Ġwander": 7241,
  "rou": 7242,
  "æ©«": 7243,
  "ads": 7244,
  "Ġclick": 7245,
  "Ġvehicle": 7246,
  "itated": 7247,
  "ä¸Ģèµ·åİ»": 7248,
  "å®ľ": 7249,
  "Ġpinned": 7250,
  "Ġdestroy": 7251,
  "Ġbalance": 7252,
  "Ġfriendship": 7253,
  "Ġgrasp": 7254,
  "ĠCall": 7255,
  "Tom": 7256,
  "ç´«": 7257,
  "Â¼": 7258,
  "Ġroughly": 7259,
  "Ġshiny": 7260,
  "Ġdescribed": 7261,
  "èµ°åľ¨": 7262,
  "åħ§å®¹": 7263,
  "Ġspark": 7264,
  "Ġmini": 7265,
  "Ġanxious": 7266,
  "Ġunique": 7267,
  "Ġmasturbation": 7268,
  "Ġdirections": 7269,
  "åĽĽåĳ¨": 7270,
  "ä¼ģ": 7271,
  "Ġcrowded": 7272,
  "Ġclimb": 7273,
  "æ³Ľ": 7274,
  "Ġdesert": 7275,
  "ĠRa": 7276,
  "err": 7277,
  "\"C": 7278,
  "Ġlined": 7279,
  "Ġdying": 7280,
  "Ġtooth": 7281,
  "aining": 7282,
  "æıĲåĩº": 7283,
  "å°ļ": 7284,
  "ĠFriend": 7285,
  "Ġkonnte": 7286,
  "åĨįæ¬¡": 7287,
  "Ġcost": 7288,
  "Ġcop": 7289,
  "é¬": 7290,
  "éŁ³æ¨Ĥ": 7291,
  "Ġhooked": 7292,
  "Ġscanned": 7293,
  "athan": 7294,
  "Ġpalm": 7295,
  "Wh": 7296,
  "åĶĲ": 7297,
  "Ġcurtains": 7298,
  "Ġhumor": 7299,
  "ç¼º": 7300,
  "Ġcab": 7301,
  "ĠLondon": 7302,
  "Ġexact": 7303,
  "ä¹Łä¸įçŁ¥éģĵ": 7304,
  "\"Now": 7305,
  "Ġsociety": 7306,
  "ented": 7307,
  "ĠGreat": 7308,
  "Ġbabe": 7309,
  "å¤§æ¦Ĥæĺ¯": 7310,
  "Ġdef": 7311,
  "Ġcheating": 7312,
  "ä¹Łåľ¨": 7313,
  "æ¤ħ": 7314,
  "ĉP": 7315,
  "Ġteens": 7316,
  "ĠKen": 7317,
  "æŁ¥": 7318,
  "ĠAbby": 7319,
  "Ġattend": 7320,
  "Ġresponsible": 7321,
  "èĢģçĪ¸": 7322,
  "Ġoral": 7323,
  "ster": 7324,
  "Ġcompleted": 7325,
  "çľŁå¯¦": 7326,
  "Ġmut": 7327,
  "ids": 7328,
  "ĠGl": 7329,
  "åĪ©çĶ¨": 7330,
  "Ġgenerally": 7331,
  "---ĊĊ": 7332,
  "çŀª": 7333,
  "Ġhelps": 7334,
  "Ġexposing": 7335,
  "éģį": 7336,
  "Ġoder": 7337,
  "cht": 7338,
  "Ġscrew": 7339,
  "æ¸¸æ³³": 7340,
  "Ġbloody": 7341,
  "ĠTyler": 7342,
  "Ġphysically": 7343,
  "Ġcustomer": 7344,
  "Ġphotos": 7345,
  "åį°": 7346,
  "Ġpassenger": 7347,
  "ĠSon": 7348,
  "èĩŃ": 7349,
  "Ġsoccer": 7350,
  "å¿ħ": 7351,
  "å®ĩ": 7352,
  "ç²Ĵ": 7353,
  "ä¼ı": 7354,
  "ä¸Ģåı¥": 7355,
  "Ġvest": 7356,
  "ä¸ĸçķĮ": 7357,
  "æ¸¯": 7358,
  "åĬ©": 7359,
  "Ġcart": 7360,
  "Ġmist": 7361,
  "Ġgrabs": 7362,
  "ä¸Ĭæ¬¡": 7363,
  "èĬ¸": 7364,
  "èĻķçĲĨ": 7365,
  "Ġta": 7366,
  "ç«¹": 7367,
  "Ġflex": 7368,
  "Ġrecall": 7369,
  "å¿ĥçĲĨ": 7370,
  "ĠONLY": 7371,
  "ox": 7372,
  "Ġteaching": 7373,
  "Ġflushed": 7374,
  "Ġromance": 7375,
  "ĠKate": 7376,
  "hi": 7377,
  "Ġrape": 7378,
  "Ġprison": 7379,
  "ĠSean": 7380,
  "Ġatmosphere": 7381,
  "ĠTommy": 7382,
  "å¢ĥ": 7383,
  "Ġcollection": 7384,
  "ĠDoctor": 7385,
  "ĠAug": 7386,
  "æ²¾": 7387,
  "Ġmach": 7388,
  "Ġsport": 7389,
  "Ġlace": 7390,
  "osh": 7391,
  "Ġfamilies": 7392,
  "ç´¢": 7393,
  "âĶĢâĶĢ": 7394,
  "Ġram": 7395,
  "ä¹ĭä¸Ģ": 7396,
  "Ġcameras": 7397,
  "Ġbelong": 7398,
  "æ±½è»Ĭ": 7399,
  "ĠEventually": 7400,
  "ric": 7401,
  "gen": 7402,
  "Ġsurely": 7403,
  "---": 7404,
  "åĬĥ": 7405,
  "æĥ": 7406,
  "èºį": 7407,
  "è®ĬåĮĸ": 7408,
  "Ġdollars": 7409,
  "ĠLatina": 7410,
  "Ġblankets": 7411,
  "ĠJuly": 7412,
  "è¨Ĭ": 7413,
  "äºĭå¯¦": 7414,
  "set": 7415,
  "ken": 7416,
  "Ġnearest": 7417,
  "ä¿Ŀéļª": 7418,
  "\"N": 7419,
  "ells": 7420,
  "çļ": 7421,
  "Ġexploring": 7422,
  "Der": 7423,
  "ĠAaron": 7424,
  "ĠUniversity": 7425,
  "å±ĭåŃĲ": 7426,
  "berg": 7427,
  "Ġpuppy": 7428,
  "å··": 7429,
  "Ġcorridor": 7430,
  "Ġdogs": 7431,
  "Ġant": 7432,
  "åİ»çľĭ": 7433,
  "Ġrapidly": 7434,
  "Ġcigarette": 7435,
  "ĠGen": 7436,
  "ĠApparently": 7437,
  "Ġthanked": 7438,
  "Ġsubtle": 7439,
  "Ġfurniture": 7440,
  "aos": 7441,
  "str": 7442,
  "Ġhaben": 7443,
  "åĪº": 7444,
  "Ġspoken": 7445,
  "Ġparted": 7446,
  "Ġtapped": 7447,
  "work": 7448,
  "ips": 7449,
  "Ġcro": 7450,
  "ä¼Ļ": 7451,
  "äºĶåįģ": 7452,
  "åĲ": 7453,
  "éģŀ": 7454,
  "ä¸»ç®¡": 7455,
  "Ġharm": 7456,
  "Ġmistress": 7457,
  "Ġcompanion": 7458,
  "OO": 7459,
  "mate": 7460,
  "çŃīåĪ°": 7461,
  "Ġsleeve": 7462,
  "acks": 7463,
  "æªĶ": 7464,
  "Ġroute": 7465,
  "Ġembarrassing": 7466,
  "Ġraging": 7467,
  "æľ¬äºº": 7468,
  "eng": 7469,
  "çŀŃè§£": 7470,
  "Ġcurl": 7471,
  "ĠPlus": 7472,
  "è§Ģå¯Ł": 7473,
  "åľ°ä¸ĭ": 7474,
  "Ġhandful": 7475,
  "Ġrushing": 7476,
  "Ġsigned": 7477,
  "Ġamazed": 7478,
  "ĠEd": 7479,
  "Ġclassroom": 7480,
  "Ġbasic": 7481,
  "aur": 7482,
  "Mr": 7483,
  "Ġpages": 7484,
  "Ġrecognize": 7485,
  "Ġlobby": 7486,
  "-th": 7487,
  "Ġconcrete": 7488,
  "Ġlink": 7489,
  "ä¸īå¤©": 7490,
  "è¹²": 7491,
  "åıįæĬĹ": 7492,
  "Ġeaten": 7493,
  "Ġsuccessful": 7494,
  "dest": 7495,
  "lick": 7496,
  "ater": 7497,
  "åħĦ": 7498,
  "acht": 7499,
  "ĠOld": 7500,
  "Ġfilm": 7501,
  "Ġunsure": 7502,
  "Ġprick": 7503,
  "ä¸įåĥħ": 7504,
  "æĻļé¤Ĳ": 7505,
  "åįģå¹´": 7506,
  "Ġsell": 7507,
  "Ġtrem": 7508,
  "åıªåī©ä¸ĭ": 7509,
  "ĠOther": 7510,
  "aut": 7511,
  "çľŁçļĦå¾Ī": 7512,
  "æİīäºĨ": 7513,
  "Ġclosely": 7514,
  "night": 7515,
  "è³ĩæĸĻ": 7516,
  "éĨĴäºĨ": 7517,
  "Ġfruit": 7518,
  "However": 7519,
  "ç¸£": 7520,
  "Ġflirting": 7521,
  "ç¥ĩ": 7522,
  "èĦ¯": 7523,
  "ĠTam": 7524,
  "Ġexit": 7525,
  ".I": 7526,
  "Ġdanger": 7527,
  "Ġcopies": 7528,
  "Ġconnection": 7529,
  "Ġexchange": 7530,
  "Ġbum": 7531,
  "æĹı": 7532,
  "çį": 7533,
  "ĠChloe": 7534,
  "Ġproof": 7535,
  "ĠAnthony": 7536,
  "åĮĨåĮĨ": 7537,
  "Ġbang": 7538,
  "Ġbowed": 7539,
  "Ġrag": 7540,
  "Ġguests": 7541,
  "ĠCele": 7542,
  "Ġfeathers": 7543,
  "Ġcredit": 7544,
  "Ġsmoking": 7545,
  "Ġfrozen": 7546,
  "ht": 7547,
  "nte": 7548,
  "Ġph": 7549,
  "æŃĲ": 7550,
  "Ġfluffy": 7551,
  "ED": 7552,
  "Ġsehr": 7553,
  "Ġcaring": 7554,
  "Ġhealthy": 7555,
  "Ġstraps": 7556,
  "Ġmarks": 7557,
  "ä¾Ľ": 7558,
  "Ġpoking": 7559,
  "verted": 7560,
  "Ġcage": 7561,
  "å¦ĵ": 7562,
  "æ´Ĺæīĭ": 7563,
  "thing": 7564,
  "ĠGet": 7565,
  "Ġcommented": 7566,
  "bl": 7567,
  "Ġslowed": 7568,
  "Ġdriven": 7569,
  "æĢ¨": 7570,
  "aba": 7571,
  "ĠGift": 7572,
  "è°·": 7573,
  "oped": 7574,
  "aki": 7575,
  "Ġmail": 7576,
  "Ġscratched": 7577,
  "åı®": 7578,
  "ä½łè¦ģ": 7579,
  "Ġtrained": 7580,
  "Over": 7581,
  "æĭ³": 7582,
  "åĵĢ": 7583,
  "Ġbreathe": 7584,
  "Ġguilty": 7585,
  "ĠJackie": 7586,
  "Ġshield": 7587,
  "Ġgoddess": 7588,
  "åĺŁ": 7589,
  "æŃ¡è¿İ": 7590,
  "Ġattitude": 7591,
  "ĠCalifornia": 7592,
  "ĠSophie": 7593,
  "æ®ĺ": 7594,
  "Ġpaint": 7595,
  "Ġplayful": 7596,
  "Ġspr": 7597,
  "ii": 7598,
  "å°ģ": 7599,
  "ĠBobby": 7600,
  "ĠDenise": 7601,
  "çģĮ": 7602,
  "ĠRebecca": 7603,
  "inging": 7604,
  "Ġsweaty": 7605,
  "Ġpen": 7606,
  "Ġeveryday": 7607,
  "teen": 7608,
  "Ġblocks": 7609,
  "éŃĶ": 7610,
  "ä½łçľĭ": 7611,
  "Das": 7612,
  "æĲ¶": 7613,
  "èĤ¯å®ļ": 7614,
  "ĠPeople": 7615,
  "Would": 7616,
  "Ġmysterious": 7617,
  "ç¬ĳéģĵ": 7618,
  "çľŁæŃ£": 7619,
  "ĠDevil": 7620,
  "acc": 7621,
  "Ġtrunk": 7622,
  "_b": 7623,
  "Ġaged": 7624,
  "\"If": 7625,
  "Ġflowers": 7626,
  "own": 7627,
  "enden": 7628,
  "Ġsecretary": 7629,
  "Ġdresses": 7630,
  "Ġpatient": 7631,
  "oe": 7632,
  "ä¸Ģå¥Ĺ": 7633,
  "åĮħè£¹": 7634,
  "èŃī": 7635,
  "mates": 7636,
  "ists": 7637,
  "æ¯ıå¤©éĥ½": 7638,
  "Ġfe": 7639,
  "Ġgods": 7640,
  "Ġprogress": 7641,
  "Ġpreparing": 7642,
  "ading": 7643,
  "çĮľ": 7644,
  "Ġthunder": 7645,
  "....ĊĊ": 7646,
  "æħĭåº¦": 7647,
  "Ġregularly": 7648,
  "Ġret": 7649,
  "Ġcargo": 7650,
  "ĠCar": 7651,
  "æĩĤ": 7652,
  "Ġtracks": 7653,
  "ĠSteven": 7654,
  "éħĴåĲ§": 7655,
  "ĠConnie": 7656,
  "æĦģ": 7657,
  "æ¬ł": 7658,
  "ç¶ĵæ¿Ł": 7659,
  "åĢ©": 7660,
  "xx": 7661,
  "Ġnerves": 7662,
  "äºĭæ¥Ń": 7663,
  "åĩ±": 7664,
  "Ġbump": 7665,
  "Ġwandering": 7666,
  "æŁĵ": 7667,
  "ĠHa": 7668,
  "unts": 7669,
  "ĠAndrew": 7670,
  "Ġtribe": 7671,
  "èĪħèĪħ": 7672,
  "ĠKr": 7673,
  "aid": 7674,
  "ĠReg": 7675,
  "è¡¨æ¼Ķ": 7676,
  "Ġminds": 7677,
  "Ġupright": 7678,
  "Ġkne": 7679,
  "Ġscattered": 7680,
  "which": 7681,
  "Ġrope": 7682,
  "acom": 7683,
  "ton": 7684,
  "Ġbecomes": 7685,
  "Ġwhoever": 7686,
  "Ġunt": 7687,
  "Ġflower": 7688,
  "Ġthemes": 7689,
  "Since": 7690,
  "åįĬå¤ľ": 7691,
  "De": 7692,
  "Ġegg": 7693,
  "ising": 7694,
  "è¨Ĥ": 7695,
  "Ġzum": 7696,
  ".)ĊĊ": 7697,
  "Ġdealing": 7698,
  "Ġages": 7699,
  "dy": 7700,
  "èħ´": 7701,
  "Ġlightning": 7702,
  "_h": 7703,
  "å¤§åĬĽ": 7704,
  "æ¸´æľĽ": 7705,
  "Ġlaundry": 7706,
  "Ġpurse": 7707,
  "çľĭäºĨçľĭ": 7708,
  "éĨ«": 7709,
  "éĿ": 7710,
  "Ġtongues": 7711,
  "å·¾": 7712,
  "Ġstreak": 7713,
  "Fine": 7714,
  "å¥½çľĭ": 7715,
  "Ġtelevision": 7716,
  "åĪĨåĪ¥": 7717,
  "Ġstrangers": 7718,
  "âĢľHow": 7719,
  "é»¨": 7720,
  "æ¢³": 7721,
  "umber": 7722,
  "Ġleads": 7723,
  "Ġkinds": 7724,
  "Ġfishing": 7725,
  "ayed": 7726,
  "ä¼ģæ¥Ń": 7727,
  "Ġhero": 7728,
  "Ġsor": 7729,
  "Ġmarry": 7730,
  "vest": 7731,
  "inks": 7732,
  "ĠMa": 7733,
  "Ġreact": 7734,
  "Ġappointment": 7735,
  "Ġhomes": 7736,
  "è±¬": 7737,
  "èĶ": 7738,
  "agg": 7739,
  "çĤİ": 7740,
  "Ġassured": 7741,
  "ĠMia": 7742,
  "ĠTaylor": 7743,
  ".)": 7744,
  "è¨Ńè¨Ī": 7745,
  "å®īæħ°": 7746,
  "æľŁéĸĵ": 7747,
  "ĠVery": 7748,
  "ĠKai": 7749,
  "ĠEngland": 7750,
  "ĠCrystal": 7751,
  "âĢ¦âĢĿ": 7752,
  "tt": 7753,
  "kin": 7754,
  "Ġrecord": 7755,
  "Ġdiscuss": 7756,
  "Ġfavourite": 7757,
  "Ġmattress": 7758,
  "ĠFamily": 7759,
  "åģļçļĦ": 7760,
  "ä»¥ä¸Ĭ": 7761,
  "ĠMichelle": 7762,
  "-looking": 7763,
  "Ġmud": 7764,
  "'S": 7765,
  "ĠAdventures": 7766,
  "Ġbegged": 7767,
  "Ġdiese": 7768,
  "æį": 7769,
  "èĤ¢": 7770,
  "Ġfrequently": 7771,
  "atter": 7772,
  "ule": 7773,
  "\"There": 7774,
  "Ġadvice": 7775,
  "éĻ¶": 7776,
  "åķ¤éħĴ": 7777,
  "âĢĻ.": 7778,
  "Ġdelicate": 7779,
  "Ġpiercing": 7780,
  "Ġbacked": 7781,
  "æŃ¤åĪ»": 7782,
  "åİ»ä¸ĸ": 7783,
  "åŃĺ": 7784,
  "Ġtorso": 7785,
  "ots": 7786,
  "Ġglory": 7787,
  "æĺ¯ä¸Ģä»¶": 7788,
  "ç¬ĳå®¹": 7789,
  "ĠParty": 7790,
  "Ġstudied": 7791,
  "Ġbone": 7792,
  "ç¾İè²Į": 7793,
  "Ġlasted": 7794,
  "ĠSecret": 7795,
  "Ġbackwards": 7796,
  "Ġsites": 7797,
  "Ġgrinding": 7798,
  "ters": 7799,
  "Ġarriving": 7800,
  "Ġrelationships": 7801,
  "Ġpor": 7802,
  "ç©©": 7803,
  "Ġstruggle": 7804,
  "éĭ¼": 7805,
  "Ġputs": 7806,
  "ĉL": 7807,
  "ä¼į": 7808,
  "Ġforms": 7809,
  "Ġadm": 7810,
  "Ġwaving": 7811,
  "ĠRandy": 7812,
  "å·¥ä½ľçļĦ": 7813,
  "æĽ¼": 7814,
  "Ġrep": 7815,
  "Ġting": 7816,
  "ĠBella": 7817,
  "ĠRos": 7818,
  "åŃ¸éĻ¢": 7819,
  "ĠDonna": 7820,
  "ĠVal": 7821,
  "button": 7822,
  "Ġchildhood": 7823,
  "æĸľ": 7824,
  "Ġbones": 7825,
  "Ġeducation": 7826,
  "Ġentertainment": 7827,
  "ĠAlexis": 7828,
  "Ġexist": 7829,
  "Ġkinky": 7830,
  "Ġinf": 7831,
  "Ġfashion": 7832,
  "Ġnumerous": 7833,
  "Ġfantastic": 7834,
  "Ġsafety": 7835,
  "Ġtag": 7836,
  "Ġpole": 7837,
  "Ġanyways": 7838,
  "Ġtray": 7839,
  "Ġtore": 7840,
  "ef": 7841,
  "act": 7842,
  "éĻĮçĶŁ": 7843,
  "James": 7844,
  "åı£ä¸Ń": 7845,
  "Ġbushes": 7846,
  "Some": 7847,
  "Ġpriest": 7848,
  "Ġpresented": 7849,
  "å¡µ": 7850,
  "Ġshed": 7851,
  "ubs": 7852,
  "Looking": 7853,
  "Ġemerged": 7854,
  "ä½łåľ¨": 7855,
  "èĥ½åĬĽ": 7856,
  "Ġjumping": 7857,
  "ĠStories": 7858,
  "ades": 7859,
  "ä¸Ģå¤§": 7860,
  "âĢ¦.ĊĊ": 7861,
  "Ġrel": 7862,
  "Ġforbidden": 7863,
  "ison": 7864,
  "å£ĵåĬĽ": 7865,
  "ĉC": 7866,
  "aff": 7867,
  "fe": 7868,
  "Ġblowing": 7869,
  "Ġsake": 7870,
  "ĠApril": 7871,
  "çħ§çīĩ": 7872,
  "ĠDawn": 7873,
  "ĠHunter": 7874,
  "èĮ¹": 7875,
  "Ġcombat": 7876,
  "ester": 7877,
  "ä»ĸä¹Ł": 7878,
  "uckle": 7879,
  "Ġlifestyle": 7880,
  "Ġfuzzy": 7881,
  "ĠSlave": 7882,
  "li": 7883,
  "OR": 7884,
  "å¿Į": 7885,
  "irm": 7886,
  "éĿĴå¹´": 7887,
  "Ġbin": 7888,
  "-R": 7889,
  "Ġseinen": 7890,
  "ĠCare": 7891,
  "Ġdevil": 7892,
  "Ġwaters": 7893,
  "isk": 7894,
  "heart": 7895,
  "Ġ=ĊĊ": 7896,
  "å¯¦éļĽ": 7897,
  "éĽĨ": 7898,
  "Ġcities": 7899,
  "akes": 7900,
  "ache": 7901,
  "ĠVe": 7902,
  "Se": 7903,
  "å¤ªå¤ļ": 7904,
  "Ġsteal": 7905,
  "Ġscience": 7906,
  "Ġcontents": 7907,
  "å¼ķèµ·": 7908,
  "Ġsecretly": 7909,
  "æ¹¯": 7910,
  "Ġimagining": 7911,
  "TV": 7912,
  "Ġexistence": 7913,
  "Michael": 7914,
  "âĢľWe": 7915,
  "Ġincident": 7916,
  "ç´¯äºĨ": 7917,
  "ĠAND": 7918,
  "Ġcorners": 7919,
  "Ġvampire": 7920,
  "-time": 7921,
  "Ġordinary": 7922,
  "ĠFun": 7923,
  "ond": 7924,
  "Ġsentence": 7925,
  "aded": 7926,
  "ald": 7927,
  "ÃĹ": 7928,
  "åĨĴ": 7929,
  "Ġconference": 7930,
  "Ġdreaming": 7931,
  "ĠJudy": 7932,
  "Ġblast": 7933,
  "Ġyoungest": 7934,
  "æ°ĳ": 7935,
  "å±ħä½ı": 7936,
  "Ġgroups": 7937,
  "ĠPam": 7938,
  "ĠDamn": 7939,
  "Ġreluctantly": 7940,
  "ä¼¸åĩº": 7941,
  "æīĭèĩĤ": 7942,
  "åķª": 7943,
  "Ġcostume": 7944,
  "ĠAM": 7945,
  "Ġalles": 7946,
  "aching": 7947,
  "men": 7948,
  "Ġsunny": 7949,
  "Ġduck": 7950,
  "Ġhybrid": 7951,
  "aj": 7952,
  "Ġweb": 7953,
  "èĤĸ": 7954,
  "Only": 7955,
  "æĬ¹": 7956,
  "ä¸ĢæĿ¯": 7957,
  "Ġhorror": 7958,
  "ited": 7959,
  "Ġthirteen": 7960,
  "Ġcliff": 7961,
  "ris": 7962,
  "illy": 7963,
  "Ġunlocked": 7964,
  "Ġhorns": 7965,
  "Ġparent": 7966,
  "æŃ£å¸¸": 7967,
  "ä¸Ĭæµ·": 7968,
  "WARNING": 7969,
  "\"W": 7970,
  "ĠRh": 7971,
  "ç¢°åĪ°": 7972,
  "Ġhundreds": 7973,
  "Ġcentury": 7974,
  "è·¡": 7975,
  "åĸĥ": 7976,
  "chie": 7977,
  "è½": 7978,
  "Ġmere": 7979,
  "Ġspirit": 7980,
  "berman": 7981,
  "çŃ±": 7982,
  "Ġdemanded": 7983,
  "Ġquit": 7984,
  "ĠDaughter": 7985,
  "Ġpouring": 7986,
  "åĲĥäºĨ": 7987,
  "Ġdecides": 7988,
  "tail": 7989,
  "Ġworkout": 7990,
  "Ġstool": 7991,
  "Ġsuccess": 7992,
  "èĴĻ": 7993,
  "Ġiron": 7994,
  "ĠEmma": 7995,
  "Ġimprove": 7996,
  "ero": 7997,
  "å»£åĳĬ": 7998,
  "çĤ®": 7999,
  "Ġbrand": 8000,
  "Ġsip": 8001,
  "ams": 8002,
  "Ġrage": 8003,
  "ĠPete": 8004,
  "Ġcalmly": 8005,
  "Ġholidays": 8006,
  "èº": 8007,
  "Ġeleven": 8008,
  "Ġassume": 8009,
  "Ġgather": 8010,
  "Ġgul": 8011,
  "Ġsing": 8012,
  "æĴĴ": 8013,
  "Ġhalls": 8014,
  "girl": 8015,
  "Ġkeen": 8016,
  "ea": 8017,
  "ear": 8018,
  "ook": 8019,
  "ĠLuckily": 8020,
  "umped": 8021,
  "Ġalien": 8022,
  "éħ¸": 8023,
  "ians": 8024,
  "Ġsooner": 8025,
  "Ġthrone": 8026,
  "ĉF": 8027,
  "Ġclue": 8028,
  "ĠMiles": 8029,
  "äºİ": 8030,
  "amp": 8031,
  "Ġwicked": 8032,
  "Ġphoto": 8033,
  "unks": 8034,
  "åĵ¡å·¥": 8035,
  "ves": 8036,
  "çłĶç©¶": 8037,
  "Ġseek": 8038,
  "æľīéĹľ": 8039,
  "inc": 8040,
  "æľīä¸ĢäºĽ": 8041,
  "ĠIII": 8042,
  "ä¾į": 8043,
  "Ġequally": 8044,
  "ä½Ĩåľ¨": 8045,
  "isha": 8046,
  "æĥ³æĥ³": 8047,
  "Ġminor": 8048,
  "åħ¶å®ĥ": 8049,
  "uit": 8050,
  "è´": 8051,
  "Ġsets": 8052,
  "Ġanth": 8053,
  "ĠClaire": 8054,
  "Ġcolour": 8055,
  "ĠLucas": 8056,
  "ĠDas": 8057,
  "å©Ĩå©Ĩ": 8058,
  "ç¥¥": 8059,
  "Ġaunt": 8060,
  "Ġdiscussed": 8061,
  "land": 8062,
  "ĠJamie": 8063,
  "()": 8064,
  "Ġintroduction": 8065,
  "oms": 8066,
  "Ġunfortunately": 8067,
  "ree": 8068,
  "Ġvisited": 8069,
  "Ġsmells": 8070,
  "æīĭä¸Ĭ": 8071,
  "Ġinvite": 8072,
  "Ġimmediate": 8073,
  "isting": 8074,
  "Ġslick": 8075,
  "çļĦå¿ĥæĥħ": 8076,
  "now": 8077,
  "listening": 8078,
  "Ġprefer": 8079,
  "had": 8080,
  "Ġduties": 8081,
  "Ġwenn": 8082,
  "Ġbrightly": 8083,
  "Ġfake": 8084,
  "Ġbottles": 8085,
  "æįī": 8086,
  "è¡ĮçĤº": 8087,
  "å°ıå·§": 8088,
  "Ġpattern": 8089,
  "len": 8090,
  "æī¾äºĨ": 8091,
  "ä½¿çĶ¨": 8092,
  "elly": 8093,
  "los": 8094,
  "ĠSeeing": 8095,
  "Ġapp": 8096,
  "ĠME": 8097,
  "é½Ĵ": 8098,
  "Ġencounters": 8099,
  "Ġrealm": 8100,
  "Ġroads": 8101,
  "Ġlingerie": 8102,
  "Ġbacon": 8103,
  "åľ¨æĦı": 8104,
  "åķĨéĩı": 8105,
  "è¦ģä¸įè¦ģ": 8106,
  "Ġob": 8107,
  "Ġill": 8108,
  "iel": 8109,
  "hen": 8110,
  "Ġsank": 8111,
  "åĴ": 8112,
  "å»¿": 8113,
  "iker": 8114,
  "è¿ħéĢŁ": 8115,
  "ĠHi": 8116,
  "Ġmovements": 8117,
  "Ġeffects": 8118,
  "uy": 8119,
  "Ġreg": 8120,
  "Ġtypes": 8121,
  "Ġmeets": 8122,
  "Ġaffair": 8123,
  "Ġsomebody": 8124,
  "Every": 8125,
  "Ġelectric": 8126,
  "ĠNoah": 8127,
  "Ġagreement": 8128,
  "ĠAlicia": 8129,
  "Ġropes": 8130,
  "ç§ĺå¯Ĩ": 8131,
  "Ġskim": 8132,
  "Ġraising": 8133,
  "ĠPM": 8134,
  "Un": 8135,
  "Ġzur": 8136,
  "ĠAlmost": 8137,
  "ĠSee": 8138,
  "Ġdug": 8139,
  "äººåľ¨": 8140,
  "ĠFar": 8141,
  "Ġdraped": 8142,
  "ĠGerman": 8143,
  "Ġtrembling": 8144,
  "ĠLex": 8145,
  "Ġmouths": 8146,
  "Mike": 8147,
  "Ġimpressed": 8148,
  "å¾µ": 8149,
  "Ġtraveled": 8150,
  "Ġprint": 8151,
  "Ġguide": 8152,
  "Ġuna": 8153,
  "Ġpumping": 8154,
  "ills": 8155,
  "Ġbeds": 8156,
  "éĬĢè¡Į": 8157,
  "Ġnud": 8158,
  "uction": 8159,
  "Ġclimbing": 8160,
  "right": 8161,
  "å¾Ģå¾Ģ": 8162,
  "Ġlocated": 8163,
  "è¤ĩ": 8164,
  "Ġstunned": 8165,
  "éĥ½è¢«": 8166,
  "Mar": 8167,
  "Ġdestroyed": 8168,
  "èĩ³ä»Ĭ": 8169,
  "aped": 8170,
  "Ġfer": 8171,
  "Ġdont": 8172,
  "Ġidiot": 8173,
  "é¬¥": 8174,
  "çĬ¯": 8175,
  "ÃŁen": 8176,
  "inge": 8177,
  "å¿«éĢŁ": 8178,
  "ĠExtreme": 8179,
  "_bl": 8180,
  "'T": 8181,
  "Ġbliss": 8182,
  "Ġterrified": 8183,
  "ĠPokemon": 8184,
  "Ġmath": 8185,
  "ĠDebbie": 8186,
  "åĶ±æŃĮ": 8187,
  "Ġgrateful": 8188,
  "è¤": 8189,
  "Ġdates": 8190,
  "_z": 8191,
  "ĠEvan": 8192,
  "Ġtossing": 8193,
  "\"My": 8194,
  "rian": 8195,
  "Ġsuspicious": 8196,
  "Being": 8197,
  "å¥½å¤ļ": 8198,
  "Ġgoal": 8199,
  "Ġfifth": 8200,
  "they": 8201,
  "_c": 8202,
  "Ġgroin": 8203,
  "Ġnet": 8204,
  "Ġlighter": 8205,
  "Ġunit": 8206,
  "ĠHot": 8207,
  "sch": 8208,
  "ĠDa": 8209,
  "å°ıåŃĲ": 8210,
  "ç´ĭ": 8211,
  "æľīæĦı": 8212,
  "äºĨä¸Ģåı£": 8213,
  "day": 8214,
  "æ¯Ľå·¾": 8215,
  "Ġsurprising": 8216,
  "éĨ": 8217,
  "éĮ": 8218,
  "åĳ": 8219,
  "äººåĵ¡": 8220,
  "ç®¡çĲĨ": 8221,
  "Ġchores": 8222,
  "ä¸Ńå¿ĥ": 8223,
  "\"S": 8224,
  "Ġsack": 8225,
  "Ġsecrets": 8226,
  "ring": 8227,
  "æ£ī": 8228,
  "ments": 8229,
  "________________": 8230,
  "ĠTuesday": 8231,
  "åĿĩ": 8232,
  "Ġgain": 8233,
  "è·Į": 8234,
  "Ġsounding": 8235,
  "ä¸įåĨį": 8236,
  "look": 8237,
  "Ġmild": 8238,
  "Ġtools": 8239,
  "Ġponder": 8240,
  "ä¹Łéĥ½": 8241,
  "è¹": 8242,
  "éĩ": 8243,
  "issy": 8244,
  "Ġregion": 8245,
  "å¥¶å¥¶": 8246,
  "æĦ§": 8247,
  "æ¸¬": 8248,
  "å©ļå§»": 8249,
  "çıŃä¸»ä»»": 8250,
  "æ¸ħæĻ°": 8251,
  "ĠOk": 8252,
  "è¡": 8253,
  "Ġenormous": 8254,
  "Ġservices": 8255,
  "æĦīå¿«": 8256,
  "Love": 8257,
  "ĠVanessa": 8258,
  "Ġvariety": 8259,
  "Everyone": 8260,
  "ĠNe": 8261,
  "Ġpanda": 8262,
  "Ġsup": 8263,
  "Ġtemperature": 8264,
  "Ġcircles": 8265,
  "Ġintroduce": 8266,
  "ĠRay": 8267,
  "ĠRichard": 8268,
  "çļĦæķħäºĭ": 8269,
  "<": 8270,
  "Ġskip": 8271,
  "Ġoriginally": 8272,
  "ĠWhatever": 8273,
  "\"D": 8274,
  "Ġankle": 8275,
  "ĠPh": 8276,
  "åı¦": 8277,
  "Ġbalcony": 8278,
  "Ġfours": 8279,
  "ram": 8280,
  "Ġhal": 8281,
  "Take": 8282,
  "åĬłçıŃ": 8283,
  "iter": 8284,
  "Ã¼r": 8285,
  "éĿłè¿ĳ": 8286,
  "Mel": 8287,
  "illing": 8288,
  "inned": 8289,
  "å¾¹": 8290,
  "ĠToo": 8291,
  "Ġimpact": 8292,
  "Ġadding": 8293,
  "ĠSil": 8294,
  "æĭ¿äºĨ": 8295,
  "Ġpuls": 8296,
  "Ġdirect": 8297,
  "å§£": 8298,
  "ĠwÃ¼rde": 8299,
  "Ġrod": 8300,
  "Ġtrailed": 8301,
  "Ġwhispers": 8302,
  "Ġskull": 8303,
  "Ġcups": 8304,
  "Ġrequested": 8305,
  "----------------": 8306,
  "ĠAngie": 8307,
  "Any": 8308,
  "åģ¶çĦ¶": 8309,
  "èĩªæĪĳ": 8310,
  "ä¸¹": 8311,
  "!!!": 8312,
  "Ġlessons": 8313,
  "ĠMeeting": 8314,
  "XX": 8315,
  "Ġunconscious": 8316,
  "åĶ±": 8317,
  "Ġsemester": 8318,
  "Ġcoast": 8319,
  "isa": 8320,
  "Ġprepare": 8321,
  "Ġpossibility": 8322,
  "å°±æĥ³": 8323,
  "ĠOF": 8324,
  "ĠSpy": 8325,
  "ĠDean": 8326,
  "Ġwerden": 8327,
  "æĬĳ": 8328,
  "Ġscreams": 8329,
  "Ġbits": 8330,
  "å¾Īæĥ³": 8331,
  "ker": 8332,
  "Ġnation": 8333,
  "cca": 8334,
  "Ġignoring": 8335,
  "è¨İè«ĸ": 8336,
  "Ġconvince": 8337,
  "Ġbartender": 8338,
  "Ġelf": 8339,
  "www": 8340,
  "ĠQu": 8341,
  "://": 8342,
  "åĩĿ": 8343,
  "è£ģ": 8344,
  "Ġemergency": 8345,
  "ges": 8346,
  "Ġmessy": 8347,
  "Ġwarriors": 8348,
  "Ġneatly": 8349,
  "å®ĮæĪĲ": 8350,
  "ĠLady": 8351,
  "ĠChad": 8352,
  "Ġvul": 8353,
  "ĠWh": 8354,
  "Ġnewly": 8355,
  "ĠCharlie": 8356,
  "ĠTravis": 8357,
  "ĠTik": 8358,
  "ĠTrevor": 8359,
  "ics": 8360,
  "Ġcombination": 8361,
  "rel": 8362,
  "Ġpolite": 8363,
  "ĠSan": 8364,
  "ĠTO": 8365,
  "Ġslaves": 8366,
  "é£¯åºĹ": 8367,
  "å»¢": 8368,
  "Ġnoted": 8369,
  "ĠDes": 8370,
  "ights": 8371,
  "ums": 8372,
  "ä¸Ģè·¯": 8373,
  "åĸª": 8374,
  "Ġbabys": 8375,
  "Ġfreedom": 8376,
  "Ġcurly": 8377,
  "ov": 8378,
  "Ġskirts": 8379,
  "èĢĥæħ®": 8380,
  "Ġhealth": 8381,
  "æĹĹ": 8382,
  "Ġattacked": 8383,
  "elling": 8384,
  "iles": 8385,
  "Ġvast": 8386,
  "Ġforces": 8387,
  "ĠDream": 8388,
  "æĦĽæĥħ": 8389,
  "Ġexpert": 8390,
  "Ġimages": 8391,
  "Ġapplied": 8392,
  "çļĦä½įç½®": 8393,
  "æ¸¸": 8394,
  "è²¬": 8395,
  "Ġlas": 8396,
  "ĠSitting": 8397,
  "ĠSte": 8398,
  "Ġhonor": 8399,
  "Ġsnake": 8400,
  "asha": 8401,
  "åĲ¦åīĩ": 8402,
  "Ġbubble": 8403,
  "Ġtended": 8404,
  "Ġmoist": 8405,
  "åıªåī©": 8406,
  "Ġlamp": 8407,
  "äºĨäºĽ": 8408,
  "çķĻæĦı": 8409,
  "ĠTrace": 8410,
  "Ġinn": 8411,
  "Ġcurve": 8412,
  "å¤±æľĽ": 8413,
  "éĢļå¸¸": 8414,
  "æĹħè¡Į": 8415,
  "Ġthru": 8416,
  "nder": 8417,
  "éĥ¨ä½į": 8418,
  "eme": 8419,
  "Ġser": 8420,
  "äºķ": 8421,
  "Ġlimbs": 8422,
  "dream": 8423,
  "Ġshowers": 8424,
  "Ġwounds": 8425,
  "ĠEm": 8426,
  "Ġcrystal": 8427,
  "Daniel": 8428,
  "liche": 8429,
  "Ġcamping": 8430,
  "ç¤¾åįĢ": 8431,
  "fall": 8432,
  "Ġshots": 8433,
  "overs": 8434,
  "Ġlord": 8435,
  "ĠPat": 8436,
  "Ġkicking": 8437,
  "Ġlimited": 8438,
  "Ġsinging": 8439,
  "ĠLilly": 8440,
  "ĠSeveral": 8441,
  "Ġbegging": 8442,
  "Ġexperiment": 8443,
  "Ġliking": 8444,
  "Ġresults": 8445,
  "fold": 8446,
  "athing": 8447,
  "çļĦæĪ¿åŃĲ": 8448,
  "ç¾İå¦Ļ": 8449,
  "å·ŀ": 8450,
  "ires": 8451,
  "Ġnib": 8452,
  "Ġpm": 8453,
  "æĬµ": 8454,
  "è¡Ĺä¸Ĭ": 8455,
  "ux": 8456,
  "name": 8457,
  "Ġhatten": 8458,
  "usk": 8459,
  "Ġwider": 8460,
  "haled": 8461,
  "Ġtri": 8462,
  "Ġresort": 8463,
  "âĢĻ,": 8464,
  "ä¸Ĭæľī": 8465,
  "æ·±å¤ľ": 8466,
  "Red": 8467,
  "ilot": 8468,
  "Ġlawn": 8469,
  "Ġtorture": 8470,
  "Ġerst": 8471,
  "èŁ²": 8472,
  "çĵ¶": 8473,
  "Ġwelcomed": 8474,
  "irmed": 8475,
  "Ġremains": 8476,
  "ĠAnne": 8477,
  "unched": 8478,
  "Ġgown": 8479,
  "Ġengaged": 8480,
  "ç«Łæĺ¯": 8481,
  "anger": 8482,
  "å¯§": 8483,
  "Ġlighting": 8484,
  "è¶¾": 8485,
  "æģ¢": 8486,
  "æĹ¢çĦ¶": 8487,
  "æĸ°èģŀ": 8488,
  "åįģè¶³": 8489,
  "ĠStorm": 8490,
  "Ġ~": 8491,
  "æĴŃ": 8492,
  "Ġdreamed": 8493,
  "ĠSun": 8494,
  "Ġbeloved": 8495,
  "Ġmutual": 8496,
  "Ġendless": 8497,
  "å»º": 8498,
  "iy": 8499,
  "éļ¨æĻĤ": 8500,
  "Ġwo": 8501,
  "Ġtoe": 8502,
  "Ġĉ": 8503,
  "Ġlands": 8504,
  "Ġrights": 8505,
  "Ġdrunken": 8506,
  "ĠOkay": 8507,
  "Ġadmired": 8508,
  "Ġbackyard": 8509,
  "å¯¡": 8510,
  "Ġmap": 8511,
  "xy": 8512,
  "å°±å¥½": 8513,
  "æµ©": 8514,
  "Ġheadache": 8515,
  "very": 8516,
  "-and": 8517,
  "Ġritual": 8518,
  "Ġmatters": 8519,
  "-five": 8520,
  "å·¥äºº": 8521,
  "Ġlang": 8522,
  "æĬĬä»ĸ": 8523,
  "ĠBad": 8524,
  "Ġhaired": 8525,
  "oured": 8526,
  "aves": 8527,
  "Ġhighway": 8528,
  "æ¥": 8529,
  "ĠHannah": 8530,
  "bs": 8531,
  "olo": 8532,
  "èĤĮèĤī": 8533,
  "æĤĶ": 8534,
  "More": 8535,
  "çĻ¼å±ķ": 8536,
  "Ġtrusted": 8537,
  "istic": 8538,
  "_n": 8539,
  "atively": 8540,
  "Ġsignal": 8541,
  "ä¸Ĭçľĭ": 8542,
  "åľ¨åľ°ä¸Ĭ": 8543,
  "ĠRain": 8544,
  "Ã¤h": 8545,
  "ich": 8546,
  "lichen": 8547,
  "éĢļéģİ": 8548,
  "Ġrack": 8549,
  "omed": 8550,
  "Ġroyal": 8551,
  "sm": 8552,
  "aken": 8553,
  "æŃ": 8554,
  "Ġbis": 8555,
  "ĠRemember": 8556,
  "ĉB": 8557,
  "earing": 8558,
  "Ġemployees": 8559,
  "å¥¸": 8560,
  "oming": 8561,
  "Ġrays": 8562,
  "eln": 8563,
  "udge": 8564,
  "ĠReserved": 8565,
  "çļĦå®¶åºŃ": 8566,
  "äººäºĭ": 8567,
  "Ġdamned": 8568,
  "]": 8569,
  "Ġlied": 8570,
  "Ġvanished": 8571,
  "Ġshore": 8572,
  ".M": 8573,
  "éĺ²": 8574,
  "äººå¿ĥ": 8575,
  "æľĥèŃ°": 8576,
  "ç«¥": 8577,
  "ĠBoys": 8578,
  "åĩ¡": 8579,
  "Ġdemons": 8580,
  "ailed": 8581,
  "çĶŁçĲĨ": 8582,
  "Ġsheep": 8583,
  "using": 8584,
  "Ġlizard": 8585,
  "Ġleans": 8586,
  "Ġvagina": 8587,
  "Ġcruel": 8588,
  "Ġma": 8589,
  "ali": 8590,
  "eb": 8591,
  "Ġdesigned": 8592,
  "Ġjoked": 8593,
  "Ġcontract": 8594,
  "è±Ĩ": 8595,
  "ĠDeath": 8596,
  "åºķä¸ĭ": 8597,
  "ĠMorning": 8598,
  "ugs": 8599,
  "Ġgrop": 8600,
  "'clock": 8601,
  "ä¸ĢåĲĮ": 8602,
  "Ġha": 8603,
  "Ġdrifting": 8604,
  "ĠNikki": 8605,
  "ä¾ĭ": 8606,
  "Ġcelebrate": 8607,
  ".âĢĻ": 8608,
  ".\",": 8609,
  "Ġcam": 8610,
  "ĠHand": 8611,
  "ĠFen": 8612,
  "ĠTwilight": 8613,
  "é¦¨": 8614,
  "Ġcompliment": 8615,
  "ĠAk": 8616,
  "ĠMolly": 8617,
  "Ġshirts": 8618,
  "Ġyouth": 8619,
  "è¨ĵ": 8620,
  "ĠJerry": 8621,
  "Ġjoining": 8622,
  "Ġwishing": 8623,
  "See": 8624,
  "ĠJenna": 8625,
  "Ġrelated": 8626,
  "Ġlungs": 8627,
  "ĠAh": 8628,
  "Ġestate": 8629,
  "Ġschools": 8630,
  "Ġspecific": 8631,
  "Ġpushes": 8632,
  "Ġinviting": 8633,
  "Ġupwards": 8634,
  "acles": 8635,
  "ĠSus": 8636,
  "ĠÂ©": 8637,
  "ĠZeit": 8638,
  "!\",": 8639,
  "çĿĢ": 8640,
  "Ġeyel": 8641,
  "ä¸įåģľåľ°": 8642,
  "ä½łå°±": 8643,
  "alm": 8644,
  "uster": 8645,
  "sten": 8646,
  "Ġenjoys": 8647,
  "èĢģå®¶": 8648,
  "æĬ¬èµ·": 8649,
  "Ġmonitor": 8650,
  "äºĨå¾Īå¤ļ": 8651,
  "æĻ°": 8652,
  "æĶ¾åĪ°": 8653,
  "Ġprofessor": 8654,
  "Ġplants": 8655,
  "Ġseparated": 8656,
  "Ġrespective": 8657,
  "Ġbasis": 8658,
  "Ġclaim": 8659,
  "Ġtapping": 8660,
  "Ġbelonged": 8661,
  "åĳµ": 8662,
  "èĢĮè¨Ģ": 8663,
  "ĠSister": 8664,
  "Ġpuberty": 8665,
  "Ġwatches": 8666,
  "Ġswept": 8667,
  "æĺİæĺŁ": 8668,
  "è®ļ": 8669,
  "ĠDana": 8670,
  "çĨĬ": 8671,
  "Ġticket": 8672,
  "_gr": 8673,
  "Ġserving": 8674,
  "Ġpartners": 8675,
  "Ġdowntown": 8676,
  "å®µ": 8677,
  "Ġdiscover": 8678,
  "rob": 8679,
  "Ġblur": 8680,
  "Ã¢": 8681,
  "ĠJordan": 8682,
  "zz": 8683,
  "Ġtavern": 8684,
  "Ġshoe": 8685,
  "Ġtwenties": 8686,
  "Ġarticle": 8687,
  "Ġreserved": 8688,
  "é¥": 8689,
  "å¹»": 8690,
  "æĹ©æĻ¨": 8691,
  "Bl": 8692,
  "Ġannoyance": 8693,
  "Ġevidence": 8694,
  "Ġoccupied": 8695,
  "Ġfeature": 8696,
  "Ġworries": 8697,
  "aran": 8698,
  "Ġgab": 8699,
  "éľŀ": 8700,
  "Ġretired": 8701,
  "Ġspinning": 8702,
  "Ġchances": 8703,
  "Ġfo": 8704,
  "ĠHenry": 8705,
  "self": 8706,
  "å¿ĥè·³": 8707,
  "Ġtrim": 8708,
  "Ġchim": 8709,
  "Ġdisappointment": 8710,
  "Ġbehavior": 8711,
  "Ġdescription": 8712,
  "ĠHard": 8713,
  "ĠLee": 8714,
  "Ġseventeen": 8715,
  "Ġoverly": 8716,
  "Ġoccurred": 8717,
  "Ġabilities": 8718,
  "Ġtheme": 8719,
  "-st": 8720,
  "_g": 8721,
  "Ġloung": 8722,
  "Ġnoises": 8723,
  "æ¬¾": 8724,
  "der": 8725,
  "å½©": 8726,
  "å¦Ĥä»Ĭ": 8727,
  "ç¬ĳäºĨ": 8728,
  "ĠSecond": 8729,
  "arm": 8730,
  "Ġsagte": 8731,
  "Ġanderen": 8732,
  "Ġpassionately": 8733,
  "æĺ¯ä¸Ģå®¶": 8734,
  "ĠTerry": 8735,
  "Ġmixture": 8736,
  "Ġringing": 8737,
  "Ġhelmet": 8738,
  "Ġyell": 8739,
  "ĠCor": 8740,
  "åĴ±": 8741,
  "ĠFr": 8742,
  "Ġgrammar": 8743,
  "èĢĮåıĪ": 8744,
  "çı¾å¯¦": 8745,
  "-\"": 8746,
  "Ġemotion": 8747,
  "Ġsadly": 8748,
  "èħ": 8749,
  "Ġwitch": 8750,
  "Ġhut": 8751,
  "Ġthreat": 8752,
  "Ġfamous": 8753,
  "ishly": 8754,
  "Ġbrick": 8755,
  "é¦": 8756,
  "å¦į": 8757,
  "Ġleaking": 8758,
  "Ġspelling": 8759,
  "iting": 8760,
  "Ġlaz": 8761,
  "æİ¥åĪ°": 8762,
  "æľĢå¤§çļĦ": 8763,
  "ä¹ħäºĨ": 8764,
  "ĠHeart": 8765,
  "Ġpacking": 8766,
  "Ġbeaten": 8767,
  "Ġhottest": 8768,
  "çŁ®": 8769,
  "Ġholds": 8770,
  "Ġbothering": 8771,
  "åĢ¼": 8772,
  "ç¿ł": 8773,
  "ĠRach": 8774,
  "åĺ»åĺ»": 8775,
  "ĠEin": 8776,
  "cha": 8777,
  "Ġexception": 8778,
  "iful": 8779,
  "ony": 8780,
  "ĠSomeone": 8781,
  "Ad": 8782,
  "åĺ¿åĺ¿": 8783,
  "Ġvote": 8784,
  "Ġenc": 8785,
  "ĠMILF": 8786,
  "iro": 8787,
  "Ġportal": 8788,
  "ags": 8789,
  ".,": 8790,
  "Ġviel": 8791,
  "æľªå©ļ": 8792,
  "Ġtube": 8793,
  "Ġstirring": 8794,
  "æ¡Ī": 8795,
  "éĦ": 8796,
  "Ġseeking": 8797,
  "ĠVictor": 8798,
  "Ġguilt": 8799,
  "Ġremind": 8800,
  "ĠAmerica": 8801,
  "Ġoldest": 8802,
  "Ġshifting": 8803,
  "Ġimpatient": 8804,
  "\"She": 8805,
  "Ġattending": 8806,
  "Ġgreet": 8807,
  "ĠTruth": 8808,
  "Ġpatiently": 8809,
  "éĻĲ": 8810,
  "æĹ©é¤Ĳ": 8811,
  "-one": 8812,
  "ĠBeast": 8813,
  "idd": 8814,
  "ned": 8815,
  "èµ°å»Ĭ": 8816,
  "ĠCH": 8817,
  "Ġraced": 8818,
  "åĭī": 8819,
  "çĩĥ": 8820,
  "å¦ĸ": 8821,
  "Day": 8822,
  "æı¡ä½ı": 8823,
  "ĠHar": 8824,
  "ng": 8825,
  "Ġshimmer": 8826,
  "app": 8827,
  "ĠFe": 8828,
  "åĨįä¹Ł": 8829,
  "ammer": 8830,
  "ĠThrough": 8831,
  "Ġcontinuation": 8832,
  "å¥½åĥıæĺ¯": 8833,
  "Ġgathering": 8834,
  "Ġforming": 8835,
  "ando": 8836,
  "éłĺå°İ": 8837,
  "unter": 8838,
  "Ġdishes": 8839,
  "Ġcreate": 8840,
  "Ġloaded": 8841,
  "Ġaddition": 8842,
  "Ġmentally": 8843,
  "éĤ£ä¸Ģå¤©": 8844,
  "å°Īæ¥Ń": 8845,
  "board": 8846,
  "ĠGry": 8847,
  "Ġillegal": 8848,
  "ards": 8849,
  "æĨĤ": 8850,
  "do": 8851,
  "ä¹ĸä¹ĸ": 8852,
  "Ġbisexual": 8853,
  "æ»ĭ": 8854,
  "Ġstrict": 8855,
  "Ġihren": 8856,
  "eping": 8857,
  "è©ŀ": 8858,
  "bers": 8859,
  "Ġexited": 8860,
  "~~~~": 8861,
  "åħ¬åľĴ": 8862,
  "çĹķ": 8863,
  "äººåĢĳ": 8864,
  "çį»": 8865,
  "å»ºç¯ī": 8866,
  "Ġdiscussion": 8867,
  "Ġbuying": 8868,
  "ety": 8869,
  "Ġglare": 8870,
  "æĳ©æĵ¦": 8871,
  "çļĦå¦»åŃĲ": 8872,
  "Ġjudge": 8873,
  "ĠLily": 8874,
  "èĢĮä¸į": 8875,
  "Ġinvitation": 8876,
  "Ġthrill": 8877,
  "Ġcollect": 8878,
  "Ġwest": 8879,
  "Ġasses": 8880,
  "éĻĦ": 8881,
  "å®Ĺ": 8882,
  "Ġspeech": 8883,
  "Ġalert": 8884,
  "aps": 8885,
  "Ġspe": 8886,
  "Ġmodern": 8887,
  "Ġeast": 8888,
  "åĪĿä¸Ń": 8889,
  "Ġbills": 8890,
  "Ġaid": 8891,
  "Ġclutch": 8892,
  "æ³°": 8893,
  "ä¸ĭä¸Ģ": 8894,
  "èĦĤ": 8895,
  "indy": 8896,
  "è¶´": 8897,
  "éĿĸ": 8898,
  "åħ¸": 8899,
  "çŁ©": 8900,
  "Ġhabe": 8901,
  "Ġgreatest": 8902,
  "ĠUnder": 8903,
  "Ġpond": 8904,
  "oving": 8905,
  "Ġtheater": 8906,
  "çļĦåĳ³éģĵ": 8907,
  "play": 8908,
  "å®¹æĺĵ": 8909,
  "can": 8910,
  "èĦĪ": 8911,
  "Ġrevenge": 8912,
  "Ġsatisfy": 8913,
  "Ġprotection": 8914,
  "ickers": 8915,
  "ç½°": 8916,
  "ä¸įæ¸ħ": 8917,
  "ĠGreen": 8918,
  "oph": 8919,
  "ĠLeon": 8920,
  "ape": 8921,
  "ç¢ºå®ļ": 8922,
  "çļĦç¬¬ä¸Ģ": 8923,
  "è²ĵ": 8924,
  "ĠIN": 8925,
  "-sh": 8926,
  "èĳ£äºĭ": 8927,
  "Alex": 8928,
  "ĠLight": 8929,
  "Ġscrub": 8930,
  "å®ļäºĨ": 8931,
  "Ġhun": 8932,
  "unting": 8933,
  "Ġaccompanied": 8934,
  "Ġtrips": 8935,
  "Ġguided": 8936,
  "ç®±": 8937,
  "èµ·ä¼ı": 8938,
  "ä¸ĭåįĬ": 8939,
  "å®Įç¾İçļĦ": 8940,
  "èĻ": 8941,
  "Ġcrossing": 8942,
  "erald": 8943,
  "Ġtemple": 8944,
  "ĠSm": 8945,
  "ĠTurning": 8946,
  "Ġain": 8947,
  "ĠStanding": 8948,
  "oon": 8949,
  "arn": 8950,
  "Ġswallow": 8951,
  "è¡¨æĥħ": 8952,
  "Ġremoving": 8953,
  "Ġpopulation": 8954,
  "roll": 8955,
  "ĠNormally": 8956,
  "æºĲ": 8957,
  "Today": 8958,
  "Ġbend": 8959,
  "ants": 8960,
  "Ġswell": 8961,
  "Ġfloors": 8962,
  "Ġoverwhelming": 8963,
  "ĠLy": 8964,
  "Ġdre": 8965,
  "ĠGrey": 8966,
  "Ġsucc": 8967,
  "ĠDev": 8968,
  "Ġwand": 8969,
  "arg": 8970,
  "ĠLarry": 8971,
  "Ġconversations": 8972,
  "oz": 8973,
  "Ġwears": 8974,
  "Ġsiblings": 8975,
  "ĠSimon": 8976,
  "Ġtrainer": 8977,
  "Ġgreeting": 8978,
  "Ġchief": 8979,
  "ĠGrand": 8980,
  "å¤±åİ»": 8981,
  "æĺ¯ä½ł": 8982,
  "ä¾Ĩèĩª": 8983,
  "åĽ°": 8984,
  "ĠUsually": 8985,
  "Ġplayers": 8986,
  "Ġsuite": 8987,
  "ĠHopefully": 8988,
  "ĠLook": 8989,
  "Ġwhisk": 8990,
  "Ġclaimed": 8991,
  "Ġfields": 8992,
  "åıĪè¦ģ": 8993,
  "Ġawaiting": 8994,
  "åĻ¢": 8995,
  "Ã¶r": 8996,
  "Ġvivid": 8997,
  "Suddenly": 8998,
  "Ġalike": 8999,
  "atched": 9000,
  "åĲī": 9001,
  "Ġreputation": 9002,
  "ound": 9003,
  "è¦": 9004,
  "ll": 9005,
  "q": 9006,
  "Ġfir": 9007,
  "ĥ½": 9008,
  "Ā": 9009,
  "Ġbec": 9010,
  "ull": 9011,
  "`": 9012,
  "é»": 9013,
  "Ô": 9014,
  "Ì": 9015,
  "Ġwal": 9016,
  "åģ": 9017,
  "|": 9018,
  "Ä": 9019,
  "å®": 9020,
  "Ġbre": 9021,
  "ould": 9022,
  "Ġac": 9023,
  "æĻ": 9024,
  "ù": 9025,
  "\\": 9026,
  "ĝ": 9027,
  "ĕ": 9028,
  "ld": 9029,
  "Ġwat": 9030,
  "ę": 9031,
  "hing": 9032,
  "ä¸": 9033,
  "Ü": 9034,
  "Č": 9035,
  "å·": 9036,
  "æĸ": 9037,
  "{": 9038,
  "î": 9039,
  "æĦ": 9040,
  "Û": 9041,
  "ough": 9042,
  "bb": 9043,
  "leas": 9044,
  "Ú": 9045,
  "hat": 9046,
  "æı": 9047,
  "ê": 9048,
  "éĤ": 9049,
  "oth": 9050,
  "åĵ": 9051,
  "å¿": 9052,
  "irl": 9053,
  "č": 9054,
  "æĢ": 9055,
  "Ġli": 9056,
  "åª": 9057,
  "&": 9058,
  "å¼": 9059,
  "Ġsmil": 9060,
  "åŃ": 9061,
  "æĮ": 9062,
  "Ġfin": 9063,
  "ë": 9064,
  "º«": 9065,
  "Ø": 9066,
  "ple": 9067,
  "å¥": 9068,
  "çĶ": 9069,
  "û": 9070,
  "í": 9071,
  "éĢ": 9072,
  "Ġsomet": 9073,
  "Ĉ": 9074,
  "åĩ": 9075,
  "äº": 9076,
  "Î": 9077,
  "çļĦæ": 9078,
  "ä": 9079,
  "Ĝ": 9080,
  "Ã": 9081,
  "outh": 9082,
  "Ą": 9083,
  "Ï": 9084,
  "÷": 9085,
  "Ç": 9086,
  "hed": 9087,
  "èĪ": 9088,
  "+": 9089,
  "Ġag": 9090,
  "è£": 9091,
  "đ": 9092,
  "Ġey": 9093,
  "Ė": 9094,
  "here": 9095,
  "ã": 9096,
  "Õ": 9097,
  "ï": 9098,
  "Ġmu": 9099,
  "ô": 9100,
  "Ý": 9101,
  "pl": 9102,
  "$": 9103,
  "^": 9104,
  "ì": 9105,
  "ä¹": 9106,
  "pp": 9107,
  "â": 9108,
  "çĦ": 9109,
  "ð": 9110,
  "Ó": 9111,
  "õ": 9112,
  "åį": 9113,
  "rough": 9114,
  "çļĦç": 9115,
  "ò": 9116,
  "çµ": 9117,
  "Æ": 9118,
  "Ġwa": 9119,
  "ċ": 9120,
  "É": 9121,
  "åı": 9122,
  "æĺ": 9123,
  "Á": 9124,
  "èĢ": 9125,
  "Ě": 9126,
  "È": 9127,
  "æĬ": 9128,
  "ct": 9129,
  "fore": 9130,
  "èµ": 9131,
  "åĬ": 9132,
  "Ġke": 9133,
  "è®": 9134,
  "åħ": 9135,
  "Q": 9136,
  "å¹": 9137,
  "åĪ": 9138,
  "åİ": 9139,
  "Í": 9140,
  "ć": 9141,
  "Ġthou": 9142,
  "----": 9143,
  "Ĕ": 9144,
  "æ": 9145,
  "ă": 9146,
  "á": 9147,
  "Ġloo": 9148,
  "Ć": 9149,
  "éº": 9150,
  "ą": 9151,
  "Â": 9152,
  "Ē": 9153,
  "ü": 9154,
  "fter": 9155,
  "Ċ": 9156,
  "Ð": 9157,
  "ý": 9158,
  "Ğ": 9159,
  "ē": 9160,
  "Þ": 9161,
  "ï¼": 9162,
  "Ġfing": 9163,
  "Ġhapp": 9164,
  "ght": 9165,
  "ood": 9166,
  "Ġpus": 9167,
  "æī": 9168,
  "×": 9169,
  "sel": 9170,
  "Ñ": 9171,
  "åķ": 9172,
  "åľ": 9173,
  "èĳ": 9174,
  "å¸": 9175,
  "mo": 9176,
  "ė": 9177,
  "æ²": 9178,
  "Ġwor": 9179,
  "ÿ": 9180,
  "xt": 9181,
  "ä»": 9182,
  "riend": 9183,
  "Ġcont": 9184,
  "çļĦè": 9185,
  "ď": 9186,
  "ğ": 9187,
  "ġ": 9188,
  "ady": 9189,
  "omet": 9190,
  "**": 9191,
  "æĪ": 9192,
  "ě": 9193,
  "Ă": 9194,
  "æ¯": 9195,
  "éĻ": 9196,
  "å¾": 9197,
  "ó": 9198,
  "ß": 9199,
  "ãĢ": 9200,
  "à": 9201,
  "çľ": 9202,
  "ā": 9203,
  "ú": 9204,
  "Ù": 9205,
  "tle": 9206,
  "Ë": 9207,
  "æľ": 9208,
  "sy": 9209,
  "wn": 9210,
  "ction": 9211,
  "Đ": 9212,
  "@": 9213,
  "round": 9214,
  "Ď": 9215,
  "ö": 9216,
  "À": 9217,
  "ward": 9218,
  "å¦": 9219,
  "éĽ": 9220,
  "Ġgu": 9221,
  "þ": 9222,
  "Ö": 9223,
  "}": 9224,
  "Å": 9225,
  "Ò": 9226,
  "Ę": 9227,
  "Ê": 9228,
  "ñ": 9229,
  "Ġop": 9230,
  "#": 9231,
  "ø": 9232,
  "âĢ": 9233,
  "aus": 9234,
  "Ġtim": 9235,
  "Ġpo": 9236
}