{
  "version": "1.0",
  "truncation": null,
  "padding": null,
  "added_tokens": [
    {
      "id": 0,
      "content": "<|endoftext|>",
      "single_word": false,
      "lstrip": false,
      "rstrip": false,
      "normalized": false,
      "special": true
    },
    {
      "id": 1,
      "content": "<|im_start|>",
      "single_word": false,
      "lstrip": false,
      "rstrip": false,
      "normalized": false,
      "special": true
    },
    {
      "id": 2,
      "content": "<|im_end|>",
      "single_word": false,
      "lstrip": false,
      "rstrip": false,
      "normalized": false,
      "special": true
    }
  ],
  "normalizer": null,
  "pre_tokenizer": {
    "type": "ByteLevel",
    "add_prefix_space": false,
    "trim_offsets": true,
    "use_regex": true
  },
  "post_processor": {
    "type": "ByteLevel",
    "add_prefix_space": true,
    "trim_offsets": true,
    "use_regex": true
  },
  "decoder": {
    "type": "ByteLevel",
    "add_prefix_space": true,
    "trim_offsets": true,
    "use_regex": true
  },
  "model": {
    "type": "BPE",
    "dropout": null,
    "unk_token": null,
    "continuing_subword_prefix": null,
    "end_of_word_suffix": null,
    "fuse_unk": false,
    "byte_fallback": false,
    "ignore_merges": false,
    "vocab": {
      "<|endoftext|>": 0,
      "<|im_start|>": 1,
      "<|im_end|>": 2,
      "!": 3,
      "\"": 4,
      "#": 5,
      "$": 6,
      "%": 7,
      "&": 8,
      "'": 9,
      "(": 10,
      ")": 11,
      "*": 12,
      "+": 13,
      ",": 14,
      "-": 15,
      ".": 16,
      "/": 17,
      "0": 18,
      "1": 19,
      "2": 20,
      "3": 21,
      "4": 22,
      "5": 23,
      "6": 24,
      "7": 25,
      "8": 26,
      "9": 27,
      ":": 28,
      ";": 29,
      "<": 30,
      "=": 31,
      ">": 32,
      "?": 33,
      "@": 34,
      "A": 35,
      "B": 36,
      "C": 37,
      "D": 38,
      "E": 39,
      "F": 40,
      "G": 41,
      "H": 42,
      "I": 43,
      "J": 44,
      "K": 45,
      "L": 46,
      "M": 47,
      "N": 48,
      "O": 49,
      "P": 50,
      "Q": 51,
      "R": 52,
      "S": 53,
      "T": 54,
      "U": 55,
      "V": 56,
      "W": 57,
      "X": 58,
      "Y": 59,
      "Z": 60,
      "[": 61,
      "\\": 62,
      "]": 63,
      "^": 64,
      "_": 65,
      "`": 66,
      "a": 67,
      "b": 68,
      "c": 69,
      "d": 70,
      "e": 71,
      "f": 72,
      "g": 73,
      "h": 74,
      "i": 75,
      "j": 76,
      "k": 77,
      "l": 78,
      "m": 79,
      "n": 80,
      "o": 81,
      "p": 82,
      "q": 83,
      "r": 84,
      "s": 85,
      "t": 86,
      "u": 87,
      "v": 88,
      "w": 89,
      "x": 90,
      "y": 91,
      "z": 92,
      "{": 93,
      "|": 94,
      "}": 95,
      "~": 96,
      "¡": 97,
      "¢": 98,
      "£": 99,
      "¤": 100,
      "¥": 101,
      "¦": 102,
      "§": 103,
      "¨": 104,
      "©": 105,
      "ª": 106,
      "«": 107,
      "¬": 108,
      "®": 109,
      "¯": 110,
      "°": 111,
      "±": 112,
      "²": 113,
      "³": 114,
      "´": 115,
      "µ": 116,
      "¶": 117,
      "·": 118,
      "¸": 119,
      "¹": 120,
      "º": 121,
      "»": 122,
      "¼": 123,
      "½": 124,
      "¾": 125,
      "¿": 126,
      "À": 127,
      "Á": 128,
      "Â": 129,
      "Ã": 130,
      "Ä": 131,
      "Å": 132,
      "Æ": 133,
      "Ç": 134,
      "È": 135,
      "É": 136,
      "Ê": 137,
      "Ë": 138,
      "Ì": 139,
      "Í": 140,
      "Î": 141,
      "Ï": 142,
      "Ð": 143,
      "Ñ": 144,
      "Ò": 145,
      "Ó": 146,
      "Ô": 147,
      "Õ": 148,
      "Ö": 149,
      "×": 150,
      "Ø": 151,
      "Ù": 152,
      "Ú": 153,
      "Û": 154,
      "Ü": 155,
      "Ý": 156,
      "Þ": 157,
      "ß": 158,
      "à": 159,
      "á": 160,
      "â": 161,
      "ã": 162,
      "ä": 163,
      "å": 164,
      "æ": 165,
      "ç": 166,
      "è": 167,
      "é": 168,
      "ê": 169,
      "ë": 170,
      "ì": 171,
      "í": 172,
      "î": 173,
      "ï": 174,
      "ð": 175,
      "ñ": 176,
      "ò": 177,
      "ó": 178,
      "ô": 179,
      "õ": 180,
      "ö": 181,
      "÷": 182,
      "ø": 183,
      "ù": 184,
      "ú": 185,
      "û": 186,
      "ü": 187,
      "ý": 188,
      "þ": 189,
      "ÿ": 190,
      "Ā": 191,
      "ā": 192,
      "Ă": 193,
      "ă": 194,
      "Ą": 195,
      "ą": 196,
      "Ć": 197,
      "ć": 198,
      "Ĉ": 199,
      "ĉ": 200,
      "Ċ": 201,
      "ċ": 202,
      "Č": 203,
      "č": 204,
      "Ď": 205,
      "ď": 206,
      "Đ": 207,
      "đ": 208,
      "Ē": 209,
      "ē": 210,
      "Ĕ": 211,
      "ĕ": 212,
      "Ė": 213,
      "ė": 214,
      "Ę": 215,
      "ę": 216,
      "Ě": 217,
      "ě": 218,
      "Ĝ": 219,
      "ĝ": 220,
      "Ğ": 221,
      "ğ": 222,
      "Ġ": 223,
      "ġ": 224,
      "Ģ": 225,
      "ģ": 226,
      "Ĥ": 227,
      "ĥ": 228,
      "Ħ": 229,
      "ħ": 230,
      "Ĩ": 231,
      "ĩ": 232,
      "Ī": 233,
      "ī": 234,
      "Ĭ": 235,
      "ĭ": 236,
      "Į": 237,
      "į": 238,
      "İ": 239,
      "ı": 240,
      "Ĳ": 241,
      "ĳ": 242,
      "Ĵ": 243,
      "ĵ": 244,
      "Ķ": 245,
      "ķ": 246,
      "ĸ": 247,
      "Ĺ": 248,
      "ĺ": 249,
      "Ļ": 250,
      "ļ": 251,
      "Ľ": 252,
      "ľ": 253,
      "Ŀ": 254,
      "ŀ": 255,
      "Ł": 256,
      "ł": 257,
      "Ń": 258,
      "Ġt": 259,
      "he": 260,
      "Ġa": 261,
      "in": 262,
      "Ġs": 263,
      "Ġw": 264,
      "ed": 265,
      "Ġthe": 266,
      "Ġo": 267,
      "nd": 268,
      "Ġb": 269,
      "Ġm": 270,
      "re": 271,
      "Ġh": 272,
      "ing": 273,
      "ou": 274,
      "ï¼": 275,
      "er": 276,
      "Ġf": 277,
      "Ġhe": 278,
      "Ġto": 279,
      "Ġc": 280,
      "âĢ": 281,
      "ï¼Į": 282,
      "it": 283,
      "at": 284,
      "Ġand": 285,
      "is": 286,
      "Ġl": 287,
      "Ġd": 288,
      "as": 289,
      "ĠI": 290,
      "en": 291,
      "ä¸": 292,
      "ll": 293,
      "Ġp": 294,
      "çļ": 295,
      "çļĦ": 296,
      "Ġth": 297,
      "an": 298,
      "on": 299,
      "ar": 300,
      "Ġg": 301,
      "Ġher": 302,
      "or": 303,
      "ãĢ": 304,
      "Ġin": 305,
      "es": 306,
      "Ġof": 307,
      "ck": 308,
      "Ġn": 309,
      "ow": 310,
      "om": 311,
      "Ġwas": 312,
      "le": 313,
      "ut": 314,
      "æĪ": 315,
      "Ġha": 316,
      "äº": 317,
      "id": 318,
      "Ġy": 319,
      "Ġbe": 320,
      "Ġe": 321,
      "us": 322,
      "æĪĳ": 323,
      "ot": 324,
      "Ġas": 325,
      "ly": 326,
      "Ġon": 327,
      "Ġyou": 328,
      "Ġmy": 329,
      "et": 330,
      "Ġst": 331,
      "gh": 332,
      "im": 333,
      "ld": 334,
      "Ġhis": 335,
      "å¥": 336,
      "Ġit": 337,
      "ch": 338,
      "ãĢĤ": 339,
      "ve": 340,
      "Ġu": 341,
      "Ġthat": 342,
      "Ġshe": 343,
      "ay": 344,
      "Ġme": 345,
      "ver": 346,
      "ir": 347,
      "âĢ¦": 348,
      "Ġre": 349,
      "oo": 350,
      "å°": 351,
      "ĠS": 352,
      "ith": 353,
      "ad": 354,
      "Ġr": 355,
      "äºĨ": 356,
      "el": 357,
      "ä¸Ģ": 358,
      "ur": 359,
      "al": 360,
      "ce": 361,
      "Ġwith": 362,
      "Ġwe": 363,
      "ke": 364,
      "ght": 365,
      "ĠT": 366,
      "åı": 367,
      "åľ": 368,
      "st": 369,
      "âĢĻ": 370,
      "ent": 371,
      "æľ": 372,
      "Ġfor": 373,
      "ould": 374,
      "Ġwh": 375,
      "âĢĿ": 376,
      "âĢľ": 377,
      "å¾": 378,
      "ĠH": 379,
      "å¤": 380,
      "Ġli": 381,
      "æĺ": 382,
      "ä¸į": 383,
      "ä½": 384,
      "åħ": 385,
      "Ġat": 386,
      "Ġk": 387,
      "all": 388,
      "Ġsh": 389,
      "ä»": 390,
      "am": 391,
      "..": 392,
      "Ġhad": 393,
      "Ġse": 394,
      "å¥¹": 395,
      "ack": 396,
      "pp": 397,
      "éĢ": 398,
      "ro": 399,
      "æĺ¯": 400,
      "ri": 401,
      "Ġup": 402,
      "ion": 403,
      "her": 404,
      "Ġan": 405,
      "ĠA": 406,
      "Ġ\"": 407,
      "ked": 408,
      "ore": 409,
      "åĪ": 410,
      "'s": 411,
      "Ġso": 412,
      "Ġhim": 413,
      "Ġj": 414,
      "èĳ": 415,
      "ain": 416,
      "åľ¨": 417,
      "Ġout": 418,
      ".\"": 419,
      "ter": 420,
      "èĳĹ": 421,
      "åĢ": 422,
      "ted": 423,
      "æī": 424,
      "ight": 425,
      "Ġbut": 426,
      "il": 427,
      "ust": 428,
      "ä¾": 429,
      "ä¹": 430,
      "Ġsa": 431,
      "éĤ": 432,
      "ra": 433,
      "to": 434,
      "ill": 435,
      "ĠM": 436,
      "se": 437,
      "Ġfr": 438,
      "è¦": 439,
      "rou": 440,
      "out": 441,
      "Ġdo": 442,
      "ct": 443,
      "åĲ": 444,
      "Ġne": 445,
      "ĠThe": 446,
      "ard": 447,
      "çľ": 448,
      "éģ": 449,
      "Ġback": 450,
      "'t": 451,
      "ĠShe": 452,
      "ä¾Ĩ": 453,
      "own": 454,
      "çĶ": 455,
      "Ġco": 456,
      "çļĦè": 457,
      "Ġle": 458,
      "if": 459,
      "ãĢĮ": 460,
      "ãĢį": 461,
      "ome": 462,
      "king": 463,
      "ant": 464,
      "Ġfe": 465,
      "un": 466,
      "Ġnot": 467,
      "ic": 468,
      "ä¸Ĭ": 469,
      "hed": 470,
      "ĠHe": 471,
      "Ġloo": 472,
      "Ġkn": 473,
      "åŃ": 474,
      "um": 475,
      "Ġinto": 476,
      "ie": 477,
      "éĸ": 478,
      "Ġfrom": 479,
      "Ġsaid": 480,
      "åĪ°": 481,
      "Ġdown": 482,
      "å·": 483,
      "Ġsl": 484,
      "æľī": 485,
      "éĽ": 486,
      "Ġis": 487,
      "å®": 488,
      "hing": 489,
      "çļĦæ": 490,
      "hen": 491,
      "Ġcould": 492,
      "ĠW": 493,
      "ide": 494,
      "Ġcl": 495,
      "Ġab": 496,
      "ge": 497,
      "qu": 498,
      "od": 499,
      "Âł": 500,
      "Ġall": 501,
      "uck": 502,
      "éĢĻ": 503,
      "å¿": 504,
      "Ġhave": 505,
      "ĠâĢľ": 506,
      "ind": 507,
      "âĢ¦âĢ¦": 508,
      "Ġag": 509,
      "ally": 510,
      "Ġal": 511,
      "ick": 512,
      "Ġthis": 513,
      "ĠB": 514,
      "Ġjust": 515,
      "ä¸ĭ": 516,
      "Ġwere": 517,
      "äºº": 518,
      "æĬ": 519,
      "ast": 520,
      "ss": 521,
      "èª": 522,
      ".âĢĿ": 523,
      "Ġmo": 524,
      "Ġde": 525,
      "èĢ": 526,
      "Ġdid": 527,
      "Ġsp": 528,
      "Ġgo": 529,
      "ig": 530,
      "å°ı": 531,
      "Ġlike": 532,
      "Ġover": 533,
      "Ġsm": 534,
      "Ġhand": 535,
      "ood": 536,
      "Ġget": 537,
      "ï¼ģ": 538,
      "ĠD": 539,
      "ess": 540,
      "ĠJ": 541,
      "ry": 542,
      "ul": 543,
      "ull": 544,
      "ä»ĸ": 545,
      "æĻ": 546,
      "èµ": 547,
      "ä½ł": 548,
      "Ġwould": 549,
      "å¤§": 550,
      "Ġagain": 551,
      "å°±": 552,
      "æĥ": 553,
      "Ġex": 554,
      "one": 555,
      "Ġwhat": 556,
      "ĠC": 557,
      "éĻ": 558,
      "åĢĭ": 559,
      "å¥½": 560,
      "Ġone": 561,
      "æĦ": 562,
      "ure": 563,
      "Ġcon": 564,
      "Ġthey": 565,
      "éł": 566,
      "è£": 567,
      "Ġtim": 568,
      "çĦ": 569,
      "ab": 570,
      "ell": 571,
      "Ġthen": 572,
      "ep": 573,
      "Ġthem": 574,
      "Ġv": 575,
      "and": 576,
      "åĩ": 577,
      "åķ": 578,
      "Ġor": 579,
      "ting": 580,
      "ake": 581,
      "åŃĲ": 582,
      "ers": 583,
      "Ġsee": 584,
      "Ġoff": 585,
      "round": 586,
      "èĩ": 587,
      "æŃ": 588,
      "Ġabout": 589,
      "ong": 590,
      "?\"": 591,
      "Ġstar": 592,
      "Ġyour": 593,
      "å¹": 594,
      "Ġlo": 595,
      "ä¹Ł": 596,
      "åĩº": 597,
      "º«": 598,
      "te": 599,
      "çľĭ": 600,
      "ace": 601,
      "Ġch": 602,
      "Ġtoo": 603,
      "èªª": 604,
      "very": 605,
      "Ġwor": 606,
      "Ġcock": 607,
      "Ġhead": 608,
      "æīĭ": 609,
      "ac": 610,
      "ame": 611,
      "å§": 612,
      "éĤ£": 613,
      "Ġpl": 614,
      "Ġro": 615,
      "fore": 616,
      "Ġbl": 617,
      "Ġmore": 618,
      "ĥ½": 619,
      "æ²": 620,
      "ile": 621,
      "Ġtime": 622,
      "ven": 623,
      "åİ": 624,
      "Ġun": 625,
      "ĠL": 626,
      "ps": 627,
      "ther": 628,
      "sel": 629,
      "ate": 630,
      "åľ°": 631,
      "ag": 632,
      "urn": 633,
      "You": 634,
      "Ġbefore": 635,
      "os": 636,
      "Ġpus": 637,
      "å¦": 638,
      "ich": 639,
      "èµ·": 640,
      "è¦ģ": 641,
      "åĳ": 642,
      "éĿ": 643,
      "æĸ": 644,
      "pped": 645,
      "--": 646,
      "Ġaround": 647,
      "iss": 648,
      "èĪ": 649,
      "ach": 650,
      "Ġus": 651,
      "æĢ": 652,
      "Ġsome": 653,
      "éº": 654,
      "way": 655,
      "é«": 656,
      "å¾Į": 657,
      "ft": 658,
      "æĻĤ": 659,
      "Ġwhen": 660,
      "çĻ": 661,
      "Ġqu": 662,
      "å¼": 663,
      "hat": 664,
      "Ġey": 665,
      "est": 666,
      "are": 667,
      "ĠR": 668,
      "self": 669,
      "Ġcom": 670,
      "...": 671,
      "Ġany": 672,
      "tle": 673,
      "Ġknow": 674,
      "ice": 675,
      "Ġcan": 676,
      "Ġif": 677,
      "ine": 678,
      "Ġare": 679,
      "åĭ": 680,
      "Ġfl": 681,
      "éĸĭ": 682,
      "op": 683,
      "åį": 684,
      "Ġthere": 685,
      "Ġund": 686,
      "ving": 687,
      "çĦ¶": 688,
      "çļĦç": 689,
      "åĽ": 690,
      "å¾Ĺ": 691,
      "Ġother": 692,
      "ass": 693,
      "åī": 694,
      "ĠK": 695,
      "Ġby": 696,
      "ĠIt": 697,
      "ous": 698,
      "ĊĊ": 699,
      "Ġno": 700,
      "ĠF": 701,
      "th": 702,
      "éłŃ": 703,
      "ĠN": 704,
      "Ġtw": 705,
      "led": 706,
      "ink": 707,
      "åª": 708,
      "Ġlooked": 709,
      "åİ»": 710,
      "Ġfeel": 711,
      "Ġlit": 712,
      "Ġsu": 713,
      "Ġthou": 714,
      "åģ": 715,
      "å¥³": 716,
      "èģ": 717,
      "Ġnow": 718,
      "ist": 719,
      "Ġen": 720,
      "ol": 721,
      "åĴ": 722,
      "ive": 723,
      "èº«": 724,
      "ved": 725,
      "è£¡": 726,
      "æ²Ĵ": 727,
      "éģĵ": 728,
      "èĤ": 729,
      "elt": 730,
      "ation": 731,
      "ĠE": 732,
      "bb": 733,
      "Ġeyes": 734,
      "fter": 735,
      "ond": 736,
      "ĠG": 737,
      "éģİ": 738,
      "The": 739,
      "ap": 740,
      "æ¨": 741,
      "é»": 742,
      "ound": 743,
      "art": 744,
      "ue": 745,
      "åĬ": 746,
      "Ġtheir": 747,
      "åĵ": 748,
      "Ġlittle": 749,
      "ort": 750,
      "Ġgot": 751,
      "Ġbre": 752,
      "ered": 753,
      "Ġpull": 754,
      "åª½": 755,
      "ress": 756,
      "åķĬ": 757,
      "fe": 758,
      "è¡": 759,
      ",\"": 760,
      "we": 761,
      "Ġbeen": 762,
      "æ·": 763,
      "å¸": 764,
      "ĠP": 765,
      "ak": 766,
      "Ġdidn": 767,
      "éĤĦ": 768,
      "éº¼": 769,
      "Ġar": 770,
      "æĥ³": 771,
      "ng": 772,
      "Ġwant": 773,
      "èħ": 774,
      "Ġgr": 775,
      "ç´": 776,
      "Ġfelt": 777,
      "æı": 778,
      "ï¼Ł": 779,
      "çµ": 780,
      "æĬĬ": 781,
      "çĽ": 782,
      "Ġturn": 783,
      "ody": 784,
      "Ġway": 785,
      "æİ": 786,
      "Ġgoing": 787,
      "æľĥ": 788,
      "pl": 789,
      "Ġhard": 790,
      "?âĢĿ": 791,
      "åĸ": 792,
      "ite": 793,
      "our": 794,
      "other": 795,
      "ath": 796,
      "åĢĳ": 797,
      "èĩª": 798,
      "ï¼ļ": 799,
      "Ġeven": 800,
      "ĠO": 801,
      "Ġmu": 802,
      "Ġman": 803,
      "ward": 804,
      "aking": 805,
      "Ġbeg": 806,
      "oth": 807,
      "Ġhow": 808,
      "ade": 809,
      "Ġstill": 810,
      "end": 811,
      "ies": 812,
      "èĢģ": 813,
      "Ġass": 814,
      "æ¯": 815,
      "Ġsc": 816,
      "éĻ°": 817,
      "Ġfir": 818,
      "ave": 819,
      "éĥ½": 820,
      "åıĪ": 821,
      "åı¯": 822,
      "Ġlet": 823,
      "ose": 824,
      "ä»¥": 825,
      "Ġthan": 826,
      "çĶ¨": 827,
      "ç·": 828,
      "è®": 829,
      "å¾Ī": 830,
      "Ġwat": 831,
      "au": 832,
      "Ġface": 833,
      "åĴĮ": 834,
      "Ġche": 835,
      "Ġbet": 836,
      "leas": 837,
      "oy": 838,
      "outh": 839,
      "Ġkne": 840,
      "Ġasked": 841,
      "sy": 842,
      "éĿ¢": 843,
      "Ġfuck": 844,
      "æĭ": 845,
      "Ġdon": 846,
      "æĮ": 847,
      "Ġbody": 848,
      "åĭķ": 849,
      "æħ": 850,
      "irl": 851,
      "Ġlong": 852,
      "Ġstarted": 853,
      "ä¸Ń": 854,
      "Ġmouth": 855,
      "çķ": 856,
      "æĪĳçļĦ": 857,
      "Ġwill": 858,
      "ç©": 859,
      "ear": 860,
      "ç¾": 861,
      "Ġonly": 862,
      "Ġgu": 863,
      "Ġcont": 864,
      "å¿ĥ": 865,
      "Ġop": 866,
      "Ġright": 867,
      "aus": 868,
      "ç¶": 869,
      "èĢĮ": 870,
      "omet": 871,
      "Ġtwo": 872,
      "Ġpro": 873,
      "Ġkiss": 874,
      "æķ": 875,
      "ip": 876,
      "Ġpussy": 877,
      "Ġgood": 878,
      "rough": 879,
      "æ°": 880,
      "Ġpo": 881,
      "ks": 882,
      "ud": 883,
      "med": 884,
      "æĽ": 885,
      "æ¨£": 886,
      "Ġsay": 887,
      "Ġwho": 888,
      "è¼": 889,
      "em": 890,
      "nt": 891,
      "è¢": 892,
      "side": 893,
      "Ġwhile": 894,
      "Ġevery": 895,
      "Ġthought": 896,
      "Ġthrough": 897,
      "å°į": 898,
      ",âĢĿ": 899,
      "å·²": 900,
      "åĺ": 901,
      "iz": 902,
      "å±": 903,
      "Ġfo": 904,
      "ched": 905,
      "here": 906,
      "Ġneed": 907,
      "Ġbed": 908,
      "Ġopen": 909,
      "Ġtook": 910,
      "ä½ı": 911,
      "åº": 912,
      "æ¬": 913,
      "Ġroom": 914,
      "Ġmuch": 915,
      "Ġke": 916,
      "éĢ²": 917,
      "Ġgirl": 918,
      "çĤ": 919,
      "ire": 920,
      "æĦŁ": 921,
      "çĪ": 922,
      "ied": 923,
      "**": 924,
      "çŁ": 925,
      "çı": 926,
      "!\"": 927,
      "ä¼": 928,
      "Ġwal": 929,
      "Ġsomet": 930,
      "Ġthink": 931,
      "wn": 932,
      "pt": 933,
      "æ»": 934,
      "Ġagainst": 935,
      "è·": 936,
      "ÂłÂł": 937,
      "Ġafter": 938,
      "ãĢĤãĢį": 939,
      "He": 940,
      "Ġfirst": 941,
      "Ġour": 942,
      "Ġfing": 943,
      "è¶": 944,
      "Ġdoor": 945,
      "Ġpre": 946,
      "æĶ": 947,
      "Ġthing": 948,
      "åħ©": 949,
      "è¢«": 950,
      "Ġam": 951,
      "å¤©": 952,
      "é»ŀ": 953,
      "çĤº": 954,
      "ber": 955,
      "'m": 956,
      "Ġmade": 957,
      "ang": 958,
      "åıª": 959,
      "Ġbr": 960,
      "ated": 961,
      "å¿«": 962,
      "çİ": 963,
      "åĹ": 964,
      "å©": 965,
      "å¯": 966,
      "çĻ¼": 967,
      "Ġtr": 968,
      "ady": 969,
      "ment": 970,
      "ff": 971,
      "Ġleg": 972,
      "ah": 973,
      "Ġgl": 974,
      "ï¼ļãĢĮ": 975,
      "Ġim": 976,
      "Ġshould": 977,
      "Ġaway": 978,
      "Ġslow": 979,
      "é«Ķ": 980,
      "able": 981,
      "Ġpulled": 982,
      "åĨ": 983,
      "Ġho": 984,
      "thing": 985,
      "Ġfew": 986,
      "è®ĵ": 987,
      "ough": 988,
      "ction": 989,
      "ç¶ĵ": 990,
      "Ġsomething": 991,
      "Ġhere": 992,
      "Ġhands": 993,
      "éļ": 994,
      "anted": 995,
      "ious": 996,
      "å¥¹çļĦ": 997,
      "Ġwa": 998,
      "æĵ": 999,
      "å·±": 1000,
      "Ġreally": 1001,
      "Ġsmil": 1002,
      "ning": 1003,
      "Ġbegan": 1004,
      "Ġcum": 1005,
      "Ġboth": 1006,
      "Ġwent": 1007,
      "ä½Ĩ": 1008,
      "Ġunder": 1009,
      "çĶŁ": 1010,
      "Ġbit": 1011,
      "è¦º": 1012,
      "Ġbec": 1013,
      "be": 1014,
      "ug": 1015,
      "Ġlook": 1016,
      "ple": 1017,
      "ne": 1018,
      "mo": 1019,
      "She": 1020,
      "Ġsw": 1021,
      "èĩªå·±": 1022,
      "çĶ·": 1023,
      "Ġturned": 1024,
      "les": 1025,
      "å®¶": 1026,
      "Ġarm": 1027,
      "ĠYou": 1028,
      "éĺ": 1029,
      "èī": 1030,
      "Ġte": 1031,
      "Ġput": 1032,
      "Ġcame": 1033,
      "ĠHer": 1034,
      "åĽŀ": 1035,
      "éĤĬ": 1036,
      "è©": 1037,
      "Ġmake": 1038,
      "Ġfin": 1039,
      "åīį": 1040,
      "Ġtake": 1041,
      "Ġmom": 1042,
      "çľ¼": 1043,
      "xt": 1044,
      "Ġeach": 1045,
      "ree": 1046,
      "éĸĵ": 1047,
      "ä¹³": 1048,
      "ç«": 1049,
      "age": 1050,
      "----": 1051,
      "Ġac": 1052,
      "ç·Ĭ": 1053,
      "Ġhapp": 1054,
      "ity": 1055,
      "ç¾İ": 1056,
      "èģ²": 1057,
      "ried": 1058,
      "air": 1059,
      "ling": 1060,
      "aned": 1061,
      "riend": 1062,
      "Ġvery": 1063,
      "aw": 1064,
      "ble": 1065,
      "Ġnever": 1066,
      "è¼ķ": 1067,
      "çŁ¥": 1068,
      "æĪ¿": 1069,
      "ily": 1070,
      "Ġday": 1071,
      "å¤ļ": 1072,
      "pe": 1073,
      "Ġpleas": 1074,
      "Ġwanted": 1075,
      "ance": 1076,
      "ä¸ĢåĢĭ": 1077,
      "Ġknew": 1078,
      "Ġad": 1079,
      "per": 1080,
      "Ġshow": 1081,
      "å§Ĳ": 1082,
      "ens": 1083,
      "ãĢģ": 1084,
      "Ġdeep": 1085,
      "ĠWe": 1086,
      "ï¼ģãĢį": 1087,
      "çľŁ": 1088,
      "èĥ½": 1089,
      "igh": 1090,
      "ark": 1091,
      "éĽĻ": 1092,
      "av": 1093,
      "Ġinside": 1094,
      "æµ": 1095,
      "åħ§": 1096,
      "éĺ¿": 1097,
      "åĥ": 1098,
      "Ġsex": 1099,
      "hes": 1100,
      "Ġcou": 1101,
      "é«ĺ": 1102,
      "åı£": 1103,
      "Ġlips": 1104,
      "çī": 1105,
      "Ġwell": 1106,
      "è¨": 1107,
      "åĬĽ": 1108,
      "ching": 1109,
      "Ġtold": 1110,
      "æĳ": 1111,
      "Ġwar": 1112,
      "æ²Ĵæľī": 1113,
      "é¡": 1114,
      "Ġgra": 1115,
      "æĹ": 1116,
      "æĥħ": 1117,
      "Ġbeing": 1118,
      "Ġwasn": 1119,
      "éĥ": 1120,
      "Ġtry": 1121,
      "ped": 1122,
      "æ¬¡": 1123,
      "æĿ": 1124,
      "ĠTh": 1125,
      "ç¬": 1126,
      "Ġtong": 1127,
      "Ġhel": 1128,
      "æ´": 1129,
      "å¾ŀ": 1130,
      "Ġlegs": 1131,
      "æ¿": 1132,
      "Ġlove": 1133,
      "æıĴ": 1134,
      "Ġstr": 1135,
      "èī²": 1136,
      "ty": 1137,
      "Ġanother": 1138,
      "Ġleft": 1139,
      "Ġquick": 1140,
      "Ġtell": 1141,
      "ans": 1142,
      "å°ĩ": 1143,
      "åĨį": 1144,
      "ather": 1145,
      "ause": 1146,
      "èµ·ä¾Ĩ": 1147,
      "æ³": 1148,
      "ç²": 1149,
      "Ġslowly": 1150,
      "è¤": 1151,
      "Ġsec": 1152,
      "Ġunt": 1153,
      "Ġpe": 1154,
      "Ġcr": 1155,
      "ail": 1156,
      "Ġwhere": 1157,
      "ont": 1158,
      "ween": 1159,
      "äºĨä¸Ģ": 1160,
      "pping": 1161,
      "Ġsure": 1162,
      "Ġlooking": 1163,
      "æĦı": 1164,
      "ä¿": 1165,
      "Ġnext": 1166,
      "Ġdis": 1167,
      "çı¾": 1168,
      "Ġear": 1169,
      "ĠAs": 1170,
      "Ġside": 1171,
      "Ġent": 1172,
      "Ġown": 1173,
      "Ġsat": 1174,
      "Ġmoment": 1175,
      "Ġtongue": 1176,
      "çķ¶": 1177,
      "Ġsmiled": 1178,
      "Ġbetween": 1179,
      "Ġgre": 1180,
      "ä¹ĭ": 1181,
      "Ġnight": 1182,
      "Ġmin": 1183,
      "Ġclos": 1184,
      "ced": 1185,
      "ny": 1186,
      "åĶ": 1187,
      "ç¨": 1188,
      "Ġuntil": 1189,
      "It": 1190,
      "Ġdes": 1191,
      "åĥı": 1192,
      "åħ¥": 1193,
      "ful": 1194,
      "'d": 1195,
      "æľį": 1196,
      "Oh": 1197,
      "åı«": 1198,
      "ia": 1199,
      "get": 1200,
      "'re": 1201,
      "è²": 1202,
      "ob": 1203,
      "ale": 1204,
      "Ġcle": 1205,
      "Ġbig": 1206,
      "Ġsoft": 1207,
      "ock": 1208,
      "Ġbeh": 1209,
      "æĴ": 1210,
      "bbed": 1211,
      "æĪĳåĢĳ": 1212,
      "ild": 1213,
      "Ġapp": 1214,
      "Ġwhich": 1215,
      "è¿": 1216,
      "å¦Ĥ": 1217,
      "Ġreal": 1218,
      "Ġru": 1219,
      "åħĴ": 1220,
      "Ġsk": 1221,
      "çĦ¡": 1222,
      "Ġpart": 1223,
      "ten": 1224,
      "å¤ª": 1225,
      "ise": 1226,
      "æĸ¼": 1227,
      "Ġsuck": 1228,
      "åĲ§": 1229,
      "ves": 1230,
      "Ġpant": 1231,
      "ool": 1232,
      "ged": 1233,
      "è¤²": 1234,
      "Ġres": 1235,
      "Ġsqu": 1236,
      "è»": 1237,
      "åħ¬": 1238,
      "Ġtight": 1239,
      "ĠThey": 1240,
      "ating": 1241,
      "Ġtal": 1242,
      "èħ¿": 1243,
      "ream": 1244,
      "Ġsur": 1245,
      "ĠâĢ": 1246,
      "Ġcome": 1247,
      "éĩ": 1248,
      "Ġlast": 1249,
      "ĠAnd": 1250,
      "Ġwom": 1251,
      "Ġsaw": 1252,
      "å½": 1253,
      "ned": 1254,
      "ï¼ŁãĢį": 1255,
      "äºĭ": 1256,
      "ually": 1257,
      "Ġsmall": 1258,
      "most": 1259,
      "Ġcar": 1260,
      "ded": 1261,
      "Ġpr": 1262,
      "éĥ¨": 1263,
      "Ġcouldn": 1264,
      "Ġgetting": 1265,
      "__": 1266,
      "è¦ĭ": 1267,
      "èĥ": 1268,
      "Ġper": 1269,
      "çŃ": 1270,
      "çĿ": 1271,
      "å«": 1272,
      "Ġz": 1273,
      "Ġwalked": 1274,
      "Ġcontin": 1275,
      "çĻ½": 1276,
      "å·²ç¶ĵ": 1277,
      "Ġfriend": 1278,
      "æīį": 1279,
      "Ġbehind": 1280,
      "ee": 1281,
      "ĠMy": 1282,
      "æ¼": 1283,
      "act": 1284,
      "æīĢ": 1285,
      "ened": 1286,
      "ä»Ģ": 1287,
      "Ġrem": 1288,
      "ently": 1289,
      "ish": 1290,
      "na": 1291,
      "æ±": 1292,
      "Ġem": 1293,
      "ĠBut": 1294,
      "Ġfeeling": 1295,
      "åĺ´": 1296,
      "so": 1297,
      "æĩ": 1298,
      "åıĹ": 1299,
      "æĽ´": 1300,
      "'ll": 1301,
      "æ·«": 1302,
      "åħ¨": 1303,
      "Ġmind": 1304,
      "az": 1305,
      "æ£": 1306,
      "æŃ£": 1307,
      "åŃ¸": 1308,
      "Ġfront": 1309,
      "ached": 1310,
      "Ġminut": 1311,
      "æħ¢": 1312,
      "çĽ´": 1313,
      "den": 1314,
      "Ġfur": 1315,
      "irt": 1316,
      "Ġalmost": 1317,
      "å§ĭ": 1318,
      "Ġlight": 1319,
      "ips": 1320,
      "é¦": 1321,
      "ank": 1322,
      "ï¼İ": 1323,
      "Ġsch": 1324,
      "Ġrest": 1325,
      "Ġenough": 1326,
      "Ġcall": 1327,
      "èĦ": 1328,
      "ouse": 1329,
      "æ»¿": 1330,
      "åª½åª½": 1331,
      "å¹¾": 1332,
      "çµ¦": 1333,
      "ä»Ģéº¼": 1334,
      "Ġlau": 1335,
      "Ġgave": 1336,
      "wards": 1337,
      "Ġdr": 1338,
      "Ġhas": 1339,
      "Ġwork": 1340,
      "Ġwait": 1341,
      "ĠV": 1342,
      "èĻ": 1343,
      "çĲ": 1344,
      "åģļ": 1345,
      "Ġfingers": 1346,
      "Ġhelp": 1347,
      "!âĢĿ": 1348,
      "Ġhot": 1349,
      "åĤ": 1350,
      "éĸĭå§ĭ": 1351,
      "éķ": 1352,
      "çŁ¥éģĵ": 1353,
      "éķ·": 1354,
      "æĦĽ": 1355,
      "ater": 1356,
      "Ġthr": 1357,
      "éĢĻæ¨£": 1358,
      "ung": 1359,
      "æĶ¾": 1360,
      "Ġkeep": 1361,
      "ook": 1362,
      "æ¶": 1363,
      "Ġanything": 1364,
      "éĸĢ": 1365,
      "owed": 1366,
      "Ġend": 1367,
      "Ġnew": 1368,
      "Ġvo": 1369,
      "ner": 1370,
      "Ġonto": 1371,
      "ence": 1372,
      "Ġmoved": 1373,
      "Ġguy": 1374,
      "ĠHis": 1375,
      "ross": 1376,
      "Ġhimself": 1377,
      "æŀ": 1378,
      "èµ°": 1379,
      "Ġcare": 1380,
      "Ġbo": 1381,
      "Ġrel": 1382,
      "Ġhome": 1383,
      "æ°´": 1384,
      "åĽł": 1385,
      "What": 1386,
      "asm": 1387,
      "çĨ": 1388,
      "Ġhold": 1389,
      "åĪĨ": 1390,
      "è§": 1391,
      "Ġherself": 1392,
      "äºĽ": 1393,
      "Ġsit": 1394,
      "Ġbecause": 1395,
      "Ġlick": 1396,
      "Ġnod": 1397,
      "æīĵ": 1398,
      "ipp": 1399,
      "Ġmyself": 1400,
      "Ġever": 1401,
      "owing": 1402,
      "ways": 1403,
      "Ġthough": 1404,
      "Ġplay": 1405,
      "Ġsecond": 1406,
      "Ġdri": 1407,
      "æ¸": 1408,
      "ier": 1409,
      "æł": 1410,
      "orm": 1411,
      "åĲĳ": 1412,
      "ully": 1413,
      "å£": 1414,
      "Ġatt": 1415,
      "Ġquickly": 1416,
      "åĩºä¾Ĩ": 1417,
      "Ġfind": 1418,
      "Ġcontinu": 1419,
      "Ġdra": 1420,
      "sh": 1421,
      "Ġfound": 1422,
      "Ġer": 1423,
      "Ġsame": 1424,
      "ax": 1425,
      "Ġstood": 1426,
      "Ġbreast": 1427,
      "åĲĮ": 1428,
      "Ġhair": 1429,
      "int": 1430,
      "çļĦèĤ": 1431,
      "Ġpass": 1432,
      "ĠCh": 1433,
      "Ġorg": 1434,
      "éľ": 1435,
      "çĭ": 1436,
      "è¦ª": 1437,
      "è¡£": 1438,
      "èĤī": 1439,
      "its": 1440,
      "å®Į": 1441,
      "å·´": 1442,
      "up": 1443,
      "ç´ħ": 1444,
      "æ½": 1445,
      "çĶ·äºº": 1446,
      "Ġmost": 1447,
      "aked": 1448,
      "âĢ¦âĢ¦ãĢį": 1449,
      "æĢ§": 1450,
      "Ġdick": 1451,
      "Ġset": 1452,
      "red": 1453,
      "å¼µ": 1454,
      "å¹´": 1455,
      "çª": 1456,
      "Ġi": 1457,
      "Ġste": 1458,
      "Ġmaking": 1459,
      "æ°£": 1460,
      "Ã¼": 1461,
      "Ġtop": 1462,
      "æĲ": 1463,
      "æ¥": 1464,
      "ä½ľ": 1465,
      "ince": 1466,
      "åīĽ": 1467,
      "Ġel": 1468,
      "Ġspe": 1469,
      "Ġsto": 1470,
      "Ġonce": 1471,
      "hy": 1472,
      "Ġarms": 1473,
      "ç¬ĳ": 1474,
      "Ġyear": 1475,
      "Ġthings": 1476,
      "èĤ¡": 1477,
      "éĽŀ": 1478,
      "Ġinc": 1479,
      "ä¾¿": 1480,
      "èĬ": 1481,
      "Ġbel": 1482,
      "æĳ¸": 1483,
      "ressed": 1484,
      "Ġstand": 1485,
      "Ġflo": 1486,
      "We": 1487,
      "Ġsmile": 1488,
      "ĠSt": 1489,
      "Ġchest": 1490,
      "è·Ł": 1491,
      "ub": 1492,
      "pr": 1493,
      "Ġact": 1494,
      "ower": 1495,
      "~~": 1496,
      "å¤ĸ": 1497,
      "Ġdro": 1498,
      "Th": 1499,
      "Ġdoing": 1500,
      "Ġgi": 1501,
      "ised": 1502,
      "mm": 1503,
      "Ġseemed": 1504,
      "ual": 1505,
      "Ġrepl": 1506,
      "ase": 1507,
      "Ġdec": 1508,
      "Ġvoice": 1509,
      "ever": 1510,
      "ory": 1511,
      "ç©´": 1512,
      "Ġreached": 1513,
      "Ġtrying": 1514,
      "gether": 1515,
      "Ġwet": 1516,
      "æ£Ĵ": 1517,
      "room": 1518,
      "åĵ¥": 1519,
      "Ġdie": 1520,
      "Ġheard": 1521,
      "ren": 1522,
      "Ġclose": 1523,
      "èİ": 1524,
      "Ġthose": 1525,
      "æĢİ": 1526,
      "Ġalways": 1527,
      "åĢĻ": 1528,
      "Ġslid": 1529,
      "å¼Ħ": 1530,
      "æģ": 1531,
      "Ġplace": 1532,
      "aring": 1533,
      "è¥": 1534,
      "ready": 1535,
      "Ġsoon": 1536,
      "å¦¹": 1537,
      "bbing": 1538,
      "aught": 1539,
      "ons": 1540,
      "æľĢ": 1541,
      "Ġtogether": 1542,
      "Ġsn": 1543,
      "Ġits": 1544,
      "ci": 1545,
      "Ġwr": 1546,
      "Ġret": 1547,
      "åł": 1548,
      "Ġshort": 1549,
      "ike": 1550,
      "å©Ĩ": 1551,
      "joy": 1552,
      "Ġthro": 1553,
      "Ġes": 1554,
      "ition": 1555,
      "Ġsound": 1556,
      "ç§": 1557,
      "èģ½": 1558,
      "aster": 1559,
      "'ve": 1560,
      "ary": 1561,
      "æ¢": 1562,
      "æĪĲ": 1563,
      "æŁ": 1564,
      "Yes": 1565,
      "åĹİ": 1566,
      "åºĬ": 1567,
      "Ġbu": 1568,
      "ä¸ī": 1569,
      "é£": 1570,
      "ç¨®": 1571,
      "æİ¥": 1572,
      "Ġalready": 1573,
      "ness": 1574,
      "Ġblack": 1575,
      "æŃ¤": 1576,
      "Ġalso": 1577,
      "Ġold": 1578,
      "Ġlar": 1579,
      "Ġpushed": 1580,
      "çļĦéĻ°": 1581,
      "Ġorgasm": 1582,
      "leep": 1583,
      "ger": 1584,
      "è±": 1585,
      "Ġstart": 1586,
      "eah": 1587,
      "Ġrun": 1588,
      "è©±": 1589,
      "Ġboy": 1590,
      "ople": 1591,
      "Ġcontinued": 1592,
      "åħī": 1593,
      "å¯¦": 1594,
      "æĮĩ": 1595,
      "Ġbetter": 1596,
      "æĺİ": 1597,
      "Ġcur": 1598,
      "Ġpleasure": 1599,
      "Ġminutes": 1600,
      "Ġenjoy": 1601,
      "Ġtou": 1602,
      "åįģ": 1603,
      "ç©¿": 1604,
      "cted": 1605,
      "Ġswe": 1606,
      "åį»": 1607,
      "Ġfinger": 1608,
      "Ġhips": 1609,
      "Well": 1610,
      "åı¯ä»¥": 1611,
      "ret": 1612,
      "ix": 1613,
      "alls": 1614,
      "Ġlife": 1615,
      "åķı": 1616,
      "ately": 1617,
      "Ġmay": 1618,
      "Ġgive": 1619,
      "ek": 1620,
      "åĿ": 1621,
      "ĠThat": 1622,
      "Ġheld": 1623,
      "That": 1624,
      "Ġ.": 1625,
      "aut": 1626,
      "...\"": 1627,
      "hh": 1628,
      "ipped": 1629,
      "Ġexpl": 1630,
      "ç¸": 1631,
      "Ġmove": 1632,
      "ib": 1633,
      "å°ĳ": 1634,
      "No": 1635,
      "å¸¸": 1636,
      "éŁ": 1637,
      "éħ": 1638,
      "Ġpeople": 1639,
      "Ġmus": 1640,
      "unt": 1641,
      "oud": 1642,
      "Ġdone": 1643,
      "çļĦèº«": 1644,
      "ange": 1645,
      "Ġwoman": 1646,
      "å±ģ": 1647,
      "ĠThis": 1648,
      "Ġhal": 1649,
      "ĠThen": 1650,
      "Ġkissed": 1651,
      "Ġslight": 1652,
      "Ġnodded": 1653,
      "åıĭ": 1654,
      "Ġhouse": 1655,
      "Ġgirls": 1656,
      "Ġword": 1657,
      "Ġfinally": 1658,
      "Ġwond": 1659,
      "uff": 1660,
      "ared": 1661,
      "ä¸Ģä¸ĭ": 1662,
      "æļ": 1663,
      "Ġtried": 1664,
      "Ġfloor": 1665,
      "Ġlot": 1666,
      "Ġstro": 1667,
      "ĠWhen": 1668,
      "èĻķ": 1669,
      "Ġgrabbed": 1670,
      "Ġopened": 1671,
      "ĠAl": 1672,
      "ĠIn": 1673,
      "è³": 1674,
      "Ġwarm": 1675,
      "Ġinst": 1676,
      "åĪ¥": 1677,
      "å¸¶": 1678,
      "oke": 1679,
      "Ġexc": 1680,
      "æĬ½": 1681,
      "Ġgrin": 1682,
      "åģľ": 1683,
      "çĪ¸": 1684,
      "Ġbreath": 1685,
      "oh": 1686,
      "Ġpaw": 1687,
      "****": 1688,
      "Ġpain": 1689,
      "Ġthree": 1690,
      "Ġfucking": 1691,
      "Ġnipp": 1692,
      "åĮ": 1693,
      "Ġ1": 1694,
      "äºĮ": 1695,
      "çĦ¶å¾Į": 1696,
      "èĨ": 1697,
      "--------": 1698,
      "Ġstop": 1699,
      "ering": 1700,
      "å¦³": 1701,
      "Ġtowards": 1702,
      "å¸«": 1703,
      "Ġfoll": 1704,
      "umb": 1705,
      "ÂłÂłÂłÂł": 1706,
      "ided": 1707,
      "åĬł": 1708,
      "å°Ħ": 1709,
      "ä¸įæĺ¯": 1710,
      "Ġyoung": 1711,
      "olf": 1712,
      "Ġreplied": 1713,
      "ho": 1714,
      "day": 1715,
      "æĸ¹": 1716,
      "Ġ2": 1717,
      "åĪ°äºĨ": 1718,
      "èĢģå©Ĩ": 1719,
      "Ġfar": 1720,
      "inking": 1721,
      "éĽŀå·´": 1722,
      "Ġsig": 1723,
      "Ġacross": 1724,
      "æ¶²": 1725,
      "åĲ¸": 1726,
      "Ġwhy": 1727,
      "sw": 1728,
      "Ġhop": 1729,
      "Ġbreasts": 1730,
      "Ġhaving": 1731,
      "å¹¹": 1732,
      "Ġmight": 1733,
      "Ġcover": 1734,
      "çļĦå°ı": 1735,
      "ished": 1736,
      "ably": 1737,
      "Ġlater": 1738,
      "ized": 1739,
      "Ġmat": 1740,
      "åĽłçĤº": 1741,
      "ump": 1742,
      "ord": 1743,
      "Ġdoes": 1744,
      "Ġnothing": 1745,
      "çĶ±": 1746,
      "Ã¤": 1747,
      "Ġsince": 1748,
      "igg": 1749,
      "Ġsurpr": 1750,
      "Ġneck": 1751,
      "Ġob": 1752,
      "ä¹³æĪ¿": 1753,
      "åĿĲ": 1754,
      "å¥³äºº": 1755,
      "ming": 1756,
      "Ġbest": 1757,
      "ĠZ": 1758,
      "Ġgro": 1759,
      "èĦ«": 1760,
      "Ġstopped": 1761,
      "ĠThere": 1762,
      "ention": 1763,
      "ï½": 1764,
      "å®ļ": 1765,
      "åħ¶": 1766,
      "zz": 1767,
      "icked": 1768,
      "Ġwater": 1769,
      "èĩī": 1770,
      "Ġlarge": 1771,
      "å»": 1772,
      "Ġsil": 1773,
      "my": 1774,
      "Ġwhis": 1775,
      "çİ©": 1776,
      "Ġnear": 1777,
      "Ġalong": 1778,
      "Ġwatched": 1779,
      "Ġhalf": 1780,
      "Ġkind": 1781,
      "å¼·": 1782,
      "åĶĩ": 1783,
      "Ġfull": 1784,
      "å¾Ģ": 1785,
      "Ġcomple": 1786,
      "ï¼İï¼İ": 1787,
      "right": 1788,
      "Ġkept": 1789,
      "ha": 1790,
      "Ġforward": 1791,
      "ä¸¦": 1792,
      "æº": 1793,
      "åľ¨æĪĳ": 1794,
      "Ġred": 1795,
      "Ġthrust": 1796,
      "éĽ»": 1797,
      "æ·±": 1798,
      "Ġansw": 1799,
      "ï½ŀ": 1800,
      "ĠU": 1801,
      "So": 1802,
      "ible": 1803,
      "Ġwithout": 1804,
      "ained": 1805,
      "co": 1806,
      "ĠAn": 1807,
      "Ġcomp": 1808,
      "Ġready": 1809,
      "Ġmean": 1810,
      "è¶Ĭ": 1811,
      "å¾®": 1812,
      "Ġlay": 1813,
      "Ġdark": 1814,
      "ç½": 1815,
      "çĹ": 1816,
      "åĹ¯": 1817,
      "Ġgently": 1818,
      "åħĪ": 1819,
      "Ġnice": 1820,
      "Ġph": 1821,
      "éĹ": 1822,
      "Ġnaked": 1823,
      "ĠMar": 1824,
      "fully": 1825,
      "Ġtaking": 1826,
      "Ġmoan": 1827,
      "ĠSo": 1828,
      "gg": 1829,
      "ĠBe": 1830,
      "rew": 1831,
      "Ġtable": 1832,
      "fect": 1833,
      "æĩī": 1834,
      "æĢİéº¼": 1835,
      "Ġfill": 1836,
      "iv": 1837,
      "ç¹": 1838,
      "Ġser": 1839,
      "ç®": 1840,
      "é¾": 1841,
      "æ¯į": 1842,
      "ä¸įè¦ģ": 1843,
      "çļĦæĻ": 1844,
      "ç¿": 1845,
      "Ġair": 1846,
      "æµģ": 1847,
      "Ġloud": 1848,
      "Ġeas": 1849,
      "Ġau": 1850,
      "Ġimp": 1851,
      "Ġmet": 1852,
      "å¬": 1853,
      "çº": 1854,
      "Ġsho": 1855,
      "ç²¾": 1856,
      "æĻļ": 1857,
      "çļĦèĤī": 1858,
      "tain": 1859,
      "Ġstra": 1860,
      "Ġused": 1861,
      "ä»Ĭ": 1862,
      "Ġ'": 1863,
      "Ġtra": 1864,
      "å¨": 1865,
      "Ġgas": 1866,
      "less": 1867,
      "Ġdif": 1868,
      "éĢĻåĢĭ": 1869,
      "Ġroll": 1870,
      "ither": 1871,
      "éĨ": 1872,
      "èĳĹæĪĳ": 1873,
      "Ġstay": 1874,
      "Ġfeet": 1875,
      "Ġreturn": 1876,
      "....": 1877,
      "çľĭåĪ°": 1878,
      "åĳ¢": 1879,
      "aid": 1880,
      "Ġcour": 1881,
      "æ¯Ķ": 1882,
      "read": 1883,
      "éĻ£": 1884,
      "Ġexp": 1885,
      "Ġhour": 1886,
      "dden": 1887,
      "æŃ»": 1888,
      "Ġhor": 1889,
      "çĨ±": 1890,
      "æĸĩ": 1891,
      "Ġhur": 1892,
      "Ġqui": 1893,
      "And": 1894,
      "rent": 1895,
      "Ġclot": 1896,
      "åĻ": 1897,
      "Ġaw": 1898,
      "kay": 1899,
      "çŃī": 1900,
      "åıį": 1901,
      "Ġmoaned": 1902,
      "éĤĦæĺ¯": 1903,
      "Ġsudden": 1904,
      "ian": 1905,
      "ions": 1906,
      "Ġ-": 1907,
      "Ġden": 1908,
      "Ġsomeone": 1909,
      "Ġclit": 1910,
      "åĳĢ": 1911,
      "ä¼¸": 1912,
      "ä¼¼": 1913,
      "Ġsens": 1914,
      "Ġyet": 1915,
      "ĠAfter": 1916,
      "è¡Į": 1917,
      "ife": 1918,
      "åĸĶ": 1919,
      "ä½¿": 1920,
      "Ġhu": 1921,
      "ä¸Ģæ¬¡": 1922,
      "Ġtimes": 1923,
      "ening": 1924,
      "lle": 1925,
      "ä¸Ķ": 1926,
      "Ġseen": 1927,
      "åįĬ": 1928,
      "ined": 1929,
      "å±ģèĤ¡": 1930,
      "Ġbad": 1931,
      "çļĦå¤§": 1932,
      "ä¸ĢéĤĬ": 1933,
      "Ġconf": 1934,
      "æĭī": 1935,
      "arry": 1936,
      "Ġint": 1937,
      "Ġelse": 1938,
      "çı¾åľ¨": 1939,
      "Ġcoming": 1940,
      "Ġcut": 1941,
      "ç¥": 1942,
      "Ġran": 1943,
      "chen": 1944,
      "Ġwhite": 1945,
      "orry": 1946,
      "æĬ±": 1947,
      "éľ²": 1948,
      "vers": 1949,
      "æľ¬": 1950,
      "Ġeverything": 1951,
      "Ġsleep": 1952,
      "Ġslightly": 1953,
      "aced": 1954,
      "ghed": 1955,
      "cing": 1956,
      "Ġmor": 1957,
      "icht": 1958,
      "çªģ": 1959,
      "åĲĥ": 1960,
      "As": 1961,
      "æį": 1962,
      "oun": 1963,
      "éĢ£": 1964,
      "åŃ©": 1965,
      "æ©": 1966,
      "âĢĶ": 1967,
      "å°±æĺ¯": 1968,
      "Ġsha": 1969,
      "çļĦæĻĤ": 1970,
      "ĠIf": 1971,
      "Ġhear": 1972,
      "Ġtail": 1973,
      "Ġbeaut": 1974,
      "åħ§è¤²": 1975,
      "èĪĪ": 1976,
      "çĿ¡": 1977,
      "Ġcomplete": 1978,
      "Ġclosed": 1979,
      "Ġein": 1980,
      "Ġder": 1981,
      "Ġthroat": 1982,
      "Ġcouple": 1983,
      "ĠWith": 1984,
      "eks": 1985,
      "ĠĠ": 1986,
      "Ġgreat": 1987,
      "____": 1988,
      "èĪĴ": 1989,
      "å¼Ł": 1990,
      "æľĽ": 1991,
      "åĲ»": 1992,
      "æ¿Ģ": 1993,
      "eth": 1994,
      "ult": 1995,
      "Ġih": 1996,
      "ured": 1997,
      "ister": 1998,
      "reat": 1999,
      "Ġleaned": 2000,
      "Ġap": 2001,
      "Ġleast": 2002,
      "çĽ¸": 2003,
      "imp": 2004,
      "æĦŁè¦º": 2005,
      "ott": 2006,
      "Ġneeded": 2007,
      "éĢĻæĻĤ": 2008,
      "iced": 2009,
      "Ġpoint": 2010,
      "Ġyears": 2011,
      "èŃ": 2012,
      "cc": 2013,
      "ason": 2014,
      "Ġsuch": 2015,
      "çģ": 2016,
      "Ġfun": 2017,
      "Ġwra": 2018,
      "æĮº": 2019,
      "çĲĨ": 2020,
      "ĠWhat": 2021,
      "mer": 2022,
      "è»Ĭ": 2023,
      "Ġschool": 2024,
      "ĠDan": 2025,
      "Ġhum": 2026,
      "oll": 2027,
      "ä»ĸåĢĳ": 2028,
      "Ġmany": 2029,
      "ings": 2030,
      "æķ´": 2031,
      "æīĢä»¥": 2032,
      "çļĦæĦ": 2033,
      "row": 2034,
      "Ġremem": 2035,
      "eez": 2036,
      "ä¹Łä¸į": 2037,
      "Ġable": 2038,
      "Yeah": 2039,
      "éĮ": 2040,
      "Ġlaughed": 2041,
      "Ġfam": 2042,
      "Ġwolf": 2043,
      "vent": 2044,
      "çļĦèĩ": 2045,
      "ited": 2046,
      "Ġscream": 2047,
      "Ġmust": 2048,
      "ä¸»": 2049,
      "èĲ": 2050,
      "Ġbar": 2051,
      "ush": 2052,
      "Ġpret": 2053,
      "Ġhit": 2054,
      "ina": 2055,
      "éĻ½": 2056,
      "æł¹": 2057,
      "æĭ¿": 2058,
      "è®ĵæĪĳ": 2059,
      "ä¹İ": 2060,
      "Ġquite": 2061,
      "¡¬": 2062,
      "Ġdem": 2063,
      "Ġresp": 2064,
      "ene": 2065,
      "Ġyes": 2066,
      "Ġprob": 2067,
      "Ġzu": 2068,
      "æĹ©": 2069,
      "æ¢Ŀ": 2070,
      "åĸľ": 2071,
      "äº¤": 2072,
      "éĽĸ": 2073,
      "Ġmass": 2074,
      "iously": 2075,
      "Ġwouldn": 2076,
      "Ġide": 2077,
      "Ġsupp": 2078,
      "ç¦": 2079,
      "Ġpretty": 2080,
      "Ġmon": 2081,
      "æ¿ķ": 2082,
      "Ġbutt": 2083,
      "Ġpos": 2084,
      "Ġmorning": 2085,
      "Ġbro": 2086,
      "èĭ": 2087,
      "Ġdel": 2088,
      "Ġwatching": 2089,
      "éĽ£": 2090,
      "Ġheart": 2091,
      "èİĸ": 2092,
      "Ġpants": 2093,
      "Ġguess": 2094,
      "Ġdrag": 2095,
      "éĢĻéº¼": 2096,
      "ushed": 2097,
      "éļ¨": 2098,
      "ize": 2099,
      "è«": 2100,
      "æŀľ": 2101,
      "é©": 2102,
      "Ġspread": 2103,
      "ĠNo": 2104,
      "Ġthigh": 2105,
      "çĩ": 2106,
      "Ġsich": 2107,
      "ç¡¬": 2108,
      "æ¸ħ": 2109,
      "è¾": 2110,
      "èĢģå¸«": 2111,
      "æŁĶ": 2112,
      "Ġcourse": 2113,
      "å«Ĥ": 2114,
      "èĥ¸": 2115,
      "akes": 2116,
      "ex": 2117,
      "iful": 2118,
      "Ġknees": 2119,
      "ik": 2120,
      "Ġuse": 2121,
      "Ġjo": 2122,
      "é»ĳ": 2123,
      "å®¤": 2124,
      "Ġtalk": 2125,
      "Ġquiet": 2126,
      "Ġsqueez": 2127,
      "Ġcor": 2128,
      "Ġtri": 2129,
      "Ġleave": 2130,
      "çīĩ": 2131,
      "æĤ": 2132,
      "Ġmem": 2133,
      "Ġeye": 2134,
      "Ġsays": 2135,
      "ash": 2136,
      "æ³ķ": 2137,
      "My": 2138,
      "Ġbare": 2139,
      "Ġfell": 2140,
      "æ©Ł": 2141,
      "Ġbra": 2142,
      "ä¸ĭä¾Ĩ": 2143,
      "Ġballs": 2144,
      "ĠâĢĵ": 2145,
      "ically": 2146,
      "Ġthese": 2147,
      "ric": 2148,
      "add": 2149,
      "Ġcat": 2150,
      "çļĦè¡": 2151,
      "å¬Į": 2152,
      "Ġactually": 2153,
      "ying": 2154,
      "çľĭèĳĹ": 2155,
      "Ġdiffe": 2156,
      "è½": 2157,
      "Ġnipples": 2158,
      "æŃ¡": 2159,
      "é¦Ļ": 2160,
      "èĪ¬": 2161,
      "Ġpers": 2162,
      "å«©": 2163,
      "ict": 2164,
      "cus": 2165,
      "Ġquest": 2166,
      "äº«": 2167,
      "æ¯ı": 2168,
      "éĽĻæīĭ": 2169,
      "ĠSh": 2170,
      "Ġhigh": 2171,
      "å¥¶": 2172,
      "Ġshirt": 2173,
      "æħ¢æħ¢": 2174,
      "Ġmen": 2175,
      "But": 2176,
      "ä½į": 2177,
      "Ġmeet": 2178,
      "Ġguys": 2179,
      "Ġpress": 2180,
      "ç¢": 2181,
      "Ġtits": 2182,
      "éĽª": 2183,
      "Ġground": 2184,
      "çµ²": 2185,
      "èĪĶ": 2186,
      "çĮ": 2187,
      "éĹľ": 2188,
      "âĢ¦.": 2189,
      "Ġsoftly": 2190,
      "Ġbus": 2191,
      "çļĦèĥ": 2192,
      "é¨": 2193,
      "airs": 2194,
      "Ġthinking": 2195,
      "Ġask": 2196,
      "Ġlif": 2197,
      "Ġwhole": 2198,
      "aving": 2199,
      "fort": 2200,
      "Ġshoulder": 2201,
      "å¤«": 2202,
      "amp": 2203,
      "Ġhappened": 2204,
      "Ġholding": 2205,
      "og": 2206,
      "éºĹ": 2207,
      "ç´°": 2208,
      "vel": 2209,
      "Ġgri": 2210,
      "Ġwhisp": 2211,
      "Ġshaft": 2212,
      "ä½Ĩæĺ¯": 2213,
      "Ġbeautiful": 2214,
      "ging": 2215,
      "éŁ³": 2216,
      "Ġnoticed": 2217,
      "çĶ¨åĬĽ": 2218,
      "çļĦæĻĤåĢĻ": 2219,
      "Ġclothes": 2220,
      "Ġfall": 2221,
      "Ġpast": 2222,
      "Ġmoving": 2223,
      "Ġsever": 2224,
      "arent": 2225,
      "Ġskin": 2226,
      "çħ": 2227,
      "ä¹ħ": 2228,
      "è®Ĭ": 2229,
      "Ġclear": 2230,
      "Ġbegin": 2231,
      "cy": 2232,
      "rest": 2233,
      "èĪĴæľį": 2234,
      "ä¸Ģæ¨£": 2235,
      "æ±Ĥ": 2236,
      "åİŁ": 2237,
      "Ġfriends": 2238,
      "Ġra": 2239,
      "pect": 2240,
      "èķ": 2241,
      "Ġfore": 2242,
      "è½ī": 2243,
      "æīĭæĮĩ": 2244,
      "ides": 2245,
      "èı": 2246,
      "lease": 2247,
      "Ġpulling": 2248,
      "ç¬¬": 2249,
      "Ġname": 2250,
      "ä¸įä½ı": 2251,
      "Ġacc": 2252,
      "Ġfree": 2253,
      "Ġshook": 2254,
      "èº": 2255,
      "ru": 2256,
      "åħ·": 2257,
      "è¼ķè¼ķ": 2258,
      "Ġthick": 2259,
      "Ġidea": 2260,
      "çªģçĦ¶": 2261,
      "Ġ(": 2262,
      "Ġwords": 2263,
      "iff": 2264,
      "Ġpower": 2265,
      "Ġdecided": 2266,
      "Ġseveral": 2267,
      "æ»ĳ": 2268,
      "Ġprobably": 2269,
      "æ´Ĺ": 2270,
      "Ġplan": 2271,
      "Ġshot": 2272,
      "Ġclim": 2273,
      "å¿į": 2274,
      "aged": 2275,
      "Ġmine": 2276,
      "ohn": 2277,
      "åħ©åĢĭ": 2278,
      "Ġsie": 2279,
      "Ġwide": 2280,
      "çĹĽ": 2281,
      "éĽĸçĦ¶": 2282,
      "è¦ºå¾Ĺ": 2283,
      "Ġins": 2284,
      "ird": 2285,
      "åĪº": 2286,
      "Ġstanding": 2287,
      "äº«åıĹ": 2288,
      "Ġshower": 2289,
      "è»Ł": 2290,
      "Ġpur": 2291,
      "Ġcons": 2292,
      "è¡¨": 2293,
      "èĪĩ": 2294,
      "Ã¶": 2295,
      "æĴ«": 2296,
      "å¹«": 2297,
      "é¦¬": 2298,
      "erv": 2299,
      "Ġposition": 2300,
      "Ġunderst": 2301,
      "du": 2302,
      "Ġcloser": 2303,
      "no": 2304,
      "rought": 2305,
      "Ġbelie": 2306,
      "Ġcra": 2307,
      "ors": 2308,
      "Ġgiving": 2309,
      "Ġbath": 2310,
      "Ġbreat": 2311,
      "æ½®": 2312,
      "Ġread": 2313,
      "Ġcalled": 2314,
      "æĸ·": 2315,
      "èº«ä¸Ĭ": 2316,
      "å¥®": 2317,
      "Ġinv": 2318,
      "Ġcompletely": 2319,
      "Ġphone": 2320,
      "ĠâĢĺ": 2321,
      "ĠOn": 2322,
      "rem": 2323,
      "ove": 2324,
      "Ġmother": 2325,
      "èĬ±": 2326,
      "Ġlow": 2327,
      "bs": 2328,
      "ä¸Ģèµ·": 2329,
      "åĲĪ": 2330,
      "é¤": 2331,
      "ä¸įéģİ": 2332,
      "Ġwind": 2333,
      "Ġbab": 2334,
      "ms": 2335,
      "Ġbrought": 2336,
      "tered": 2337,
      "ç«Ł": 2338,
      "Ġsitting": 2339,
      "ĠAll": 2340,
      "ract": 2341,
      "çļĦèħ": 2342,
      "âĢŀ": 2343,
      "Ġtip": 2344,
      "Ġgrow": 2345,
      "att": 2346,
      "uring": 2347,
      "Ġsweet": 2348,
      "Ġhappy": 2349,
      "Ġsuddenly": 2350,
      "app": 2351,
      "é¾ľ": 2352,
      "Ġwall": 2353,
      "Ġexper": 2354,
      "é¬": 2355,
      "Ġfour": 2356,
      "çĥ": 2357,
      "Ġdas": 2358,
      "Ġauf": 2359,
      "Ġdress": 2360,
      "çºĮ": 2361,
      "Ġperson": 2362,
      "Ġtast": 2363,
      "Ġgigg": 2364,
      "åľ¨å¥¹": 2365,
      "ä¸Ģé»ŀ": 2366,
      "æĪĳä¸į": 2367,
      "éļ»": 2368,
      "Ġdire": 2369,
      "Ġclean": 2370,
      "éłĤ": 2371,
      "Ġwhispered": 2372,
      "Ġattention": 2373,
      "Ġbreak": 2374,
      "unk": 2375,
      "çĪ½": 2376,
      "Ġhole": 2377,
      "ial": 2378,
      "Ġplease": 2379,
      "ces": 2380,
      "æī¾": 2381,
      "Ġeveryone": 2382,
      "ç«ĭ": 2383,
      "ense": 2384,
      "åº¦": 2385,
      "ical": 2386,
      "ä»ĸçļĦ": 2387,
      "Ġdifferent": 2388,
      "Ġblood": 2389,
      "Ġinter": 2390,
      "Ġpanties": 2391,
      "de": 2392,
      "Ġlock": 2393,
      "ĠMr": 2394,
      "ä½ķ": 2395,
      "åļ": 2396,
      "Ġbur": 2397,
      "rie": 2398,
      "åķ¦": 2399,
      "èº«é«Ķ": 2400,
      "ara": 2401,
      "udd": 2402,
      "Ġed": 2403,
      "Ġhurt": 2404,
      "Ġfig": 2405,
      "Ġsucking": 2406,
      "Ġposs": 2407,
      "Ġwife": 2408,
      "éĻ°éģĵ": 2409,
      "èħ³": 2410,
      "night": 2411,
      "Ġworld": 2412,
      "ime": 2413,
      "Ġlaugh": 2414,
      "ç¥ŀ": 2415,
      "Ġcunt": 2416,
      "ular": 2417,
      "Ġemb": 2418,
      "Ġmid": 2419,
      "ect": 2420,
      "ĠY": 2421,
      "Ġrubbing": 2422,
      "head": 2423,
      "Ġfucked": 2424,
      "é¾ľéłŃ": 2425,
      "å¡": 2426,
      "èĢģåħ¬": 2427,
      "Ġbuild": 2428,
      "Ġentire": 2429,
      "Ġmaybe": 2430,
      "la": 2431,
      "Ġhadn": 2432,
      "Ġharder": 2433,
      "ugged": 2434,
      "medi": 2435,
      "ĠNot": 2436,
      "æĺ¯æĪĳ": 2437,
      "Ġord": 2438,
      "çļĦæĬ": 2439,
      "èĪĮ": 2440,
      "ets": 2441,
      "å¦»": 2442,
      "Ġkit": 2443,
      "ead": 2444,
      "Ġperfect": 2445,
      "éĽ¢": 2446,
      "Ġmusc": 2447,
      "å§¨": 2448,
      "Ġapart": 2449,
      "ph": 2450,
      "è¬": 2451,
      "å¹³": 2452,
      "ices": 2453,
      "ä»»": 2454,
      "Ġeither": 2455,
      "lex": 2456,
      "æĢ¥": 2457,
      "rol": 2458,
      "Ġcomm": 2459,
      "Ġinte": 2460,
      "Ġstre": 2461,
      "They": 2462,
      "Ġcaus": 2463,
      "Ġpressed": 2464,
      "umped": 2465,
      "Ġmiss": 2466,
      "cept": 2467,
      "åĲŁ": 2468,
      "ç«Ļ": 2469,
      "æ¼¸": 2470,
      "This": 2471,
      "èĵ": 2472,
      "Ġheav": 2473,
      "Ġwon": 2474,
      "ä»¶": 2475,
      "èĢĮä¸Ķ": 2476,
      "Ġrunning": 2477,
      "ations": 2478,
      "èĳĹå¥¹": 2479,
      "æ¯Ľ": 2480,
      "any": 2481,
      "å§Ĳå§Ĳ": 2482,
      "Ġsorry": 2483,
      "Ġdist": 2484,
      "Ġfact": 2485,
      "ann": 2486,
      "è£Ļ": 2487,
      "çļĦä¸Ģ": 2488,
      "Ġstep": 2489,
      "Ġfinished": 2490,
      "Ġfox": 2491,
      "Ġpen": 2492,
      "hel": 2493,
      "ĠJust": 2494,
      "åºĬä¸Ĭ": 2495,
      "ames": 2496,
      "Ġvis": 2497,
      "Ġpri": 2498,
      "è¿ĳ": 2499,
      "æĢķ": 2500,
      "çµĤ": 2501,
      "Ġju": 2502,
      "Ġtalking": 2503,
      "Ġfire": 2504,
      "Ġstrong": 2505,
      "friend": 2506,
      "èĹ": 2507,
      "è§£": 2508,
      "Ġstom": 2509,
      "Ġwonder": 2510,
      "éĢ²åİ»": 2511,
      "Ġstraight": 2512,
      "ĠHow": 2513,
      "Ġgone": 2514,
      "åĽĽ": 2515,
      "Ġworking": 2516,
      "Ġwearing": 2517,
      "Ġlooks": 2518,
      "Ġchuck": 2519,
      "Ġmar": 2520,
      "Ġcaught": 2521,
      "Ġhus": 2522,
      "Ġstepped": 2523,
      "Ġworked": 2524,
      "çļĦæ·": 2525,
      "æĪĳå°±": 2526,
      "oney": 2527,
      "Ġfollowed": 2528,
      "Ġdays": 2529,
      "Ġanyone": 2530,
      "Ġrelax": 2531,
      "è¥¿": 2532,
      "Ġwaiting": 2533,
      "ows": 2534,
      "Ġreg": 2535,
      "Ġothers": 2536,
      "ãĢİ": 2537,
      "Ġhung": 2538,
      "Ġimmedi": 2539,
      "æĽ¸": 2540,
      "çİī": 2541,
      "iver": 2542,
      "Ġkill": 2543,
      "ĠNow": 2544,
      "å£ĵ": 2545,
      "Ġpat": 2546,
      "ä¸ĢçĽ´": 2547,
      "Ġjob": 2548,
      "éĿľ": 2549,
      "åĳ¼": 2550,
      "ãĢı": 2551,
      "åıĬ": 2552,
      "eng": 2553,
      "Ġtouch": 2554,
      "Ġwatch": 2555,
      "Ġpar": 2556,
      "æĪĳä¹Ł": 2557,
      "âĢ¦\"": 2558,
      "Ġrock": 2559,
      "Ġrec": 2560,
      "Ġlonger": 2561,
      "Ġkissing": 2562,
      "ĠJen": 2563,
      "ired": 2564,
      "å¥Ĺ": 2565,
      "Ġfoot": 2566,
      "Ġstory": 2567,
      "Ġbring": 2568,
      "Ġremember": 2569,
      "å¿Ļ": 2570,
      "å·¥": 2571,
      "aken": 2572,
      "Ġdrink": 2573,
      "Ġloved": 2574,
      "osed": 2575,
      "ins": 2576,
      "éĿŀ": 2577,
      "åģ·": 2578,
      "æľīé»ŀ": 2579,
      "é«ĺæ½®": 2580,
      "Ġrealized": 2581,
      "Ġlicked": 2582,
      "Ġgod": 2583,
      "Ġfre": 2584,
      "åĸľæŃ¡": 2585,
      "Ġoutside": 2586,
      "åıªæĺ¯": 2587,
      "Ġfast": 2588,
      "ï¸": 2589,
      "ï¸°": 2590,
      "åĳ³": 2591,
      "Ġcheck": 2592,
      "Ġwalk": 2593,
      "ony": 2594,
      "When": 2595,
      "cer": 2596,
      "Ġrep": 2597,
      "å®ī": 2598,
      "å¥½åĥı": 2599,
      "ze": 2600,
      "çļĦèº«é«Ķ": 2601,
      "ane": 2602,
      "åĮħ": 2603,
      "æĪĳèªª": 2604,
      "Ġrolled": 2605,
      "ä»Ĭå¤©": 2606,
      "und": 2607,
      "çİ²": 2608,
      "Ġwrapped": 2609,
      "ĠSam": 2610,
      "èĤīæ£Ĵ": 2611,
      "Ġfather": 2612,
      "Ġstud": 2613,
      "éĩį": 2614,
      "ĠHarry": 2615,
      "Ġdef": 2616,
      "Ġblue": 2617,
      "ape": 2618,
      "Ġstri": 2619,
      "Ġnicht": 2620,
      "antly": 2621,
      "çľŁçļĦ": 2622,
      "Ġappro": 2623,
      "ky": 2624,
      "çµĲ": 2625,
      "æ¡": 2626,
      "éĻ½åħ·": 2627,
      "çĸ": 2628,
      "è©²": 2629,
      "Ġstomach": 2630,
      "åı³": 2631,
      "ä»¤": 2632,
      "åĳ»": 2633,
      "ĠJohn": 2634,
      "anced": 2635,
      "æ¾": 2636,
      "els": 2637,
      "onna": 2638,
      "ount": 2639,
      "Ġless": 2640,
      "Ġsucked": 2641,
      "ä¸ĢéĻ£": 2642,
      "èħ°": 2643,
      "Ġsighed": 2644,
      "Ġbelieve": 2645,
      "äºĤ": 2646,
      "Ġreach": 2647,
      "Ġsub": 2648,
      "Ġsister": 2649,
      "ç¾ŀ": 2650,
      "éħĴ": 2651,
      "ä¸įåģľ": 2652,
      "Ġbedroom": 2653,
      "Ġseat": 2654,
      "Ġfirm": 2655,
      "Ġbes": 2656,
      "Ġalone": 2657,
      "çĥĪ": 2658,
      "ĠLu": 2659,
      "Ġleaving": 2660,
      "ä¹³éłŃ": 2661,
      "æĿİ": 2662,
      "æŃ²": 2663,
      "ris": 2664,
      "Ġhuge": 2665,
      "Ġunderstand": 2666,
      "è£¡éĿ¢": 2667,
      "Ġsaying": 2668,
      "æĢĿ": 2669,
      "Ġslipped": 2670,
      "éĲ": 2671,
      "äº®": 2672,
      "Ġfilled": 2673,
      "otion": 2674,
      "Ġfight": 2675,
      "Ġwomen": 2676,
      "iew": 2677,
      "æĮī": 2678,
      "After": 2679,
      "Ġfurther": 2680,
      "ĠAt": 2681,
      "çļĦç²": 2682,
      "è¶³": 2683,
      "Ġclass": 2684,
      "Ġhope": 2685,
      "Ġje": 2686,
      "Ġtear": 2687,
      "åı¯æĺ¯": 2688,
      "ĠAm": 2689,
      "orn": 2690,
      "Ġmag": 2691,
      "æĬĵ": 2692,
      "ĠBl": 2693,
      "åĳ»åĲŁ": 2694,
      "ents": 2695,
      "Ġadm": 2696,
      "åĢĴ": 2697,
      "æĪ¶": 2698,
      "å·¦": 2699,
      "Ġimmediately": 2700,
      "çĻ¼çı¾": 2701,
      "==": 2702,
      "ien": 2703,
      "Ġhell": 2704,
      "How": 2705,
      "Ġbaby": 2706,
      "Ġchang": 2707,
      "Ġquestion": 2708,
      "åĪ»": 2709,
      "çļĦæĦŁ": 2710,
      "ç²Ĺ": 2711,
      "sed": 2712,
      "ä¹ĭå¾Į": 2713,
      "Ġbott": 2714,
      "ĊĊĉ": 2715,
      "è¨±": 2716,
      "èĸ": 2717,
      "çŃĶ": 2718,
      "ä½İ": 2719,
      "Ġdoesn": 2720,
      "Ġcontrol": 2721,
      "Ġlost": 2722,
      "Ġshoulders": 2723,
      "Ġdin": 2724,
      "åĵ¦": 2725,
      "Ġshock": 2726,
      "çģ«": 2727,
      "Do": 2728,
      "ĠRe": 2729,
      "çĿĽ": 2730,
      "åı¦": 2731,
      "æľĪ": 2732,
      "ç¹¼": 2733,
      "Ġchair": 2734,
      "Ġrather": 2735,
      "Ġcheeks": 2736,
      "ign": 2737,
      "the": 2738,
      "Ġstuff": 2739,
      "Ġamaz": 2740,
      "çĻ¼åĩº": 2741,
      "Ġbox": 2742,
      "Ġremo": 2743,
      "Ġspot": 2744,
      "Ġswall": 2745,
      "Ġcouch": 2746,
      "ĠDe": 2747,
      "Ġlifted": 2748,
      "Ġbathroom": 2749,
      "Ġletting": 2750,
      "æĵ¦": 2751,
      "Ġrubbed": 2752,
      "åħ¨èº«": 2753,
      "Ġears": 2754,
      "aining": 2755,
      "æıī": 2756,
      "Ġthighs": 2757,
      "zzle": 2758,
      "Ġ3": 2759,
      "Ġprom": 2760,
      "éĢģ": 2761,
      "è¦ĸ": 2762,
      "çļĦèĪ": 2763,
      "Ġstared": 2764,
      "arr": 2765,
      "aybe": 2766,
      "Ġfem": 2767,
      "èĩ³": 2768,
      "ored": 2769,
      "Ġfamily": 2770,
      "Ġbell": 2771,
      "ä¸įæĸ·": 2772,
      "Ġseeing": 2773,
      "äºĨèµ·ä¾Ĩ": 2774,
      "Ġcovered": 2775,
      "ĠFr": 2776,
      "Ġ...": 2777,
      "Ġhat": 2778,
      "åĪºæ¿Ģ": 2779,
      "inted": 2780,
      "ç¸½": 2781,
      "Ġ20": 2782,
      "Ġplaced": 2783,
      "æĪ¿éĸĵ": 2784,
      "ures": 2785,
      "Ġload": 2786,
      "Ġyell": 2787,
      "èĪĪå¥®": 2788,
      "Ġshorts": 2789,
      "æ´»": 2790,
      "als": 2791,
      "Ġstret": 2792,
      "éĢŁ": 2793,
      "hole": 2794,
      "ica": 2795,
      "èĥĮ": 2796,
      "Ġwalking": 2797,
      "Ġwrong": 2798,
      "Ġdropped": 2799,
      "Ġwaist": 2800,
      "~~~~": 2801,
      "Ġpicked": 2802,
      "åºķ": 2803,
      "Ġref": 2804,
      "æ®": 2805,
      "Ġere": 2806,
      "band": 2807,
      "Ġweek": 2808,
      "alm": 2809,
      "Ġhours": 2810,
      "æģ¯": 2811,
      "Ġdragon": 2812,
      "Ġgen": 2813,
      "è¿·": 2814,
      "Ġmatter": 2815,
      "çľ¼çĿĽ": 2816,
      "æľīä¸Ģ": 2817,
      "å®³": 2818,
      "Ġext": 2819,
      "Ġver": 2820,
      "Ġtoday": 2821,
      "Ġglass": 2822,
      "Ġokay": 2823,
      "é©ļ": 2824,
      "used": 2825,
      "ĠAr": 2826,
      "ertain": 2827,
      "ines": 2828,
      "è·³": 2829,
      "Ġmess": 2830,
      "æĦŁåĪ°": 2831,
      "Ġgrinned": 2832,
      "Ġang": 2833,
      "çļĦèª": 2834,
      "ĠDo": 2835,
      "iness": 2836,
      "ising": 2837,
      "Ġsmell": 2838,
      "æŀĹ": 2839,
      "Ġform": 2840,
      "Ġkitchen": 2841,
      "çļĦèģ": 2842,
      "old": 2843,
      "Ġdam": 2844,
      "Ġtaste": 2845,
      "Ġtaken": 2846,
      "çļĦèĤīæ£Ĵ": 2847,
      "éĤ£éº¼": 2848,
      "iding": 2849,
      "éłĨ": 2850,
      "bed": 2851,
      "è¡£æľį": 2852,
      "Ġland": 2853,
      "Ġlead": 2854,
      "Ġpushing": 2855,
      "Ġreturned": 2856,
      "éģİä¾Ĩ": 2857,
      "acing": 2858,
      "Ġspoke": 2859,
      "Ġkid": 2860,
      "Ġappear": 2861,
      "éĤ£åĢĭ": 2862,
      "ç·Ĭç·Ĭ": 2863,
      "----------------": 2864,
      "çŀ": 2865,
      "ĠBr": 2866,
      "Ġedge": 2867,
      "äºĨæĪĳ": 2868,
      "éĻ°èİĸ": 2869,
      "men": 2870,
      "Ġpick": 2871,
      "æľĭ": 2872,
      "ç®Ĺ": 2873,
      "!!": 2874,
      "Ġbecame": 2875,
      "Ġhall": 2876,
      "Now": 2877,
      "ĠLe": 2878,
      "å©¦": 2879,
      "where": 2880,
      "ç³": 2881,
      "ience": 2882,
      "ÃŁ": 2883,
      "rodu": 2884,
      "çļĦèĩī": 2885,
      "ç¹¼çºĮ": 2886,
      "Hey": 2887,
      "Ġinterest": 2888,
      "Ġbag": 2889,
      "tend": 2890,
      "Ġinf": 2891,
      "å®¢": 2892,
      "********": 2893,
      "Ġfine": 2894,
      "ches": 2895,
      "æºĸ": 2896,
      "Ġbottom": 2897,
      "Ġsurprised": 2898,
      "by": 2899,
      "ï¼ĮãĢĮ": 2900,
      "Ġabove": 2901,
      "è£Ŀ": 2902,
      "ength": 2903,
      "Ġlist": 2904,
      "Ġimag": 2905,
      "ude": 2906,
      "Ġlicking": 2907,
      "çľŁæĺ¯": 2908,
      "åĵĪ": 2909,
      "Ġbarely": 2910,
      "Ġsent": 2911,
      "Ġcoll": 2912,
      "unch": 2913,
      "çļĦä¹³æĪ¿": 2914,
      "¢¨": 2915,
      "ugg": 2916,
      "Ġseconds": 2917,
      "Ġtoward": 2918,
      "Ġround": 2919,
      "man": 2920,
      "Ġcry": 2921,
      "å®¹": 2922,
      "Ġprot": 2923,
      "Ġtonight": 2924,
      "ased": 2925,
      "æľĭåıĭ": 2926,
      "com": 2927,
      "åĲ«": 2928,
      "éĥ½æĺ¯": 2929,
      "Ġreason": 2930,
      "Ġcold": 2931,
      "ç½©": 2932,
      "Ġstarting": 2933,
      "Ġpassed": 2934,
      "Ġlaid": 2935,
      "che": 2936,
      "Ġpres": 2937,
      "Ġfaster": 2938,
      "éĢı": 2939,
      "åĸĿ": 2940,
      "é¨·": 2941,
      "ffe": 2942,
      "çļĦèĢ": 2943,
      "çļĦèĥ¸": 2944,
      "éĽĻèħ¿": 2945,
      "Ġsexy": 2946,
      "Ġgasped": 2947,
      "ï¹": 2948,
      "Ġlear": 2949,
      "æİī": 2950,
      "åĳ½": 2951,
      "éĢĻç¨®": 2952,
      "Ġchar": 2953,
      "hile": 2954,
      "åĲį": 2955,
      "æĹ¥": 2956,
      "å¥³åŃ©": 2957,
      "ĠGod": 2958,
      "lich": 2959,
      "Ġmuzzle": 2960,
      "±è¥¿": 2961,
      "Ġsun": 2962,
      "Ġsim": 2963,
      "uth": 2964,
      "çµĤæĸ¼": 2965,
      "Ġlength": 2966,
      "Ġpush": 2967,
      "iting": 2968,
      "åīĩ": 2969,
      "Ġminute": 2970,
      "å®Įåħ¨": 2971,
      "çĭĤ": 2972,
      "æĸ°": 2973,
      "è±Ĳ": 2974,
      "Ġnorm": 2975,
      "Ġstaring": 2976,
      "Ġsign": 2977,
      "Ġliked": 2978,
      "é¡¯": 2979,
      "ĠAd": 2980,
      "çļĦæĦŁè¦º": 2981,
      "é¢¨": 2982,
      "Ġrespond": 2983,
      "Ġwithin": 2984,
      "Ġdou": 2985,
      "éŃ": 2986,
      "Ġbrother": 2987,
      "Ġmonth": 2988,
      "çļĦæ·«": 2989,
      "æīŃ": 2990,
      "Ġdressed": 2991,
      "çİĭ": 2992,
      "Ġpair": 2993,
      "There": 2994,
      "Ġter": 2995,
      "Ġknowing": 2996,
      "ervous": 2997,
      "hr": 2998,
      "ief": 2999,
      "oe": 3000,
      "ä¸įæľĥ": 3001,
      "Ġeat": 3002,
      "ager": 3003,
      "Ġanswer": 3004,
      "ments": 3005,
      "è£ı": 3006,
      "Ġsmiling": 3007,
      "å¦¹å¦¹": 3008,
      "Not": 3009,
      "irc": 3010,
      "Ġobv": 3011,
      "Ġmit": 3012,
      "Ġge": 3013,
      "Ġnearly": 3014,
      "ts": 3015,
      "20": 3016,
      "Ġanswered": 3017,
      "Ġworry": 3018,
      "aled": 3019,
      "Ġdisapp": 3020,
      "èķ©": 3021,
      "lor": 3022,
      "Ġparent": 3023,
      "ĠSch": 3024,
      "Ġich": 3025,
      "çĮĽ": 3026,
      "åĳĬ": 3027,
      "æĥ³åĪ°": 3028,
      "Ġgaz": 3029,
      "ively": 3030,
      "æľīäºĽ": 3031,
      "Ġarri": 3032,
      "Ġhang": 3033,
      "Ġnervous": 3034,
      "Ġchange": 3035,
      "Ġcre": 3036,
      "Ġtow": 3037,
      "è§Ĵ": 3038,
      "Ġturning": 3039,
      "æĨ": 3040,
      "çĪ¸çĪ¸": 3041,
      "æľª": 3042,
      "Don": 3043,
      "å¾ħ": 3044,
      "å¿«æĦŁ": 3045,
      "sing": 3046,
      "Ġcheek": 3047,
      "çķ¶çĦ¶": 3048,
      "Ġheaded": 3049,
      "åĸĺ": 3050,
      "ĠMark": 3051,
      "æµ´": 3052,
      "Ġraised": 3053,
      "æı¡": 3054,
      "çī©": 3055,
      "ales": 3056,
      "ĠOh": 3057,
      "gn": 3058,
      "ï½ŀï½ŀ": 3059,
      "Ġsmo": 3060,
      "Ġdream": 3061,
      "å¤ľ": 3062,
      "ping": 3063,
      "å§Ĭ": 3064,
      "æº«": 3065,
      "Ġproble": 3066,
      "cess": 3067,
      "Ġmir": 3068,
      "Ġliving": 3069,
      "Ġshut": 3070,
      "Ġshit": 3071,
      "æĸ¼æĺ¯": 3072,
      "Ġele": 3073,
      "æĬĸ": 3074,
      "dle": 3075,
      "ster": 3076,
      "æĵį": 3077,
      "iny": 3078,
      "æĹģ": 3079,
      "asing": 3080,
      "Ġpaws": 3081,
      "If": 3082,
      "Ġview": 3083,
      "ute": 3084,
      "å®ĥ": 3085,
      "Ġexact": 3086,
      "Her": 3087,
      "é¡«": 3088,
      "çļĦæīĭ": 3089,
      "ident": 3090,
      "ĠCar": 3091,
      "ken": 3092,
      "ters": 3093,
      "Ġpay": 3094,
      "Al": 3095,
      "Ġcertain": 3096,
      "âĢ¦âĢĿ": 3097,
      "å½±": 3098,
      "Ġlap": 3099,
      "Ġsight": 3100,
      "ç´Ħ": 3101,
      "een": 3102,
      "ĠIs": 3103,
      "æķĻ": 3104,
      "cial": 3105,
      "æİ¨": 3106,
      "æĪĳè¦ģ": 3107,
      "ä¾ĨäºĨ": 3108,
      "Ġsurprise": 3109,
      "éĻ³": 3110,
      "Ġslut": 3111,
      "Ġhuman": 3112,
      "èºº": 3113,
      "åı¯èĥ½": 3114,
      "ates": 3115,
      "Ġdeeper": 3116,
      "Ġago": 3117,
      "ä¸įèĥ½": 3118,
      "Ġgonna": 3119,
      "æ¨Ĥ": 3120,
      "Â©": 3121,
      "ĠJack": 3122,
      "ĠMike": 3123,
      "çļĦæ¨": 3124,
      "çī¹": 3125,
      "Ġdet": 3126,
      "Ġbuilding": 3127,
      "ĠOne": 3128,
      "è©¦": 3129,
      "ï¸°ãĢĮ": 3130,
      "ĠOr": 3131,
      "äºĨä¸Ģä¸ĭ": 3132,
      "Ġmanaged": 3133,
      "bby": 3134,
      "èħ¦": 3135,
      "ç·©": 3136,
      "ä¸Ģå®ļ": 3137,
      "åį³": 3138,
      "Ġskirt": 3139,
      "Ġbreathing": 3140,
      "itch": 3141,
      "ator": 3142,
      "äºĶ": 3143,
      "\",": 3144,
      "èĮ": 3145,
      "Ġfive": 3146,
      "åı¸": 3147,
      "çĨŁ": 3148,
      "Just": 3149,
      "çķĻ": 3150,
      "pected": 3151,
      "Ġlate": 3152,
      "Ġsort": 3153,
      "Ġchance": 3154,
      "ç©º": 3155,
      "Why": 3156,
      "çļ®": 3157,
      "çļĦèģ²": 3158,
      "éĢļ": 3159,
      "é»ĥ": 3160,
      "èĩªå·±çļĦ": 3161,
      "Ġhappen": 3162,
      "ding": 3163,
      "çļĦç¾": 3164,
      "ael": 3165,
      "å°ĸ": 3166,
      "imply": 3167,
      "è¾¦": 3168,
      "Then": 3169,
      "acked": 3170,
      "çıŃ": 3171,
      "ä¸įçŁ¥": 3172,
      "but": 3173,
      "Ġparents": 3174,
      "å¥³åıĭ": 3175,
      "æ¥µ": 3176,
      "iel": 3177,
      "å°ıç©´": 3178,
      "Ġoffice": 3179,
      "________": 3180,
      "Ġdep": 3181,
      "Ġwin": 3182,
      "Ġyourself": 3183,
      "ider": 3184,
      "åĤ³": 3185,
      "Ġchild": 3186,
      "In": 3187,
      "æĳ©": 3188,
      "Ġdinner": 3189,
      "esh": 3190,
      "æ¯įè¦ª": 3191,
      "ä¹¾": 3192,
      "Ġgroaned": 3193,
      "zy": 3194,
      "é¼": 3195,
      "Ġfully": 3196,
      "åĦ": 3197,
      "aning": 3198,
      "Ġstick": 3199,
      "Ġshr": 3200,
      "Ġbroke": 3201,
      "ĠDra": 3202,
      "éĸĭäºĨ": 3203,
      "åŁ": 3204,
      "gin": 3205,
      "ï¼ī": 3206,
      "Ġnose": 3207,
      "é«®": 3208,
      "Ġfood": 3209,
      "ushing": 3210,
      "æķ¢": 3211,
      "éĨĴ": 3212,
      "Ġhusband": 3213,
      "å¤±": 3214,
      "Ġlower": 3215,
      "Ġfeels": 3216,
      "åł´": 3217,
      "Ġarea": 3218,
      "tem": 3219,
      "Ġmil": 3220,
      "å¤§èħ¿": 3221,
      "æıĽ": 3222,
      "Ġgrou": 3223,
      "atur": 3224,
      "selves": 3225,
      "Ġcho": 3226,
      "ï¼Ī": 3227,
      "ĠFor": 3228,
      "Ġsquir": 3229,
      "cent": 3230,
      "çĽ¡": 3231,
      "aces": 3232,
      "Ġmiddle": 3233,
      "Ġexcited": 3234,
      "Be": 3235,
      "Ġmale": 3236,
      "æ¨ĵ": 3237,
      "With": 3238,
      "Ġmeant": 3239,
      "Ġteeth": 3240,
      "Ġpassion": 3241,
      "æľŁ": 3242,
      "è£¸": 3243,
      "å¤¾": 3244,
      "Ġamazing": 3245,
      "ä¼¼ä¹İ": 3246,
      "Ġmember": 3247,
      "ŀĭ": 3248,
      "Ġcirc": 3249,
      "Ġdesk": 3250,
      "æĺ¥": 3251,
      "asy": 3252,
      "Ġcolle": 3253,
      "Ġsing": 3254,
      "Ġshif": 3255,
      "00": 3256,
      "Ġbat": 3257,
      "aling": 3258,
      "Ġpink": 3259,
      "Ġisn": 3260,
      "Ġesc": 3261,
      "Ġevent": 3262,
      "ipping": 3263,
      "èĪĮéłŃ": 3264,
      "Ġforth": 3265,
      "ili": 3266,
      "çŁŃ": 3267,
      "çļĦç²¾": 3268,
      "æĬ½æıĴ": 3269,
      "ĠRo": 3270,
      "Ġpound": 3271,
      "åĭķä½ľ": 3272,
      "Ġsimply": 3273,
      "æķı": 3274,
      "Ġforce": 3275,
      "å©ļ": 3276,
      "aur": 3277,
      "å¦Ĥæŀľ": 3278,
      "å©·": 3279,
      "ards": 3280,
      "å¿įä¸įä½ı": 3281,
      "æĪĳæĥ³": 3282,
      "æĻĤéĸĵ": 3283,
      "éľ²åĩº": 3284,
      "çħ§": 3285,
      "âĶ": 3286,
      "æķ´åĢĭ": 3287,
      "ring": 3288,
      "Ġspeak": 3289,
      "åĤĻ": 3290,
      "ĠKat": 3291,
      "Ġreco": 3292,
      "Ġcap": 3293,
      "Ġla": 3294,
      "Ġthoughts": 3295,
      "Ġinstead": 3296,
      "gen": 3297,
      "ï¼Ľ": 3298,
      "çļĦèģ²éŁ³": 3299,
      "æŃ¥": 3300,
      "æıĴåħ¥": 3301,
      "çļĦæĥ": 3302,
      "ror": 3303,
      "ĠSe": 3304,
      "kes": 3305,
      "å¤ªå¤ª": 3306,
      "çį": 3307,
      "Ġburn": 3308,
      "orrow": 3309,
      "éĤĦæľī": 3310,
      "åħĴåŃĲ": 3311,
      "çµ¦æĪĳ": 3312,
      "åĲ®": 3313,
      "çļĦè©": 3314,
      "éļĶ": 3315,
      "éĲĺ": 3316,
      "ĠMom": 3317,
      "çĶļ": 3318,
      "umbled": 3319,
      "éĿŀå¸¸": 3320,
      "Ġocc": 3321,
      "ctions": 3322,
      "ĠJake": 3323,
      "Ġusing": 3324,
      "ject": 3325,
      "yan": 3326,
      "Ġopp": 3327,
      "Ġdaught": 3328,
      "Ġsend": 3329,
      "Ġagre": 3330,
      "åħħ": 3331,
      "ĠJess": 3332,
      "æĢª": 3333,
      "yl": 3334,
      "you": 3335,
      "éĮ¯": 3336,
      "éģİåİ»": 3337,
      "æįı": 3338,
      "enty": 3339,
      "Ġ5": 3340,
      "Ġeine": 3341,
      "15": 3342,
      "cl": 3343,
      "Ġinches": 3344,
      "èªį": 3345,
      "æł¡": 3346,
      "ĠMe": 3347,
      "åĸ®": 3348,
      "Ġsexual": 3349,
      "é£¯": 3350,
      "Ġtrou": 3351,
      "ĠAlex": 3352,
      "å·®": 3353,
      "fortable": 3354,
      "uch": 3355,
      "Ã¼r": 3356,
      "Ġheavy": 3357,
      "çĽ®": 3358,
      "æĻļä¸Ĭ": 3359,
      "æŃ¢": 3360,
      "Ġjer": 3361,
      "Ġplaying": 3362,
      "ç²ī": 3363,
      "èĩĢ": 3364,
      "Ġind": 3365,
      "çĶ¨æīĭ": 3366,
      "Ġtown": 3367,
      "åĿĲåľ¨": 3368,
      "ç®¡": 3369,
      "Ġupon": 3370,
      "Ġjuices": 3371,
      "Ġabs": 3372,
      "ä¸įäºĨ": 3373,
      "ield": 3374,
      "Ġeng": 3375,
      "Ġmoaning": 3376,
      "Ġspent": 3377,
      "åİŁä¾Ĩ": 3378,
      "æ¹": 3379,
      "çļĦäºĭ": 3380,
      "Ġknock": 3381,
      "Ġchuckled": 3382,
      "Ġbelly": 3383,
      "isa": 3384,
      "Ġspl": 3385,
      "æĶ¶": 3386,
      "Ġwindow": 3387,
      "Ġdad": 3388,
      "apter": 3389,
      "åĺ´è£¡": 3390,
      "Ġpict": 3391,
      "çļĦæĢ": 3392,
      "Ġsein": 3393,
      "Ġasshole": 3394,
      "ä¿Ĥ": 3395,
      "ilt": 3396,
      "ä¿¡": 3397,
      "ä¿Ŀ": 3398,
      "Are": 3399,
      "ĠEven": 3400,
      "Ġexactly": 3401,
      "inda": 3402,
      "å¥ĩ": 3403,
      "Ġseem": 3404,
      "ä»į": 3405,
      "Ġhon": 3406,
      "ï¼ļ\"": 3407,
      "ags": 3408,
      "Ġfocus": 3409,
      "Ġbeside": 3410,
      "Ġlust": 3411,
      "Ġgent": 3412,
      "çł": 3413,
      "Ġgiven": 3414,
      "åĵª": 3415,
      "ãĢĤ\"": 3416,
      "Ġadded": 3417,
      "Ġgiggled": 3418,
      "Ġled": 3419,
      "ç¤": 3420,
      "Ġquietly": 3421,
      "Ġboo": 3422,
      "Ġpie": 3423,
      "æľĢå¾Į": 3424,
      "Ġenjoying": 3425,
      "åĲĮæĻĤ": 3426,
      "Ġdrive": 3427,
      "Ġsliding": 3428,
      "çĭł": 3429,
      "Ġreve": 3430,
      "Ġbecome": 3431,
      "Ġcoun": 3432,
      "io": 3433,
      "çļĦäºº": 3434,
      "Ġfit": 3435,
      "åľĵ": 3436,
      "åīĽæīį": 3437,
      "éĩı": 3438,
      "rief": 3439,
      "èī²æĥħ": 3440,
      "ait": 3441,
      "Ġflesh": 3442,
      "ĠUn": 3443,
      "how": 3444,
      "åĶĶ": 3445,
      "Ġexpect": 3446,
      "Ġshowed": 3447,
      "éĿł": 3448,
      "æĵº": 3449,
      "gan": 3450,
      "addy": 3451,
      "æĪĳæĺ¯": 3452,
      "åĳ¨": 3453,
      "Ġstroking": 3454,
      "avid": 3455,
      "arm": 3456,
      "Ġsal": 3457,
      "Ġopening": 3458,
      "Ġtre": 3459,
      "otch": 3460,
      "ç¦ģ": 3461,
      "å½¢": 3462,
      "åķĬåķĬ": 3463,
      "çĪ¶": 3464,
      "Ġpossible": 3465,
      "çļĦç¾İ": 3466,
      "Ġcausing": 3467,
      "è²¼": 3468,
      "dd": 3469,
      "ashed": 3470,
      "illy": 3471,
      "æĿĲ": 3472,
      "è¥ª": 3473,
      "Ġline": 3474,
      "Ġglanced": 3475,
      "èĲ½": 3476,
      "Ġnipple": 3477,
      "Ġbright": 3478,
      "ä½łåĢĳ": 3479,
      "Ġlightly": 3480,
      "itle": 3481,
      "irty": 3482,
      "æ½¤": 3483,
      "çľĭè¦ĭ": 3484,
      "é¦¬ä¸Ĭ": 3485,
      "çļĦè©±": 3486,
      "Ġhug": 3487,
      "æĴ«æĳ¸": 3488,
      "è·¯": 3489,
      "Ġdead": 3490,
      "æ´ŀ": 3491,
      "umping": 3492,
      "Ġten": 3493,
      "çĵ": 3494,
      "Ġslam": 3495,
      "isted": 3496,
      "era": 3497,
      "Ġmoney": 3498,
      "Ġfear": 3499,
      "åĭ¢": 3500,
      "ĠNe": 3501,
      "æĲĸ": 3502,
      "ery": 3503,
      "ä½łçļĦ": 3504,
      "æĩ·": 3505,
      "Ġbrown": 3506,
      "çļĦèªª": 3507,
      "lo": 3508,
      "tic": 3509,
      "Good": 3510,
      "å¿ĥè£¡": 3511,
      "Ġgroup": 3512,
      "Ġdraw": 3513,
      "arah": 3514,
      "vin": 3515,
      "arrass": 3516,
      "çļĦæĺ¯": 3517,
      "æĬĬå¥¹": 3518,
      "Ġcross": 3519,
      "Ġmoans": 3520,
      "Ġwaited": 3521,
      "ys": 3522,
      "Ġtom": 3523,
      "Ġempt": 3524,
      "Ġbene": 3525,
      "ä¸Ī": 3526,
      "èģ½åĪ°": 3527,
      "more": 3528,
      "âĢĿ.": 3529,
      "åłħ": 3530,
      "imes": 3531,
      "though": 3532,
      "anks": 3533,
      "ä¸įçŁ¥éģĵ": 3534,
      "Ġgentle": 3535,
      "æ¬²": 3536,
      "Ġhers": 3537,
      "Ġtrue": 3538,
      "yn": 3539,
      "£åŃĲ": 3540,
      "åľ°æĸ¹": 3541,
      "Ġstrange": 3542,
      "æ¥ļ": 3543,
      "äºĨåĩºä¾Ĩ": 3544,
      "âĢ¦ãĢį": 3545,
      "Ġcaress": 3546,
      "Ġtor": 3547,
      "ä¸Ģéļ»": 3548,
      "ä¸Ģæľĥ": 3549,
      "Ġbod": 3550,
      "sit": 3551,
      "Ġbrief": 3552,
      "éĢĻè£¡": 3553,
      "Ġcam": 3554,
      "Ãĥ": 3555,
      "æĪĸ": 3556,
      "ĠSp": 3557,
      "ä¹Łæĺ¯": 3558,
      "åĭķèĳĹ": 3559,
      "èªªéģĵ": 3560,
      "ert": 3561,
      "è¶ķ": 3562,
      "andy": 3563,
      "Ġtall": 3564,
      "Ġarou": 3565,
      "ĠEvery": 3566,
      "On": 3567,
      "éģĶ": 3568,
      "Ġembarrass": 3569,
      "æħ§": 3570,
      "åıªæľī": 3571,
      "Ġsmir": 3572,
      "Ġfemale": 3573,
      "å¦»åŃĲ": 3574,
      "St": 3575,
      "æŃ¤æĻĤ": 3576,
      "Ġsigh": 3577,
      "ĠOnce": 3578,
      "ĠKe": 3579,
      "Ġchanged": 3580,
      "Ġentered": 3581,
      "Ġcent": 3582,
      "Ġbuck": 3583,
      "Ġtelling": 3584,
      "umber": 3585,
      "ues": 3586,
      "ĉĉ": 3587,
      "éĽħ": 3588,
      "æĬĬæĪĳ": 3589,
      "æµª": 3590,
      "Ġproblem": 3591,
      "Ġsle": 3592,
      "ä¸ĭé«Ķ": 3593,
      "æħ¾": 3594,
      "Ġtears": 3595,
      "ç°": 3596,
      "éĺ¿å§¨": 3597,
      "Ġreleas": 3598,
      "çĻ¢": 3599,
      "Ġwhatever": 3600,
      "éº»": 3601,
      "è¹": 3602,
      "å¨ĺ": 3603,
      "Ġnotice": 3604,
      "ä¾Ŀ": 3605,
      "Ġsense": 3606,
      "èĳĹæĪĳçļĦ": 3607,
      "Ġboys": 3608,
      "ana": 3609,
      "Ġcrotch": 3610,
      "Ġsize": 3611,
      "Ġheat": 3612,
      "è¨´": 3613,
      "æĲĵ": 3614,
      "Ġwonderful": 3615,
      "Ġpool": 3616,
      "ete": 3617,
      "å¥³åħĴ": 3618,
      "lier": 3619,
      "åħ©äºº": 3620,
      "Ġblow": 3621,
      "orge": 3622,
      "éĸī": 3623,
      "gy": 3624,
      "Ġevening": 3625,
      "ls": 3626,
      "ĠTim": 3627,
      "Ġ4": 3628,
      "osh": 3629,
      "ä¸įåĪ°": 3630,
      "what": 3631,
      "éĿ¢åīį": 3632,
      "Ġscreamed": 3633,
      "Ġmotion": 3634,
      "ä»¥å¾Į": 3635,
      "å°ĳå¥³": 3636,
      "Ġum": 3637,
      "çµķ": 3638,
      "Ġeasily": 3639,
      "ä¸ĬäºĨ": 3640,
      "ression": 3641,
      "Ġfigure": 3642,
      "Ġpenis": 3643,
      "Ġjumped": 3644,
      "Ġdeal": 3645,
      "å·¥ä½ľ": 3646,
      "itely": 3647,
      "çĳ": 3648,
      "Ġtouched": 3649,
      "ç¿»": 3650,
      "Ġbase": 3651,
      "Ġmain": 3652,
      "cially": 3653,
      "åľĭ": 3654,
      "å¤ł": 3655,
      "Okay": 3656,
      "èĺ": 3657,
      "ooking": 3658,
      "Ġfant": 3659,
      "Ġduring": 3660,
      "Ġsqueezed": 3661,
      "Ġbent": 3662,
      "Ġmoments": 3663,
      "Ġfav": 3664,
      "Ġwood": 3665,
      "Ġgame": 3666,
      "Ġsmooth": 3667,
      "anda": 3668,
      "ĠSte": 3669,
      "éĽ»è©±": 3670,
      "Ġgreen": 3671,
      "Ġtightly": 3672,
      "Ġsounds": 3673,
      "è®ĵå¥¹": 3674,
      "çļĦç²¾æ¶²": 3675,
      "Ġinch": 3676,
      "ĠEr": 3677,
      "æıĲ": 3678,
      "éĻ°åĶĩ": 3679,
      "Ġdaughter": 3680,
      "é½": 3681,
      "Ġtot": 3682,
      "Ġcorner": 3683,
      "ĠÂ©": 3684,
      "ĠMatt": 3685,
      "Ġcool": 3686,
      "Ġenjoyed": 3687,
      "ä¸ĭåİ»": 3688,
      "ship": 3689,
      "onn": 3690,
      "ibly": 3691,
      "Ġeasy": 3692,
      "25": 3693,
      "åľ¨åºĬä¸Ĭ": 3694,
      "ison": 3695,
      "æķħ": 3696,
      "Ġsugg": 3697,
      "Ġgets": 3698,
      "acy": 3699,
      "Ġav": 3700,
      "inally": 3701,
      "Ġbas": 3702,
      "çļĦèĢģ": 3703,
      "isf": 3704,
      "è«ĭ": 3705,
      "Ġbul": 3706,
      "å¥½äºĨ": 3707,
      "Ch": 3708,
      "ĠWill": 3709,
      "Ġearly": 3710,
      "oring": 3711,
      "ought": 3712,
      "æĸĩåŃ¸": 3713,
      "éĢĻæĺ¯": 3714,
      "ben": 3715,
      "Ġtrans": 3716,
      "Ġsel": 3717,
      "Ġpract": 3718,
      "Ġboun": 3719,
      "Ġyeah": 3720,
      "iling": 3721,
      "æĽ´åĬł": 3722,
      "æĻĤåĢĻ": 3723,
      "Ġolder": 3724,
      "Ġpaus": 3725,
      "Ġpin": 3726,
      "ĠTom": 3727,
      "Ġputting": 3728,
      "ä»Ķ": 3729,
      "Ġ2015": 3730,
      "Ġpol": 3731,
      "Ġpub": 3732,
      "imed": 3733,
      "ç«ŁçĦ¶": 3734,
      "å±Ħ": 3735,
      "Ġglad": 3736,
      ",.": 3737,
      "Ġmakes": 3738,
      "ĠTo": 3739,
      "yle": 3740,
      "olog": 3741,
      "ÂłÂłÂłÂłÂłÂłÂłÂł": 3742,
      "itive": 3743,
      "ĠJe": 3744,
      "res": 3745,
      "æĭį": 3746,
      "aws": 3747,
      "å¢": 3748,
      "lic": 3749,
      "åĪ°æĪĳ": 3750,
      "Ġson": 3751,
      "aded": 3752,
      "Ġnur": 3753,
      "ä¾Ĩè¶Ĭ": 3754,
      "Tags": 3755,
      "Ġdrop": 3756,
      "Title": 3757,
      "Ġrap": 3758,
      "åĵ¼": 3759,
      "å¥¹åĢĳ": 3760,
      "çĺ": 3761,
      "èª°": 3762,
      "æ·«æĽ¸": 3763,
      "Ġnormal": 3764,
      "rist": 3765,
      "èī²æĥħæĸĩåŃ¸": 3766,
      "Hæ·«æĽ¸": 3767,
      "å¤§çļĦ": 3768,
      "è¨ĺ": 3769,
      "äº«åıĹèī²æĥħæĸĩåŃ¸": 3770,
      "Ġaus": 3771,
      "Ġdev": 3772,
      "Ġcompl": 3773,
      "ä¸ĭéĿ¢": 3774,
      "åģļæĦĽ": 3775,
      "Ġshoot": 3776,
      "race": 3777,
      "anger": 3778,
      "me": 3779,
      "èı¯": 3780,
      "Ġadmit": 3781,
      "åįģåĪĨ": 3782,
      "ä¸įå¥½": 3783,
      "Ġearlier": 3784,
      "Ġgotten": 3785,
      "Ġmuscles": 3786,
      "nder": 3787,
      "Ġcute": 3788,
      "mon": 3789,
      "Ġsweat": 3790,
      "Ġbodies": 3791,
      "Ġlie": 3792,
      "Ġthank": 3793,
      "Ġring": 3794,
      "ç£": 3795,
      "aps": 3796,
      "è§¸": 3797,
      "èŃĺ": 3798,
      "Ġdirect": 3799,
      "Ġpill": 3800,
      "Ġslide": 3801,
      "åĵ¥åĵ¥": 3802,
      "Ġasleep": 3803,
      "ĠAlice": 3804,
      "tern": 3805,
      "pecially": 3806,
      "éĽªçĻ½": 3807,
      "Ġhowever": 3808,
      "Ġwild": 3809,
      "iger": 3810,
      "èĴ": 3811,
      "Ġflat": 3812,
      "åģĩ": 3813,
      "è¼ĥ": 3814,
      "Ġjeans": 3815,
      "èĭ¦": 3816,
      "æĪĳåĴĮ": 3817,
      "å§¿": 3818,
      "Ġadd": 3819,
      "Ġsingle": 3820,
      "Ġthrew": 3821,
      "ĠMel": 3822,
      "Ġsix": 3823,
      "Ġlive": 3824,
      "Ġpointed": 3825,
      "åħ¶å¯¦": 3826,
      "Ġty": 3827,
      "åĳĬè¨´": 3828,
      "indy": 3829,
      "Ġhesit": 3830,
      "Ġlip": 3831,
      "not": 3832,
      "ains": 3833,
      "Ġshaking": 3834,
      "Ġenc": 3835,
      "Ġwondered": 3836,
      "Ġforg": 3837,
      "ĠKath": 3838,
      "åŃĹ": 3839,
      "Ġtalked": 3840,
      "ç©¿èĳĹ": 3841,
      "Ġconvers": 3842,
      "asted": 3843,
      "Ġparty": 3844,
      "Ġcity": 3845,
      "å¯Ĩ": 3846,
      "æİ¥èĳĹ": 3847,
      "Ġclimax": 3848,
      "åĺĽ": 3849,
      "ient": 3850,
      "Ġce": 3851,
      "Ġvag": 3852,
      "èĨļ": 3853,
      "enn": 3854,
      "ories": 3855,
      "Ġhelped": 3856,
      "Is": 3857,
      "ĠMaster": 3858,
      "Ġcreat": 3859,
      "è¶Ĭä¾Ĩè¶Ĭ": 3860,
      "æĩīè©²": 3861,
      "Ġdefin": 3862,
      "Sh": 3863,
      "emale": 3864,
      "roduction": 3865,
      "Ġforced": 3866,
      "ĠDon": 3867,
      "son": 3868,
      "Ġdrove": 3869,
      "âĶħ": 3870,
      "uation": 3871,
      "éļ¨èĳĹ": 3872,
      "æĢ¡": 3873,
      "Ġsy": 3874,
      "Ġanyway": 3875,
      "çĦ¡æ³ķ": 3876,
      "was": 3877,
      "Ġpack": 3878,
      "Fuck": 3879,
      "äºĨå¹¾": 3880,
      "Ġshudd": 3881,
      "Ġvon": 3882,
      "ç¯": 3883,
      "ested": 3884,
      "Ġbear": 3885,
      "éĽ¯": 3886,
      "ĠMaybe": 3887,
      "åĴ¬": 3888,
      "ination": 3889,
      "ottle": 3890,
      "Ġaf": 3891,
      "Ġur": 3892,
      "zen": 3893,
      "miss": 3894,
      "Ġeager": 3895,
      "amed": 3896,
      "Ġtomorrow": 3897,
      "èĽ": 3898,
      "ton": 3899,
      "Ġremoved": 3900,
      "åı°": 3901,
      "ç±": 3902,
      "anna": 3903,
      "åĪĩ": 3904,
      "Ġconcer": 3905,
      "ĠEm": 3906,
      "Ġcatch": 3907,
      "æĬ¬": 3908,
      "Ġstrugg": 3909,
      "ility": 3910,
      "Ġuns": 3911,
      "Ġlocked": 3912,
      "Ġ*": 3913,
      "Ġluck": 3914,
      "Ġann": 3915,
      "ä¸Īå¤«": 3916,
      "éŁ¿": 3917,
      "Ġdu": 3918,
      "Ġrub": 3919,
      "éı": 3920,
      "Ġtiny": 3921,
      "å¦ĤæŃ¤": 3922,
      "å¥¹èªª": 3923,
      "Ġtone": 3924,
      "å³": 3925,
      "åĽŀå®¶": 3926,
      "Ġstuck": 3927,
      "çľĭçľĭ": 3928,
      "Ġloudly": 3929,
      "èªŀ": 3930,
      "Ġspr": 3931,
      "for": 3932,
      "åĽŀä¾Ĩ": 3933,
      "éĮ¢": 3934,
      "arp": 3935,
      "æĮģ": 3936,
      "Ġexperience": 3937,
      "çļĦæĢ§": 3938,
      "çļĦéĻ°éģĵ": 3939,
      "é¬Ĩ": 3940,
      "Ġoften": 3941,
      "Ġsecret": 3942,
      "æĵĬ": 3943,
      "haps": 3944,
      "è±Ĳæ»¿": 3945,
      "Ġmut": 3946,
      "ä½ıäºĨ": 3947,
      "å¼ķ": 3948,
      "çļĦè¡£": 3949,
      "æ¬£": 3950,
      "stairs": 3951,
      "ley": 3952,
      "Ġslit": 3953,
      "Ġclearly": 3954,
      "irst": 3955,
      "Ġgrew": 3956,
      "Ġshowing": 3957,
      "Ġbusiness": 3958,
      "Ġsafe": 3959,
      "Ġtent": 3960,
      "Ġwants": 3961,
      "***": 3962,
      "Ġtend": 3963,
      "vered": 3964,
      "è¡Ŀ": 3965,
      "Ġwear": 3966,
      "Ġanymore": 3967,
      "å¾Īå¿«": 3968,
      "ç·ļ": 3969,
      "æºĸåĤĻ": 3970,
      "Ġstairs": 3971,
      "åĭģ": 3972,
      "æĪĳä¸Ģ": 3973,
      "ĠSex": 3974,
      "Ġjoin": 3975,
      "Ġcase": 3976,
      "ľľ": 3977,
      "Ġgaze": 3978,
      "Ġweeks": 3979,
      "èĪħ": 3980,
      "åĪ¶": 3981,
      "Ġsilence": 3982,
      "äººå®¶": 3983,
      "Ġtrem": 3984,
      "Ġincred": 3985,
      "ç²¾æ¶²": 3986,
      "pite": 3987,
      "Ġprep": 3988,
      "Ġhorny": 3989,
      "ĠGe": 3990,
      "Ġscr": 3991,
      "Ġarrived": 3992,
      "Ġlowered": 3993,
      "æļ´": 3994,
      "Int": 3995,
      "Ġhaven": 3996,
      "2025": 3997,
      "å¼Łå¼Ł": 3998,
      "Ġtem": 3999,
      "å¯¦åľ¨": 4000,
      "Ġev": 4001,
      "åħ¬åı¸": 4002,
      "éĢ²åħ¥": 4003,
      "Ġpressing": 4004,
      "Ġweight": 4005,
      "urb": 4006,
      "åıĶ": 4007,
      "ities": 4008,
      "ffee": 4009,
      "åĻ´": 4010,
      "Ġmur": 4011,
      "Ġcond": 4012,
      "Ġentr": 4013,
      "Ġfold": 4014,
      "å½Ī": 4015,
      "åľį": 4016,
      "Ġwish": 4017,
      "Ġok": 4018,
      "nn": 4019,
      "iam": 4020,
      "ĠJul": 4021,
      "èģĬ": 4022,
      "Ġlover": 4023,
      "aren": 4024,
      "Ġwalls": 4025,
      "Ġsatisf": 4026,
      "Ġcried": 4027,
      "ĠRyan": 4028,
      "ç¬¬ä¸Ģæ¬¡": 4029,
      "éĤ£ç¨®": 4030,
      "Ġblond": 4031,
      "æ²Ļ": 4032,
      "çļĦæ¨£åŃĲ": 4033,
      "Ġgrip": 4034,
      "æ¥Ń": 4035,
      "çļĦæĬ½": 4036,
      "æ¦": 4037,
      "Ġagreed": 4038,
      "Ġgrowing": 4039,
      "Ġspecial": 4040,
      "Ġdoub": 4041,
      "Ġthin": 4042,
      "iled": 4043,
      "Ġspend": 4044,
      "Ġdesire": 4045,
      "ç¬ĳèĳĹ": 4046,
      "ey": 4047,
      "ĠCl": 4048,
      "Ġnumber": 4049,
      "çĻ½èī²": 4050,
      "åİ»äºĨ": 4051,
      "å¯¶": 4052,
      "Introduction": 4053,
      "å¤¢": 4054,
      "æ·«æ°´": 4055,
      "å¥¶åŃĲ": 4056,
      "Ĥäº®": 4057,
      "éĢ²äºĨ": 4058,
      "å±ħ": 4059,
      "èĭ¥": 4060,
      "Ġadv": 4061,
      "aul": 4062,
      "ç£¨": 4063,
      "erm": 4064,
      "Ġwanting": 4065,
      "Ġdeeply": 4066,
      "ĠDavid": 4067,
      "Ġsna": 4068,
      "éĻ¤": 4069,
      "Let": 4070,
      "ĠWhy": 4071,
      "å§¦": 4072,
      "olly": 4073,
      "HH": 4074,
      "æĪĳåľ¨": 4075,
      "ä¸ĢèĤ¡": 4076,
      "èĬ³": 4077,
      "çĶ±æĸ¼": 4078,
      "Ġswallowed": 4079,
      "agg": 4080,
      "æ¸¾": 4081,
      "br": 4082,
      "Ġstate": 4083,
      "Ġcontinue": 4084,
      "wor": 4085,
      "éģł": 4086,
      "Ġfair": 4087,
      "ĠTr": 4088,
      "aging": 4089,
      "Thank": 4090,
      "like": 4091,
      "Ġthumb": 4092,
      "åĪ°å¥¹": 4093,
      "æĮĳ": 4094,
      "Ġbeneath": 4095,
      "Ġdry": 4096,
      "amm": 4097,
      "å£ŀ": 4098,
      "Ġpun": 4099,
      "ç§Ģ": 4100,
      "bit": 4101,
      "Ġoh": 4102,
      "Ġknown": 4103,
      "ç§»": 4104,
      "Ġcalm": 4105,
      "âĪ": 4106,
      "çļĦå¥³äºº": 4107,
      "Ġmov": 4108,
      "gr": 4109,
      "ole": 4110,
      "Ġve": 4111,
      "ibr": 4112,
      "Ġempty": 4113,
      "fast": 4114,
      "arl": 4115,
      "ote": 4116,
      "Ġcoffee": 4117,
      "ä¸Ĭä¸ĭ": 4118,
      "åįĪ": 4119,
      "ĠMary": 4120,
      "åģ¥": 4121,
      "apped": 4122,
      "Ġpap": 4123,
      "Ġspeed": 4124,
      "Ġmonths": 4125,
      "Ġstroked": 4126,
      "uct": 4127,
      "å²": 4128,
      "Ġener": 4129,
      "Ġunc": 4130,
      "cious": 4131,
      "ä¿®": 4132,
      "æ±º": 4133,
      "å¹¾ä¹İ": 4134,
      "æļĹ": 4135,
      "ç¢°": 4136,
      "bl": 4137,
      "Ġsensation": 4138,
      "Ġign": 4139,
      "åĢĨ": 4140,
      "His": 4141,
      "æħĭ": 4142,
      "å»³": 4143,
      "æĢ§æĦŁ": 4144,
      "Ġthemselves": 4145,
      "é¡ĺ": 4146,
      "Ġappeared": 4147,
      "ä¸ĭèº«": 4148,
      "Ġbelow": 4149,
      "Ġlaughing": 4150,
      "Ġended": 4151,
      "äººçļĦ": 4152,
      "æĿ±è¥¿": 4153,
      "æŃ£åľ¨": 4154,
      "æ¥Ĭ": 4155,
      "Ġbow": 4156,
      "orted": 4157,
      "Ġsides": 4158,
      "åĹļ": 4159,
      "Ġteasing": 4160,
      "é¡§": 4161,
      "æĬĹ": 4162,
      "å±±": 4163,
      "ature": 4164,
      "Ġones": 4165,
      "ĠSarah": 4166,
      "Ġcommand": 4167,
      "éĢ²ä¾Ĩ": 4168,
      "Ġrough": 4169,
      "Ġcontact": 4170,
      "ĠWell": 4171,
      "Ġpaused": 4172,
      "åĩºäºĨ": 4173,
      "Ġstroke": 4174,
      "è¡Ģ": 4175,
      "éĹľä¿Ĥ": 4176,
      "ishing": 4177,
      "Ġincre": 4178,
      "eling": 4179,
      "Ġweren": 4180,
      "èĤ¥": 4181,
      "Ġmassive": 4182,
      "irgin": 4183,
      "ĠChris": 4184,
      "èªªèĳĹ": 4185,
      "å¿½": 4186,
      "é¡Į": 4187,
      "Ġattem": 4188,
      "å¡ŀ": 4189,
      "Ġexcept": 4190,
      "Ġresponded": 4191,
      "ope": 4192,
      "Ġsque": 4193,
      "aj": 4194,
      "æ¾¡": 4195,
      "Ġ6": 4196,
      "ode": 4197,
      "light": 4198,
      "Ġda": 4199,
      "ĠâĢ¦": 4200,
      "Ġsuit": 4201,
      "Ġbottle": 4202,
      "ä¸Ģèģ²": 4203,
      "Ġexplained": 4204,
      "Ġcomes": 4205,
      "Ġorder": 4206,
      "ĠMor": 4207,
      "Ġworried": 4208,
      "come": 4209,
      "Ġstiff": 4210,
      "å¼ı": 4211,
      "ç´ħèī²": 4212,
      "Ġconversation": 4213,
      "Ġgold": 4214,
      "Ġgirlfriend": 4215,
      "æ³¨": 4216,
      "Qu": 4217,
      "Ġsum": 4218,
      "Ġcu": 4219,
      "å¿ĺ": 4220,
      "ĠâĢŀ": 4221,
      "éĩĳ": 4222,
      "ï¼İï¼İï¼İ": 4223,
      "ift": 4224,
      "oss": 4225,
      "ä¼ĳ": 4226,
      "ants": 4227,
      "åªļ": 4228,
      "top": 4229,
      "Ġboyfriend": 4230,
      "Ġmaster": 4231,
      "ä»½": 4232,
      "Ġgrab": 4233,
      "Ġnoch": 4234,
      "Ġkeeping": 4235,
      "Ġball": 4236,
      "Ġdog": 4237,
      "ĠAng": 4238,
      "ement": 4239,
      "job": 4240,
      "ctor": 4241,
      "aped": 4242,
      "let": 4243,
      "ĠSc": 4244,
      "Ġseed": 4245,
      "Ġist": 4246,
      "Ġrose": 4247,
      "æĥ³è¦ģ": 4248,
      "Ġself": 4249,
      "Ġship": 4250,
      "éĤ£è£¡": 4251,
      "å¾ĮéĿ¢": 4252,
      "æ¼Ĥäº®": 4253,
      "Ġage": 4254,
      "æµ·": 4255,
      "reen": 4256,
      "çļĦéĻ°èİĸ": 4257,
      "Ġvibr": 4258,
      "pted": 4259,
      "ior": 4260,
      "åĨ·": 4261,
      "Ġwir": 4262,
      "izing": 4263,
      "uzz": 4264,
      "Ġbeginning": 4265,
      "Ġtowel": 4266,
      "âĢ¦..": 4267,
      "èĢ³": 4268,
      "body": 4269,
      "Ġroad": 4270,
      "Ġasking": 4271,
      "Ġfinish": 4272,
      "ĠTw": 4273,
      "Ġlim": 4274,
      "Ġapartment": 4275,
      "Ġdefinitely": 4276,
      "Ġet": 4277,
      "æĪĳçŁ¥éģĵ": 4278,
      "elly": 4279,
      "Ġcumming": 4280,
      "éħį": 4281,
      "å¤§å®¶": 4282,
      "Ġattack": 4283,
      "Ġpressure": 4284,
      "eter": 4285,
      "Ġsituation": 4286,
      "Ġtired": 4287,
      "åŃ©åŃĲ": 4288,
      "è·ĳ": 4289,
      "Ġwel": 4290,
      "Ġdripping": 4291,
      "è¬Ŀ": 4292,
      "Ġpace": 4293,
      "ste": 4294,
      "Ġpul": 4295,
      "Ġbeat": 4296,
      "Ġweak": 4297,
      "Ġshiver": 4298,
      "æĪĳæĬĬ": 4299,
      "çļĦæĥħ": 4300,
      "Ġfavor": 4301,
      "Ġerection": 4302,
      "å®®": 4303,
      "Ġblushed": 4304,
      "Ġitself": 4305,
      "ichael": 4306,
      "çľ¼åīį": 4307,
      "Ġbutton": 4308,
      "Ġdelic": 4309,
      "çļĦèħ°": 4310,
      "ots": 4311,
      "Ġcrow": 4312,
      "ails": 4313,
      "iche": 4314,
      "Ġstayed": 4315,
      "ges": 4316,
      "æĥł": 4317,
      "æĳŁ": 4318,
      "å¾®å¾®": 4319,
      "Ġlab": 4320,
      "eke": 4321,
      "ĠRon": 4322,
      "Ġhanded": 4323,
      "åĳµ": 4324,
      "Ġentrance": 4325,
      "Ġequ": 4326,
      "è¨Ģ": 4327,
      "hhhh": 4328,
      "ç¸«": 4329,
      "ä¸įè¡Į": 4330,
      "Ġble": 4331,
      "iliar": 4332,
      "Ġwhe": 4333,
      "èĳĹå¥¹çļĦ": 4334,
      "Ġsharp": 4335,
      "çĤºäºĨ": 4336,
      "èĢħ": 4337,
      "Ġpowerful": 4338,
      "èªĺ": 4339,
      "onse": 4340,
      "ĠSome": 4341,
      "ĠJames": 4342,
      "çļĦèĪĮ": 4343,
      "å¥½å¥½": 4344,
      "Ġallowed": 4345,
      "Ġjack": 4346,
      "Ġusually": 4347,
      "Come": 4348,
      "Ġexpected": 4349,
      "Ġtakes": 4350,
      "ione": 4351,
      "éļ±": 4352,
      "ashing": 4353,
      "\".": 4354,
      "Ġespecially": 4355,
      "Ġleaning": 4356,
      "Ġbitch": 4357,
      "Ġplayed": 4358,
      "oof": 4359,
      "æĺ¯ä¸Ģ": 4360,
      "Ġhy": 4361,
      "Ġfollow": 4362,
      "Ġeff": 4363,
      "Ġproper": 4364,
      "Ġmate": 4365,
      "éĩĮ": 4366,
      "bered": 4367,
      "low": 4368,
      "ä¹ĭéĸĵ": 4369,
      "èĸĦ": 4370,
      "oming": 4371,
      "Ġseems": 4372,
      "âĪ¼": 4373,
      "Ġexh": 4374,
      "Ġblank": 4375,
      "éĿĴ": 4376,
      "åĺ¿": 4377,
      "æī¶": 4378,
      "éĢĹ": 4379,
      "mione": 4380,
      "ĠJim": 4381,
      "Ġcomfortable": 4382,
      "Ġauch": 4383,
      "çĴ": 4384,
      "bo": 4385,
      "play": 4386,
      "Ġstore": 4387,
      "ĠMo": 4388,
      "Ġthrobbing": 4389,
      "ones": 4390,
      "Ġahead": 4391,
      "è¢«æĪĳ": 4392,
      "Ġtrouble": 4393,
      "Ġpan": 4394,
      "hood": 4395,
      "Ġbigger": 4396,
      "icking": 4397,
      "Ġwoke": 4398,
      "Ġchin": 4399,
      "Ġscent": 4400,
      "è²·": 4401,
      "ç¸®": 4402,
      "ena": 4403,
      "Ġgrowled": 4404,
      "ume": 4405,
      "Ġfinal": 4406,
      "amn": 4407,
      "Ġreleased": 4408,
      "ï¼ģ\"": 4409,
      "Ġhoping": 4410,
      "æ¡Į": 4411,
      "Ġmagic": 4412,
      "çļĦæĪĳ": 4413,
      "Ġdisappear": 4414,
      "Re": 4415,
      "ä¸ĢäºĽ": 4416,
      "Ġstretched": 4417,
      "ern": 4418,
      "Ġclen": 4419,
      "Ġrequ": 4420,
      "====": 4421,
      "Ġwip": 4422,
      "irth": 4423,
      "åľ¨ä¸Ģèµ·": 4424,
      "Ġlying": 4425,
      "åļĩ": 4426,
      "outed": 4427,
      "æ·«èķ©": 4428,
      "Ġconfused": 4429,
      "Ġcream": 4430,
      "åĲĦ": 4431,
      "Ġfly": 4432,
      "All": 4433,
      "Ġhide": 4434,
      "iction": 4435,
      "Ġthird": 4436,
      "ä¸ĬéĿ¢": 4437,
      "å¿ĥä¸Ń": 4438,
      "æķ¸": 4439,
      "Ġserious": 4440,
      "Ġsupposed": 4441,
      "Ġcraw": 4442,
      "Ġpriv": 4443,
      "Ġwilling": 4444,
      "éĢĻä¸Ģ": 4445,
      "ĠLisa": 4446,
      "action": 4447,
      "Ġguard": 4448,
      "tense": 4449,
      "Ġexpression": 4450,
      "åĵŃ": 4451,
      "çķ¢": 4452,
      "Ġcarefully": 4453,
      "ä½³": 4454,
      "ously": 4455,
      "éĻ°æĪ¶": 4456,
      "Ġshrugged": 4457,
      "Ġgras": 4458,
      "Ġstarts": 4459,
      "èħ¹": 4460,
      "raid": 4461,
      "ĠJan": 4462,
      "ĠLet": 4463,
      "Ġtoss": 4464,
      "ä¸Ģæīĭ": 4465,
      "å·§": 4466,
      "Ġloc": 4467,
      "Ġdar": 4468,
      "Ġpour": 4469,
      "idly": 4470,
      "åºĹ": 4471,
      "ney": 4472,
      "Ġyours": 4473,
      "Ġthrusting": 4474,
      "ĠMale": 4475,
      "Ġrelaxed": 4476,
      "Ġhonest": 4477,
      "Ġbook": 4478,
      "çļĦçĶ·äºº": 4479,
      "Ġresponse": 4480,
      "Ġhanging": 4481,
      "çĻ¾": 4482,
      "çł´": 4483,
      "Ġlunch": 4484,
      "roll": 4485,
      "issa": 4486,
      "åħ«": 4487,
      "ĠÂł": 4488,
      "åħŃ": 4489,
      "ĠKim": 4490,
      "ists": 4491,
      "åģī": 4492,
      "æ¼¸æ¼¸": 4493,
      "Ġknows": 4494,
      "çļĦè£": 4495,
      "åıªå¥½": 4496,
      "âĢĺ": 4497,
      "Ġloving": 4498,
      "Ġasks": 4499,
      "Ġcrack": 4500,
      "Ġhatte": 4501,
      "ancing": 4502,
      "Ġweap": 4503,
      "astic": 4504,
      "èªªå®Į": 4505,
      "Ġteam": 4506,
      "ĠWh": 4507,
      "æĿ¯": 4508,
      "Ġpiece": 4509,
      "åŃ¸çĶŁ": 4510,
      "Ġenergy": 4511,
      "form": 4512,
      "ç«ĭåĪ»": 4513,
      "Ġtwit": 4514,
      "Ġintense": 4515,
      "Ġrepe": 4516,
      "ä¸įå¾Ĺ": 4517,
      "åģ´": 4518,
      "ading": 4519,
      "ĠEl": 4520,
      "æĵł": 4521,
      "å°±åľ¨": 4522,
      "ä¸ĬçļĦ": 4523,
      "Ġcompany": 4524,
      "Ġburied": 4525,
      "èª¿": 4526,
      "Ġdass": 4527,
      "å³°": 4528,
      "çļĦæ°": 4529,
      "Ġdelight": 4530,
      "æĺĵ": 4531,
      "Ġdesper": 4532,
      "Ġgrind": 4533,
      "Ġyelled": 4534,
      "Ġwore": 4535,
      "erry": 4536,
      "Ġcol": 4537,
      "rick": 4538,
      "Ġvide": 4539,
      "ube": 4540,
      "Ġmeeting": 4541,
      "Ġclimbed": 4542,
      "Ġgoes": 4543,
      "å¸Į": 4544,
      "ific": 4545,
      "ï¼ģï¼ģ": 4546,
      "Ġya": 4547,
      "Ġpet": 4548,
      "è¶´": 4549,
      "æīĵéĸĭ": 4550,
      "æ¼²": 4551,
      "Ġexcite": 4552,
      "Ġcas": 4553,
      "åĩºåİ»": 4554,
      "Ġconsid": 4555,
      "é¡«æĬĸ": 4556,
      "å¾Įä¾Ĩ": 4557,
      "Ġfigured": 4558,
      "Ġsir": 4559,
      "Ġsword": 4560,
      "ffect": 4561,
      "Ġ=": 4562,
      "çļĦå±ģèĤ¡": 4563,
      "Ġdild": 4564,
      "çļĦæĿ": 4565,
      "Ġpartic": 4566,
      "usted": 4567,
      "Ġpresent": 4568,
      "éģİäºĨ": 4569,
      "ä¼¯": 4570,
      "pper": 4571,
      "Ġhugged": 4572,
      "Ġsol": 4573,
      "Ġremembered": 4574,
      "é£Ľ": 4575,
      "è±¡": 4576,
      "noon": 4577,
      "Ġgun": 4578,
      "éĨī": 4579,
      "éĽ¨": 4580,
      "Ġcount": 4581,
      "At": 4582,
      "ĠJo": 4583,
      "Ġgrun": 4584,
      "æ³ģ": 4585,
      "Ġgather": 4586,
      "ĠBen": 4587,
      "ä¸ĢèĪ¬": 4588,
      "Ġrelation": 4589,
      "Ġafraid": 4590,
      "ron": 4591,
      "Ġcertainly": 4592,
      "Ġeffort": 4593,
      "çļĦå¿«æĦŁ": 4594,
      "asion": 4595,
      "ries": 4596,
      "uter": 4597,
      "Ġdriving": 4598,
      "åıįæĩī": 4599,
      "ining": 4600,
      "ç¿¹": 4601,
      "éĢĻäºĽ": 4602,
      "udden": 4603,
      "Ġfalling": 4604,
      "Ġdamn": 4605,
      "Please": 4606,
      "å²³": 4607,
      "ç¤º": 4608,
      "åĳĨ": 4609,
      "ç¾İéºĹ": 4610,
      "Ġir": 4611,
      "æĽī": 4612,
      "å±ĭ": 4613,
      "Ġextra": 4614,
      "Ġrece": 4615,
      "æ¸ħæ¥ļ": 4616,
      "Ġstreng": 4617,
      "æ¯«": 4618,
      "ĠAsh": 4619,
      "Ġsett": 4620,
      "æµ´å®¤": 4621,
      "æİĻ": 4622,
      "go": 4623,
      "æĺŁ": 4624,
      "Ġoffered": 4625,
      "Ġimport": 4626,
      "Ġsensitive": 4627,
      "uddenly": 4628,
      "âĢĶâĢĶ": 4629,
      "Ġwand": 4630,
      "Ġdest": 4631,
      "é¾į": 4632,
      "Ġsad": 4633,
      "Ġride": 4634,
      "Ġmach": 4635,
      "Ġaren": 4636,
      "æĲŀ": 4637,
      "Ġpanting": 4638,
      "ession": 4639,
      "åľ°ä¸Ĭ": 4640,
      "åıªèĥ½": 4641,
      "Ġobviously": 4642,
      "Ġgar": 4643,
      "Ġque": 4644,
      "Ġlevel": 4645,
      "Ġtouching": 4646,
      "å¥¹éĤ£": 4647,
      "èµ¤": 4648,
      "çļĦç¬": 4649,
      "çļĦçĽ": 4650,
      "use": 4651,
      "ĠPl": 4652,
      "èĲ¬": 4653,
      "Ġdies": 4654,
      "æĪĳåıĪ": 4655,
      "Ġbother": 4656,
      "Ġusual": 4657,
      "æ·¡": 4658,
      "achel": 4659,
      "Ġspace": 4660,
      "Ġburst": 4661,
      "Ġbull": 4662,
      "Ġslave": 4663,
      "ĠJenny": 4664,
      "åı¥": 4665,
      "éĽ¢éĸĭ": 4666,
      "ĠFemale": 4667,
      "Ġbreakfast": 4668,
      "Ġmirror": 4669,
      "cum": 4670,
      "çĻ¼çĶŁ": 4671,
      "Ġeffect": 4672,
      "Ġamount": 4673,
      "åıĹä¸įäºĨ": 4674,
      "Ġafternoon": 4675,
      "èĪħåª½": 4676,
      "Ġwie": 4677,
      "èĽĭ": 4678,
      "ÃĤ": 4679,
      "Ġcup": 4680,
      "åĽŀçŃĶ": 4681,
      "åĴĮæĪĳ": 4682,
      "æĶ¾åľ¨": 4683,
      "Ġgener": 4684,
      "Ġfamiliar": 4685,
      "Ġsteps": 4686,
      "inct": 4687,
      "æķ£": 4688,
      "Ġsqueezing": 4689,
      "rit": 4690,
      "å¦Ļ": 4691,
      "hys": 4692,
      "Ġfirmly": 4693,
      "ä¸įæķ¢": 4694,
      "Ġvirgin": 4695,
      "çļĦè¡¨": 4696,
      "Ġseine": 4697,
      "Ġals": 4698,
      "Ġconst": 4699,
      "çī¹åĪ¥": 4700,
      "Ġreaching": 4701,
      "åĪĨéĲĺ": 4702,
      "fer": 4703,
      "èĵī": 4704,
      "Ġcaused": 4705,
      "è¬Ľ": 4706,
      "ĠBy": 4707,
      "åĺ´åĶĩ": 4708,
      "Ġfresh": 4709,
      "ars": 4710,
      "Ġfix": 4711,
      "æĻĥ": 4712,
      "å¾Īå¤ļ": 4713,
      "Ġtruck": 4714,
      "Ġexcitement": 4715,
      "Ġfollowing": 4716,
      "éŀĭ": 4717,
      "çļĦçİ": 4718,
      "æĪĳéĤĦ": 4719,
      "Your": 4720,
      "èµ·äºĨ": 4721,
      "æ¿ĥ": 4722,
      "Ġcrazy": 4723,
      "Ġtens": 4724,
      "ä¸Ģéļ»æīĭ": 4725,
      "Ġdirectly": 4726,
      "Ġforgot": 4727,
      "èİī": 4728,
      "Ġtiger": 4729,
      "åĽŀåĪ°": 4730,
      "ĠJessica": 4731,
      "amon": 4732,
      "ages": 4733,
      "omm": 4734,
      "Ġstup": 4735,
      "ä¹ĸ": 4736,
      "åīĽåīĽ": 4737,
      "Ġmusic": 4738,
      "Ġfro": 4739,
      "ative": 4740,
      "åĲŀ": 4741,
      "åıªè¦ĭ": 4742,
      "æ²ĻçĻ¼": 4743,
      "ises": 4744,
      "åı£ä¸Ń": 4745,
      "CK": 4746,
      "å§ĳ": 4747,
      "äºĨä¸Ģæľĥ": 4748,
      "Ġcarry": 4749,
      "æ½Ķ": 4750,
      "çļĦæ¯": 4751,
      "åĸĬ": 4752,
      "cause": 4753,
      "å®¶è£¡": 4754,
      "èĦ¹": 4755,
      "Ġexposed": 4756,
      "Ġcab": 4757,
      "Ġadj": 4758,
      "ances": 4759,
      "Ġsus": 4760,
      "Ġstare": 4761,
      "æ·ĳ": 4762,
      "éı¡": 4763,
      "å¿Ĺ": 4764,
      "Ġsimple": 4765,
      "Ġvor": 4766,
      "aint": 4767,
      "å¿µ": 4768,
      "Ġmist": 4769,
      "æ´©": 4770,
      "wear": 4771,
      "æ¯Ķè¼ĥ": 4772,
      "An": 4773,
      "åĵ¡": 4774,
      "Ġvi": 4775,
      "çļĦç§": 4776,
      "Did": 4777,
      "å¼µéĸĭ": 4778,
      "Ġshocked": 4779,
      "Ġcocks": 4780,
      "Ġerect": 4781,
      "Ġweird": 4782,
      "çļĦå¤§èħ¿": 4783,
      "ekend": 4784,
      "vis": 4785,
      "Ġsurround": 4786,
      "èĴĤ": 4787,
      "Ġstream": 4788,
      "Ġfle": 4789,
      "æİĮ": 4790,
      "å«ĤåŃĲ": 4791,
      "Ġtest": 4792,
      "Ġneeds": 4793,
      "Ġtrust": 4794,
      "Ġfut": 4795,
      "aven": 4796,
      "Ġeating": 4797,
      "Ġserv": 4798,
      "Ġworth": 4799,
      "èĵĭ": 4800,
      "ieder": 4801,
      "èĤ©": 4802,
      "Ġstreet": 4803,
      "Ġshape": 4804,
      "ora": 4805,
      "Ġmeat": 4806,
      "Ġbusy": 4807,
      "der": 4808,
      "Ġsear": 4809,
      "çļĦæı": 4810,
      "åĭĻ": 4811,
      "gte": 4812,
      "çķ°": 4813,
      "Ġstrength": 4814,
      "èª²": 4815,
      "æĪĳçļĦæīĭ": 4816,
      "é¤Ĳ": 4817,
      "éĬ": 4818,
      "ari": 4819,
      "Ġswim": 4820,
      "çĺĭ": 4821,
      "acher": 4822,
      "å¼·çĥĪ": 4823,
      "Ġdildo": 4824,
      "Ġtick": 4825,
      "Ġhandle": 4826,
      "Ġpock": 4827,
      "Ġremind": 4828,
      "Ġloose": 4829,
      "Ġmention": 4830,
      "cri": 4831,
      "Ġdrew": 4832,
      "Ġweekend": 4833,
      "åĪ©": 4834,
      "Ok": 4835,
      "ĠYour": 4836,
      "ĠHermione": 4837,
      "Ġwondering": 4838,
      "that": 4839,
      "Ġhol": 4840,
      "éľĢ": 4841,
      "Ġodd": 4842,
      "Ġaside": 4843,
      "ãĢĤãĢĮ": 4844,
      "ital": 4845,
      "tering": 4846,
      "Ġobvious": 4847,
      "Can": 4848,
      "Ġpromise": 4849,
      "å£ģ": 4850,
      "çļĦå°ıç©´": 4851,
      "Ġturns": 4852,
      "Ġfeelings": 4853,
      "ĠMichael": 4854,
      "Ġdeath": 4855,
      "æ²ī": 4856,
      "Ġshouted": 4857,
      "Ġsometimes": 4858,
      "å°±éĢĻæ¨£": 4859,
      "Ġkids": 4860,
      "aves": 4861,
      ".'": 4862,
      "çĽ´æİ¥": 4863,
      "é»ĳèī²": 4864,
      "Ġpot": 4865,
      "ĠJosh": 4866,
      "åĲĮåŃ¸": 4867,
      "æĭĶ": 4868,
      "Ġprof": 4869,
      "Ġmix": 4870,
      "æĺ¯åĢĭ": 4871,
      "çĶŁæ´»": 4872,
      "Ġtotally": 4873,
      "Ġihn": 4874,
      "enny": 4875,
      "asturb": 4876,
      "ç¿Ĵ": 4877,
      "ai": 4878,
      "çĲª": 4879,
      "For": 4880,
      "urch": 4881,
      "åĲĲ": 4882,
      "umed": 4883,
      "Ġsilent": 4884,
      "Ġappre": 4885,
      "åĳ¼åĲ¸": 4886,
      "éĪ": 4887,
      "Ġblock": 4888,
      "ĠPlease": 4889,
      "ĠTe": 4890,
      "å·¨": 4891,
      "ĠCindy": 4892,
      "Ġkisses": 4893,
      "Ġwhisper": 4894,
      "ç°¡": 4895,
      "izz": 4896,
      "Ġcollaps": 4897,
      "Ġeventually": 4898,
      "ĠJill": 4899,
      "set": 4900,
      "Ġfat": 4901,
      "idden": 4902,
      "æ»¿è¶³": 4903,
      "ĠAdam": 4904,
      "ĠWhile": 4905,
      "Ġsleeping": 4906,
      "Ġdirty": 4907,
      "Ġexperien": 4908,
      "Ġlaying": 4909,
      "äºĨä¸ĭä¾Ĩ": 4910,
      "Ġhappening": 4911,
      "Ġwine": 4912,
      "Ġalthough": 4913,
      "ĠBill": 4914,
      "ĠFinally": 4915,
      "å¤ĸéĿ¢": 4916,
      "Ġgripped": 4917,
      "Ġcounter": 4918,
      "åĪĿ": 4919,
      "åŃĲå®®": 4920,
      "Ġanim": 4921,
      "åĵģ": 4922,
      "Ġalright": 4923,
      "que": 4924,
      "åįĥ": 4925,
      "ichelle": 4926,
      "ER": 4927,
      "æĦŁè¦ºåĪ°": 4928,
      "uly": 4929,
      "eline": 4930,
      "å¤§å«Ĥ": 4931,
      "Ġdoors": 4932,
      "å±ģçľ¼": 4933,
      "ĠJason": 4934,
      "åĮĸ": 4935,
      "èĺŃ": 4936,
      "Ġmovie": 4937,
      "Ġtoy": 4938,
      "ç¨į": 4939,
      "èĩīä¸Ĭ": 4940,
      "Ġapproached": 4941,
      "Ġcollege": 4942,
      "çļĦè¡£æľį": 4943,
      "ox": 4944,
      "ĠSara": 4945,
      "Ġsomehow": 4946,
      "Ġbelt": 4947,
      "æ²ĸ": 4948,
      "ĠBel": 4949,
      "Ġ10": 4950,
      "çļĦèĪĮéłŃ": 4951,
      "å·¦åı³": 4952,
      "åĵİ": 4953,
      "æĶ¯": 4954,
      "upted": 4955,
      "æŃ»äºĨ": 4956,
      "Ġnatur": 4957,
      "æľīäºº": 4958,
      "omething": 4959,
      "fic": 4960,
      "Ġsounded": 4961,
      "ç«¯": 4962,
      "Ġgasp": 4963,
      "èĹ¥": 4964,
      "neath": 4965,
      "Me": 4966,
      "Ġrelease": 4967,
      "åĪĨéĸĭ": 4968,
      "åĲ¸åĲ®": 4969,
      "Ġmod": 4970,
      "è¨Ī": 4971,
      "Ġgrabbing": 4972,
      "éģĭ": 4973,
      "å¹¾åĢĭ": 4974,
      "Ġordered": 4975,
      "Ġmeans": 4976,
      "olute": 4977,
      "æİĽ": 4978,
      "åıªè¦ģ": 4979,
      "Ã¼ber": 4980,
      "Ġblonde": 4981,
      "Ġgut": 4982,
      "å¹¸": 4983,
      "Ġwarmth": 4984,
      "inting": 4985,
      "é¼»": 4986,
      "ask": 4987,
      "ety": 4988,
      "Ġscared": 4989,
      "ä»¥çĤº": 4990,
      "çļĦåĳ»åĲŁ": 4991,
      "aching": 4992,
      "Ġtremb": 4993,
      "Ġtit": 4994,
      "Ġmad": 4995,
      "è«ĩ": 4996,
      "åĵĪåĵĪ": 4997,
      "Mmm": 4998,
      "åķª": 4999,
      "çļĦç´": 5000,
      "ortun": 5001,
      "~~~~~~~~": 5002,
      "çļĦåľ°æĸ¹": 5003,
      "æ®µ": 5004,
      "ĠYes": 5005,
      "Ġcomment": 5006,
      "Ġunderwear": 5007,
      "Ġlights": 5008,
      "Ġcrowd": 5009,
      "well": 5010,
      "éģĬ": 5011,
      "Ġvan": 5012,
      "Ġcast": 5013,
      "Ġpaper": 5014,
      "å²³æ¯į": 5015,
      "ĠBefore": 5016,
      "Ġfilling": 5017,
      "ball": 5018,
      "çıį": 5019,
      "ollen": 5020,
      "Ġrab": 5021,
      "ç¨ĭ": 5022,
      "Ġslip": 5023,
      "è¶£": 5024,
      "Ġtwenty": 5025,
      "Ġfinding": 5026,
      "Ġvers": 5027,
      "ï¼Ĭ": 5028,
      "Ġspur": 5029,
      "æĦĪ": 5030,
      "of": 5031,
      "åħĪçĶŁ": 5032,
      "Ġforget": 5033,
      "èĸĩ": 5034,
      "rill": 5035,
      "æĪ²": 5036,
      "éĦ": 5037,
      "æĺ¯ä¸įæĺ¯": 5038,
      "ä¹Łæ²Ĵ": 5039,
      "åŃ¸æł¡": 5040,
      "Ġshy": 5041,
      "Ġincl": 5042,
      "ĠChrist": 5043,
      "ä¸Ģæ¢Ŀ": 5044,
      "æ·¨": 5045,
      "éĢĻæĻĤåĢĻ": 5046,
      "now": 5047,
      "thm": 5048,
      "Of": 5049,
      "çĶľ": 5050,
      "Ġleather": 5051,
      "åĬłä¸Ĭ": 5052,
      "Ġsand": 5053,
      "ä¼¼çļĦ": 5054,
      "Ġdance": 5055,
      "çļĦç©": 5056,
      "ä»¥åīį": 5057,
      "ä¼¸æīĭ": 5058,
      "çĶļèĩ³": 5059,
      "Ġstupid": 5060,
      "ald": 5061,
      "èĤ¯": 5062,
      "Ġteen": 5063,
      "ĠÂłĠÂł": 5064,
      "Ġcamp": 5065,
      "æĸĻ": 5066,
      "iday": 5067,
      "ĠFuck": 5068,
      "ini": 5069,
      "å°ıå§Ĳ": 5070,
      "å¿ħ": 5071,
      "idge": 5072,
      "Ġtruth": 5073,
      "åħħæ»¿": 5074,
      "å¿½çĦ¶": 5075,
      "Ġsold": 5076,
      "å°įæĪĳ": 5077,
      "æĦıæĢĿ": 5078,
      "rin": 5079,
      "è¸": 5080,
      "vor": 5081,
      "éłĵ": 5082,
      "ĠQu": 5083,
      "åĬī": 5084,
      "Ġrhy": 5085,
      "å°Ħç²¾": 5086,
      "Ġshad": 5087,
      "Ġunderneath": 5088,
      "çļĦèĩĢ": 5089,
      "Ġhoped": 5090,
      "Ġmis": 5091,
      "cks": 5092,
      "Ġscreen": 5093,
      "è²Ŀ": 5094,
      "Ġlouder": 5095,
      "kward": 5096,
      "æĤĦ": 5097,
      "rand": 5098,
      "æ·ĭ": 5099,
      "æİ¢": 5100,
      "äºĨå¥¹": 5101,
      "å¸ĮæľĽ": 5102,
      "åĬŁ": 5103,
      "åı³æīĭ": 5104,
      "Ġsnapped": 5105,
      "Ġmed": 5106,
      "Ġgest": 5107,
      "åĺ´å·´": 5108,
      "ç¦®": 5109,
      "Ġrelationship": 5110,
      "Ġpersonal": 5111,
      "Ġtun": 5112,
      "Ġsmaller": 5113,
      "Ġbroken": 5114,
      "èł": 5115,
      "Ġcenter": 5116,
      "Ġcomb": 5117,
      "Ġcamera": 5118,
      "ĠAmy": 5119,
      "Ġwieder": 5120,
      "ä¸Ĭåİ»": 5121,
      "éĽ²": 5122,
      "IN": 5123,
      "æħ°": 5124,
      "æĽ¾": 5125,
      "Ġsmiles": 5126,
      "è¤²åŃĲ": 5127,
      "sch": 5128,
      "Ġting": 5129,
      "Ġcreature": 5130,
      "èµ·èº«": 5131,
      "Ġboxers": 5132,
      "èº«æĿĲ": 5133,
      "Ġhund": 5134,
      "å°¿": 5135,
      "Ġconne": 5136,
      "åķıé¡Į": 5137,
      "Ġobs": 5138,
      "æ«": 5139,
      "æŁĶè»Ł": 5140,
      "Ġslammed": 5141,
      "æīİ": 5142,
      "Sorry": 5143,
      "ault": 5144,
      "Ġquestions": 5145,
      "ĠBoth": 5146,
      "çĲĥ": 5147,
      "Ġeight": 5148,
      "roud": 5149,
      "Ġjoined": 5150,
      "Ġlearn": 5151,
      "aron": 5152,
      "çĲ³": 5153,
      "éĨ«": 5154,
      "æī¯": 5155,
      "æ¦Ĥ": 5156,
      "uh": 5157,
      "Ġpop": 5158,
      "Ġknot": 5159,
      "å¤ļäºĨ": 5160,
      "æ¯ıæ¬¡": 5161,
      "aff": 5162,
      "Ġexplain": 5163,
      "Ġphys": 5164,
      "Ġremained": 5165,
      "shirt": 5166,
      "Ġawkward": 5167,
      "Ġoccasion": 5168,
      "Ġsending": 5169,
      "ä¸ĸ": 5170,
      "åĻ¨": 5171,
      "Ġdate": 5172,
      "Ġdirection": 5173,
      "atch": 5174,
      "Ġreading": 5175,
      "Ġsou": 5176,
      "åı¯æĦĽ": 5177,
      "å¤§éĽŀå·´": 5178,
      "ÂłÂłÂł": 5179,
      "åħ§è¡£": 5180,
      "rence": 5181,
      "****************": 5182,
      "Ġhundred": 5183,
      "Ġwound": 5184,
      "Ġprocess": 5185,
      "Ah": 5186,
      "Ġlad": 5187,
      "Ġworse": 5188,
      "Ġresist": 5189,
      "çļĦæĮ": 5190,
      "ats": 5191,
      "ĠLiz": 5192,
      "Ġrhythm": 5193,
      "Ã©": 5194,
      "ĠHowever": 5195,
      "rated": 5196,
      "........": 5197,
      "Ġrealize": 5198,
      "ived": 5199,
      "Ġwave": 5200,
      "Ġreply": 5201,
      "yond": 5202,
      "gu": 5203,
      "å¦Ĥä½ķ": 5204,
      "æļĪ": 5205,
      "Ġvagina": 5206,
      "Ġinner": 5207,
      "é®": 5208,
      "Ġtil": 5209,
      "Ġwid": 5210,
      "usion": 5211,
      "Ġmostly": 5212,
      "Ġthrusts": 5213,
      "Ġdoubt": 5214,
      "éİ": 5215,
      "é«Ķåħ§": 5216,
      "reme": 5217,
      "Sure": 5218,
      "æĬĵä½ı": 5219,
      "Ġsuper": 5220,
      "OO": 5221,
      "gain": 5222,
      "ä¹Łæ²Ĵæľī": 5223,
      "çĤºä»Ģéº¼": 5224,
      "æ»´": 5225,
      "éĹĨ": 5226,
      "Ġmetal": 5227,
      "éĢĻæ¬¡": 5228,
      "Ġcrying": 5229,
      "apping": 5230,
      "Ã¼ck": 5231,
      "OU": 5232,
      "Ġank": 5233,
      "Ġtrip": 5234,
      "Ġlose": 5235,
      "ä¼ı": 5236,
      "Ġparticular": 5237,
      "å¾Ĺå¾Ī": 5238,
      "Ġsqueeze": 5239,
      "èľľ": 5240,
      "Ġterri": 5241,
      "Ġband": 5242,
      "ĠWas": 5243,
      "Ġinstantly": 5244,
      "Ġkilled": 5245,
      "æĴĲ": 5246,
      "Ġcomputer": 5247,
      "Ġbik": 5248,
      "æĹ©å·²": 5249,
      "par": 5250,
      "èģŀ": 5251,
      "Ġaber": 5252,
      "å¹´è¼ķ": 5253,
      "ä¼ĳæģ¯": 5254,
      "Ġimportant": 5255,
      "èĥ¡": 5256,
      "çļĦéĽĻ": 5257,
      "ĠMaria": 5258,
      "inger": 5259,
      "rian": 5260,
      "æķħæĦı": 5261,
      "æ©Łæľĥ": 5262,
      "arently": 5263,
      "çĩĪ": 5264,
      "--------------------------------": 5265,
      "Ġvideo": 5266,
      "åıĸ": 5267,
      "çļĦæĸ": 5268,
      "ĠJoe": 5269,
      "lyn": 5270,
      "è²¨": 5271,
      "Ġavo": 5272,
      "å°±åĥı": 5273,
      "Ġinform": 5274,
      "Ġdemand": 5275,
      "Ġmer": 5276,
      "Ġbeach": 5277,
      "ceed": 5278,
      "Ġshare": 5279,
      "Ġinvol": 5280,
      "ĠMax": 5281,
      "Ġshoved": 5282,
      "ta": 5283,
      "çĭĹ": 5284,
      "rel": 5285,
      "Ġcal": 5286,
      "èģ²éŁ³": 5287,
      "æ±Ĺ": 5288,
      "èªªè©±": 5289,
      "Ġways": 5290,
      "Ġyounger": 5291,
      "Ġfra": 5292,
      "Ġlady": 5293,
      "å¤§æ¦Ĥ": 5294,
      "Ġheading": 5295,
      "Thanks": 5296,
      "Ġsettled": 5297,
      "ä¸ĭäºĨ": 5298,
      "çĭĢ": 5299,
      "æ²Ĵæĥ³åĪ°": 5300,
      "af": 5301,
      "Ġcrossed": 5302,
      "Ġproud": 5303,
      "Ġresting": 5304,
      "Ġheavily": 5305,
      "åľ¨æĪĳçļĦ": 5306,
      "çµ²è¥ª": 5307,
      "ura": 5308,
      "Ġoffer": 5309,
      "sp": 5310,
      "Ġjet": 5311,
      "Ġfrown": 5312,
      "è¿İ": 5313,
      "Ġcoo": 5314,
      "Ġhungry": 5315,
      "éļĶèĳĹ": 5316,
      "éĢ¼": 5317,
      "çľĭä¾Ĩ": 5318,
      "Ġec": 5319,
      "Ġcarried": 5320,
      "Ġihr": 5321,
      "ç¯Ģ": 5322,
      "Ġot": 5323,
      "æĥ³èĳĹ": 5324,
      "work": 5325,
      "çļĦå¥³": 5326,
      "ĠMrs": 5327,
      "ç±³": 5328,
      "Ġnach": 5329,
      "ilar": 5330,
      "ĠMichelle": 5331,
      "ella": 5332,
      "Ġallow": 5333,
      "å¹²": 5334,
      "uel": 5335,
      "Ġtill": 5336,
      "Ġliqu": 5337,
      "ics": 5338,
      "çļĦçµ": 5339,
      "Ġmarried": 5340,
      "Ġrecogn": 5341,
      "éĢĢ": 5342,
      "å¥½èĪĴæľį": 5343,
      "çľĭäºĨ": 5344,
      "é©Ĺ": 5345,
      "Ġviol": 5346,
      "Ġteacher": 5347,
      "çĶ°": 5348,
      "éĽĦ": 5349,
      "Ġplaces": 5350,
      "Ġdistance": 5351,
      "ä¸¦ä¸Ķ": 5352,
      "Ġpure": 5353,
      "Ġnone": 5354,
      "Ġsummer": 5355,
      "Ġfacing": 5356,
      "Ġdig": 5357,
      "ĠMiss": 5358,
      "Ġsomewhere": 5359,
      "Ġprov": 5360,
      "é£Ł": 5361,
      "Ġchoice": 5362,
      "Ġlearned": 5363,
      "Ġdrunk": 5364,
      "å§¿åĭ¢": 5365,
      "Ġmot": 5366,
      "ĠDid": 5367,
      "å±ķ": 5368,
      "Ġantic": 5369,
      "bert": 5370,
      "Ġdemon": 5371,
      "éĥŃ": 5372,
      "æĽ´æĺ¯": 5373,
      "ses": 5374,
      "Ġpiss": 5375,
      "æĴ¥": 5376,
      "çļĦæĿ±è¥¿": 5377,
      "Ġwake": 5378,
      "Ġclaws": 5379,
      "________________": 5380,
      "teen": 5381,
      "Ġthanks": 5382,
      "Ġtruly": 5383,
      "ç½®": 5384,
      "ä¸įèµ·": 5385,
      "æĽ¿": 5386,
      "Ġclub": 5387,
      "ĠDaniel": 5388,
      "Ġtied": 5389,
      "Ġperfectly": 5390,
      "Ġoffic": 5391,
      "ka": 5392,
      "éħ¥": 5393,
      "Ġdear": 5394,
      "çıł": 5395,
      "Ġpicture": 5396,
      "cher": 5397,
      "éĳ": 5398,
      "Ġgag": 5399,
      "Ġbeer": 5400,
      "Ġsky": 5401,
      "ä¸ĢåĢĭäºº": 5402,
      "Ġappreci": 5403,
      "ĠBeth": 5404,
      "èĩªçĦ¶": 5405,
      "åĺī": 5406,
      "æĴŀ": 5407,
      "Ġchat": 5408,
      "çĪ¬": 5409,
      "æ»ĭ": 5410,
      "Ġprev": 5411,
      "åĤ³ä¾Ĩ": 5412,
      "Ġbeyond": 5413,
      "èī·": 5414,
      "Ġshifted": 5415,
      "Ġembarrassed": 5416,
      "ander": 5417,
      "ĠLike": 5418,
      "ä¸ĥ": 5419,
      "ifer": 5420,
      "Ġnoise": 5421,
      "than": 5422,
      "Ġdisplay": 5423,
      "ç¬¬äºĮ": 5424,
      "çµ¦ä½ł": 5425,
      "æ¶¼": 5426,
      "éĻ¢": 5427,
      "éĽ»è¦ĸ": 5428,
      "ĠDad": 5429,
      "çķ¶æĪĳ": 5430,
      "æł¹æľ¬": 5431,
      "Ġshake": 5432,
      "ĸåŃĲ": 5433,
      "osp": 5434,
      "åł±": 5435,
      "Ġlarger": 5436,
      "Ġmassage": 5437,
      "ration": 5438,
      "osing": 5439,
      "Ġaware": 5440,
      "ym": 5441,
      "ĠHolly": 5442,
      "ä»£": 5443,
      "èº«åŃĲ": 5444,
      "ĠPh": 5445,
      "Ġswell": 5446,
      "Uh": 5447,
      "stem": 5448,
      "åľ¨å¥¹çļĦ": 5449,
      "anie": 5450,
      "ĠGr": 5451,
      "è·ª": 5452,
      "Ġprotect": 5453,
      "Ġtreat": 5454,
      "ĠOur": 5455,
      "ĊĊĉÂłÂłÂłÂłÂłÂłÂłÂł": 5456,
      "éłĺ": 5457,
      "æĹ¢": 5458,
      "Maybe": 5459,
      "ä¸įæĻĤ": 5460,
      "å¹«æĪĳ": 5461,
      "Ġ/": 5462,
      "Ġswollen": 5463,
      "Ġdiffic": 5464,
      "Ġeyeb": 5465,
      "ĠAmanda": 5466,
      "Ġtwice": 5467,
      "çļĦä¹³éłŃ": 5468,
      "Ġdespite": 5469,
      "Ġeinen": 5470,
      "aa": 5471,
      "Ġhorse": 5472,
      "rage": 5473,
      "ĠFl": 5474,
      "Ġspec": 5475,
      "ĠÃ¼ber": 5476,
      "ĠDaddy": 5477,
      "Ġbrain": 5478,
      "é«ĺèĪĪ": 5479,
      "Ġperhaps": 5480,
      "do": 5481,
      "inked": 5482,
      "Ġgrunted": 5483,
      "One": 5484,
      "Ġdanger": 5485,
      "Ġbringing": 5486,
      "ĠPat": 5487,
      "Ġpulls": 5488,
      "çļĦæ·«æ°´": 5489,
      "ism": 5490,
      "ä¸įçĶ±": 5491,
      "éĸĥ": 5492,
      "èĤı": 5493,
      "Ġpost": 5494,
      "çļĦèĥ¸éĥ¨": 5495,
      "esome": 5496,
      "Ġconv": 5497,
      "Ġgrand": 5498,
      "Ġmovement": 5499,
      "Ġspell": 5500,
      "åĨįæ¬¡": 5501,
      "line": 5502,
      "ĠÃ": 5503,
      "åŀ": 5504,
      "Ġaction": 5505,
      "Who": 5506,
      "acks": 5507,
      "oph": 5508,
      "ä¼¸åĩº": 5509,
      "ĠMist": 5510,
      "éĤ£æ¨£": 5511,
      "è®ĵä½ł": 5512,
      "Ġexcla": 5513,
      "å¥Ī": 5514,
      "ä¸įéĮ¯": 5515,
      "Ġcolor": 5516,
      "é¡Ĩ": 5517,
      "è³ŀ": 5518,
      "ĠSu": 5519,
      "åħ©èħ¿": 5520,
      "ç·Ĭå¼µ": 5521,
      "åĢ«": 5522,
      "æİĴ": 5523,
      "å±ħçĦ¶": 5524,
      "çļĦçľ¼": 5525,
      "æĺ¯åľ¨": 5526,
      "iving": 5527,
      "Ġclothing": 5528,
      "Ġshop": 5529,
      "çļĦæµ": 5530,
      "ĠRachel": 5531,
      "å°¤": 5532,
      "å£¯": 5533,
      "Ġcollapsed": 5534,
      "chn": 5535,
      "æĬµ": 5536,
      "éĤĦæ²Ĵ": 5537,
      "çķ¶æĻĤ": 5538,
      "Ġdisappo": 5539,
      "å°İ": 5540,
      "å¸¶èĳĹ": 5541,
      "æĹģéĤĬ": 5542,
      "Ġeyebrow": 5543,
      "ibb": 5544,
      "ï¼Ł\"": 5545,
      "Ġrelief": 5546,
      "æĻ¯": 5547,
      "åĴª": 5548,
      "Ġpumping": 5549,
      "Ġbecoming": 5550,
      "zt": 5551,
      "iment": 5552,
      "å¥¹ä¹Ł": 5553,
      "Ġsave": 5554,
      "Ġwhimp": 5555,
      "ĠAnn": 5556,
      "uid": 5557,
      "äº¦": 5558,
      "åĭĥ": 5559,
      "tended": 5560,
      "Ġpath": 5561,
      "çĪ¶è¦ª": 5562,
      "Ġpocket": 5563,
      "Ġdann": 5564,
      "onnie": 5565,
      "å»ģ": 5566,
      "åŀĭ": 5567,
      "idence": 5568,
      "Ġextreme": 5569,
      "Ġinstru": 5570,
      "Ġknelt": 5571,
      "æĭĽ": 5572,
      "Ġhearing": 5573,
      "ucked": 5574,
      "ĠOf": 5575,
      "Ġpenet": 5576,
      "Ġwigg": 5577,
      "éĤ£äºĽ": 5578,
      "rs": 5579,
      "ä¸Ģä»¶": 5580,
      "è¿«": 5581,
      "she": 5582,
      "æľĿ": 5583,
      "Ġlang": 5584,
      "ä¸Ģçľĭ": 5585,
      "å¹»": 5586,
      "ä¸īåĢĭ": 5587,
      "Ġihm": 5588,
      "çĸ¼": 5589,
      "Ġfab": 5590,
      "å¨ľ": 5591,
      "èĢģéĹĨ": 5592,
      "ĠFrank": 5593,
      "ki": 5594,
      "Ġrabbit": 5595,
      "æ¶Ī": 5596,
      "æĵģ": 5597,
      "ĠJenn": 5598,
      "Ġforcing": 5599,
      "Ġfond": 5600,
      "ä¸īè§Ĵ": 5601,
      "ç³Ĭ": 5602,
      "çĶ¢": 5603,
      "é»ŀéłŃ": 5604,
      "æª": 5605,
      "Ġhun": 5606,
      "ãĢįï¼Į": 5607,
      "Ġblouse": 5608,
      "Ġabsolute": 5609,
      "ç´¯": 5610,
      "çµĲå©ļ": 5611,
      "Ġhallway": 5612,
      "èį": 5613,
      "ĠRob": 5614,
      "Ġecst": 5615,
      "Ġfif": 5616,
      "Ġlion": 5617,
      "åĨ°": 5618,
      "Ġclosing": 5619,
      "çļĦéĽŀå·´": 5620,
      "Ġanger": 5621,
      "èĩ¥": 5622,
      "çĪº": 5623,
      "Ġpounding": 5624,
      "éľĢè¦ģ": 5625,
      "Ġshall": 5626,
      "Ġnote": 5627,
      "å¾ĹæĪĳ": 5628,
      "Ġteased": 5629,
      "Ġsurf": 5630,
      "Ġgreet": 5631,
      "çļĦæİ": 5632,
      "æ·±èĻķ": 5633,
      "ä¸»ä»»": 5634,
      "Ġvisit": 5635,
      "æĺı": 5636,
      "Ġanticip": 5637,
      "Ġrested": 5638,
      "çĺĭçĭĤ": 5639,
      "bel": 5640,
      "ĠSus": 5641,
      "éĻª": 5642,
      "èµ°äºĨ": 5643,
      "èĨ½": 5644,
      "Ġrolling": 5645,
      "Ġexam": 5646,
      "Ġbirth": 5647,
      "Ġinterested": 5648,
      "inn": 5649,
      "âĢĿ,": 5650,
      "ĠAre": 5651,
      "åī©": 5652,
      "é£½": 5653,
      "ĠInst": 5654,
      "æĬ±ä½ı": 5655,
      "Ġscreaming": 5656,
      "ç¢º": 5657,
      "åŃ«": 5658,
      "å½İ": 5659,
      "Ġbal": 5660,
      "é®®": 5661,
      "ç·´": 5662,
      "Ġlovely": 5663,
      "EE": 5664,
      "Ġwash": 5665,
      "Ġallowing": 5666,
      "Ġpee": 5667,
      "Ġhotel": 5668,
      "inging": 5669,
      "ĠAny": 5670,
      "çªĹ": 5671,
      "Ġwrit": 5672,
      "Ġcovering": 5673,
      "Ġsuggested": 5674,
      "land": 5675,
      "Ġflow": 5676,
      "çļĦè·": 5677,
      "ighb": 5678,
      "æīŃåĭķ": 5679,
      "ĠEmily": 5680,
      "Ġthreat": 5681,
      "æľ¬ä¾Ĩ": 5682,
      "lowly": 5683,
      "æ·ļ": 5684,
      "èĻķå¥³": 5685,
      "Ġangry": 5686,
      "é¼ĵ": 5687,
      "icing": 5688,
      "è¡«": 5689,
      "è³ª": 5690,
      "time": 5691,
      "Ġexplod": 5692,
      "çļĦçĶ·": 5693,
      "ä»ĭ": 5694,
      "Ġflood": 5695,
      "ĠFiction": 5696,
      "Ġate": 5697,
      "Ġshared": 5698,
      "Ġshouldn": 5699,
      "Ġaud": 5700,
      "elle": 5701,
      "ĠNoah": 5702,
      "é»ĺ": 5703,
      "iden": 5704,
      "Ġfeline": 5705,
      "èĥ¸ç½©": 5706,
      "Ġtree": 5707,
      "omin": 5708,
      "Ġspo": 5709,
      "fl": 5710,
      "une": 5711,
      "iles": 5712,
      "éĿĪ": 5713,
      "Ġetwas": 5714,
      "ĠDer": 5715,
      "ç¶²": 5716,
      "va": 5717,
      "å¤§èģ²": 5718,
      "éĤ£ä¸Ģ": 5719,
      "åĻ¢": 5720,
      "fit": 5721,
      "Ġsomewhat": 5722,
      "ç´Ģ": 5723,
      "Ġihre": 5724,
      "Ġmasturb": 5725,
      "ç´Ķ": 5726,
      "æĭĴ": 5727,
      "ä½¢": 5728,
      "Ġice": 5729,
      "ĠCan": 5730,
      "velop": 5731,
      "ä»»ä½ķ": 5732,
      "MM": 5733,
      "Ġstun": 5734,
      "Ġgroan": 5735,
      "ĠAmber": 5736,
      "Ġlanded": 5737,
      "Ġmater": 5738,
      "ĠSil": 5739,
      "illed": 5740,
      "Ġcleaned": 5741,
      "Ġhoney": 5742,
      "Ġram": 5743,
      "ĠTV": 5744,
      "åı£æ°£": 5745,
      "mission": 5746,
      "æº«æŁĶ": 5747,
      "çľĭèĳĹæĪĳ": 5748,
      "éº½": 5749,
      "è»Ģ": 5750,
      "ä¸įç¦ģ": 5751,
      "è¶ģ": 5752,
      "Ġmissed": 5753,
      "Ġdied": 5754,
      "èĢĥ": 5755,
      "ĠTheir": 5756,
      "Ġtrain": 5757,
      "Ġattempt": 5758,
      "ĽéĸĢ": 5759,
      "ä¸ĢéĿ¢": 5760,
      "racted": 5761,
      "Ġsucc": 5762,
      "Ġbuilt": 5763,
      "ita": 5764,
      "ayed": 5765,
      "Wow": 5766,
      "Ġlift": 5767,
      "èµ°åĪ°": 5768,
      "é¬¼": 5769,
      "æ³¢": 5770,
      "çĸĳ": 5771,
      "Ġmuttered": 5772,
      "Ġpanted": 5773,
      "çļĦåı«": 5774,
      "Ġlived": 5775,
      "ĠBo": 5776,
      "æ·±æ·±": 5777,
      "è¶ķç·Ĭ": 5778,
      "åľ¨ä»ĸ": 5779,
      "ĠPro": 5780,
      "å£«": 5781,
      "Ġtender": 5782,
      "Ġknee": 5783,
      "Ġforever": 5784,
      "Ġhate": 5785,
      "Ġgorge": 5786,
      "çİ©å¼Ħ": 5787,
      "ç·©ç·©": 5788,
      "ĠChe": 5789,
      "æĴ²": 5790,
      "Ġchecked": 5791,
      "æļĸ": 5792,
      "ette": 5793,
      "ixen": 5794,
      "Ġnearby": 5795,
      "Ġdarkness": 5796,
      "ä¸ĢæĬĬ": 5797,
      "è§Ģ": 5798,
      "Ġpictures": 5799,
      "vering": 5800,
      "ĠKelly": 5801,
      "Ġshuddered": 5802,
      "äºĴ": 5803,
      "ĠAb": 5804,
      "Ġuh": 5805,
      "çļĦè¤": 5806,
      "æºĿ": 5807,
      "æ´Ĺæ¾¡": 5808,
      "Once": 5809,
      "çļĦè¡¨æĥħ": 5810,
      "Ġaccept": 5811,
      "Ġapolog": 5812,
      "Ġdrinks": 5813,
      "Alright": 5814,
      "inny": 5815,
      "ä¸įæĥ³": 5816,
      "å·¾": 5817,
      "Ġmoist": 5818,
      "è®Ĭå¾Ĺ": 5819,
      "Ġliquid": 5820,
      "Ġdisco": 5821,
      "Ġnor": 5822,
      "Ġrobe": 5823,
      "å°ĩå¥¹": 5824,
      "ä¸ĢæľĥåħĴ": 5825,
      "Ġlub": 5826,
      "èĥ¸åīį": 5827,
      "Ġelect": 5828,
      "Ġcareful": 5829,
      "æ§": 5830,
      "Ġgay": 5831,
      "Ġshoes": 5832,
      "ĠTH": 5833,
      "åĲ¦": 5834,
      "âĢ¦âĢ¦âĢ¦âĢ¦": 5835,
      "ĠFirst": 5836,
      "Ġimagine": 5837,
      "cell": 5838,
      "Ġincredible": 5839,
      "Ġrepeated": 5840,
      "Ġotter": 5841,
      "æ¤": 5842,
      "çļĦæħ": 5843,
      "Ġunable": 5844,
      "lder": 5845,
      "Ġmel": 5846,
      "Ġrad": 5847,
      "ĠEric": 5848,
      "Ġ7": 5849,
      "ĠPaul": 5850,
      "Ġstone": 5851,
      "cht": 5852,
      "Ġgrad": 5853,
      "Ġjuice": 5854,
      "Ġ8": 5855,
      "Ġdue": 5856,
      "æĪĳéĥ½": 5857,
      "val": 5858,
      "Ġfist": 5859,
      "Ġupstairs": 5860,
      "çļĦèĬ": 5861,
      "Ġwaved": 5862,
      "Ġinstinct": 5863,
      "rend": 5864,
      "Ġheads": 5865,
      "Ġforest": 5866,
      "Ġwhore": 5867,
      "Ġcop": 5868,
      "Ġburning": 5869,
      "To": 5870,
      "Ġdiscus": 5871,
      "æ²¾": 5872,
      "Ġkey": 5873,
      "åĪ¥äºº": 5874,
      "Ġbite": 5875,
      "Ġhar": 5876,
      "çļĦæĽ": 5877,
      "çļĦæĦĽ": 5878,
      "Ġsed": 5879,
      "ä¸Ģä¸ĭåŃĲ": 5880,
      "çļĦèĩĢéĥ¨": 5881,
      "ela": 5882,
      "rom": 5883,
      "èĩĤ": 5884,
      "Ġtext": 5885,
      "æĪĲçĨŁ": 5886,
      "Hell": 5887,
      "Ġneighb": 5888,
      "ç´¢": 5889,
      "åĤ·": 5890,
      "ĠJon": 5891,
      "Ġopportun": 5892,
      "Ġfocused": 5893,
      "çļĦåĭķä½ľ": 5894,
      "oned": 5895,
      "æŀľçĦ¶": 5896,
      "Ġhig": 5897,
      "åĺ»": 5898,
      "çŃĶæĩī": 5899,
      "ustom": 5900,
      "åİ²": 5901,
      "æħ¢æħ¢åľ°": 5902,
      "otic": 5903,
      "ä¾ĨåĽŀ": 5904,
      "æĸ¼æĺ¯æĪĳ": 5905,
      "çļĦèħ³": 5906,
      "cca": 5907,
      "çļĦæķ": 5908,
      "æı¡ä½ı": 5909,
      "è¼ª": 5910,
      "Ġstrokes": 5911,
      "æµģåĩº": 5912,
      "Ġsmirked": 5913,
      "Where": 5914,
      "è¡Ľ": 5915,
      "ç¸½æĺ¯": 5916,
      "Ġgorgeous": 5917,
      "ĠEx": 5918,
      "Ġchildren": 5919,
      "ivers": 5920,
      "Ġblind": 5921,
      "Ġsne": 5922,
      "Ġmaterial": 5923,
      "Ġsepar": 5924,
      "ĠWolf": 5925,
      "ulf": 5926,
      "Ġfeed": 5927,
      "Ġbrushed": 5928,
      "Ġsick": 5929,
      "éĤĦåľ¨": 5930,
      "cho": 5931,
      "è®ĬæĪĲ": 5932,
      "reg": 5933,
      "Ġhelping": 5934,
      "Ġfighting": 5935,
      "ĠBelinda": 5936,
      "ä¾ĨåĪ°": 5937,
      "Ġtossed": 5938,
      "Ġfail": 5939,
      "Ġnatural": 5940,
      "Ġill": 5941,
      "è¨İ": 5942,
      "éħįåĲĪ": 5943,
      "Ġboss": 5944,
      "è¦ªåĲ»": 5945,
      "è®ĵä»ĸ": 5946,
      "Ġsetting": 5947,
      "Ġsnow": 5948,
      "ench": 5949,
      "æĪĳçľĭ": 5950,
      "æĿ±": 5951,
      "åıĹåĪ°": 5952,
      "Ġcell": 5953,
      "ä¸įçĶ¨": 5954,
      "ppy": 5955,
      "çļĦä¹³": 5956,
      ".âĢĻ": 5957,
      "Ġpaid": 5958,
      "ira": 5959,
      "èĢĲ": 5960,
      "sal": 5961,
      "athan": 5962,
      "Ġtype": 5963,
      "lessly": 5964,
      "oooo": 5965,
      "åĲ¹": 5966,
      "Ġpopped": 5967,
      "çļĦéĻ°æĪ¶": 5968,
      "æĳ©æĵ¦": 5969,
      "ä¸Ģç¨®": 5970,
      "hhh": 5971,
      "è§£éĸĭ": 5972,
      "Ġtan": 5973,
      "Ġwings": 5974,
      "Ġsystem": 5975,
      "äºĨä¸ĢåĢĭ": 5976,
      "Ġlikely": 5977,
      "çĿĢ": 5978,
      "Ġexclaimed": 5979,
      "ç§ĺ": 5980,
      "èĦ«ä¸ĭ": 5981,
      "èµ¤è£¸": 5982,
      "Ġfabric": 5983,
      "bers": 5984,
      "åħ¶ä»ĸ": 5985,
      "Ġstories": 5986,
      "ä¿®éķ·": 5987,
      "ĠDr": 5988,
      "å°±æľĥ": 5989,
      "èĤļ": 5990,
      "æĢİæ¨£": 5991,
      "Ġforehead": 5992,
      "æĪ°": 5993,
      "Ġuncom": 5994,
      "åľ°èªª": 5995,
      "Ġfluid": 5996,
      "Ġaroused": 5997,
      "Ġinno": 5998,
      "è¢ĭ": 5999,
      "åĤĳ": 6000,
      "çļĦèº«ä¸Ĭ": 6001,
      "Ġintim": 6002,
      "çĩĻ": 6003,
      "Ġ***": 6004,
      "erve": 6005,
      "äºĭæĥħ": 6006,
      "æĪĳæīį": 6007,
      "Ġalive": 6008,
      "Ġhappily": 6009,
      "Chapter": 6010,
      "-\"": 6011,
      "åĴĮå¥¹": 6012,
      "Ġstall": 6013,
      "eled": 6014,
      "Ġkicked": 6015,
      "æİĻæīİ": 6016,
      "æĪĳå·²ç¶ĵ": 6017,
      "å¿«éĢŁ": 6018,
      "Ġtraining": 6019,
      "Ġacce": 6020,
      "rop": 6021,
      "Ġjaw": 6022,
      "æĿ¿": 6023,
      "Ġstradd": 6024,
      "Ġrevealing": 6025,
      "ĮèĨļ": 6026,
      "çļĦåħ§è¤²": 6027,
      "alth": 6028,
      "çļĦæĴ": 6029,
      "éĸĢåı£": 6030,
      "æ¢ħ": 6031,
      "ictor": 6032,
      "Ġhusky": 6033,
      "allen": 6034,
      "éģ®": 6035,
      "Ġstated": 6036,
      "Ġbulge": 6037,
      "æĺ¨": 6038,
      "æĿŁ": 6039,
      "Ġdifficult": 6040,
      "ills": 6041,
      "éģĩ": 6042,
      "éĻ¤äºĨ": 6043,
      "Ġjump": 6044,
      "orts": 6045,
      "Ġinclud": 6046,
      "aura": 6047,
      "çļĦæĬ½æıĴ": 6048,
      "Hi": 6049,
      "AA": 6050,
      "äºŀ": 6051,
      "Ġpointing": 6052,
      "ç¶ĵå¸¸": 6053,
      "ĠZe": 6054,
      "æľ¨": 6055,
      "Ġreaction": 6056,
      "By": 6057,
      "nded": 6058,
      "åĪ°åºķ": 6059,
      "ĠFe": 6060,
      "ĠPart": 6061,
      "ç¾İå¥³": 6062,
      "å®¢å»³": 6063,
      "ä¸Ńéĸĵ": 6064,
      "æĽ²": 6065,
      "èĳī": 6066,
      "enry": 6067,
      "Ġple": 6068,
      "ĠGl": 6069,
      "Ġpregn": 6070,
      "ĠLuke": 6071,
      "ially": 6072,
      "ä¿Ĭ": 6073,
      "çºı": 6074,
      "æĮīæĳ©": 6075,
      "Ġtrees": 6076,
      "Ġlucky": 6077,
      "åº§": 6078,
      "èķ¾": 6079,
      "æĪĳèĢģå©Ĩ": 6080,
      "unny": 6081,
      "åłĤ": 6082,
      "Ġrush": 6083,
      "ĠEll": 6084,
      "Ġpoor": 6085,
      "Ġcurrent": 6086,
      "Ġprivate": 6087,
      "Ġblinked": 6088,
      "å¾Īå¥½": 6089,
      "äºĨä¸Ģèģ²": 6090,
      "Ġstim": 6091,
      "å°įæĸ¹": 6092,
      "Ġwrist": 6093,
      "éĤĦè¦ģ": 6094,
      "Ġfuture": 6095,
      "ancy": 6096,
      "Ġfunny": 6097,
      "Ġdisappeared": 6098,
      "off": 6099,
      "ĠVer": 6100,
      "Ġintrodu": 6101,
      "oc": 6102,
      "ified": 6103,
      "Ġslick": 6104,
      "Ġmal": 6105,
      "Ġprodu": 6106,
      "Ġsteady": 6107,
      "Ġcurious": 6108,
      "âĤ": 6109,
      "å¿ĥæĥ³": 6110,
      "Ġstopping": 6111,
      "Ġjerked": 6112,
      "âĶħâĶħ": 6113,
      "âĤ¬": 6114,
      "ige": 6115,
      "ĠBet": 6116,
      "pes": 6117,
      "éģ¿": 6118,
      "iley": 6119,
      "Ġblade": 6120,
      "Ġarched": 6121,
      "ç§ĭ": 6122,
      "å¡Ĭ": 6123,
      "ĠLuc": 6124,
      "Ġdouble": 6125,
      "fa": 6126,
      "èĳĹå°ı": 6127,
      "Ġgrinding": 6128,
      "wise": 6129,
      "Ġjoy": 6130,
      "Ġinteresting": 6131,
      "å±¤": 6132,
      "Ġtoes": 6133,
      "å¹³æĻĤ": 6134,
      "ĠStill": 6135,
      "Ġtub": 6136,
      "asha": 6137,
      "å¾©": 6138,
      "Ġfavorite": 6139,
      "ĠSoon": 6140,
      "utter": 6141,
      "Ġbend": 6142,
      "Ġupper": 6143,
      "æ²ĻçĻ¼ä¸Ĭ": 6144,
      "Ġstage": 6145,
      "ler": 6146,
      "Ġwashed": 6147,
      "Ġbreaking": 6148,
      "åĽŀåİ»": 6149,
      "ç«Ļåľ¨": 6150,
      "Ġrid": 6151,
      "æİ§": 6152,
      "Ġboobs": 6153,
      "Ġsimilar": 6154,
      "Ġknocked": 6155,
      "Harry": 6156,
      "ma": 6157,
      "Ġport": 6158,
      "è·ŁèĳĹ": 6159,
      "ä¸įåģľåľ°": 6160,
      "Ġcrawled": 6161,
      "ĠDar": 6162,
      "mit": 6163,
      "Ġsway": 6164,
      "ĠSie": 6165,
      "ĠNic": 6166,
      "ç«ĭåį³": 6167,
      "èĬ¬": 6168,
      "Ġphot": 6169,
      "Ġoppos": 6170,
      "Ġarousal": 6171,
      "Ġhidden": 6172,
      "Ġtasted": 6173,
      "Ġsheath": 6174,
      "Ġris": 6175,
      "æī£": 6176,
      "èĪī": 6177,
      "åīįéĿ¢": 6178,
      "Ġcalling": 6179,
      "çļĦè¤²": 6180,
      "Ġfield": 6181,
      "Ġrear": 6182,
      "å°ıæĻĤ": 6183,
      "Ġplenty": 6184,
      "Ġglance": 6185,
      "gging": 6186,
      "Ġsink": 6187,
      "eless": 6188,
      "Mar": 6189,
      "Ġlube": 6190,
      "æ³¨æĦı": 6191,
      "cky": 6192,
      "Ġescape": 6193,
      "Ġdim": 6194,
      "çĭ¼": 6195,
      "Ġges": 6196,
      "Ġrang": 6197,
      "å»ģæīĢ": 6198,
      "Ġslipping": 6199,
      "ï¼Ĭï¼Ĭ": 6200,
      "Ġ9": 6201,
      "Ġcard": 6202,
      "å°Ī": 6203,
      "ç¶ĵéģİ": 6204,
      "Ġbattle": 6205,
      "åŀĤ": 6206,
      "God": 6207,
      "çļĦæĶ": 6208,
      "Ġeasier": 6209,
      "éª": 6210,
      "ĠDave": 6211,
      "Ġvill": 6212,
      "å°ĦäºĨ": 6213,
      "ç¦ı": 6214,
      "ĠWilliam": 6215,
      "å°ıå¿ĥ": 6216,
      "æĥ¡": 6217,
      "ä¿ĥ": 6218,
      "Ġfil": 6219,
      "çļĦèĦ": 6220,
      "è¦ĭåĪ°": 6221,
      "æ¸¾èº«": 6222,
      "Ġcause": 6223,
      "æľīäºĨ": 6224,
      "éł°": 6225,
      "Ġwhim": 6226,
      "omp": 6227,
      "Ġsoaked": 6228,
      "éĩİ": 6229,
      "éľĩ": 6230,
      "Ġinformation": 6231,
      "ns": 6232,
      "åľĪ": 6233,
      "è²Į": 6234,
      "çĽ´åĪ°": 6235,
      "è¾¦æ³ķ": 6236,
      "ives": 6237,
      "ä¸Ģå°į": 6238,
      "Ġlives": 6239,
      "ĠKay": 6240,
      "åĺĹ": 6241,
      "æ¯ıå¤©": 6242,
      "Ġplanned": 6243,
      "dom": 6244,
      "ä¸įåĲĮ": 6245,
      "Ġwo": 6246,
      "Ġbeast": 6247,
      "Ġrushed": 6248,
      "Ġhoo": 6249,
      "arily": 6250,
      "isting": 6251,
      "å¸Ĥ": 6252,
      "çĦ¡åĬĽ": 6253,
      "rog": 6254,
      "Ġblur": 6255,
      "Ġscene": 6256,
      "Ġwithd": 6257,
      "å®¹æĺĵ": 6258,
      "æ¹§": 6259,
      "Ġgle": 6260,
      "aming": 6261,
      "çļĦæĬĬ": 6262,
      "Ġenter": 6263,
      "Ġbreathed": 6264,
      "çĭłçĭł": 6265,
      "aggie": 6266,
      "Ġbikini": 6267,
      "uu": 6268,
      "Ġmessage": 6269,
      "ĉĉĉĉ": 6270,
      "çļĦå¿ĥ": 6271,
      "æľīæĻĤ": 6272,
      "å¾ŀä¾Ĩ": 6273,
      "çµ¦å¥¹": 6274,
      "éĢıæĺİ": 6275,
      "Ġrain": 6276,
      "Ġclenched": 6277,
      "Ġgrunt": 6278,
      "Ġcheer": 6279,
      "è«ĸ": 6280,
      "Ġporn": 6281,
      "Ġtrail": 6282,
      "Ġfrust": 6283,
      "ä½ĨæĪĳ": 6284,
      "Ġmonster": 6285,
      "åĲ³": 6286,
      "ĠCons": 6287,
      "je": 6288,
      "åľĺ": 6289,
      "çĽĪ": 6290,
      "ĠHel": 6291,
      "å¤§äºĨ": 6292,
      "å·¦æīĭ": 6293,
      "Ġnervously": 6294,
      "Ġmurm": 6295,
      "gest": 6296,
      "æĥĳ": 6297,
      "ĠEs": 6298,
      "çĶ¨æīĭæĮĩ": 6299,
      "æıĴéĢ²": 6300,
      "Ġnews": 6301,
      "çļĦéłŃ": 6302,
      "Ġrespect": 6303,
      "Ġsupport": 6304,
      "Ġcabin": 6305,
      "æĪĳæľĥ": 6306,
      "çĽ¯": 6307,
      "anged": 6308,
      "åı£äº¤": 6309,
      "è³ĵ": 6310,
      "æ¤ħ": 6311,
      "Ġopportunity": 6312,
      "ĠSir": 6313,
      "ç¶ģ": 6314,
      "æķıæĦŁ": 6315,
      "ç´ļ": 6316,
      "roy": 6317,
      "åıįèĢĮ": 6318,
      "çļĦèĥĮ": 6319,
      "Ġparted": 6320,
      "èŃ¦": 6321,
      "Ġshooting": 6322,
      "Ġment": 6323,
      "åħ¨éĥ¨": 6324,
      "Ġcollar": 6325,
      "Ġexpecting": 6326,
      "Ġtells": 6327,
      "èĦ«æİī": 6328,
      "Ġconsider": 6329,
      "ä¸¦æ²Ĵæľī": 6330,
      "é¡¯å¾Ĺ": 6331,
      "Ġpor": 6332,
      "éĤ£æĺ¯": 6333,
      "Ġdescri": 6334,
      "ĠLucy": 6335,
      "é½Ĭ": 6336,
      "ä¾ĨçļĦ": 6337,
      "Ġschon": 6338,
      "Ġtwisted": 6339,
      "Ġattract": 6340,
      "æ¡ĥ": 6341,
      "arious": 6342,
      "Ġcoat": 6343,
      "æīĢæľī": 6344,
      "Ġsuggest": 6345,
      "Ġwhimpered": 6346,
      "å°±è¦ģ": 6347,
      "ĠFred": 6348,
      "Ġguest": 6349,
      "Ġawake": 6350,
      "Ġaccess": 6351,
      "iko": 6352,
      "åĥħ": 6353,
      "Ġtongues": 6354,
      "å¸ĥ": 6355,
      "UCK": 6356,
      "éį": 6357,
      "éĲµ": 6358,
      "ww": 6359,
      "ĠSuddenly": 6360,
      "åĽłæŃ¤": 6361,
      "ä¸Ģçµ²": 6362,
      "Ġslapped": 6363,
      "Ġbliss": 6364,
      "Ġspeaking": 6365,
      "Ġorgasms": 6366,
      "åĦª": 6367,
      "Ġrapidly": 6368,
      "Ġcurled": 6369,
      "èı²": 6370,
      "Ġinterr": 6371,
      "ĠKevin": 6372,
      "é¡ĺæĦı": 6373,
      "Ġopposite": 6374,
      "AT": 6375,
      "Ġaff": 6376,
      "ĠTre": 6377,
      "å¤§åĬĽ": 6378,
      "Ġswallow": 6379,
      "ĠKathie": 6380,
      "Ġladies": 6381,
      "çĽ¸ä¿¡": 6382,
      "Ġsem": 6383,
      "æĬ±èĳĹ": 6384,
      "è£ĻåŃĲ": 6385,
      "Ġcapt": 6386,
      "ĠSteve": 6387,
      "Ġannoun": 6388,
      "Damn": 6389,
      "ä¸įåıĬ": 6390,
      "åŃķ": 6391,
      "å¯«": 6392,
      "è²»": 6393,
      "lin": 6394,
      "Ġest": 6395,
      "Ġspit": 6396,
      "uf": 6397,
      "Ġwanna": 6398,
      "Ġdoll": 6399,
      "å¥ĩæĢª": 6400,
      "æ··": 6401,
      "å°įèĳĹ": 6402,
      "Ġflicked": 6403,
      "é¤ĺ": 6404,
      "ä»Ķç´°": 6405,
      "é³": 6406,
      "åĬĩ": 6407,
      "ĠJulie": 6408,
      "Ġstock": 6409,
      "æĵĶ": 6410,
      "ĠThank": 6411,
      "Ġdelicious": 6412,
      "inal": 6413,
      "Ġkick": 6414,
      "çľī": 6415,
      "æ¼Ķ": 6416,
      "ï¹Ĳ": 6417,
      "ued": 6418,
      "ĠCo": 6419,
      "çļĦç·": 6420,
      "Ġglist": 6421,
      "ĠMorgan": 6422,
      "Ġstimul": 6423,
      "Ġstir": 6424,
      "Ġecstasy": 6425,
      "gon": 6426,
      "iter": 6427,
      "ä¸ģ": 6428,
      "Ġnon": 6429,
      "æĺİçĻ½": 6430,
      "æĹ©å°±": 6431,
      "Ġspreading": 6432,
      "Ġpurple": 6433,
      "çĶļéº¼": 6434,
      "Ne": 6435,
      "Every": 6436,
      "alk": 6437,
      "èĤ²": 6438,
      "è¼ķè¼ķåľ°": 6439,
      "aac": 6440,
      "aying": 6441,
      "Ġconcent": 6442,
      "ĠPer": 6443,
      "æİ©": 6444,
      "hawn": 6445,
      "ä¸»åĭķ": 6446,
      "Ġflick": 6447,
      "è¶ħ": 6448,
      "äºĨéĢ²åİ»": 6449,
      "Ġguided": 6450,
      "èŃ·": 6451,
      "Ġsav": 6452,
      "Ġdoch": 6453,
      "ä¹Łè¨±": 6454,
      "çļĦéĻ½åħ·": 6455,
      "åľ¨äºĨ": 6456,
      "Ġplans": 6457,
      "èº«éĤĬ": 6458,
      "aptain": 6459,
      "Ġbuy": 6460,
      "Ġsilver": 6461,
      "Ġwhether": 6462,
      "cil": 6463,
      "Ġvol": 6464,
      "è²´": 6465,
      "æł¼": 6466,
      "Ã¶r": 6467,
      "gar": 6468,
      "Ġgives": 6469,
      "å¬¸": 6470,
      "Ġeinem": 6471,
      "Any": 6472,
      "éĻ°éĥ¨": 6473,
      "Ġmark": 6474,
      "Ġdisc": 6475,
      "çĳ©": 6476,
      "çļĦèĬ±": 6477,
      "Ġwur": 6478,
      "ä¸įåĩº": 6479,
      "Ġsuppose": 6480,
      "æĪ´": 6481,
      "ä¸įå¤ļ": 6482,
      "Ġtease": 6483,
      "ĠSw": 6484,
      "ç¶ĵçĲĨ": 6485,
      "Ġhuh": 6486,
      "Ġmassaging": 6487,
      "ĠFrom": 6488,
      "Ġpillow": 6489,
      "30": 6490,
      "Ġbought": 6491,
      "Ġnaught": 6492,
      "èĪŀ": 6493,
      "ĠAnna": 6494,
      "æĮĳéĢĹ": 6495,
      "Ġpark": 6496,
      "éł¸": 6497,
      "Ġmeal": 6498,
      "ĠKyle": 6499,
      "è·ŁæĪĳ": 6500,
      "ä»įçĦ¶": 6501,
      "uzzled": 6502,
      "âĪ¼âĪ¼": 6503,
      "cle": 6504,
      "ades": 6505,
      "Ġproceed": 6506,
      "çļĦèº«æĿĲ": 6507,
      "Am": 6508,
      "äºĨåĢĭ": 6509,
      "Ġparts": 6510,
      "ya": 6511,
      "Ġbackwards": 6512,
      "Ġmuscle": 6513,
      "å§Ĭå§Ĭ": 6514,
      "Ġencou": 6515,
      "åħĭ": 6516,
      "ĠAbby": 6517,
      "çļĦæĭ": 6518,
      "ĠIch": 6519,
      "Ġgul": 6520,
      "åĳ³éģĵ": 6521,
      "Ġconcerned": 6522,
      "atic": 6523,
      "å¾·": 6524,
      "çļĦæ»": 6525,
      "æĥľ": 6526,
      "æĶ»": 6527,
      "åħ¬åħ¬": 6528,
      "Ġhigher": 6529,
      "å¥½çļĦ": 6530,
      "Ġblush": 6531,
      "è¶Ļ": 6532,
      "mmm": 6533,
      "æģ¥": 6534,
      "èĩĢéĥ¨": 6535,
      "ision": 6536,
      "ĠDana": 6537,
      "çĩķ": 6538,
      "Ġthong": 6539,
      "esides": 6540,
      "Ġexperienced": 6541,
      "Ġpier": 6542,
      "å¥¹æĺ¯": 6543,
      "åĵĩ": 6544,
      "åıįæĬĹ": 6545,
      "Ġprick": 6546,
      "Ġhin": 6547,
      "Ġfaces": 6548,
      "Ġpleased": 6549,
      "Ġlistening": 6550,
      "fted": 6551,
      "Ġegg": 6552,
      "Ġneither": 6553,
      "åĭ¾": 6554,
      "åģ·åģ·": 6555,
      "Ġconsidered": 6556,
      "Ġdoctor": 6557,
      "çļĦéĻ°æ¯Ľ": 6558,
      "Ġcleaning": 6559,
      "çļĦç¬ĳ": 6560,
      "Ġsurface": 6561,
      "Ġgrass": 6562,
      "çķª": 6563,
      "Ġemer": 6564,
      "å¥Ĺå¼Ħ": 6565,
      "çĮ¶": 6566,
      "æĨĲ": 6567,
      "ĠX": 6568,
      "Get": 6569,
      "çĬ": 6570,
      "Ġrising": 6571,
      "Ġarr": 6572,
      "Ġboard": 6573,
      "Ġleading": 6574,
      "urity": 6575,
      "una": 6576,
      "çļĦçĿ": 6577,
      "Ġhint": 6578,
      "Ġframe": 6579,
      "olt": 6580,
      "éİĸ": 6581,
      "Ġnibb": 6582,
      "ä¸Ģçīĩ": 6583,
      "Ġlean": 6584,
      "ä¸ĢéĽĻ": 6585,
      "anked": 6586,
      "Ġgrey": 6587,
      "Ġweapon": 6588,
      "Ġvixen": 6589,
      "Ġannoy": 6590,
      "nde": 6591,
      "stand": 6592,
      "ĠMal": 6593,
      "Ġrooms": 6594,
      "çį¨": 6595,
      "Ġceiling": 6596,
      "åħį": 6597,
      "Ġembrace": 6598,
      "Ġenem": 6599,
      "æ»¾": 6600,
      "å¨Ł": 6601,
      "Ġstretching": 6602,
      "Look": 6603,
      "lie": 6604,
      "Ġbound": 6605,
      "Ġmouse": 6606,
      "imon": 6607,
      "çĶ¨èĪĮéłŃ": 6608,
      "ĠTy": 6609,
      "çļĦçİī": 6610,
      "ĠJennifer": 6611,
      "Ġclaw": 6612,
      "èĩ´": 6613,
      "æĶ¹": 6614,
      "å¿«è¦ģ": 6615,
      "è³£": 6616,
      "Ġpumped": 6617,
      "çľĭå¾Ĺ": 6618,
      "å°įä¸įèµ·": 6619,
      "ospital": 6620,
      "rid": 6621,
      "éŃĤ": 6622,
      "Ġadmitted": 6623,
      ").": 6624,
      "eral": 6625,
      "æĻ´": 6626,
      "under": 6627,
      "Ġori": 6628,
      "Ġmere": 6629,
      "igen": 6630,
      "ĠDes": 6631,
      "æĩĤ": 6632,
      "ä»ĬæĻļ": 6633,
      "Ġpublic": 6634,
      "Go": 6635,
      "Ġpalm": 6636,
      "åĩºçı¾": 6637,
      "Ġchuckle": 6638,
      "Ġextremely": 6639,
      "ä¸įåı¯": 6640,
      "Ġpartner": 6641,
      "Ġlisten": 6642,
      "van": 6643,
      "ç´Ļ": 6644,
      "ä¹¾æ·¨": 6645,
      "ĠGab": 6646,
      "åŁİ": 6647,
      "Ġsheets": 6648,
      "Ġanal": 6649,
      "Ġsofa": 6650,
      "Ġsilently": 6651,
      "Ġslept": 6652,
      "yes": 6653,
      "äºĨåĲ§": 6654,
      "éĻ°æ¯Ľ": 6655,
      "Ġbegins": 6656,
      "ium": 6657,
      "Ġmound": 6658,
      "æĪĢ": 6659,
      "åľ¨å®¶": 6660,
      "éģ©": 6661,
      "ĠOl": 6662,
      "å°ĩæĪĳ": 6663,
      "åĥıæĺ¯": 6664,
      "Ġrestaur": 6665,
      "çºĸ": 6666,
      "Ġsplit": 6667,
      "oot": 6668,
      "terday": 6669,
      "æ±ģ": 6670,
      "iva": 6671,
      "Ġsemen": 6672,
      "Ġamong": 6673,
      "ĠKatie": 6674,
      "Ġblanket": 6675,
      "hin": 6676,
      "åľĸ": 6677,
      "ä¸ĭåįĪ": 6678,
      "æºľ": 6679,
      "Ġimagined": 6680,
      "åĦĢ": 6681,
      "Ġwhenever": 6682,
      "éĥ½æ²Ĵæľī": 6683,
      "æ±ºå®ļ": 6684,
      "æĺŁæľŁ": 6685,
      "Ġprevious": 6686,
      "æģĲ": 6687,
      "Ġlifting": 6688,
      "Ġsuff": 6689,
      "Ġsatisfied": 6690,
      "Ġsong": 6691,
      "Ġzur": 6692,
      "Wait": 6693,
      "ĠLooking": 6694,
      "æł¸": 6695,
      "Ġpad": 6696,
      "çīĻ": 6697,
      "Ġgrinning": 6698,
      "åı£æ°´": 6699,
      "ä½¿åĭģ": 6700,
      "Ġgolden": 6701,
      "Ġankles": 6702,
      "iers": 6703,
      "Ġdefe": 6704,
      "ä½łè¦ģ": 6705,
      "Ġsmirk": 6706,
      "Ġprepared": 6707,
      "mas": 6708,
      "stal": 6709,
      "ĠBob": 6710,
      "Ġdrinking": 6711,
      "æĬ½éĢģ": 6712,
      "Ġcaressing": 6713,
      "ĠTwo": 6714,
      "Ġbon": 6715,
      "ryn": 6716,
      "æĻº": 6717,
      "Ġabsolutely": 6718,
      "ius": 6719,
      "itched": 6720,
      "Ġmuscular": 6721,
      "Ġyellow": 6722,
      "èģ³": 6723,
      "Ġheaven": 6724,
      "Ġgym": 6725,
      "çĹħ": 6726,
      "aturday": 6727,
      "Ġwhimper": 6728,
      "back": 6729,
      "Ġflash": 6730,
      "éĥ½æľĥ": 6731,
      "åī¯": 6732,
      "Ġpresence": 6733,
      "Ġpractically": 6734,
      "port": 6735,
      "Ġmount": 6736,
      "çķ«": 6737,
      "Ġkinda": 6738,
      "ç²īç´ħèī²": 6739,
      "Ġhir": 6740,
      "å¾Ģä¸ĭ": 6741,
      "èĥ¸éĥ¨": 6742,
      "Ġpurred": 6743,
      "Ġglasses": 6744,
      "Ġspun": 6745,
      "ĠNat": 6746,
      "åı«æĪĳ": 6747,
      "Ġstruggled": 6748,
      "Ġsoul": 6749,
      "ittle": 6750,
      "Ġyel": 6751,
      "åĪĢ": 6752,
      "Ġagree": 6753,
      "Ġsore": 6754,
      "Ġrul": 6755,
      "ressive": 6756,
      "åĩºä¾ĨäºĨ": 6757,
      "éĢĲ": 6758,
      "ĠNick": 6759,
      "ĠCharl": 6760,
      "Ġfantas": 6761,
      "ä¸įèĩª": 6762,
      "æ¸´": 6763,
      "Ġwelcome": 6764,
      "å°¤åħ¶": 6765,
      "Ġexploded": 6766,
      "ral": 6767,
      "Ġhiding": 6768,
      "anz": 6769,
      "ĠMaggie": 6770,
      "antic": 6771,
      "Ġregular": 6772,
      "ca": 6773,
      "ios": 6774,
      "éģ¸": 6775,
      "ĠEthan": 6776,
      "èº²": 6777,
      "Ġstruck": 6778,
      "ç¨±": 6779,
      "èĨĢ": 6780,
      "åıįæŃ£": 6781,
      "ĠĠĠĠ": 6782,
      "Ġbriefly": 6783,
      "åİ²å®³": 6784,
      "Ġnude": 6785,
      "Ġmoon": 6786,
      "éĤ£å¤©": 6787,
      "ĠRen": 6788,
      "Ġstudents": 6789,
      "aping": 6790,
      "Ġmemory": 6791,
      "pose": 6792,
      "Ġcrew": 6793,
      "å¥½çĪ½": 6794,
      "Ġvarious": 6795,
      "Will": 6796,
      "âĢ¦âĢ¦\"": 6797,
      "Ġart": 6798,
      "åħ©æīĭ": 6799,
      "Ġclimb": 6800,
      "ĠTra": 6801,
      "uffed": 6802,
      "ias": 6803,
      "ota": 6804,
      "Ġrod": 6805,
      "ä¸Ĭè¡£": 6806,
      "æ¨¡": 6807,
      "Ġhardly": 6808,
      "igned": 6809,
      "ok": 6810,
      "èĶ": 6811,
      "Ġease": 6812,
      "æľīä»Ģéº¼": 6813,
      "åŃĲè£¡": 6814,
      "Ġflying": 6815,
      "æ§į": 6816,
      "Ġmood": 6817,
      "éģį": 6818,
      "aches": 6819,
      "æŀ¶": 6820,
      "ES": 6821,
      "Wh": 6822,
      "ners": 6823,
      "é¥": 6824,
      "ĠTime": 6825,
      "å¤ļä¹ħ": 6826,
      "å¨ģ": 6827,
      "Ġhitting": 6828,
      "èĥĮå¾Į": 6829,
      "Ġsmoke": 6830,
      "ĠEach": 6831,
      "å°ĳå©¦": 6832,
      "Ġfaint": 6833,
      "Ġecho": 6834,
      "Ġplacing": 6835,
      "åĻĹ": 6836,
      "çļĦèħ¿": 6837,
      "åĸĺæģ¯": 6838,
      "ĠInstead": 6839,
      "Ġseinen": 6840,
      "erved": 6841,
      "ĠTeen": 6842,
      "Ġdownstairs": 6843,
      "Ġclock": 6844,
      "ĠLa": 6845,
      "åĵĢ": 6846,
      "èĢĮå·²": 6847,
      "éĢ£å¿Ļ": 6848,
      "Ġpregnant": 6849,
      "ĠSee": 6850,
      "Ġmuff": 6851,
      "ç§ģ": 6852,
      "ä»¤æĪĳ": 6853,
      "pless": 6854,
      "ä¹ĭåīį": 6855,
      "Ġinde": 6856,
      "è¢«ä»ĸ": 6857,
      "Ġinh": 6858,
      "æĻ¶": 6859,
      "Ġrelie": 6860,
      "æŁ¥": 6861,
      "attered": 6862,
      "éĥ½ä¸į": 6863,
      "austed": 6864,
      "æķĳ": 6865,
      "Ġpu": 6866,
      "Ġnormally": 6867,
      "Ġmilk": 6868,
      "å¯¶è²Ŀ": 6869,
      "Ġmich": 6870,
      "Ġcustom": 6871,
      "æĢĴ": 6872,
      "èĢĮæĪĳ": 6873,
      "ĠBlow": 6874,
      "ĠGet": 6875,
      "æģ©": 6876,
      "col": 6877,
      "ÃŃ": 6878,
      "Ġhospital": 6879,
      "æĬ½åĩº": 6880,
      "ĠWithout": 6881,
      "Ġmissing": 6882,
      "Ġking": 6883,
      "åİŃ": 6884,
      "çļĦèĤ©": 6885,
      "æ¿ķæ½¤": 6886,
      "Ġ--": 6887,
      "Ġheels": 6888,
      "åķıéģĵ": 6889,
      "rate": 6890,
      "uit": 6891,
      "Ġglow": 6892,
      "çļ®èĨļ": 6893,
      "Ġdrawing": 6894,
      "sion": 6895,
      "ĠFriday": 6896,
      "æĲŃ": 6897,
      "?\",": 6898,
      "lock": 6899,
      "Ġstation": 6900,
      "Ġiss": 6901,
      "çļĦæ´": 6902,
      "å«Ĥå«Ĥ": 6903,
      "ï¼į": 6904,
      "ä¹Ŀ": 6905,
      "åĸī": 6906,
      "Ġsurv": 6907,
      "Ġcorre": 6908,
      "board": 6909,
      "æħĮ": 6910,
      "çĴ°": 6911,
      "Ġheight": 6912,
      "ä¸Ł": 6913,
      "è£¹": 6914,
      "ĠPe": 6915,
      "ä¹ĭä¸ĭ": 6916,
      "Ġsniff": 6917,
      "Ġbouncing": 6918,
      "ĠDie": 6919,
      "ĠPeter": 6920,
      "Ġbelong": 6921,
      "ĠAshley": 6922,
      "å®ĺ": 6923,
      "å¤§åŃ¸": 6924,
      "è±Ķ": 6925,
      "åĬª": 6926,
      "åħ©æ¢Ŀ": 6927,
      "Ġwaves": 6928,
      "Ġactiv": 6929,
      "Ġrefle": 6930,
      "++": 6931,
      "anking": 6932,
      "åĭĥèµ·": 6933,
      "De": 6934,
      "Ġtug": 6935,
      "ĠOK": 6936,
      "Ġwrapping": 6937,
      "Ġunderstood": 6938,
      "Ġentirely": 6939,
      "Ġworks": 6940,
      "ventually": 6941,
      "çļĦçĪ": 6942,
      "å¾ĹåĪ°": 6943,
      "ĠPenny": 6944,
      "æħ£": 6945,
      "ensual": 6946,
      "Ġbroad": 6947,
      "ä¸ĢåĪĩ": 6948,
      "Ġblast": 6949,
      "å¿«é»ŀ": 6950,
      "ĠStacy": 6951,
      "è¥¯": 6952,
      "Ġshift": 6953,
      "Hello": 6954,
      "Ġcomfort": 6955,
      "ajor": 6956,
      "Ġwiped": 6957,
      "å¿«æ¨Ĥ": 6958,
      "ĠThough": 6959,
      "rupt": 6960,
      "Ġstrip": 6961,
      "ĠIm": 6962,
      "ĠAug": 6963,
      "Ġpoured": 6964,
      "Ġripped": 6965,
      "åĭĩ": 6966,
      "Ġearth": 6967,
      "æ¢¯": 6968,
      "Ġpossibly": 6969,
      "ĠBlowjob": 6970,
      "..\"": 6971,
      "åľ¨éĢĻ": 6972,
      "Ġpeace": 6973,
      "é¦ĸ": 6974,
      "war": 6975,
      "Ġbench": 6976,
      "Ġspir": 6977,
      "acob": 6978,
      "æĬĬæīĭ": 6979,
      "Ġpal": 6980,
      "çļĦå¥½": 6981,
      "Ġgrowl": 6982,
      "çļĦæŃ": 6983,
      "ĠYOU": 6984,
      "éª¨": 6985,
      "oose": 6986,
      "andra": 6987,
      "ĠCarol": 6988,
      "Ġflew": 6989,
      "Ġjud": 6990,
      "ĠGu": 6991,
      "Ġswung": 6992,
      "Ġsurprising": 6993,
      "Ġparking": 6994,
      "Ġknife": 6995,
      "Ġapparently": 6996,
      "è¿½": 6997,
      "é§": 6998,
      "iform": 6999,
      "Ġvision": 7000,
      "Ġtrembling": 7001,
      "atched": 7002,
      "åıĪæĺ¯": 7003,
      "ented": 7004,
      "Ġplate": 7005,
      "çĶ·çĶŁ": 7006,
      "Ġeagerly": 7007,
      "ING": 7008,
      "Ġriding": 7009,
      "zing": 7010,
      "Ġseeming": 7011,
      "Ġguards": 7012,
      "Ġtrack": 7013,
      "Ġnaughty": 7014,
      "åħ©éļ»": 7015,
      "çªĦ": 7016,
      "zed": 7017,
      "çļĦèµ": 7018,
      "Ġanywhere": 7019,
      "Ġgiggle": 7020,
      "Ġremove": 7021,
      "ĠMelissa": 7022,
      "æ¬£è³ŀ": 7023,
      "ĠMost": 7024,
      "rr": 7025,
      "Ġsubject": 7026,
      "åĬªåĬĽ": 7027,
      "whel": 7028,
      "ä¸ĬçıŃ": 7029,
      "åĬ©": 7030,
      "Ġreality": 7031,
      "Ġpassing": 7032,
      "Ġelb": 7033,
      "Ġdragged": 7034,
      "kn": 7035,
      "Ġtilted": 7036,
      "ä¸ĢæŃ¥": 7037,
      "çļĦæ²": 7038,
      "åħ©çīĩ": 7039,
      "å¯¸": 7040,
      "Ġhorri": 7041,
      "Ġyesterday": 7042,
      "ä»°": 7043,
      "ä»ĸèªª": 7044,
      "éĻ°èĴĤ": 7045,
      "Ġtighter": 7046,
      "èŃ°": 7047,
      "èĲį": 7048,
      "Ġpassionate": 7049,
      "Ġunless": 7050,
      "Ġdecide": 7051,
      "æħ¢æħ¢çļĦ": 7052,
      "å®³ç¾ŀ": 7053,
      "Ġaccepted": 7054,
      "Like": 7055,
      "å°ıåĺ´": 7056,
      "çıĬ": 7057,
      "Ġtrick": 7058,
      "Ġstaying": 7059,
      "Ġavoid": 7060,
      "Ġintens": 7061,
      "ĊĊĉÂłÂł": 7062,
      "fuck": 7063,
      "Ġtechn": 7064,
      "çļĦåĪºæ¿Ģ": 7065,
      "Here": 7066,
      "?!": 7067,
      "ht": 7068,
      "sc": 7069,
      "ĠSlowly": 7070,
      "ä¹Łå¾Ī": 7071,
      "Ġfired": 7072,
      "èªĺäºº": 7073,
      "Ġinterrupted": 7074,
      "umps": 7075,
      "ï¼ģãĢı": 7076,
      "ĠCum": 7077,
      "ao": 7078,
      "åĩ¸": 7079,
      "è¹²": 7080,
      "Ġuncomfortable": 7081,
      "å¯Ł": 7082,
      "ĠVictor": 7083,
      "ĠChapter": 7084,
      "nel": 7085,
      "å¤§åĵ¥": 7086,
      "Ġseven": 7087,
      "é«ĺé«ĺ": 7088,
      "Ġgathered": 7089,
      "LL": 7090,
      "Ġtar": 7091,
      "Ġwaren": 7092,
      "å¥¹å°±": 7093,
      "Ġclam": 7094,
      "åįĢ": 7095,
      "Ġlets": 7096,
      "Ġhappens": 7097,
      "åģľæŃ¢": 7098,
      "ä»¤äºº": 7099,
      "å®³æĢķ": 7100,
      "Ġexhausted": 7101,
      "Ġwer": 7102,
      "Ġcudd": 7103,
      "Ġdomin": 7104,
      "Ġlikes": 7105,
      "icated": 7106,
      "çļĦçŁ": 7107,
      "Ġrealised": 7108,
      "å½·": 7109,
      "Ġdriver": 7110,
      "ĠAnother": 7111,
      "åĲĥé£¯": 7112,
      "Ġhumans": 7113,
      "herry": 7114,
      "çļĦè§": 7115,
      "Ġdeterm": 7116,
      "Ġemotion": 7117,
      "ä¸įå°ĳ": 7118,
      "çļĦçī": 7119,
      "ä½¿æĪĳ": 7120,
      "ĠSaturday": 7121,
      "æīĺ": 7122,
      "Ġdoorway": 7123,
      "ishment": 7124,
      "åĲĮäºĭ": 7125,
      "Ġsticking": 7126,
      "æ¹Ĭ": 7127,
      "Ġfrowned": 7128,
      "Ġpause": 7129,
      "ĠAgain": 7130,
      "ielle": 7131,
      "Ġrope": 7132,
      "åª³": 7133,
      "è®ĵäºº": 7134,
      "åı«èĳĹ": 7135,
      "Ã¤h": 7136,
      "çļĦæĦı": 7137,
      "Ġchanging": 7138,
      "yler": 7139,
      "ĠPhil": 7140,
      "ique": 7141,
      "Ġhated": 7142,
      "Ġcost": 7143,
      "è¦ģæ±Ĥ": 7144,
      "Ġpractice": 7145,
      "Ġanticipation": 7146,
      "Ġcleared": 7147,
      "Ġthrowing": 7148,
      "Ġfantasy": 7149,
      "kin": 7150,
      "pting": 7151,
      "Ġdancing": 7152,
      "åħĦ": 7153,
      "Ġcaressed": 7154,
      "ĠSomething": 7155,
      "Ġimm": 7156,
      "Ġthrow": 7157,
      "çħ©": 7158,
      "rily": 7159,
      "Ġclut": 7160,
      "Ġflowing": 7161,
      "è¿ħ": 7162,
      "ä¸Ģçľ¼": 7163,
      "Ġshout": 7164,
      "ĠHell": 7165,
      "çľĭèµ·ä¾Ĩ": 7166,
      "ledge": 7167,
      "çĪĨ": 7168,
      "Ġgiant": 7169,
      "Ġtank": 7170,
      "å°¾": 7171,
      "ummy": 7172,
      "umbling": 7173,
      "ä¸»äºº": 7174,
      "Ġstronger": 7175,
      "Ġanimal": 7176,
      "ĠMistress": 7177,
      "Ġtab": 7178,
      "Ġpow": 7179,
      "äºĮåįģ": 7180,
      "Ġstripped": 7181,
      "Ġbooks": 7182,
      "ĠWho": 7183,
      "Ġspine": 7184,
      "Ġoverwhel": 7185,
      "æ·º": 7186,
      "Ġcarrying": 7187,
      "ĠWhere": 7188,
      "ousand": 7189,
      "æĬ¬èµ·": 7190,
      "Ġcondom": 7191,
      "çĿ¡è¦º": 7192,
      "ĠOnly": 7193,
      "Ġging": 7194,
      "å¥³çĶŁ": 7195,
      "Ġdepth": 7196,
      "ĠGeorge": 7197,
      "Ġjacket": 7198,
      "uren": 7199,
      "æĪĳçļĦéĽŀå·´": 7200,
      "Ġwarning": 7201,
      "çļĦäºĭæĥħ": 7202,
      "ä¸Ģå¼µ": 7203,
      "ĠTay": 7204,
      "rap": 7205,
      "å¼±": 7206,
      "ĠScott": 7207,
      "eping": 7208,
      "Ġblushing": 7209,
      "ĠÃ¢": 7210,
      "mb": 7211,
      "ĠGinny": 7212,
      "ON": 7213,
      "uc": 7214,
      "Ġwed": 7215,
      "Ġupset": 7216,
      "åľ¨åľ°ä¸Ĭ": 7217,
      "Ġcloud": 7218,
      "Ġuniform": 7219,
      "Ġpolice": 7220,
      "ĠMan": 7221,
      "çīĨ": 7222,
      "æĭ¿åĩº": 7223,
      "fortun": 7224,
      "Ġcloth": 7225,
      "æĪĳéĸĭå§ĭ": 7226,
      "åŁĭ": 7227,
      "ä¸įå¥½æĦıæĢĿ": 7228,
      "ç´«": 7229,
      "othy": 7230,
      "çĶ·åıĭ": 7231,
      "çļĦè£Ļ": 7232,
      "Ġpale": 7233,
      "Ġstaff": 7234,
      "åŃĲä¸Ĭ": 7235,
      "éĥİ": 7236,
      "ï¹Ĺ": 7237,
      "Ġcharge": 7238,
      "çļĦæ°´": 7239,
      "çĢ": 7240,
      "Ġhissed": 7241,
      "Ġobject": 7242,
      "ĠBecky": 7243,
      "ĠRobert": 7244,
      "Ġlimp": 7245,
      "Ġreact": 7246,
      "çĻ½å«©": 7247,
      "ä¸īè§Ĵè¤²": 7248,
      "Ġrestaurant": 7249,
      "uts": 7250,
      "éĽľ": 7251,
      "ĠRos": 7252,
      "ĠEve": 7253,
      "éļĽ": 7254,
      "åª½åª½çļĦ": 7255,
      "ĠIsaac": 7256,
      "åłħæĮº": 7257,
      "Ġdestroy": 7258,
      "Tw": 7259,
      "Ġhood": 7260,
      "Ġanus": 7261,
      "Ġcanine": 7262,
      "æ±ª": 7263,
      "çļĦéĻ°åĶĩ": 7264,
      "ĠfÃ¼r": 7265,
      "Ġslim": 7266,
      "Ġmatch": 7267,
      "ii": 7268,
      "Ġflex": 7269,
      "æĬ¹": 7270,
      "Ġcloset": 7271,
      "ĠConsensual": 7272,
      "çļĦæĹ": 7273,
      "è¨±å¤ļ": 7274,
      "ga": 7275,
      "ãĢĤãĢĤ": 7276,
      "Ġmehr": 7277,
      "Ġimmer": 7278,
      "Ġobl": 7279,
      "Ġreturning": 7280,
      "Ġattractive": 7281,
      "...âĢĿ": 7282,
      "Ġcla": 7283,
      "gend": 7284,
      "æĪĳçļĦå°ı": 7285,
      "Ġlaught": 7286,
      "å¼Ħå¾Ĺ": 7287,
      "Ġhip": 7288,
      "Ġfallen": 7289,
      "inen": 7290,
      "ä½łæĺ¯": 7291,
      "çļĦç¥": 7292,
      "Ġdisg": 7293,
      "éĢŁåº¦": 7294,
      "çļĦèĢ³": 7295,
      "Ġincreased": 7296,
      "éĻĦ": 7297,
      "åģ¶": 7298,
      "Ġgrown": 7299,
      "è±ª": 7300,
      "çļĦæıĴ": 7301,
      "Ġlaughter": 7302,
      "Ġslowed": 7303,
      "æ±Ĥä½ł": 7304,
      "vy": 7305,
      "Ġdiv": 7306,
      "å°ļ": 7307,
      "illing": 7308,
      "åºŃ": 7309,
      "Ġelev": 7310,
      "Ġcannot": 7311,
      "çĿľ": 7312,
      "ä¼¸éĢ²": 7313,
      "Ġsolid": 7314,
      "ĠRick": 7315,
      "Ġimposs": 7316,
      "é¤Ĭ": 7317,
      "æ¾¤": 7318,
      "Ġlocal": 7319,
      "Ġwag": 7320,
      "ĠKen": 7321,
      "Ke": 7322,
      "Um": 7323,
      "por": 7324,
      "Ġmoves": 7325,
      "å¦®": 7326,
      "Ġliter": 7327,
      "æŃ£å¥½": 7328,
      "è½īèº«": 7329,
      "button": 7330,
      "Because": 7331,
      "Ġmachine": 7332,
      "æ¿ķäºĨ": 7333,
      "çĹĽèĭ¦": 7334,
      "éĽĻçľ¼": 7335,
      "çķ¢ç«Ł": 7336,
      "Ġrode": 7337,
      "éĭ": 7338,
      "æĪĳå¾Ī": 7339,
      "ĠRich": 7340,
      "éļª": 7341,
      "è¾±": 7342,
      "ä¾ĿçĦ¶": 7343,
      "Ġblowjob": 7344,
      "å»ļ": 7345,
      "çļĦèĤīé«Ķ": 7346,
      "Ġbeauty": 7347,
      "æī¿": 7348,
      "antage": 7349,
      "å¥³åŃ©åŃĲ": 7350,
      "ĠTiff": 7351,
      "Ġwrap": 7352,
      "Ġcircle": 7353,
      "Ġsaliva": 7354,
      "ĠNicole": 7355,
      "æĪĳå°ĩ": 7356,
      "åľ¨å°ı": 7357,
      "çľ¾": 7358,
      "ĠBilly": 7359,
      "èªįèŃĺ": 7360,
      "essa": 7361,
      "ĠGood": 7362,
      "Ġarse": 7363,
      "çĩĴ": 7364,
      "Before": 7365,
      "æļ´éľ²": 7366,
      "essed": 7367,
      "Ġvul": 7368,
      "Ġbadly": 7369,
      "Ġcharac": 7370,
      "æ²¹": 7371,
      "Ġvisible": 7372,
      "å¢ĥ": 7373,
      "Ġdurch": 7374,
      "Ġrise": 7375,
      "ĠCaptain": 7376,
      "å¥½åĹİ": 7377,
      "çļĦæ°£": 7378,
      "Ġ,": 7379,
      "Ġdaddy": 7380,
      "ĠHenry": 7381,
      "è©©": 7382,
      "é»ĥèĵī": 7383,
      "##": 7384,
      "hew": 7385,
      "Ġimage": 7386,
      "Ġperform": 7387,
      "åĲĳæĪĳ": 7388,
      "Ġpurpose": 7389,
      "Ġrum": 7390,
      "ç¹ŀ": 7391,
      "èıľ": 7392,
      "èĻĽ": 7393,
      "Ġplayfully": 7394,
      "Ġexposing": 7395,
      "Ġtwitching": 7396,
      "?!\"": 7397,
      "Ġinstant": 7398,
      "Ġpicking": 7399,
      "Ġvibrator": 7400,
      "Ġlubric": 7401,
      "dy": 7402,
      "alous": 7403,
      "Ġdeck": 7404,
      "Ġsusp": 7405,
      "Ġthousand": 7406,
      "ï¼ļãĢİ": 7407,
      "èĳĹä»ĸ": 7408,
      "unge": 7409,
      "æĭľ": 7410,
      "éļĨ": 7411,
      "Ġarmor": 7412,
      "Ġtrave": 7413,
      "Ġwalks": 7414,
      "åĺ¿åĺ¿": 7415,
      "usting": 7416,
      "çľĭæĪĳ": 7417,
      "æ²¿": 7418,
      "Ġmovements": 7419,
      "Ġcovers": 7420,
      "oop": 7421,
      "å°±æĬĬ": 7422,
      "ensive": 7423,
      "ĠBrad": 7424,
      "ĠMegan": 7425,
      "Ġreminded": 7426,
      "å¹»æĥ³": 7427,
      "åľ¨éĤ£": 7428,
      "æľįåĭĻ": 7429,
      "æĺİé¡¯": 7430,
      "éħ¸": 7431,
      "Ġwidened": 7432,
      "ĠSl": 7433,
      "éĽ£éģĵ": 7434,
      "Ġphysical": 7435,
      "Ġindeed": 7436,
      "po": 7437,
      "ĠJay": 7438,
      "ç¶¿": 7439,
      "Ġtele": 7440,
      "Ġrout": 7441,
      "ä¸Ĭä¾Ĩ": 7442,
      "Ġwished": 7443,
      "Ġgripping": 7444,
      "========": 7445,
      "ç°¡çĽ´": 7446,
      "éģĭåĭķ": 7447,
      "ĠMs": 7448,
      "ems": 7449,
      "å®Ī": 7450,
      "ploy": 7451,
      "ĠBlack": 7452,
      "Ġpromised": 7453,
      "è¿·äºº": 7454,
      "Ġblew": 7455,
      "uttered": 7456,
      "ĠEd": 7457,
      "æĴ©": 7458,
      "Ġforgotten": 7459,
      "erted": 7460,
      "åľĴ": 7461,
      "ĠMon": 7462,
      "èĩ¨": 7463,
      "ommen": 7464,
      "æĺ¯ä¸ĢåĢĭ": 7465,
      "æĪĳçļĦéĻ°èİĸ": 7466,
      "æĪĳäºĨ": 7467,
      "Ġsoaking": 7468,
      "éĤĦä¸į": 7469,
      "çķ¥": 7470,
      "ĠDanny": 7471,
      "ĠJoan": 7472,
      "Ġid": 7473,
      "Ġquar": 7474,
      "Dan": 7475,
      "ĠLy": 7476,
      "Ġbreathe": 7477,
      "Ġcondition": 7478,
      "çĬ¯": 7479,
      "Ġnud": 7480,
      "Ġ18": 7481,
      "Ġwooden": 7482,
      "ä¾µ": 7483,
      "Was": 7484,
      "uss": 7485,
      "å¤ı": 7486,
      "ç´ł": 7487,
      "Ġconfir": 7488,
      "emon": 7489,
      "æĦıèŃĺ": 7490,
      "éĢĻæ¨£çļĦ": 7491,
      "Ġeased": 7492,
      "rey": 7493,
      "ĠDa": 7494,
      "åĳĪ": 7495,
      "çĦ¡æ¯Ķ": 7496,
      "angs": 7497,
      "èĻŁ": 7498,
      "Ġgasping": 7499,
      "å½ĪæĢ§": 7500,
      "Ġtarget": 7501,
      "å¹¾æ¬¡": 7502,
      "åħ©åĢĭäºº": 7503,
      "çļĦæĥ³": 7504,
      "è¿ħéĢŁ": 7505,
      "Ġnature": 7506,
      "aby": 7507,
      "åİļ": 7508,
      "ĠRa": 7509,
      "bbie": 7510,
      "Ġpubic": 7511,
      "Ġinit": 7512,
      "imm": 7513,
      "ä¼´": 7514,
      "Ġbrush": 7515,
      "Ġrubb": 7516,
      "Ġelectric": 7517,
      "atively": 7518,
      "çļĦç¶": 7519,
      "åķıæĪĳ": 7520,
      "Ġbreaths": 7521,
      "çĽ¸çķ¶": 7522,
      "Ġconcern": 7523,
      "Ġbacked": 7524,
      "å¤ļå°ĳ": 7525,
      "å¹¾å¤©": 7526,
      "Ġorgan": 7527,
      "ä¸¦ä¸į": 7528,
      "Ġcatching": 7529,
      "Ġrecord": 7530,
      "Ġtwitched": 7531,
      "dess": 7532,
      "ĠTer": 7533,
      "Ġsmart": 7534,
      "Ġplant": 7535,
      "å¼·å§¦": 7536,
      "ç·Ĭç·Ĭåľ°": 7537,
      "æİ¨éĸĭ": 7538,
      "Ġreceived": 7539,
      "Ġhier": 7540,
      "chie": 7541,
      "Ġslur": 7542,
      "ĠRose": 7543,
      "Ġflipped": 7544,
      "ungs": 7545,
      "Ġlack": 7546,
      "ĠJud": 7547,
      "ä¸įæĸ·åľ°": 7548,
      "iest": 7549,
      "Ġthirty": 7550,
      "ĠSally": 7551,
      "Ġoutfit": 7552,
      "icy": 7553,
      "Ġloves": 7554,
      "Really": 7555,
      "See": 7556,
      "Ġwenn": 7557,
      "çļĦéĽĻèħ¿": 7558,
      "ç¾¤": 7559,
      "åĲĳä¸Ĭ": 7560,
      "Ġweapons": 7561,
      "ugs": 7562,
      "Ġsecurity": 7563,
      "Ġseries": 7564,
      "Ġtravel": 7565,
      "èĭ±": 7566,
      "uthor": 7567,
      "çŁŃè£Ļ": 7568,
      "ĠWould": 7569,
      "ä½įç½®": 7570,
      "Ġrare": 7571,
      "è¦ģæĪĳ": 7572,
      "Ġspin": 7573,
      "tt": 7574,
      "Ġhi": 7575,
      "unged": 7576,
      "å¥¹çļĦéĻ°éģĵ": 7577,
      "ç³»": 7578,
      "çļĦéĤ£": 7579,
      "Ġhaben": 7580,
      "Ġrese": 7581,
      "ĠCass": 7582,
      "Ġprefer": 7583,
      "ĠChristmas": 7584,
      "Ġpump": 7585,
      "éĢĥ": 7586,
      "Ġmemories": 7587,
      "ĠSoph": 7588,
      "ä¸įçĦ¶": 7589,
      "Ġlosing": 7590,
      "ä¹ĭä¸Ń": 7591,
      "onnte": 7592,
      "ãĢĤãĢı": 7593,
      "ä¸įä¹ħ": 7594,
      "Ġleaking": 7595,
      "Ġmill": 7596,
      "çļĦå¥¹": 7597,
      "Ġsticky": 7598,
      "uke": 7599,
      "Ġgroin": 7600,
      "çļĦè±": 7601,
      "Ġdesperately": 7602,
      "ĠTina": 7603,
      "Ġkonnte": 7604,
      "Ġdevelop": 7605,
      "å¾Ģä¸Ĭ": 7606,
      "çļĦæĻĤéĸĵ": 7607,
      "Ġstretch": 7608,
      "Ġtentac": 7609,
      "achael": 7610,
      "åĤ»": 7611,
      "Ġdropping": 7612,
      "Ġfolds": 7613,
      "met": 7614,
      "ilet": 7615,
      "çķĮ": 7616,
      "Ġadult": 7617,
      "Ġpassionately": 7618,
      "Finally": 7619,
      "åįĩ": 7620,
      "Ġresult": 7621,
      "æĤ¨": 7622,
      "æ®º": 7623,
      "Ġaut": 7624,
      "Ġaffe": 7625,
      "Ġnumb": 7626,
      "Would": 7627,
      "ç¾ħ": 7628,
      "Ġoo": 7629,
      "Ġshel": 7630,
      "èĳĹèĩªå·±": 7631,
      "ĠâĢĶ": 7632,
      "Ġshivered": 7633,
      "Ġshame": 7634,
      "çļĦæĵ": 7635,
      "can": 7636,
      "urs": 7637,
      "åĮĹ": 7638,
      "åįĬèº«": 7639,
      "Ġincredibly": 7640,
      "å¹ķ": 7641,
      "å±¬": 7642,
      "éĽ»èħ¦": 7643,
      "å¥¶éłŃ": 7644,
      "ĠEveryone": 7645,
      "asc": 7646,
      "oris": 7647,
      "Ġstudent": 7648,
      "Ġsoll": 7649,
      "Ġleaves": 7650,
      "å½¿": 7651,
      "Ġremain": 7652,
      "å¡Ĺ": 7653,
      "Ġstab": 7654,
      "é«ĺè·Ł": 7655,
      "éłĵæĻĤ": 7656,
      "ama": 7657,
      "Ġaccident": 7658,
      "èĹı": 7659,
      "æĲĵæıī": 7660,
      "Ġbounced": 7661,
      "Ġcook": 7662,
      ".....": 7663,
      "å°įæĪĳèªª": 7664,
      "Ġpaying": 7665,
      "Ġtotal": 7666,
      "ixt": 7667,
      "ĠPr": 7668,
      "æĶ¾å¿ĥ": 7669,
      "Ad": 7670,
      "yr": 7671,
      "é»ı": 7672,
      "ç½µ": 7673,
      "ingly": 7674,
      "æľīåĢĭ": 7675,
      "æĪĳçĶ¨": 7676,
      "Ġnecess": 7677,
      "Ġunf": 7678,
      "åĵªè£¡": 7679,
      "éĺ»": 7680,
      "åħ¬å®¤": 7681,
      "Ġsnugg": 7682,
      "æĢİéº¼æ¨£": 7683,
      "éĮĦ": 7684,
      "Ġvillage": 7685,
      "?'": 7686,
      "Ġremaining": 7687,
      "Ġwetness": 7688,
      "çļĦæħ¾": 7689,
      "OK": 7690,
      "tw": 7691,
      "atching": 7692,
      "sten": 7693,
      "Ġspasm": 7694,
      "èĨ©": 7695,
      "Ġcupped": 7696,
      "wh": 7697,
      "åĭķäºĨ": 7698,
      "çŁ³": 7699,
      "Ġchecking": 7700,
      "Ġdare": 7701,
      "Ġupwards": 7702,
      "ĠLaura": 7703,
      "åħ¶ä¸Ń": 7704,
      "æ¸¾åľĵ": 7705,
      "æī®": 7706,
      "Ġunbutton": 7707,
      "Ġ15": 7708,
      "Ġscales": 7709,
      "èİĬ": 7710,
      "Ġstrap": 7711,
      "éĳ½": 7712,
      "Ġliterally": 7713,
      "iant": 7714,
      "Ġroof": 7715,
      "çļĦèľľ": 7716,
      "ux": 7717,
      "æľīä¸ĢåĢĭ": 7718,
      "John": 7719,
      "è¡¨åĵ¥": 7720,
      "view": 7721,
      "antha": 7722,
      "èĹį": 7723,
      "ä¸įåģľçļĦ": 7724,
      "Ġsank": 7725,
      "Ġfac": 7726,
      "å®ľ": 7727,
      "æŃ¦": 7728,
      "Ġbegging": 7729,
      "å½·å½¿": 7730,
      "erc": 7731,
      "âĢ¦âĢ¦âĢ¦": 7732,
      "Ġopt": 7733,
      "æıĴéĢ²åİ»": 7734,
      "Ġreplaced": 7735,
      "Ġsensations": 7736,
      "Ġinvolved": 7737,
      "ä¸ĭçļĦ": 7738,
      "èģ½è¦ĭ": 7739,
      "hn": 7740,
      "ule": 7741,
      "agger": 7742,
      "èİ«": 7743,
      "Ġlistened": 7744,
      "iber": 7745,
      "Ġhast": 7746,
      "Ġmanage": 7747,
      "åİŁæľ¬": 7748,
      "10": 7749,
      "æľµ": 7750,
      "åĶ¯": 7751,
      "Ġfish": 7752,
      "çļĦçĨ": 7753,
      "çļĦçĭ": 7754,
      "Ġtightened": 7755,
      "åĸĶåĸĶ": 7756,
      "Ġevents": 7757,
      "Ġfolded": 7758,
      "zte": 7759,
      "ĠCome": 7760,
      "èī¯": 7761,
      "ç¬ĳéģĵ": 7762,
      "Ġmassaged": 7763,
      "Ġmixed": 7764,
      "ä»Ļ": 7765,
      "raw": 7766,
      "ä¸Ĭèº«": 7767,
      "Ġbegged": 7768,
      "Ġinvited": 7769,
      "Ġslender": 7770,
      "éĢĲæ¼¸": 7771,
      "Have": 7772,
      "Ġcontinuing": 7773,
      "Ġintern": 7774,
      "èįī": 7775,
      "verage": 7776,
      "ãĢįãĢĤ": 7777,
      "é£Ħ": 7778,
      "Ġdesperate": 7779,
      "Ġrules": 7780,
      "Ġmumbled": 7781,
      "çľĭå¥¹": 7782,
      "çļĦå¤§éĽŀå·´": 7783,
      "Ġjealous": 7784,
      "çļĦç¥ŀ": 7785,
      "itude": 7786,
      "Ġthroughout": 7787,
      "é¤¨": 7788,
      "Ġservice": 7789,
      "Ġgreeted": 7790,
      "ilight": 7791,
      "çļĦçĽ®": 7792,
      "Ġexch": 7793,
      "Ġassist": 7794,
      "çīĽ": 7795,
      "åĳµåĳµ": 7796,
      "Ġholes": 7797,
      "Ġsuccess": 7798,
      "pri": 7799,
      "¬éĸĵ": 7800,
      "ĠDom": 7801,
      "mma": 7802,
      "åı¦ä¸Ģ": 7803,
      "Ġengine": 7804,
      "Ġroughly": 7805,
      "ĠBrand": 7806,
      "Ġpleasant": 7807,
      "Ġappl": 7808,
      "ggy": 7809,
      "Ġwindows": 7810,
      "wed": 7811,
      "Ġchallen": 7812,
      "åħ§å¿ĥ": 7813,
      "ĠZoe": 7814,
      "çħĻ": 7815,
      "Ġlanding": 7816,
      "æ¯«ä¸į": 7817,
      "Ġglistening": 7818,
      "Ich": 7819,
      "Ġfought": 7820,
      "ä½łèªª": 7821,
      "Ġlots": 7822,
      "é¨°": 7823,
      "con": 7824,
      "iÃŁ": 7825,
      "Ġdut": 7826,
      "Ġdozen": 7827,
      "ĠLord": 7828,
      "Ġcommun": 7829,
      "å»ļæĪ¿": 7830,
      "lt": 7831,
      "Ġthrill": 7832,
      "å°įæºĸ": 7833,
      "æĶĿ": 7834,
      "æĺİå¤©": 7835,
      "Ġexplos": 7836,
      "Ġdaz": 7837,
      "vern": 7838,
      "åĶī": 7839,
      "Ġrestr": 7840,
      "Ġbuzz": 7841,
      "Ġorders": 7842,
      "æİ§åĪ¶": 7843,
      "Ġrot": 7844,
      "åħīæ»ĳ": 7845,
      "Ġfroze": 7846,
      "åĬĥ": 7847,
      "Ġsteel": 7848,
      "Ġdemanded": 7849,
      "Mom": 7850,
      "Ġwider": 7851,
      "urt": 7852,
      "Ġdreams": 7853,
      "Ġdangerous": 7854,
      "Ġdamp": 7855,
      "çļĦå¬Į": 7856,
      "amb": 7857,
      "éł»": 7858,
      "åĲĽ": 7859,
      "ĠBrian": 7860,
      "atever": 7861,
      "åļ´": 7862,
      "Ġcommon": 7863,
      "Ġtie": 7864,
      "Ġmult": 7865,
      "ä¸Ģå¤©": 7866,
      "alie": 7867,
      "éĥ½æ²Ĵ": 7868,
      "Ġwurde": 7869,
      "ese": 7870,
      "æĥ³ä¸įåĪ°": 7871,
      "åĸĤ": 7872,
      "Ġprin": 7873,
      "Ġdrank": 7874,
      "Ġfairly": 7875,
      "AR": 7876,
      "ker": 7877,
      "Ġflashed": 7878,
      "Ġlabia": 7879,
      "ilities": 7880,
      "Ġotherwise": 7881,
      "æİı": 7882,
      "ere": 7883,
      "Ġgift": 7884,
      "Ġfort": 7885,
      "çĽ¤": 7886,
      "æĶ¾éĸĭ": 7887,
      "å®ĮäºĨ": 7888,
      "çľĭèĳĹå¥¹": 7889,
      "Ġadvantage": 7890,
      "Ġstunned": 7891,
      "AN": 7892,
      "fied": 7893,
      "ä½©": 7894,
      "Ġsperm": 7895,
      "åįĹ": 7896,
      "Ġgate": 7897,
      "äºĨå¥½": 7898,
      "ĠTal": 7899,
      "çļĦèĻ": 7900,
      "ground": 7901,
      "æ¨Ļ": 7902,
      "æĸ¹éĿ¢": 7903,
      "æĤ¶": 7904,
      "Ġpositioned": 7905,
      "çµĲæĿŁ": 7906,
      "éĸĭéĸĢ": 7907,
      "Ġmanhood": 7908,
      "æŁ³": 7909,
      "ĠDen": 7910,
      "åį°": 7911,
      "ĠGo": 7912,
      "Ġbiting": 7913,
      "Ġburned": 7914,
      "Ġpile": 7915,
      "Ġcontract": 7916,
      "Ġourselves": 7917,
      "é¡ŀ": 7918,
      "ä½İéłŃ": 7919,
      "ï¼Į\"": 7920,
      "ĠCam": 7921,
      "çļĦçĹ": 7922,
      "ä»¥åıĬ": 7923,
      "ä¸įåĨį": 7924,
      "æ°¸": 7925,
      "åĨĴ": 7926,
      "è²ł": 7927,
      "ĠNothing": 7928,
      "oly": 7929,
      "Ġstyle": 7930,
      "é¡ı": 7931,
      "çļĦç©´": 7932,
      "fortunately": 7933,
      "Le": 7934,
      "Ġfeat": 7935,
      "ĠJacob": 7936,
      "å½¼": 7937,
      "çĲ´": 7938,
      "Ġdrawn": 7939,
      "åĬłå¿«": 7940,
      "çĵ£": 7941,
      "Ġbird": 7942,
      "ĠKing": 7943,
      "Ġpainful": 7944,
      "Ġrespons": 7945,
      "è¼ķè¼ķçļĦ": 7946,
      "Ġinnocent": 7947,
      "Ġinj": 7948,
      "urning": 7949,
      "èĪĬ": 7950,
      "éĸĭå¿ĥ": 7951,
      "Ġwriting": 7952,
      "Ġbirthday": 7953,
      "),": 7954,
      "omb": 7955,
      "Ġshield": 7956,
      "éĪ´": 7957,
      "ç¼": 7958,
      "ĠHar": 7959,
      "èĳĹéłŃ": 7960,
      "çļĦæĳ": 7961,
      "Ġmouths": 7962,
      "Ġpretend": 7963,
      "Ġglowing": 7964,
      "Ġurge": 7965,
      "Ġoccasionally": 7966,
      "Ġreward": 7967,
      "åľ¨ä¸Ģ": 7968,
      "ears": 7969,
      "èĢĮåĩº": 7970,
      "åīįå¾Į": 7971,
      "Ġbubb": 7972,
      "Ġconsidering": 7973,
      "Ġsoldiers": 7974,
      "hic": 7975,
      "orter": 7976,
      "éĻĲ": 7977,
      "ĠEng": 7978,
      "æŃ¤åĪ»": 7979,
      "Ġlocker": 7980,
      "è¨ĺå¾Ĺ": 7981,
      "Un": 7982,
      "æĪĳä¹Łä¸į": 7983,
      "åķĨ": 7984,
      "Ġsnar": 7985,
      "éŃļ": 7986,
      "Ġescaped": 7987,
      "Ġjetzt": 7988,
      "Ġimpossible": 7989,
      "cting": 7990,
      "æĭ¾": 7991,
      "intment": 7992,
      "æķ´åĢĭäºº": 7993,
      "Ġincluding": 7994,
      "Ġsemi": 7995,
      "ko": 7996,
      "orting": 7997,
      "Ġformed": 7998,
      "èĢ¶": 7999,
      "èĢĮæĺ¯": 8000,
      "avage": 8001,
      "Ġwinked": 8002,
      "çĶ¢çĶŁ": 8003,
      "iently": 8004,
      "ĠTob": 8005,
      "Ġmane": 8006,
      "ibition": 8007,
      "éŁ»": 8008,
      "Ġconfusion": 8009,
      "erves": 8010,
      "çĶ·æľĭåıĭ": 8011,
      "Ġrealizing": 8012,
      "éĻ£éĻ£": 8013,
      "gl": 8014,
      "Ġlines": 8015,
      "çļĦéķ·": 8016,
      "Ġgames": 8017,
      "Ġscrew": 8018,
      "æĪ¿éĸĢ": 8019,
      "Ġrif": 8020,
      "ĠMc": 8021,
      "ĠBesides": 8022,
      "Ġhesitated": 8023,
      "lly": 8024,
      "Ġalle": 8025,
      "Ġlog": 8026,
      "Ġflight": 8027,
      "è¢«äºº": 8028,
      "Ġzum": 8029,
      "äºĴçĽ¸": 8030,
      "while": 8031,
      "Ġpit": 8032,
      "è®Ģ": 8033,
      "Ġdecision": 8034,
      "Ġgrasped": 8035,
      "lish": 8036,
      "å¤§åı«": 8037,
      "éłĪ": 8038,
      "ç´¹": 8039,
      "çļĦä¸Ģèģ²": 8040,
      "Some": 8041,
      "Ġfaded": 8042,
      "Ġdug": 8043,
      "Ġdried": 8044,
      "éĢł": 8045,
      "çļĦæĩ": 8046,
      "Ġorange": 8047,
      "Ġboots": 8048,
      "Ġscan": 8049,
      "Ġstepping": 8050,
      "Ġjerk": 8051,
      "Ġorigin": 8052,
      "kk": 8053,
      "pet": 8054,
      "æĪĳè¦ºå¾Ĺ": 8055,
      "ĠFUCK": 8056,
      "ç©¶": 8057,
      "æģ¨": 8058,
      "æ¿ĢçĥĪ": 8059,
      "ĠSusan": 8060,
      "Ġtense": 8061,
      "Ġwit": 8062,
      "éĸĴ": 8063,
      "gram": 8064,
      "sen": 8065,
      "Ġcave": 8066,
      "æĪĳåĨį": 8067,
      "ĠSince": 8068,
      "åĲĬ": 8069,
      "çļĦèĤĮèĨļ": 8070,
      "Ġplanning": 8071,
      "Ġsession": 8072,
      "Ġoil": 8073,
      "Ġbond": 8074,
      "ays": 8075,
      "åĢ©": 8076,
      "èªªæĺ¯": 8077,
      "ä½ıæĪĳ": 8078,
      "éłĨèĳĹ": 8079,
      "æĪĳä¾¿": 8080,
      "çļĦæĲ": 8081,
      "çĶŁæ°£": 8082,
      "ä¸īåįģ": 8083,
      "Ġpieces": 8084,
      "Ġproperly": 8085,
      "Ġeverywhere": 8086,
      "æĢ¥ä¿ĥ": 8087,
      "Ġencoun": 8088,
      "æĵĶå¿ĥ": 8089,
      "Ex": 8090,
      "èģ·": 8091,
      "Ġpred": 8092,
      "Ġcaptain": 8093,
      "Â»": 8094,
      "Ġextended": 8095,
      "åĸ²": 8096,
      "Right": 8097,
      "ormed": 8098,
      "ĠMin": 8099,
      "ĠCal": 8100,
      "åŃĲçļĦ": 8101,
      "Ġthinks": 8102,
      "Ġgrasp": 8103,
      "Ġwink": 8104,
      "ĠTyler": 8105,
      "Ġfurs": 8106,
      "Ġdrifted": 8107,
      "Ġignored": 8108,
      "åª½åĴª": 8109,
      "è¡Ĺ": 8110,
      "ometimes": 8111,
      "æĪĳå¥½": 8112,
      "ĠShawn": 8113,
      "çļĦæ¿": 8114,
      "æ²Ī": 8115,
      "ä¿ı": 8116,
      "èĻİ": 8117,
      "Ġregret": 8118,
      "Ġtension": 8119,
      "Ġdumb": 8120,
      "essor": 8121,
      "é»ŀäºĨ": 8122,
      "Ġbags": 8123,
      "Â«": 8124,
      "Ġborn": 8125,
      "Ġharm": 8126,
      "iller": 8127,
      "Ġslapping": 8128,
      "èĩŃ": 8129,
      "èŃī": 8130,
      "åŁº": 8131,
      "Ġsoap": 8132,
      "ä½łä¸į": 8133,
      "ç©İ": 8134,
      "ĠThose": 8135,
      "Ġshaved": 8136,
      "Ġstruggling": 8137,
      "Ġactions": 8138,
      "Ġmajor": 8139,
      "éĢ±": 8140,
      "éĻ·": 8141,
      "ĠGes": 8142,
      "æĭĸ": 8143,
      "èººåľ¨åºĬä¸Ĭ": 8144,
      "Ġshadow": 8145,
      "èł»": 8146,
      "ilst": 8147,
      "ĠMore": 8148,
      "Ġgotta": 8149,
      "èĩªæħ°": 8150,
      "Ġboat": 8151,
      "æĪĳå¾ŀ": 8152,
      "èº«å¾Į": 8153,
      "ä¸ŃçļĦ": 8154,
      "Ġswear": 8155,
      "åĮĨ": 8156,
      "çļĦçĿ¡": 8157,
      "å¥¹åıĪ": 8158,
      "Ġvac": 8159,
      "Ġchapter": 8160,
      "åŃĺ": 8161,
      "æĬĢ": 8162,
      "å¹¾ä¸ĭ": 8163,
      "Ġdisappointed": 8164,
      "å°ĭ": 8165,
      "ĠSon": 8166,
      "éĻĮ": 8167,
      "æĭ¿èµ·": 8168,
      "Ġbesides": 8169,
      "Ġriver": 8170,
      "è¦Ĩ": 8171,
      "Ġassumed": 8172,
      "çĻ¼è¦º": 8173,
      "æ´ĭ": 8174,
      "ç©¿ä¸Ĭ": 8175,
      "uffy": 8176,
      "ç½·": 8177,
      "Ġapproaching": 8178,
      "Ġsour": 8179,
      "âĢ§": 8180,
      "Ġlaw": 8181,
      "ä½łå¥½": 8182,
      "å¯¬": 8183,
      "Ġswift": 8184,
      "åĲ¸å¼ķ": 8185,
      "Ġmentioned": 8186,
      "hus": 8187,
      "ĠSm": 8188,
      "æ±Ł": 8189,
      "Ġhurry": 8190,
      "Ġeiner": 8191,
      "Ġfol": 8192,
      "Ġstorm": 8193,
      "åĢĭäºº": 8194,
      "Ġbrushing": 8195,
      "Ġexciting": 8196,
      "æĭ¿èĳĹ": 8197,
      "rek": 8198,
      "Ġdeb": 8199,
      "ç²Ĵ": 8200,
      "çļĦè¡Ŀ": 8201,
      "Ġgiggling": 8202,
      "çļĦç§ģ": 8203,
      "Ġsurrounded": 8204,
      "ä¸Ģæł¹": 8205,
      "alled": 8206,
      "èĦ«åħī": 8207,
      "é½Ĵ": 8208,
      "èĤ¯å®ļ": 8209,
      "äºĨå¹¾ä¸ĭ": 8210,
      "ĠTrevor": 8211,
      "æĵĭ": 8212,
      "ç¾İäºº": 8213,
      "æ¼¢": 8214,
      "ĠwÃ¼r": 8215,
      "èĥ¯": 8216,
      "Ar": 8217,
      "éĩĭ": 8218,
      "Ġevil": 8219,
      "æĤĦæĤĦ": 8220,
      "Ġsilly": 8221,
      "otions": 8222,
      "ä»ĺ": 8223,
      "ĠKaren": 8224,
      "æĢ§äº¤": 8225,
      "å¼ĦèĳĹ": 8226,
      "Ġhonestly": 8227,
      "çĿ¡èĳĹ": 8228,
      "åı¯èĥ½æĺ¯": 8229,
      "Ġslamming": 8230,
      "'.": 8231,
      "æĪĳå°į": 8232,
      "æĥ³èµ·": 8233,
      "ipe": 8234,
      "èµ·ä¾ĨäºĨ": 8235,
      "åı«èģ²": 8236,
      "Ġbiggest": 8237,
      "åīĽå¥½": 8238,
      "Ġhurried": 8239,
      "æľĽèĳĹ": 8240,
      "é¬§": 8241,
      "èĪĮå°ĸ": 8242,
      "ĠKathryn": 8243,
      "Ġsen": 8244,
      "ĠKn": 8245,
      "Ġtorso": 8246,
      "çļĦç¬¬": 8247,
      "Ġwithdrew": 8248,
      "itting": 8249,
      "éĻ¸": 8250,
      "ç·£": 8251,
      "ç«ł": 8252,
      "ĠThom": 8253,
      "æ»¿æĦı": 8254,
      "ĠJeff": 8255,
      "Ġpanic": 8256,
      "Ġtaught": 8257,
      "Ġtoilet": 8258,
      "Ġpel": 8259,
      "ĠLes": 8260,
      "åĳĬè¨´æĪĳ": 8261,
      "Ġdiscovered": 8262,
      "Ġ$": 8263,
      "Ġger": 8264,
      "anding": 8265,
      "ishly": 8266,
      "Ġavail": 8267,
      "?âĢĻ": 8268,
      "Ġworst": 8269,
      "ples": 8270,
      "å§Ĳå¤«": 8271,
      "Ġwomb": 8272,
      "Ġerotic": 8273,
      "éĻĮçĶŁ": 8274,
      "çļĦè»": 8275,
      "Ġunz": 8276,
      "ĠEn": 8277,
      "ĠZack": 8278,
      "Ġclitoris": 8279,
      "omon": 8280,
      "ulate": 8281,
      "éłŃé«®": 8282,
      "æ«ĥ": 8283,
      "Ġelevator": 8284,
      "Ġmaw": 8285,
      "ember": 8286,
      "ibility": 8287,
      "Ã¤t": 8288,
      "æ¨¹": 8289,
      "Ã¼h": 8290,
      "Ġmurmured": 8291,
      "Ġtwitch": 8292,
      "Ġnights": 8293,
      "Ġseriously": 8294,
      "Ġjerking": 8295,
      "é£½æ»¿": 8296,
      "è¨İåİŃ": 8297,
      "Ġbudd": 8298,
      "ĠAri": 8299,
      "è¡ĵ": 8300,
      "æĦĽæĴ«": 8301,
      "Ġattached": 8302,
      "Ġcurtain": 8303,
      "Ġscreams": 8304,
      "Ġmiles": 8305,
      "èĩ¥å®¤": 8306,
      "Sam": 8307,
      "kt": 8308,
      "ä¹Łæľī": 8309,
      "ĠNO": 8310,
      "èĤĽéĸĢ": 8311,
      "è¼Ŀ": 8312,
      "çĶ·å¥³": 8313,
      "Ġadvent": 8314,
      "è¬Ŀè¬Ŀ": 8315,
      "ä»ĭç´¹": 8316,
      "hand": 8317,
      "Ġfool": 8318,
      "acht": 8319,
      "ĠStep": 8320,
      "ä»Ĭå¹´": 8321,
      "Ġclasses": 8322,
      "çĵ¶": 8323,
      "ĠCon": 8324,
      "åĽŀéłŃ": 8325,
      "éĥ¨ä½į": 8326,
      "Ġexplore": 8327,
      "é¨İ": 8328,
      "Ġcorrect": 8329,
      "Ġvict": 8330,
      "ĠGrace": 8331,
      "å¯Į": 8332,
      "Ġhalfway": 8333,
      "ĠHere": 8334,
      "Ġslipp": 8335,
      "éĤĦæ²Ĵæľī": 8336,
      "Ġmanner": 8337,
      "Ġcontent": 8338,
      "laire": 8339,
      "èººåľ¨": 8340,
      "Ġsind": 8341,
      "Ġnames": 8342,
      "ä¸Ģåı£": 8343,
      "ĠGen": 8344,
      "Ġkneeling": 8345,
      "Ġtea": 8346,
      "Ġteach": 8347,
      "æ»¿äºĨ": 8348,
      "Ġstartled": 8349,
      "æĪĳè·Ł": 8350,
      "Ġkeys": 8351,
      "Ġhandsome": 8352,
      "ungen": 8353,
      "çļĦè¨": 8354,
      "ĠDas": 8355,
      "ĠOral": 8356,
      "Ġrequest": 8357,
      "Ġproceeded": 8358,
      "reck": 8359,
      "ä½łå°±": 8360,
      "Ġstands": 8361,
      "Ġmembers": 8362,
      "çŀ¬éĸĵ": 8363,
      "çļĦèĩīä¸Ĭ": 8364,
      "©åŃĲ": 8365,
      "Ġpony": 8366,
      "éĢ²åĩº": 8367,
      "ires": 8368,
      "Se": 8369,
      "Take": 8370,
      "Ġmort": 8371,
      "åı¦å¤ĸ": 8372,
      "Ġproblems": 8373,
      "While": 8374,
      "Ã³": 8375,
      "çļº": 8376,
      "Ġanx": 8377,
      "Ġjour": 8378,
      "åŃĶ": 8379,
      "è£ľ": 8380,
      "Ġmission": 8381,
      "é«ĺæ½®äºĨ": 8382,
      "icia": 8383,
      "issy": 8384,
      "bey": 8385,
      "çļĦç²ī": 8386,
      "Ġrisk": 8387,
      "çļĦéĹľä¿Ĥ": 8388,
      "Ġsheer": 8389,
      "illary": 8390,
      "Ġspark": 8391,
      "Ġinsides": 8392,
      "Ġfemales": 8393,
      "Ġreveal": 8394,
      "Ġswimming": 8395,
      "house": 8396,
      "Ġtugged": 8397,
      "çļĦæ¶": 8398,
      "Ġrob": 8399,
      "æ³Ľ": 8400,
      "fen": 8401,
      "ila": 8402,
      "éĽĨ": 8403,
      "çļĦæīĭæĮĩ": 8404,
      "åħ±": 8405,
      "ĠLily": 8406,
      "çļĦçķ": 8407,
      "ĠNar": 8408,
      "æ²Ĵäºĭ": 8409,
      "åĬį": 8410,
      "Ġdifference": 8411,
      "bre": 8412,
      "akota": 8413,
      "Ġreluct": 8414,
      "è³¤": 8415,
      "xual": 8416,
      "Ġbast": 8417,
      "å¸¸å¸¸": 8418,
      "iod": 8419,
      "Ġdorm": 8420,
      "æľīæ²Ĵæľī": 8421,
      "ĠNight": 8422,
      "Ġknowledge": 8423,
      "åı¦ä¸ĢåĢĭ": 8424,
      "Ġfeather": 8425,
      "´é«Ķ": 8426,
      "Ġbeating": 8427,
      "éĤ£æĻĤ": 8428,
      "Ġflushed": 8429,
      "çªº": 8430,
      "æİ¥è§¸": 8431,
      "è±Ĩ": 8432,
      "çļĦè®": 8433,
      "Ġval": 8434,
      "ĠRight": 8435,
      "è¨Ŀ": 8436,
      "mate": 8437,
      "Ġtips": 8438,
      "å¥´": 8439,
      "è£Ĥ": 8440,
      "æ£į": 8441,
      "æ¸¸": 8442,
      "Ġrocked": 8443,
      "ĠÂłĠÂłĠÂłĠÂł": 8444,
      "Ġdepths": 8445,
      "iner": 8446,
      "Ġforwards": 8447,
      "å¥¹çļĦä¹³æĪ¿": 8448,
      "æĹ©ä¸Ĭ": 8449,
      "annah": 8450,
      "æ¥µäºĨ": 8451,
      "Ġembarrassment": 8452,
      "å¥¸": 8453,
      "ä¸ŃæĮĩ": 8454,
      "è·¨": 8455,
      "å»º": 8456,
      "ç«Ļèµ·ä¾Ĩ": 8457,
      "Ġsquirmed": 8458,
      "Ġdanced": 8459,
      "illa": 8460,
      "æĬķ": 8461,
      "Ġdragons": 8462,
      "Ġsisters": 8463,
      "çļĦæĸ¹": 8464,
      "just": 8465,
      "Ġta": 8466,
      "Ġbone": 8467,
      "Ġrig": 8468,
      "Ġsagte": 8469,
      "ĠFox": 8470,
      "æ£Ħ": 8471,
      "Ġdirt": 8472,
      "çļĦæ±": 8473,
      "ĠWor": 8474,
      "Ġunter": 8475,
      "èĪĲ": 8476,
      "Ġarg": 8477,
      "çĪ¾": 8478,
      "å©ī": 8479,
      "onscious": 8480,
      "åłħç¡¬": 8481,
      "Ġaching": 8482,
      "Ġstamm": 8483,
      "Ġslap": 8484,
      "å¤§ç´Ħ": 8485,
      "åºĬéĤĬ": 8486,
      "éŃĶ": 8487,
      "ĊĊĉÂłÂłÂłÂłÂłÂłÂłÂłÂłÂłÂł": 8488,
      "Ġfa": 8489,
      "Ġdi": 8490,
      "äºĨåĹİ": 8491,
      "å®¿": 8492,
      "Ġability": 8493,
      "åģı": 8494,
      "Ġhost": 8495,
      "å¾Īä¹ħ": 8496,
      "åĴĮå°ı": 8497,
      "è²ŀ": 8498,
      "æĪĳæ²Ĵæľī": 8499,
      "adow": 8500,
      "odrog": 8501,
      "å¥½åĲ§": 8502,
      "å°įæĸ¼": 8503,
      "Ġfingert": 8504,
      "ä¸įç®¡": 8505,
      "ĠNew": 8506,
      "irled": 8507,
      "çĶĺ": 8508,
      "Ġcomments": 8509,
      "èĨĿ": 8510,
      "å¹«ä½ł": 8511,
      "Ġsmelled": 8512,
      "Ġleader": 8513,
      "Ġmuffled": 8514,
      "Ġcand": 8515,
      "Ġripp": 8516,
      "Ġnobody": 8517,
      "éķ·å¾Ĺ": 8518,
      "ĠMarie": 8519,
      "Ġunderstanding": 8520,
      "åĸĺèĳĹ": 8521,
      "Ġincreasing": 8522,
      "arch": 8523,
      "Ġyard": 8524,
      "Ġplain": 8525,
      "è¦ģæĺ¯": 8526,
      "éĺ¿è³ĵ": 8527,
      "ost": 8528,
      "Ġcow": 8529,
      "æĸ½": 8530,
      "Ġfriendly": 8531,
      "Ġemploy": 8532,
      "Ġemotions": 8533,
      "ĠAlthough": 8534,
      "Ġgazed": 8535,
      "sers": 8536,
      "Ġsea": 8537,
      "çļĦè¶": 8538,
      "~~~": 8539,
      "arrow": 8540,
      "Ġbridge": 8541,
      "Ġconfident": 8542,
      "ĠSamantha": 8543,
      "Ġbum": 8544,
      "æģ¤": 8545,
      "Ġspring": 8546,
      "å¥³æľĭåıĭ": 8547,
      "æŁĲ": 8548,
      "äºĨä¸ĢæľĥåħĴ": 8549,
      "Ġannounced": 8550,
      "å½¼æŃ¤": 8551,
      "èŁ": 8552,
      "Ġdisp": 8553,
      "æİ¥åıĹ": 8554,
      "ĠSteven": 8555,
      "Ġbowl": 8556,
      "cella": 8557,
      "his": 8558,
      "Ġrace": 8559,
      "alt": 8560,
      "å¾ĭ": 8561,
      "ĠDonna": 8562,
      "æĪĲäºĨ": 8563,
      "bian": 8564,
      "Ġfault": 8565,
      "arth": 8566,
      "esting": 8567,
      "å°ıéĽª": 8568,
      "å¾ĹæĽ´": 8569,
      "Ġswing": 8570,
      "Ġshopping": 8571,
      "æĭīéĸĭ": 8572,
      "çļĦçµ²": 8573,
      "bra": 8574,
      "Ġreass": 8575,
      "Ġrump": 8576,
      "ä¸ĢæĻĤ": 8577,
      "urred": 8578,
      "ä¸įå®ī": 8579,
      "Ġchairs": 8580,
      "Ġswallowing": 8581,
      "éĸīèĳĹ": 8582,
      "Ġtunnel": 8583,
      "isch": 8584,
      "Ġgoodby": 8585,
      "åķıå¥¹": 8586,
      "!!!": 8587,
      "Ġpotent": 8588,
      "ĠTaylor": 8589,
      "Das": 8590,
      "Ġunders": 8591,
      "aku": 8592,
      "Ġprecum": 8593,
      "åıªåī©": 8594,
      "Ġsenses": 8595,
      "ç¬¬äºĮå¤©": 8596,
      "çļĦå¾Ī": 8597,
      "uri": 8598,
      "Ġsah": 8599,
      "Ġgrabs": 8600,
      "Ġwrists": 8601,
      "Ġspotted": 8602,
      "Ġdetails": 8603,
      "Ġpounded": 8604,
      "ils": 8605,
      "abe": 8606,
      "Ġprogram": 8607,
      "Ġstranger": 8608,
      "ĠSeth": 8609,
      "Ġprop": 8610,
      "Ġswirl": 8611,
      "ĠVick": 8612,
      "ä½¿å¥¹": 8613,
      "æĤħ": 8614,
      "Ġcaut": 8615,
      "éĿ¢å°į": 8616,
      "ä¼Ļ": 8617,
      "ĠAugen": 8618,
      "Ġfier": 8619,
      "æĪĳåı¯ä»¥": 8620,
      "çļĦæ¬": 8621,
      "åķľ": 8622,
      "åª½çļĦ": 8623,
      "å°ıå°ı": 8624,
      "ĠJade": 8625,
      "opf": 8626,
      "ressing": 8627,
      "æĭ¼": 8628,
      "èŀ": 8629,
      "Ġchose": 8630,
      "è¼ķèģ²": 8631,
      "Ġhugging": 8632,
      "èĤ¢": 8633,
      "ç§Ł": 8634,
      "Ġraising": 8635,
      "Ġfixed": 8636,
      "éĽ·": 8637,
      "ĠJam": 8638,
      "æīĭæ·«": 8639,
      "åĲĳå¥¹": 8640,
      "ĠStory": 8641,
      "Ġ11": 8642,
      "Ġcountry": 8643,
      "Ġbis": 8644,
      "ids": 8645,
      "æĪĳåħĪ": 8646,
      "vert": 8647,
      "Ġgrim": 8648,
      "æĹħ": 8649,
      "riage": 8650,
      "Ġworn": 8651,
      "Ġens": 8652,
      "èĤĨ": 8653,
      "æ³¡": 8654,
      "Ġcompan": 8655,
      "æįī": 8656,
      "åª³å©¦": 8657,
      "itt": 8658,
      "äºİ": 8659,
      "æĪĳåİ»": 8660,
      "ĠSaid": 8661,
      "Ġperiod": 8662,
      "Ġrocking": 8663,
      "åı¥è©±": 8664,
      "éĤª": 8665,
      "ipper": 8666,
      "Ġcreated": 8667,
      "Ġnurse": 8668,
      "èģĬå¤©": 8669,
      "ç£¨æĵ¦": 8670,
      "Ġmales": 8671,
      "Ġwaste": 8672,
      "åľ¨èĩªå·±": 8673,
      "Ġsaved": 8674,
      "ante": 8675,
      "ula": 8676,
      "husi": 8677,
      "Jack": 8678,
      "ĠYeah": 8679,
      "åħ¥äºĨ": 8680,
      "é£²": 8681,
      "éĽ£åıĹ": 8682,
      "Ġraise": 8683,
      "Ġparked": 8684,
      "Ġprote": 8685,
      "Ġvehic": 8686,
      "Ġrelieved": 8687,
      "Even": 8688,
      "ulated": 8689,
      "å°±ç®Ĺ": 8690,
      "Ġflicking": 8691,
      "HHHH": 8692,
      "Ġconvul": 8693,
      "Ġlangu": 8694,
      "Ġbalance": 8695,
      "é«ĺè·Łéŀĭ": 8696,
      "ĠLuna": 8697,
      "this": 8698,
      "Ġschn": 8699,
      "Ġaim": 8700,
      "omes": 8701,
      "å°¬": 8702,
      "è²¬": 8703,
      "ĠVe": 8704,
      "Ġplanet": 8705,
      "Ġgarage": 8706,
      "éĨ«çĶŁ": 8707,
      "ĠNatalie": 8708,
      "Suddenly": 8709,
      "itor": 8710,
      "iring": 8711,
      "Ġwhilst": 8712,
      "ĠMarcus": 8713,
      "ä»ĸçļĦæīĭ": 8714,
      "çµĲæŀľ": 8715,
      "åı¦ä¸Ģéļ»æīĭ": 8716,
      "çķ¢æ¥Ń": 8717,
      "rud": 8718,
      "Ġexist": 8719,
      "ĠRed": 8720,
      "æľĢè¿ĳ": 8721,
      "Ġawesome": 8722,
      "ä½¿å¾Ĺ": 8723,
      "Ġdamage": 8724,
      "AS": 8725,
      "remy": 8726,
      "ä¸įåı¯ä»¥": 8727,
      "ä½Ī": 8728,
      "å¿ĥæĥħ": 8729,
      "ĠJeremy": 8730,
      "çļĦèµ°": 8731,
      "ä¸įå¤ª": 8732,
      "Ġattend": 8733,
      "å¤§èĨ½": 8734,
      "æĭĴçµķ": 8735,
      "Tell": 8736,
      "æĪĳéĤĦæĺ¯": 8737,
      "ĠHand": 8738,
      "å°ıèħ¹": 8739,
      "ĠEventually": 8740,
      "å¹³å¸¸": 8741,
      "Ġcircles": 8742,
      "èĢ³éĤĬ": 8743,
      "ĠDian": 8744,
      "ĠFant": 8745,
      "æīįèĥ½": 8746,
      "çļĦçĨ±": 8747,
      "ãĦ": 8748,
      "çļĦè²": 8749,
      "Ġbree": 8750,
      "aks": 8751,
      "Ġcalls": 8752,
      "èµ°éĢ²": 8753,
      "ĠDanielle": 8754,
      "Ġseduct": 8755,
      "Ġneighbor": 8756,
      "ĠSure": 8757,
      "ä½łæĢİéº¼": 8758,
      "å¾®ç¬ĳ": 8759,
      "èĵ®": 8760,
      "ution": 8761,
      "Ġkam": 8762,
      "Ġsees": 8763,
      "eps": 8764,
      "åĩºèģ²": 8765,
      "Ġcontroll": 8766,
      "Ġhelpless": 8767,
      "Ġwrite": 8768,
      "æºĲ": 8769,
      "Ġtrailed": 8770,
      "Ġtensed": 8771,
      "çļĦæĴ«": 8772,
      "çļĦèĻķ": 8773,
      "EN": 8774,
      "iten": 8775,
      "ctually": 8776,
      "å°ıå§¨": 8777,
      "ĠLou": 8778,
      "coon": 8779,
      "Ġdeliver": 8780,
      "IT": 8781,
      "å¥¹åľ¨": 8782,
      "ĠPete": 8783,
      "çľŁæŃ£": 8784,
      "Ġbabe": 8785,
      "æĢ¥å¿Ļ": 8786,
      "with": 8787,
      "Ġnoticing": 8788,
      "ä¸ĬåºĬ": 8789,
      "rystal": 8790,
      "agged": 8791,
      "olves": 8792,
      "éĻ°æł¸": 8793,
      "Ġenthusi": 8794,
      "Ġthrown": 8795,
      "ĠAnth": 8796,
      "Ġadjusted": 8797,
      "allowing": 8798,
      "ĠMay": 8799,
      "ĠRachael": 8800,
      "æľĥæľī": 8801,
      "Ġprost": 8802,
      "Ġacting": 8803,
      "pack": 8804,
      "Ġnamed": 8805,
      "ĠMond": 8806,
      "å¹½": 8807,
      "Ġproject": 8808,
      "æĴķ": 8809,
      "Ġstudy": 8810,
      "æ¯«çĦ¡": 8811,
      "ĠBrandon": 8812,
      "æĦŁåıĹ": 8813,
      "Ġintention": 8814,
      "å°·": 8815,
      "Ġplus": 8816,
      "jected": 8817,
      "hle": 8818,
      "iot": 8819,
      "Ġfaced": 8820,
      "âĢĵ": 8821,
      "itted": 8822,
      "Ġdust": 8823,
      "aret": 8824,
      "è¢«å¥¹": 8825,
      "å½©": 8826,
      "hire": 8827,
      "Ġtore": 8828,
      "Ġles": 8829,
      "ĠBar": 8830,
      "ĠNik": 8831,
      "å¹´ç´Ģ": 8832,
      "åĽłçĤºæĪĳ": 8833,
      "addle": 8834,
      "åĲįåŃĹ": 8835,
      "Ġdetail": 8836,
      "Ġracing": 8837,
      "Ġmatt": 8838,
      "Ġfreed": 8839,
      "ĠSel": 8840,
      "Ġrac": 8841,
      "æĺ¯å¾Ī": 8842,
      "ï¼ģâĢ¦âĢ¦": 8843,
      "Ġflowed": 8844,
      "åĲĳä¸ĭ": 8845,
      "ivia": 8846,
      "æª¢": 8847,
      "ye": 8848,
      "zie": 8849,
      "ooks": 8850,
      "ä¹Łå°±": 8851,
      "Ġpulse": 8852,
      "Ġling": 8853,
      "lled": 8854,
      "ury": 8855,
      "æľīèĳĹ": 8856,
      "Ġoffering": 8857,
      "ĠRay": 8858,
      "åĭĿ": 8859,
      "ï¼İï¼İï¼İï¼İ": 8860,
      "çļĦèĢģå©Ĩ": 8861,
      "Ġfifteen": 8862,
      "Mr": 8863,
      "çļĦæĪ¿éĸĵ": 8864,
      "ori": 8865,
      "ĠSund": 8866,
      "ĠHard": 8867,
      "éģ²": 8868,
      "ĠNathan": 8869,
      "å¥³æĢ§": 8870,
      "èĪĶèĳĹ": 8871,
      "Ġtasting": 8872,
      "åļ¨": 8873,
      "Ġ30": 8874,
      "Ġprotest": 8875,
      "Ġwoods": 8876,
      "å°·å°¬": 8877,
      "Ġfan": 8878,
      "Ġpole": 8879,
      "é«ĺä¸Ń": 8880,
      "åĨįåº¦": 8881,
      "Ġwiggled": 8882,
      "åĸīåļ¨": 8883,
      "min": 8884,
      "Ġsehr": 8885,
      "ĠHeather": 8886,
      "Ġnodding": 8887,
      "ç¢©": 8888,
      "Ġstuffed": 8889,
      "çļĦèĪĪ": 8890,
      "çļĦçŁŃ": 8891,
      "Ġsheep": 8892,
      "æ³³": 8893,
      "èµ°åİ»": 8894,
      "Ġnods": 8895,
      "Ġsnorted": 8896,
      "Ġregard": 8897,
      "âĶĢ": 8898,
      "Ġcreatures": 8899,
      "Ġgeneral": 8900,
      "Ġpissed": 8901,
      "Or": 8902,
      "uer": 8903,
      "Ġbowed": 8904,
      "ĠTony": 8905,
      "çļĦæ©": 8906,
      "æĥ³åĥı": 8907,
      "Ġscar": 8908,
      "éĽĻèħ³": 8909,
      "æ¼«": 8910,
      "èĬ¸": 8911,
      "Ġdecl": 8912,
      "Ġrecently": 8913,
      "çļĦçľ¼ç¥ŀ": 8914,
      "iosity": 8915,
      "Ġgear": 8916,
      "Ġnun": 8917,
      "ĠTam": 8918,
      "Ġpoking": 8919,
      "Ġmeaning": 8920,
      "coming": 8921,
      "éĨĴä¾Ĩ": 8922,
      "000": 8923,
      "éģĬæĪ²": 8924,
      "OR": 8925,
      "ĠApp": 8926,
      "å¥¹çļĦæīĭ": 8927,
      "éĽĻä¹³": 8928,
      "Ġconfidence": 8929,
      "å¤«å¦»": 8930,
      "å·®é»ŀ": 8931,
      "å·®ä¸įå¤ļ": 8932,
      "ĠTab": 8933,
      "Ġsell": 8934,
      "ept": 8935,
      "éĥ½åľ¨": 8936,
      "mmmm": 8937,
      "æıīæįı": 8938,
      "Ġagreement": 8939,
      "éģº": 8940,
      "éĺ²": 8941,
      "Ġcontinues": 8942,
      "Ġparticularly": 8943,
      "asure": 8944,
      "Ġlovers": 8945,
      "Ġplastic": 8946,
      "èĥ½å¤ł": 8947,
      "Ġgasps": 8948,
      "è½īéģİ": 8949,
      "Ġmotioned": 8950,
      "Ġsack": 8951,
      "Tim": 8952,
      "ĠBoy": 8953,
      "èªªäºĨ": 8954,
      "Ġpermission": 8955,
      "åĲĳåīį": 8956,
      "è±«": 8957,
      "éĸīä¸Ĭ": 8958,
      "Ġstat": 8959,
      "Ġwarri": 8960,
      "èªįçĤº": 8961,
      "Ġyawn": 8962,
      "æĪĳçľĭåĪ°": 8963,
      "Ġcarpet": 8964,
      "æĬ½åĭķ": 8965,
      "ĠTrue": 8966,
      "Ġmental": 8967,
      "çļĦè¥": 8968,
      "Ġundid": 8969,
      "çµ¦ä»ĸ": 8970,
      "Ġsearching": 8971,
      "izza": 8972,
      "æ«»": 8973,
      "Ġwashing": 8974,
      "Ġjoke": 8975,
      "çļĦæ¸": 8976,
      "ĠJerry": 8977,
      "ĠClaire": 8978,
      "Ġeyed": 8979,
      "çļĦéĻ°éĥ¨": 8980,
      "çķĻä¸ĭ": 8981,
      "Ġcasually": 8982,
      "åĵİåĳĢ": 8983,
      "over": 8984,
      "Ġpatted": 8985,
      "wing": 8986,
      "Ġrom": 8987,
      "åıĥ": 8988,
      "ä¸įåľ¨": 8989,
      "apt": 8990,
      "èĢģäºĮ": 8991,
      "ization": 8992,
      "æ³£": 8993,
      "Ġstops": 8994,
      "Ġhesitation": 8995,
      "Ġwedding": 8996,
      "Ġident": 8997,
      "ĠMa": 8998,
      "éĢĻä»¶": 8999,
      "Ġune": 9000,
      "ĠLinda": 9001,
      "Ġgray": 9002,
      "Ġsettle": 9003,
      "æīŃåĭķèĳĹ": 9004,
      "æĶ¶æĭ¾": 9005,
      "éĻĦè¿ĳ": 9006,
      "Ġmattress": 9007,
      "Ġmum": 9008,
      "ators": 9009,
      "äºĨåħ©": 9010,
      "rien": 9011,
      "Ġagg": 9012,
      "çļĦç¢": 9013,
      "Ġcared": 9014,
      "æ±ł": 9015,
      "Ġinsisted": 9016,
      "ä½Ķ": 9017,
      "æķ²": 9018,
      "çĶ·åŃĲ": 9019,
      "è¨Ń": 9020,
      "Ġshortly": 9021,
      "Ġlaptop": 9022,
      "åĲ®åĲ¸": 9023,
      "Ġenemy": 9024,
      "sl": 9025,
      "å¥ı": 9026,
      "Ġplat": 9027,
      "emember": 9028,
      "ĠEverything": 9029,
      "Ġintroduced": 9030,
      "??": 9031,
      "çļĦå«©": 9032,
      "åĢŁ": 9033,
      "Ġloss": 9034,
      "Ġnowhere": 9035,
      "æĭļ": 9036,
      "è¢į": 9037,
      "è¥²": 9038,
      "åį»æĺ¯": 9039,
      "ounted": 9040,
      "çļĦå°į": 9041,
      "erson": 9042,
      "Ġrifle": 9043,
      "å¾¹": 9044,
      "ä¸įè¦º": 9045,
      "Ġaband": 9046,
      "çĦ¶èĢĮ": 9047,
      "Ġembra": 9048,
      "Does": 9049,
      "ä¸Ģå®ļè¦ģ": 9050,
      "ç¤¾": 9051,
      "éģĶåĪ°": 9052,
      "çļĦç·Ĭ": 9053,
      "Ġfeatures": 9054,
      "Ġhealth": 9055,
      "Ġcub": 9056,
      "ä¸įå¦Ĥ": 9057,
      "åĲµ": 9058,
      "æ¨£åŃĲ": 9059,
      "Ġclosely": 9060,
      "igging": 9061,
      "Ġutter": 9062,
      "èĪį": 9063,
      "èĹī": 9064,
      "Ġtrousers": 9065,
      "æ¡Įä¸Ĭ": 9066,
      "Ġsearch": 9067,
      "æĪĳéĤ£": 9068,
      "aky": 9069,
      "omed": 9070,
      "ç¬¬ä¸Ģ": 9071,
      "ĠTon": 9072,
      "ĠTod": 9073,
      "uffs": 9074,
      "ohol": 9075,
      "éĽ»å½±": 9076,
      "å£ĵåľ¨": 9077,
      "æº«æļĸ": 9078,
      "Ġpulsing": 9079,
      "Ġequip": 9080,
      "ĠTiffany": 9081,
      "Ġrich": 9082,
      "æŃ·": 9083,
      "istic": 9084,
      "Ġthanked": 9085,
      "ä½ıå¥¹": 9086,
      "Ġsquealed": 9087,
      "è¡ĽçĶŁ": 9088,
      "Ġencoura": 9089,
      "Ġsized": 9090,
      "eding": 9091,
      "ä½łäºĨ": 9092,
      "Ġconvin": 9093,
      "ĠChar": 9094,
      "æĪĲçĤº": 9095,
      "æĢİéº¼è¾¦": 9096,
      "Ġangle": 9097,
      "mal": 9098,
      "ties": 9099,
      "Ġtour": 9100,
      "çļĻ": 9101,
      "æĪĳæĦŁåĪ°": 9102,
      "æİĢ": 9103,
      "ended": 9104,
      "å±Ģ": 9105,
      "è»į": 9106,
      "ĠMarc": 9107,
      "çģ«çĨ±": 9108,
      "Ġboner": 9109,
      "Female": 9110,
      "Ġlake": 9111,
      "Ġlined": 9112,
      "Ġhist": 9113,
      "Ġkur": 9114,
      "ami": 9115,
      "ç´ħäºĨ": 9116,
      "çļĦæ¯į": 9117,
      "çļĦèĦĸåŃĲ": 9118,
      "ishes": 9119,
      "Ġnine": 9120,
      "ĠME": 9121,
      "ĠKar": 9122,
      "å¾ŀå¥¹": 9123,
      "æĶ¾éģİ": 9124,
      "åİŁåĽł": 9125,
      "çĮĽçĥĪ": 9126,
      "ĠLauren": 9127,
      "Â¼": 9128,
      "Ġwoll": 9129,
      "Ġlas": 9130,
      "ĠRiley": 9131,
      "athy": 9132,
      "ç¬ĳèĳĹèªª": 9133,
      "Ġwritten": 9134,
      "Ġbunch": 9135,
      "Ġcott": 9136,
      "Ġchain": 9137,
      "Ġbrow": 9138,
      "èī²çļĦ": 9139,
      "Ġsilky": 9140,
      "ĠRoger": 9141,
      "Ġappreciate": 9142,
      "Ġnecessary": 9143,
      "Ġwicked": 9144,
      "è¦ı": 9145,
      "é«Ĵ": 9146,
      "ĠThanks": 9147,
      "Ġcleavage": 9148,
      "Ġfuriously": 9149,
      "æĳ¸èĳĹ": 9150,
      "Ġignore": 9151,
      "ç¿Ĵæħ£": 9152,
      "Ġofficer": 9153,
      "æĺ¨å¤©": 9154,
      "çĮ¶è±«": 9155,
      "Matt": 9156,
      "hard": 9157,
      "èĩªä¸»": 9158,
      "çŃĨ": 9159,
      "isha": 9160,
      "çģĮ": 9161,
      "Ġapproach": 9162,
      "ĠSwallowing": 9163,
      "Ġbud": 9164,
      "Ġchick": 9165,
      "åħ¬åĪĨ": 9166,
      "Ġslippery": 9167,
      "Ã¡": 9168,
      "åħ©é¡Ĩ": 9169,
      "éĺ¿æĺİ": 9170,
      "Ġrelaxing": 9171,
      "Ġknocking": 9172,
      "Ġfragte": 9173,
      "æĹ¢çĦ¶": 9174,
      "åħĦå¼Ł": 9175,
      "Tr": 9176,
      "asons": 9177,
      "Ġnuzzled": 9178,
      "ĠSue": 9179,
      "å¾Īæľī": 9180,
      "åĬĽæ°£": 9181,
      "Ġplayful": 9182,
      "Ġexcuse": 9183,
      "Ġkilling": 9184,
      "ä¸įè¡ĮäºĨ": 9185,
      "Ġconnected": 9186,
      "ĠLucas": 9187,
      "Ġequipment": 9188,
      "Ġcham": 9189,
      "åį¡": 9190,
      "Ġoper": 9191,
      "åľ¨æĪĳèº«ä¸Ĭ": 9192,
      "ĠDespite": 9193,
      "Mike": 9194,
      "UU": 9195,
      "wen": 9196,
      "Ġbin": 9197,
      "Ġmaid": 9198,
      "å¤§éĩı": 9199,
      "Ġunw": 9200,
      "Ġcontain": 9201,
      "åĽŀä¾ĨäºĨ": 9202,
      "Ġfailed": 9203,
      "Ġdroo": 9204,
      "ç¬ĳäºĨ": 9205,
      "ji": 9206,
      "Ġneat": 9207,
      "æĿĳ": 9208,
      "çĻ½çļĻ": 9209,
      "ç©´è£¡": 9210,
      "çĶ¨åĬĽåľ°": 9211,
      "è¾¦åħ¬å®¤": 9212,
      "aly": 9213,
      "ero": 9214,
      "ä¸ĭéłŃ": 9215,
      "Ġsilk": 9216,
      "Ġshots": 9217,
      "èĮ¶": 9218,
      "Ġtask": 9219,
      "Ġcoy": 9220,
      "ĠCy": 9221,
      "ç²Ĺå¤§": 9222,
      "cohol": 9223,
      "Ġfright": 9224,
      "Ġlat": 9225,
      "ĠAly": 9226,
      "Ġlos": 9227,
      "Ġplug": 9228,
      "host": 9229,
      "Ġmistake": 9230,
      "çļĦç´ħ": 9231,
      "Ġstammered": 9232,
      "Ġunlock": 9233,
      "éĥ½è¦ģ": 9234,
      "Ġadding": 9235,
      "Ġkeeps": 9236
    },
    "merges": [
      [
        "Ġ",
        "t"
      ],
      [
        "h",
        "e"
      ],
      [
        "Ġ",
        "a"
      ],
      [
        "i",
        "n"
      ],
      [
        "Ġ",
        "s"
      ],
      [
        "Ġ",
        "w"
      ],
      [
        "e",
        "d"
      ],
      [
        "Ġt",
        "he"
      ],
      [
        "Ġ",
        "o"
      ],
      [
        "n",
        "d"
      ],
      [
        "Ġ",
        "b"
      ],
      [
        "Ġ",
        "m"
      ],
      [
        "r",
        "e"
      ],
      [
        "Ġ",
        "h"
      ],
      [
        "in",
        "g"
      ],
      [
        "o",
        "u"
      ],
      [
        "ï",
        "¼"
      ],
      [
        "e",
        "r"
      ],
      [
        "Ġ",
        "f"
      ],
      [
        "Ġ",
        "he"
      ],
      [
        "Ġt",
        "o"
      ],
      [
        "Ġ",
        "c"
      ],
      [
        "â",
        "Ģ"
      ],
      [
        "ï¼",
        "Į"
      ],
      [
        "i",
        "t"
      ],
      [
        "a",
        "t"
      ],
      [
        "Ġa",
        "nd"
      ],
      [
        "i",
        "s"
      ],
      [
        "Ġ",
        "l"
      ],
      [
        "Ġ",
        "d"
      ],
      [
        "a",
        "s"
      ],
      [
        "Ġ",
        "I"
      ],
      [
        "e",
        "n"
      ],
      [
        "ä",
        "¸"
      ],
      [
        "l",
        "l"
      ],
      [
        "Ġ",
        "p"
      ],
      [
        "ç",
        "ļ"
      ],
      [
        "çļ",
        "Ħ"
      ],
      [
        "Ġt",
        "h"
      ],
      [
        "a",
        "n"
      ],
      [
        "o",
        "n"
      ],
      [
        "a",
        "r"
      ],
      [
        "Ġ",
        "g"
      ],
      [
        "Ġhe",
        "r"
      ],
      [
        "o",
        "r"
      ],
      [
        "ã",
        "Ģ"
      ],
      [
        "Ġ",
        "in"
      ],
      [
        "e",
        "s"
      ],
      [
        "Ġo",
        "f"
      ],
      [
        "c",
        "k"
      ],
      [
        "Ġ",
        "n"
      ],
      [
        "o",
        "w"
      ],
      [
        "o",
        "m"
      ],
      [
        "Ġw",
        "as"
      ],
      [
        "l",
        "e"
      ],
      [
        "u",
        "t"
      ],
      [
        "æ",
        "Ī"
      ],
      [
        "Ġh",
        "a"
      ],
      [
        "ä",
        "º"
      ],
      [
        "i",
        "d"
      ],
      [
        "Ġ",
        "y"
      ],
      [
        "Ġb",
        "e"
      ],
      [
        "Ġ",
        "e"
      ],
      [
        "u",
        "s"
      ],
      [
        "æĪ",
        "ĳ"
      ],
      [
        "o",
        "t"
      ],
      [
        "Ġa",
        "s"
      ],
      [
        "l",
        "y"
      ],
      [
        "Ġo",
        "n"
      ],
      [
        "Ġy",
        "ou"
      ],
      [
        "Ġm",
        "y"
      ],
      [
        "e",
        "t"
      ],
      [
        "Ġs",
        "t"
      ],
      [
        "g",
        "h"
      ],
      [
        "i",
        "m"
      ],
      [
        "l",
        "d"
      ],
      [
        "Ġh",
        "is"
      ],
      [
        "å",
        "¥"
      ],
      [
        "Ġ",
        "it"
      ],
      [
        "c",
        "h"
      ],
      [
        "ãĢ",
        "Ĥ"
      ],
      [
        "v",
        "e"
      ],
      [
        "Ġ",
        "u"
      ],
      [
        "Ġth",
        "at"
      ],
      [
        "Ġs",
        "he"
      ],
      [
        "a",
        "y"
      ],
      [
        "Ġm",
        "e"
      ],
      [
        "v",
        "er"
      ],
      [
        "i",
        "r"
      ],
      [
        "âĢ",
        "¦"
      ],
      [
        "Ġ",
        "re"
      ],
      [
        "o",
        "o"
      ],
      [
        "å",
        "°"
      ],
      [
        "Ġ",
        "S"
      ],
      [
        "it",
        "h"
      ],
      [
        "a",
        "d"
      ],
      [
        "Ġ",
        "r"
      ],
      [
        "äº",
        "Ĩ"
      ],
      [
        "e",
        "l"
      ],
      [
        "ä¸",
        "Ģ"
      ],
      [
        "u",
        "r"
      ],
      [
        "a",
        "l"
      ],
      [
        "c",
        "e"
      ],
      [
        "Ġw",
        "ith"
      ],
      [
        "Ġw",
        "e"
      ],
      [
        "k",
        "e"
      ],
      [
        "gh",
        "t"
      ],
      [
        "Ġ",
        "T"
      ],
      [
        "å",
        "ı"
      ],
      [
        "å",
        "ľ"
      ],
      [
        "s",
        "t"
      ],
      [
        "âĢ",
        "Ļ"
      ],
      [
        "en",
        "t"
      ],
      [
        "æ",
        "ľ"
      ],
      [
        "Ġf",
        "or"
      ],
      [
        "ou",
        "ld"
      ],
      [
        "Ġw",
        "h"
      ],
      [
        "âĢ",
        "Ŀ"
      ],
      [
        "âĢ",
        "ľ"
      ],
      [
        "å",
        "¾"
      ],
      [
        "Ġ",
        "H"
      ],
      [
        "å",
        "¤"
      ],
      [
        "Ġl",
        "i"
      ],
      [
        "æ",
        "ĺ"
      ],
      [
        "ä¸",
        "į"
      ],
      [
        "ä",
        "½"
      ],
      [
        "å",
        "ħ"
      ],
      [
        "Ġa",
        "t"
      ],
      [
        "Ġ",
        "k"
      ],
      [
        "a",
        "ll"
      ],
      [
        "Ġs",
        "h"
      ],
      [
        "ä",
        "»"
      ],
      [
        "a",
        "m"
      ],
      [
        ".",
        "."
      ],
      [
        "Ġha",
        "d"
      ],
      [
        "Ġs",
        "e"
      ],
      [
        "å¥",
        "¹"
      ],
      [
        "a",
        "ck"
      ],
      [
        "p",
        "p"
      ],
      [
        "é",
        "Ģ"
      ],
      [
        "r",
        "o"
      ],
      [
        "æĺ",
        "¯"
      ],
      [
        "r",
        "i"
      ],
      [
        "Ġu",
        "p"
      ],
      [
        "i",
        "on"
      ],
      [
        "he",
        "r"
      ],
      [
        "Ġa",
        "n"
      ],
      [
        "Ġ",
        "A"
      ],
      [
        "Ġ",
        "\""
      ],
      [
        "k",
        "ed"
      ],
      [
        "o",
        "re"
      ],
      [
        "å",
        "Ī"
      ],
      [
        "'",
        "s"
      ],
      [
        "Ġs",
        "o"
      ],
      [
        "Ġh",
        "im"
      ],
      [
        "Ġ",
        "j"
      ],
      [
        "è",
        "ĳ"
      ],
      [
        "a",
        "in"
      ],
      [
        "åľ",
        "¨"
      ],
      [
        "Ġo",
        "ut"
      ],
      [
        ".",
        "\""
      ],
      [
        "t",
        "er"
      ],
      [
        "èĳ",
        "Ĺ"
      ],
      [
        "å",
        "Ģ"
      ],
      [
        "t",
        "ed"
      ],
      [
        "æ",
        "ī"
      ],
      [
        "i",
        "ght"
      ],
      [
        "Ġb",
        "ut"
      ],
      [
        "i",
        "l"
      ],
      [
        "us",
        "t"
      ],
      [
        "ä",
        "¾"
      ],
      [
        "ä",
        "¹"
      ],
      [
        "Ġs",
        "a"
      ],
      [
        "é",
        "Ĥ"
      ],
      [
        "r",
        "a"
      ],
      [
[...]
