#version: 0.2
Ġ Ġ
Ġ t
Ġ a
h e
i n
ĠĠ ĠĠ
r e
o n
Ġt he
e r
Ġ s
a t
Ġ o
e n
Ġ w
Ġ c
e s
n d
i t
o r
i s
a l
in g
Ġ p
Ġ b
a n
e d
Ġ f
o u
a r
Ġo f
Ġ m
Ġ in
Ġa nd
ä ¸
Ġt o
i on
ĠĠĠĠ ĠĠĠĠ
i c
Ġ d
l e
ï ¼
- -
r o
a s
Ġ h
en t
ï¼ Į
Ġt h
ç ļ
çļ Ħ
ã Ģ
c t
i l
Ġ |
o m
s t
â Ģ
Ġ e
Ġ re
v e
Ġ l
Ġ n
e t
ä º
Ġ T
l y
Ġ g
Ġ I
o l
i d
Ġ S
s e
i m
u t
o t
Ġb e
Ġ is
at ion
c e
. .
r a
o w
Ġ A
Ġ C
c h
å ı
u r
i g
å ħ
Ġf or
-- --
Ġ y
Ġ u
æ ľ
Ġs t
ãĢ Ĥ
Ġth at
Ġ on
ä »
a m
v er
å Ī
a d
ĠĠ Ġ
e l
Ġ 1
a y
i r
å ®
u l
he r
Ġy ou
it h
i f
Ġ (
ĠĠĠĠĠĠĠĠ ĠĠĠĠĠĠĠĠ
Ġ M
Ġa s
Ġ P
Ġp ro
Ġ it
ç »
o d
Ġw ith
ä ½
t er
Ġc on
è ¿
g e
ç Ķ
m ent
ãĢ ģ
Ġw h
Ġa n
å Ĭ
å Ĳ
Ġa re
at e
å ¤
å ľ
es s
Ġa l
_ _
Ġ B
0 0
Ġo r
o p
Ġ 2
æ ĺ
a b
ĠT he
er s
Ġ he
il l
æ ĸ
a c
u s
e m
t h
e ct
is t
å Ľ
r i
Ġ H
Ġ W
Ġw e
Ġ D
k e
l d
es t
o re
n t
p p
Ġc om
q u
Ġ R
å Ń
a nd
Ġe x
è ®
ä ¹
Ġ E
it y
u m
è ¯
o c
re s
Ġd e
Ġ F
or t
Ġ v
u d
an t
i ve
Ġw as
h t
i es
u n
æ Ī
.. ..
Ġa t
o s
Ġh a
Ġs u
a in
Ġ N
ro m
Ġ L
ä ¼
æĺ ¯
i v
æ ķ
Ġ G
---- ----
Ġc h
Ġn e
Ġb y
âĢ Ļ
å º
ä¸ Ģ
ar t
Ġ r
Ġn ot
å Ĵ
Ġ le
Ġs e
åĴ Į
æ Ŀ
Ġc an
p e
Ġf rom
âĢ ľ
âĢ Ŀ
en d
åľ ¨
u re
æ Ģ
è ¡
Ġs h
å ¯
i al
å Į
Ġth is
å ¹
p t
Ġha ve
é ĩ
ou r
ig ht
ä¸ Ń
ou ld
å ¼
æ Ĺ
r ou
al l
è §
u st
äº º
ä¸ º
æľ ī
å į
æ ³
Ġ O
p l
a ge
åŃ ¦
è Ģ
ç Ľ
ou t
å Ĩ
å °
Ġa b
re d
* *
æ Ķ
ion s
ĠĠĠĠ ĠĠĠ
o g
Ġw or
ar d
é Ģ
om e
ic al
f f
æ ī
' s
åĽ ½
p er
in e
Ġ "
Ġ J
a g
ç §
è ´
t e
å ¾
Ċ ĠĠĠ
__ __
Ġp l
ç İ
ä¸ į
Ġ im
Ġ k
å ±
o st
i e
id e
Ġ en
Ġu s
i z
t her
å ĩ
a ct
ic h
el l
è ĥ
Ġw ill
Ġthe ir
a k
d u
æ ł
Ġ 3
Ġal l
æ³ ķ
Ġ =
Â ł
Ġd o
i p
æ Ĭ
ä» ¥
Ġw he
ul t
Ġthe y
Ġm e
r u
c l
e ar
Ġyou r
å ¸
an s
a re
ç Ĳ
å ·
as s
at ed
ab le
å ½
as t
am e
or m
åı ĳ
T he
Ġ U
è ¦
çĶ Ł
ac k
in d
Ġc l
o k
è¦ ģ
Ġg o
çĶ ¨
an ce
å¯ ¹
è¡ Į
Ġa d
il d
c c
é Ļ
Ċ Ġ
i b
çĲ Ĩ
æ ŀ
Ġcom p
g h
æ °
p ort
ou s
Ġre s
Ġb ut
ĠI n
ve l
Ġ j
äº Ĩ
ç ī
è µ
ation s
ä ¿
on g
ct ion
on e
ar y
å Ł
a p
r y
0 1
Ġin t
.... ....
ä¸ ļ
Ġ -
æ µ
ç Ń
Ġwh ich
ic e
Ġh is
èĥ ½
ĠT h
a ke
æ Ń
é Ŀ
ĠĠĠĠ Ġ
ent s
æ İ
Ġcon t
Ġh as
Ġt e
a ch
æĢ §
é Ĺ
Ġo ut
u al
ig n
Ġm ore
u e
u b
re n
å¤ §
en ce
im e
Ġs o
åĮ ĸ
äº İ
i a
a v
å® ļ
Ġm an
Ġo ther
Ġd is
å® ŀ
æĪ Ĳ
ĠS t
e p
c on
æĸ ¹
ä¸ İ
at er
ä½ ĵ
) .
or d
ä½ ľ
Ġon e
b er
ç º
Ġ 0
o se
f e
Ġ 4
å ¿
a ce
Ġu p
è ĩ
Ġab out
é ¢
ä¼ ļ
Ġa pp
as e
a u
s o
Ċ Ċ
åĪ Ĩ
f orm
Ġwe re
Ġ âĢ
ver y
Ġ K
it ion
Ġu n
o ok
ç ¨
ou nt
i re
ä¸ ª
Ġp er
res s
Ġst ud
Ġ $
e w
Ġwh o
k s
i ke
it e
Ġ her
Ġthe m
Ġp art
æ Į
in t
Ġ qu
i le
Ġ if
x t
åı ¯
n ow
Ġa r
åĪ ¶
Ġ V
an g
åĬ ¨
æĹ ¶
Ġ 5
l l
Ġs p
c es
Ġe v
o ol
ç» ı
åľ °
äº §
en s
Ġp e
å İ
ä ¾
ä¸ »
ä¸ Ĭ
ĠĠĠĠĠĠĠĠĠĠĠĠĠĠĠĠ ĠĠĠĠĠĠĠĠĠĠĠĠĠĠĠĠ
çİ °
l ow
Ġ {
nd er
re at
è¿ Ľ
é ĥ
a il
o od
or y
åĩ º
Ġh ad
Ġs c
-------- --------
ing s
Ġm y
Ġ1 9
ĠC h
j ect
åĲ Ī
re e
r ic
Ġcom m
) ,
è ¾
Ġal so
ç ®
Ġs ome
ĠI t
Ġ Y
åĲ Į
Ġthe re
is h
or s
è¿ Ļ
ç «
n ing
er v
Ġwor k
æľ ¬
ç ¤
Ġwhe n
åħ ³
å¹ ´
æ ı
Ġa g
Ġt ime
ç ³
ĠĠĠĠ ĠĠ
Ċ ĠĠĠĠĠĠĠ
p le
ra m
Ġw ould
Ċ ĠĠĠĠĠĠĠĠ
åħ ¶
å± ķ
op le
å ĳ
ay s
æ į
Ġp re
åĬ Ľ
ou nd
pe c
çŃ ī
æ ²
Ġbe c
Ġl ike
ç³ »
æķ Ļ
al ly
åº Ķ
Ġs a
Ġh ow
l ic
Ġan y
Ġo ur
it ies
Ġint o
Ġo ver
èĢ Į
o ve
Ġbe en
c k
è¿ ĩ
p h
Ġk now
cl ud
Ġ ro
Ġ *
Ġth an
w e
Ġy ear
è Ĥ
à ¤
æ ±
æķ °
Ġ âĢľ
å· ¥
ĉ ĉ
Ġwh at
____ ____
Ġt ra
ä¹ ĭ
æĶ ¿
Ġu nder
Ġ 6
ment s
Ġ .
o b
in k
re nt
åº ¦
æĸ ĩ
Ġpe ople
Ġa ct
on s
le ct
r it
ç¨ ĭ
ĠTh is
é «
ur n
å »
éĩ į
æ Ħ
Ġne ed
o v
e f
y s
ç ½
Ġin d
ar k
æĿ ¥
ro w
æ° ĳ
y st
Ġu se
é« ĺ
if ic
å ĵ
ĠH e
Ġd if
æĸ °
Ġm ay
ch ool
æ ĭ
Ġre c
vel op
èĢ ħ
' t
Ġd es
ver s
èµ Ħ
Ġc ol
Ġe m
åĪ °
Ġne w
æ ĥ
ter n
èĩ ª
rou nd
i an
au se
Ġb et
ç ©
r ans
Ġcon s
g et
¦ Ĥ
c ess
I n
at es
ç ¬
Ġg et
ol og
at a
2 0
åŁ º
æı Ĳ
Ġa cc
å Ģ
ir st
Ġch ild
yst em
he d
at h
ç ł
ig h
Ġn o
i ous
Ġit s
) ;
Ġthe se
rou gh
Ġf e
p s
åıĳ å±ķ
y pe
Ġof f
Ġ '
Ġs he
ow n
éĿ ¢
et h
Ġt w
å» º
se l
åħ ¨
Ġre l
æī Ģ
Ġin clud
Ġas s
f t
/ /
Ġpro v
