#version: 0.2
Ġ Ġ
Ġ t
Ġ a
i n
h e
ĠĠ ĠĠ
r e
o n
Ġt he
e r
Ġ s
a t
Ġ o
e n
Ġ w
Ġ c
e s
n d
i t
o r
i s
a l
in g
Ġ p
Ġ b
a n
e d
Ġ f
o u
a r
Ġo f
Ġ m
Ġ in
Ġa nd
Ġt o
ä ¸
i on
ĠĠĠĠ ĠĠĠĠ
i c
Ġ d
l e
ï ¼
- -
r o
a s
Ġ h
en t
Ġt h
ï¼ Į
ç ļ
çļ Ħ
ã Ģ
c t
i l
Ġ |
o m
s t
Ġ e
â Ģ
Ġ re
v e
Ġ l
Ġ n
e t
ä º
Ġ T
l y
Ġ I
Ġ g
o l
i d
Ġ S
s e
i m
u t
o t
Ġb e
Ġ is
at ion
c e
. .
r a
o w
Ġ A
Ġ C
c h
å ı
u r
i g
å ħ
Ġf or
-- --
Ġ y
Ġ u
æ ľ
Ġs t
Ġ on
ãĢ Ĥ
Ġth at
ä »
a m
v er
å Ī
a d
ĠĠ Ġ
e l
Ġ 1
a y
i r
å ®
u l
he r
it h
Ġy ou
i f
Ġ (
ĠĠĠĠĠĠĠĠ ĠĠĠĠĠĠĠĠ
Ġ M
Ġa s
Ġ P
Ġp ro
ç »
Ġw ith
Ġ it
o d
ä ½
Ġc on
t er
è ¿
g e
m ent
ç Ķ
ãĢ ģ
Ġw h
Ġa n
å Ĭ
å Ĳ
Ġa re
at e
å ¤
es s
å ľ
Ġa l
_ _
Ġ B
0 0
Ġo r
o p
Ġ 2
æ ĺ
a b
er s
ĠT he
il l
æ ĸ
Ġ he
a c
u s
e m
t h
e ct
is t
r i
å Ľ
Ġ H
Ġ W
Ġw e
Ġ D
k e
l d
es t
o re
n t
p p
Ġc om
q u
Ġ R
a nd
å Ń
Ġe x
è ®
Ġ E
it y
u m
ä ¹
è ¯
o c
re s
Ġd e
Ġ F
or t
Ġ v
u d
an t
i ve
Ġw as
h t
i es
.. ..
u n
æ Ī
Ġa t
o s
Ġh a
Ġs u
a in
Ġ N
ro m
Ġ L
ä ¼
i v
æ ķ
æĺ ¯
Ġ G
---- ----
Ġc h
Ġn e
Ġb y
å º
âĢ Ļ
ä¸ Ģ
ar t
Ġ r
Ġn ot
Ġ le
å Ĵ
Ġs e
åĴ Į
æ Ŀ
Ġc an
p e
Ġf rom
en d
âĢ ľ
âĢ Ŀ
u re
æ Ģ
è ¡
åľ ¨
Ġs h
i al
å ¯
å Į
Ġth is
p t
å ¹
é ĩ
Ġha ve
ou r
ä¸ Ń
ig ht
ou ld
å ¼
æ Ĺ
r ou
al l
è §
u st
äº º
ä¸ º
æľ ī
å į
Ġ O
æ ³
p l
a ge
åŃ ¦
ç Ľ
è Ģ
ou t
å Ĩ
Ġa b
* *
ion s
re d
å °
æ Ķ
ĠĠĠĠ ĠĠĠ
o g
Ġw or
ar d
é Ģ
om e
ic al
f f
æ ī
' s
åĽ ½
p er
Ġ "
Ġ J
in e
a g
ç §
è ´
t e
Ċ ĠĠĠ
__ __
å ¾
Ġp l
ç İ
Ġ im
Ġ k
o st
ä¸ į
å ±
id e
Ġu s
i z
Ġ en
t her
i e
a ct
å ĩ
ic h
el l
Ġw ill
è ĥ
Ġthe ir
a k
d u
æ ł
Ġ 3
Ġal l
æ³ ķ
Ġ =
Â ł
i p
Ġd o
Ġm e
æ Ĭ
ä» ¥
Ġw he
ul t
r u
c l
Ġthe y
e ar
Ġyou r
an s
å ¸
a re
ç Ĳ
as s
å ·
at ed
ab le
å ½
or m
as t
am e
åı ĳ
T he
Ġ U
ac k
çĶ Ł
in d
¦ ģ
Ġc l
o k
è ¦ģ
an ce
Ġg o
å¯ ¹
çĶ ¨
Ġa d
c c
è¡ Į
il d
Ċ Ġ
é Ļ
i b
çĲ Ĩ
Ġcom p
æ ŀ
g h
ou s
p ort
Ġre s
æ °
ĠI n
Ġb ut
ve l
Ġ j
ç ī
ation s
on g
è µ
ä ¿
ct ion
äº Ĩ
å Ł
ar y
r y
a p
on e
0 1
.... ....
Ġin t
ä¸ ļ
Ġ -
ç Ń
æ µ
Ġwh ich
ic e
èĥ ½
ĠT h
a ke
ent s
ĠĠĠĠ Ġ
Ġcon t
æ Ń
é Ŀ
æ İ
Ġh is
Ġh as
Ġt e
a ch
é Ĺ
æĢ §
Ġo ut
u al
ig n
u e
Ġm ore
u b
re n
en ce
im e
å¤ §
Ġs o
äº İ
åĮ ĸ
a v
i a
å® ļ
Ġm an
Ġo ther
Ġd is
å® ŀ
æĪ Ĳ
ĠS t
c on
e p
æĸ ¹
ä¸ İ
at er
ä½ ĵ
) .
or d
ä½ ľ
Ġon e
b er
ç º
Ġ 0
o se
f e
Ġ 4
a ce
Ġu p
Ġab out
é ¢
ä¼ ļ
Ġa pp
as e
è ĩ
å ¿
s o
a u
åĪ Ĩ
f orm
Ġ K
Ċ Ċ
Ġwe re
Ġ âĢ
ver y
it ion
Ġu n
o ok
i re
ç ¨
ou nt
ä¸ ª
Ġp er
res s
Ġst ud
Ġ $
Ġwh o
e w
k s
Ġ her
it e
i ke
Ġp art
Ġthe m
æ Į
Ġ qu
in t
i le
à ¤
Ġ if
x t
n ow
åĪ ¶
åı ¯
Ġa r
Ġ V
åĬ ¨
æĹ ¶
Ġ 5
an g
l l
Ġs p
c es
Ġe v
o ol
ç» ı
äº §
en s
Ġp e
Ġm y
ä¸ »
ĠĠĠĠĠĠĠĠĠĠĠĠĠĠĠĠ ĠĠĠĠĠĠĠĠĠĠĠĠĠĠĠĠ
åľ °
å İ
çİ °
l ow
Ġ {
nd er
re at
ä ¾
è¿ Ľ
a il
ä¸ Ĭ
o od
or y
é ĥ
Ġh ad
Ġs c
-------- --------
ing s
åĩ º
Ġ1 9
ĠC h
j ect
åĲ Ī
re e
r ic
Ġcom m
) ,
è ¾
Ġal so
ç ®
Ġ Y
Ġs ome
ĠI t
åĲ Į
Ġthe re
is h
or s
è¿ Ļ
er v
n ing
ç «
æľ ¬
ç ¤
Ġwor k
åħ ³
Ġwhe n
å¹ ´
Ġt ime
Ġa g
ç ³
æ ı
ĠĠĠĠ ĠĠ
Ċ ĠĠĠĠĠĠĠ
p le
ra m
Ġw ould
Ċ ĠĠĠĠĠĠĠĠ
å± ķ
op le
åħ ¶
ay s
æ į
å ĳ
Ġp re
ou nd
pe c
åĬ Ľ
çŃ ī
Ġbe c
ç³ »
Ġl ike
æ ²
æķ Ļ
al ly
åº Ķ
Ġh ow
Ġo ur
l ic
it ies
Ġan y
Ġint o
Ġo ver
Ġs a
o ve
Ġbe en
c k
èĢ Į
è¿ ĩ
p h
cl ud
Ġk now
Ġ ro
Ġ *
Ġth an
Ġy ear
w e
æķ °
æ ±
ĉ ĉ
è Ĥ
å· ¥
Ġt ra
Ġ âĢľ
æĶ ¿
____ ____
Ġwh at
Ġu nder
Ġ 6
ä¹ ĭ
ment s
Ġ .
re nt
in k
o b
åº ¦
Ġpe ople
æĸ ĩ
Ġa ct
on s
le ct
r it
ç¨ ĭ
ĠTh is
ur n
å »
éĩ į
Ġne ed
e f
o v
é «
Ġin d
y s
ç ½
æ Ħ
æĿ ¥
æ° ĳ
y st
ro w
Ġu se
ar k
if ic
é« ĺ
Ġd if
å ĵ
æĸ °
ch ool
Ġm ay
Ġre c
vel op
èĢ ħ
' t
Ġd es
æ ĭ
èµ Ħ
ver s
ĠH e
Ġe m
Ġc ol
Ġne w
ter n
au se
æ ĥ
r ans
i an
Ġcon s
rou nd
èĩ ª
Ġb et
c ess
I n
åĪ °
g et
at es
ol og
¦ Ĥ
ç ©
at a
ç ¬
2 0
åŁ º
Ġg et
æı Ĳ
Ġa cc
Ġs he
ir st
Ġch ild
at h
yst em
ig h
ç ł
i ous
Ġn o
Ġit s
) ;
Ġthe se
rou gh
p s
åıĳ å±ķ
Ġf e
y pe
Ġof f
Ġ '
å Ģ
ow n
he d
et h
éĿ ¢
å» º
se l
Ġt w
Ġre l
Ġas s
Ġin clud
åħ ¨
f t
æī Ģ
/ /
Ġpro v
