#version: 0.2
Ġ Ġ
Ġ t
Ġ a
h e
i n
ĠĠ ĠĠ
r e
o n
Ġt he
e r
Ġ s
a t
Ġ o
e n
Ġ w
Ġ c
e s
n d
i t
i s
o r
a l
Ġ p
in g
Ġ b
a n
e d
Ġ f
o u
a r
Ġo f
Ġ m
Ġ in
Ġa nd
ä ¸
Ġt o
i on
ĠĠĠĠ ĠĠĠĠ
i c
Ġ d
l e
ï ¼
- -
r o
a s
Ġ h
en t
ï¼ Į
Ġt h
ç ļ
çļ Ħ
ã Ģ
c t
i l
â Ģ
Ġ e
o m
s t
Ġ re
v e
Ġ l
Ġ n
Ġ |
e t
ä º
Ġ T
Ġ g
l y
Ġ I
o l
i d
Ġ S
s e
u t
o t
i m
Ġb e
Ġ is
c e
at ion
r a
Ġ A
o w
c h
å ı
Ġ C
u r
. .
i g
-- --
å ħ
Ġf or
Ġ y
æ ľ
Ġ u
Ġs t
ãĢ Ĥ
ä »
Ġ on
Ġth at
a m
v er
å Ī
a d
Ġ 1
e l
ĠĠ Ġ
a y
i r
å ®
u l
he r
i f
ĠĠĠĠĠĠĠĠ ĠĠĠĠĠĠĠĠ
it h
Ġ (
Ġy ou
Ġ M
Ġa s
Ġ P
Ġp ro
ç »
Ġ it
o d
Ġw ith
ä ½
Ġc on
è ¿
ãĢ ģ
ç Ķ
t er
m ent
g e
Ġw h
Ġa n
å Ĭ
å Ĳ
å ¤
at e
Ġa re
å ľ
Ġa l
Ġ B
es s
Ġ 2
a b
Ġo r
æ ĺ
Ġ he
ĠT he
o p
il l
æ ĸ
er s
a c
t h
0 0
u s
is t
e ct
å Ľ
r i
e m
Ġ W
Ġw e
Ġ H
k e
Ġ D
l d
es t
o re
n t
p p
a nd
Ġc om
è ®
å Ń
ä ¹
it y
Ġe x
u m
è ¯
q u
Ġ R
Ġ E
u re
Ġd e
o c
Ġ v
Ġw as
Ġ F
an t
u n
æ Ī
ig h
or t
i es
i ve
u d
o s
Ġa t
Ġ N
Ġh a
a in
ro m
---- ----
ä ¼
Ġ L
.. ..
æĺ ¯
æ ķ
Ġs u
Ġn e
Ġc h
i v
Ġb y
å º
Ġ G
âĢ Ļ
ä¸ Ģ
re s
Ġn ot
Ġ r
ar t
Ġs e
Ġ le
å Ĵ
en d
æ Ŀ
Ġf rom
åĴ Į
Ġc an
âĢ ľ
âĢ Ŀ
_ _
Ġs h
åľ ¨
è ¡
æ Ģ
å ¯
å Į
å ¹
p t
p e
Ġth is
i al
é ĩ
Ġha ve
ou ld
ä¸ Ń
å ¼
æ Ĺ
igh t
äº º
è §
r ou
u st
Ġ O
al l
æ ³
æľ ī
ä¸ º
ou r
å į
è Ģ
ç Ľ
åŃ ¦
å °
å Ĩ
a ge
æ Ķ
p l
ou t
Ġa b
ion s
re d
ar d
é Ģ
Ġw or
om e
æ ī
o g
' s
g h
f f
ĠĠĠĠ ĠĠĠ
Ġ J
ic al
åĽ ½
Ċ ĠĠĠ
è ´
a g
p er
å ¾
in e
Ġ "
ç §
Ġp l
i e
t e
ç İ
ic h
Ġ =
* *
ä¸ į
å ±
å ĩ
Ġ k
Ġ im
Ġu s
o st
Ġ 3
el l
Ġ en
t her
i z
id e
æ³ ķ
Ġw ill
è ĥ
a k
i p
Â ł
æ ł
a ct
Ġthe ir
Ġd o
æ Ĭ
d u
Ġal l
Ġw he
ä» ¥
Ġm e
ul t
å ·
r u
å ¸
Ġthe y
c l
ab le
Ġyou r
ç Ĳ
as t
at ed
å ½
e ar
an s
a re
åı ĳ
as s
in d
T he
am e
an ce
è ¦
çĶ Ł
ac k
o k
or m
c c
Ġ U
è¦ ģ
å¯ ¹
çĶ ¨
Ġg o
è¡ Į
i b
Ġa d
Ġc l
çĲ Ĩ
æ ŀ
Ġcom p
é Ļ
il d
Ġb ut
Ġ j
ve l
Ġre s
æ °
Ċ Ġ
ä¸ ļ
ou s
è µ
äº Ĩ
a p
on g
ä ¿
ç ī
ĠI n
å Ł
Ġin t
ation s
0 1
Ġh is
r y
ct ion
Ġwh ich
ç Ń
ar y
on e
ic e
a ke
æ µ
é Ŀ
èĥ ½
p ort
æ Ń
Ġcon t
ĠT h
æ İ
Ġ -
Ġh as
é Ĺ
æĢ §
Ġo ut
a ch
re n
ent s
u al
Ġt e
å¤ §
ig n
u b
å® ļ
.... ....
Ġm ore
ĠĠĠĠ Ġ
åĮ ĸ
Ġs o
Ġm an
at er
äº İ
i a
im e
u e
å® ŀ
en ce
Ġd is
ä¸ İ
æĪ Ĳ
Ġo ther
a ce
æĸ ¹
a v
b er
ä½ ľ
ç º
f e
e p
Ġ 4
ä½ ĵ
Ġon e
a u
) .
ĠS t
o se
ä¼ ļ
Ġu p
åĪ Ĩ
è ĩ
å ¿
Ġwe re
ou nt
é ¢
Ġ 0
s o
Ġa pp
c on
Ġ $
ç ¨
as e
Ġ âĢ
or d
Ġab out
Ġ K
ver y
Ċ Ċ
i re
o ok
it ion
e w
ä¸ ª
ĠĠĠĠĠĠĠĠĠĠĠĠĠĠĠĠ ĠĠĠĠĠĠĠĠĠĠĠĠĠĠĠĠ
res s
Ġ her
Ġp er
æ Į
f orm
k s
Ġu n
Ġwh o
i ke
Ġs p
in t
åı ¯
l l
it e
Ġ V
__ __
Ġ if
Ġp art
i le
Ġ1 9
åĪ ¶
Ġ qu
Ġthe m
n ow
Ġst ud
an g
åĬ ¨
) ,
Ġ 5
-------- --------
æĹ ¶
å İ
ä ¾
x t
o ol
Ġe v
ä¸ »
äº §
ç» ı
en s
Ġa r
çİ °
ĠC h
Ġh ad
ä¸ Ĭ
c es
åľ °
Ġp e
nd er
é ĥ
o od
è¿ Ľ
l ow
j ect
a il
re at
r ic
åĩ º
re e
åĲ Ī
ing s
or y
Ġs c
Ġcom m
Ġ {
ç ®
er v
Ġm y
è ¾
åĲ Į
Ġal so
or s
ĠI t
Ġthe re
Ġs ome
ç «
å¹ ´
åħ ³
Ġa g
is h
Ġ Y
è¿ Ļ
Ġwor k
æľ ¬
ç ¤
æ ı
ç ³
Ċ ĠĠĠĠĠĠĠĠ
ra m
Ġwhe n
Ġt ime
Ġw ould
çŃ ī
å ĳ
æ į
åħ ¶
n ing
å± ķ
p le
åĬ Ľ
ay s
op le
pe c
Ġbe c
ç³ »
Ġs a
åº Ķ
Ġo ur
Ġl ike
ou nd
Ċ ĠĠĠĠĠĠĠ
æ ²
å· ¥
Ġbe en
Ġ *
c k
Ġp re
al ly
Ġo ver
ou gh
Ġan y
l ic
o ve
Ġint o
ĉ ĉ
è¿ ĩ
Ġh ow
æķ Ļ
it ies
èĢ Į
Ġth an
Ġy ear
Ġ âĢľ
æ ±
Ġ ro
æķ °
p h
cl ud
è Ĥ
Ġt ra
Ġk now
Ġu nder
ç¨ ĭ
ä¹ ĭ
Ġwh at
o b
æĸ ĩ
ç ½
æĶ ¿
o v
åº ¦
re nt
w e
in k
ment s
Ġpe ople
on s
e f
å »
ur n
Ġ 6
æ Ħ
rou gh
ar k
æ° ĳ
é «
éĩ į
Ġne ed
ĠTh is
Ġa ct
Ġin d
le ct
æ ĭ
y s
ro w
èµ Ħ
y st
æĿ ¥
æĸ °
é« ĺ
if ic
Ġd es
he d
èĢ ħ
Ġe m
Ġre c
Ġu se
i an
å ĵ
Ġne w
: :
vel op
ĠH e
åĪ °
Ġd if
à ¤
ch ool
r it
' t
2 0
ver s
Ġm ay
g et
èĩ ª
æ ĥ
au se
Ġcon s
¦ Ĥ
Ġb et
ç ©
å Ģ
Ġa cc
at h
ter n
æı Ĳ
at es
I n
ç ¬
Ġg et
åŁ º
Ġs he
ir st
ol d
Ġit s
Ġn o
ç ł
Ġ '
rou nd
ol og
yst em
) ;
c ess
n e
Ġ &
åıĳ å±ķ
i ous
Ġt r
éĿ ¢
at a
Ġf e
å» º
Ġof f
ĠĠĠĠ ĠĠ
Ġthe se
ï¼ ī
å ¢
Ġas s
æī Ģ
Ġch ild
f t
å® ¶
Ġt w
is s
Ġre l
è§ Ħ
ow n
åħ ¬
æľ º
è ½
Ġ .
ï¼ Ī
ĠR e
et h
åħ ¨
ç¤ ¾
éĢ ļ
Ġpro v
çĽ ¸
Ġin clud
ç ¡
åĬ ¡
Ġa m
c re
1 9
Ġ ra
se l
çī ©
Ġ [
ç§ į
å ī
at ive
Ġb l
Ġ 8
p s
æ ´
è® ¾
Ġc ol
/ /
l es
å¤ ļ
Ġ 7
æ ¯
er t
ri b
è °
er m
ation al
ra ct
æĿ ĥ
ç Ł
æį ®
1 0
Ġhe l
Ġj ust
Ġth rough
at ing
äº ĭ
Ġon ly
é ģ
ä» £
ĠW h
Ġim p
éĥ ¨
Ġsu ch
ä¸ ĭ
il ity
Ġp o
åĨ ħ
Ġsh ould
f ter
i ed
é ĺ
éĩ ı
åı Ĭ
# #
ic s
. ,
is e
t y
f ul
Ġde velop
ic k
åĽ ł
en er
n g
w n
Ġ2 01
c ed
an ge
oc k
Ġe ff
on t
m er
åĪ ©
ï¼ ļ
ç» Ł
å¼ ı
ä¹ Ł
è ģ
Ġc ould
Ġs pec
ot h
å ¦Ĥ
åĲ İ
å ¥
s s
Ġh im
Ġm ost
Ġo b
Ġex p
ect ion
Ġb u
Ġus ed
al th
Ġsu pp
é ¡
æĪ ĳ
i ent
on d
Ġpro du
éĹ ´
Ġp h
o y
ç¤¾ ä¼ļ
Ġwhe re
Ġ <
Ġad d
æĪ ĸ
Ġf irst
ç® ¡
os s
al s
Ġat t
........ ........
è® ¡
Ġre g
if e
Ġdif fe
ãĢ Ĭ
Ġ 9
he n
ãĢ ĭ
ç¬ ¬
Ġin v
æ Ľ
Ġm ake
Ġtw o
at ure
b le
c om
Ġf l
Ġthe n
00 0
ĠP ro
c y
Ġle ar
E R
æ ¬
ä¿ Ŀ
f ore
ä» İ
ä¹ ī
âĢ Ķ
ç Ĥ
ce pt
å½ ĵ
r ing
ie w
è ·
Ġc o
ad e
ib le
= =
ul ar
Ġsu b
it t
Ġw ell
Ġ end
ç» ĵ
Ġa c
çł Ķ
é ļ
Ġb ack
e x
å° ±
Ġs chool
as ed
Ġp ers
it s
ur ing
l ed
iz e
Ġcl ass
Ġman y
ä¿ ¡
æľ ¯
åĬ ł
Ġhel p
å¼ Ģ
a w
. "
Ġin st
è§ £
æµ İ
il y
ow er
æĬ Ģ
ĠW e
id ent
å¹ ¶
é¢ ĺ
Ġp r
ç ķ
Ġs m
ä½ ¿
Ġre m
æŀ Ħ
å½ ¢
æł ĩ
æĦ ı
å ģ
a x
æľ Ł
u ch
æĺ İ
ç ľ
ĠC om
u c
Ġv al
Ġse e
Ġs ystem
g an
i ence
ç»ı æµİ
Ġsa id
çī ¹
ar ch
ĠâĢ ĵ
u p
s p
Ġbec ause
ĠU n
g ram
è® º
çĽ ®
m s
å¾ Ĺ
Ġin ter
ç« ĭ
ç© ¶
Ġ \
é ľ
è ¶
ç ±
Ġ1 0
Ġf ol
çĶ ±
Ġyear s
ur al
Ġ ke
è¡ ¨
1 2
= "
or k
ic t
he s
we en
Ġ ed
Ġe very
d e
i et
ak ing
Ġ2 0
ic es
ç§ ĳ
æ Ł
å¸ Ĥ
Ġtr ans
ç ´
é ķ
åħ ¥
è´ ¨
Ġp ol
t en
Ġs et
Ġw ay
ĠĠĠĠĠĠĠĠĠĠĠĠĠĠĠĠ ĠĠĠĠĠĠĠĠ
æ Ļ
Ġt y
Ġ }
Ġre t
ä¸ ī
Ġin form
Ġd id
ut ion
Ġw ater
od e
Ġstud ents
T h
h ip
å¤ ĸ
t t
I N
Ġn um
Ġl ook
å¹ ³
Ġ2 00
çĤ ¹
ĊĠĠĠĠĠĠĠĠ ĠĠĠ
Ġre ad
____ ____
ch n
Ġim port
åĮ º
ä» ¬
æ ģ
Ġp res
st and
t s
Ġres p
æ ¸
åħ ·
Ġbet ween
èĤ ²
Ġ1 8
O N
ant s
Ġcomm un
ï¼ Ľ
ru ct
5 0
Ġ very
Ġex per
ub lic
æŃ ¤
ä» ĸ
Ġc ount
Ġev en
Ġgo od
æ± Ĥ
ç Ħ
Ġre qu
åī į
æ º
çłĶ ç©¶
åı ĺ
ot her
Ġh igh
S t
éĹ ®
Ġe ach
å Ŀ
Ġl ong
ar g
u es
Ġdiffe rent
æķ Ī
i el
w ard
åŃ Ĳ
Ġs ur
Ġbe ing
n ess
Ġg ra
Ġa fter
l and
Ġr ight
at her
ä» ·
Ċ ĠĠĠĠĠ
ĠA n
Ġs erv
Ġm od
Ġl oc
Ġo wn
Ġchild ren
e c
sel f
æ² »
i x
ç» Ħ
è® ¤
é Ľ
è ī
iv es
i o
< /
å ŀ
Ġdo es
ä» ¶
Ġ ent
in es
å° Ĩ
æľ Ģ
t ing
äº Į
è¯ Ĩ
d s
E S
it ed
Ġde f
Ġfol low
Ġex am
ä½ į
éľ Ģ
u nd
ä¸Ń åĽ½
s c
er g
å¼ º
ç± »
ä¼ ģ
Ġth ose
ure s
1 1
Ġv ar
æ ¡
ç ¾
åİ Ł
æ ¶
e ver
å¿ ĥ
Ġc re
v ent
Ġm uch
ĠA s
Ġs ign
åı¯ ä»¥
åĲ ĳ
Ġfor m
Ġd et
Ġpro cess
Ġdis c
Ġth ink
ĠH ow
çĦ ¶
in s
Ġw ant
Ġpers on
Ġs oc
Ġwor ld
Ġd own
ç Ŀ
ul l
æ´ »
ual ly
è¿Ľ è¡Į
Ġs k
ĠI f
Ġbe fore
Ġc all
Ġc ar
Ġin f
åħ ±
Ġag ain
Ċ ĊĠĠĠ
Ġe ar
Ġm ade
æĽ ´
Ġd ata
v ed
åĲ Ħ
Ġh and
æĮ ĩ
a ir
æº Ĳ
ä¼ģ ä¸ļ
Ġc ur
Ġl ife
æĿ ¡
ar m
Ġhe alth
Ġde c
ĠThe y
Ġn ow
Ġpro gram
ir on
Ġd ist
ç ¼
A R
Ġs im
ag es
olog y
Ġpart ic
Ġres ult
æŃ £
od y
åĪ Ľ
å¯ ¼
çŁ ¥
éĹ® é¢ĺ
Ġcomp le
æĥ ħ
è° ĥ
Ġg ener
Ġeff ect
Ġg u
è¯ ģ
åĵ ģ
éķ ¿
éĩ ĳ
al e
ä¸Ģ ä¸ª
2 01
åĪ Ļ
v ing
Ġe l
Ġl ess
Ġpl ay
Ġinform ation
Ġm in
åľ º
Ġf am
Ċ ĉĉ
ç¡ ®
Ġin te
çĶ µ
a h
Ġst r
ĠY ou
a ve
æŀ ľ
re st
rou p
Ġd on
as h
æ ¨
æĢ Ŀ
ç®¡ çĲĨ
ĠS e
( )
an y
æĬĢ æľ¯
âĢ ¦
æĹ ł
åŀ ĭ
Ġs ame
re ad
- |
Ġapp ro
al ity
g g
Ġsupp ort
Ġex t
Ġc he
é ª
v en
w ay
or n
ĠD e
ut e
in ess
æĶ ¹
c ent
ä» »
Ġf ind
i vers
Ġpo int
è ¢
i er
Ġle vel
ent ial
A T
Ġin cre
Ġst art
b e
Ġre p
ĠA l
ä½ Ĩ
d ay
Ġex pl
ical ly
1 8
ut h
al k
iz ed
Ġm on
è§ Ĥ
æķĻ èĤ²
im es
é ħ
is m
y m
ver n
Ġsh ow
Ġunder stand
t he
åŃ ĺ
ĠA nd
Ġt ake
Ġte chn
Ġf un
ä¼ ł
Ġf act
Ġb oth
äº Ľ
3 0
.. .
v iron
ĠĠĠĠĠĠĠĠ Ġ
Ġm em
Ġm ed
Ġd ay
ire ct
å §
Ġwh ile
us s
are nt
in ed
er n
åĨ ³
ou se
Ġf ound
æĮ ģ
Ġo p
Ġus ing
æ¨ ¡
åĽ½ å®¶
en g
Ġth ough
å¾ ĭ
è Ĳ
å¢ ŀ
W h
1 6
pt ion
ĠF or
" ,
2 2
Ġ /
æ ®
Ġh um
d er
v es
te xt
æ° ´
å ķ
å° ı
Ġde p
Ġprov id
E N
äº ¤
Ġre f
s h
Ġimport ant
an c
ar ge
åĳ ĺ
t on
Ġst ate
1 7
çİ ¯
Ġa v
Ġf in
å¤ Ħ
è¢ «
an k
in ce
o x
æµ ģ
1 5
ist s
é £
R O
æ¯ Ķ
i en
Ġm ain
éĥ ½
v iew
åŃ¦ çĶŁ
Ġre se
Ġ +
ĠA r
ect ed
Ġs om
Ġd uring
p r
Ġle ad
A L
âĢ ĵ
mer ic
æİ ¥
Ġg l
' ,
ĠC on
ĠN ew
ĠE x
æĶ ¶
åı ¸
Ġed uc
æģ ¯
Ġpl an
ĠS c
Ġ #
ç ¥
Ġpro ble
åĢ ¼
Ġar t
viron ment
our ce
Ġc le
éĢ ł
o h
Ġcon st
w w
ç½ ĳ
Ġm ust
éĢļ è¿ĩ
Ġdes ign
Ċ ĉ
ro l
Ġbu ild
ĠĠĠĠĠĠĠĠ ĠĠĠ
Ġt est
Ġqu est
è Ĭ
å¢ ĥ
èµ ·
Ġc ent
a red
Ġnum ber
Ġbe l
åĩ Ĩ
---------------- ----------------
ak es
è¯ ´
Ġs ol
Ġa round
æķ° æį®
ĠI nd
at ch
åĨ ľ
iv id
é Ķ
ä¾ Ľ
æ ·
i k
l ine
è¿ Ĳ
n er
Ġv is
. âĢĿ
ĠWh at
i qu
Ġpro ject
åķ Ĩ
Ġb us
t o
1 3
å¸ ¸
p ar
el f
S I
ä¹ ł
i red
ro du
Ġ1 2
æ¡ Ī
ç ĸ
O R
Ġst ill
æĢ ģ
ĠB ut
ter s
Ġact iv
Ġre al
è½ ¬
ĠA d
1 4
çĿ Ģ
p ut
åį ģ
u g
æĹ ¥
åį ķ
ç ²
ion al
éģ ĵ
è¯ ¾
Ġor gan
Ġsm all
Ġp ublic
åı Ĺ
Ġc are
iel d
Ġret urn
æİ ¨
ĠG od
if y
æĸ ½
è¿ ĺ
ĠA meric
Ġfe el
æľ į
as es
Ġlear n
ç³» ç»Ł
Ġg row
Ġc a
et s
Ġg reat
ou n
r ist
Ġpl ace
åĮ ħ
Ġp oss
Ġc our
Ġp ur
b ers
Ġs ay
2 5
Ġth ree
Ġl and
id er
Ġ1 6
v al
Ġp ower
Ġ Q
åı ĸ
è Į
en se
Ġpro t
our ces
p os
ĠS he
çİ ĩ
å® ī
con d
ĠThe re
s w
Ġe qu
ren ce
èģ Ķ
Ġin s
" >
ç Ļ
ç Ĺ
in ing
er r
ç Ĭ
Ġcon f
Ġcont in
Ġdevelop ment
ac her
m an
éĻ ¢
é ĵ
ro ss
Ġprodu ct
å·¥ ä½ľ
e e
Ġs l
éĻ ħ
ate g
as on
Ġw rit
ĠS h
Ġf ood
re t
ä¸ ĵ
åı į
d x
ang u
Ġh ome
ar s
é¡ ¹
Ġle t
Ġp ract
ĠC l
Ġc or
Ġs er
ĠR es
Ġall ow
re m
Ġp at
S T
ater ial
w ays
ill s
Ġbe h
Ġstud y
ç´ ł
Ġn ame
it al
r al
Ġp os
itt le
ĠP l
ä¸ ¤
eth od
Ġ1 5
ä¿¡ æģ¯
æ¬ ¡
Ġst and
Ġch ar
è Ī
Ġ est
cc ess
l ish
ä¸ ĸ
a j
R e
d ition
Ġimp ro
Ġp op
Ġinclud ing
Ġre port
2 00
åŁ Ł
çŃ ĸ
a z
ĠI s
åı ²
ä¸» è¦ģ
Ġhe re
im ate
Ġb ook
æķ ´
Ġth ings
éĽ Ĩ
è ±
èĢ ĥ
p ro
å½ ±
Ġwith out
r on
iet y
è§Ħ å®ļ
Ġpro f
is hed
at or
Ġo ld
I t
4 0
con om
b s
Ġ ide
Ġ 00
iv en
a pp
n ot
l ess
Ġ i
ĠE ng
Ġad v
æĶ ¯
çº §
å® ¹
éª Į
ç® Ĺ
Ġha pp
è¾ ĥ
c ol
Ġm ark
ab ility
Ġinte rest
iz ation
è ĭ
Ġf ew
Ġp ass
ĠâĢ ¢
Ġp ri
Ġe t
Ġwith in
t ain
æĸ¹ éĿ¢
Ġexam ple
Ġo pp
vern ment
å¿ ħ
ul ation
Ġm ight
A N
am p
Ġ1 7
is ion
it ive
å¥ ½
éĩį è¦ģ
er ing
Ġen g
ç¾ İ
pl es
ivers ity
erg y
Ġo cc
ĊĠĠĠĠĠĠĠĠ ĠĠĠĠĠĠĠ
ou th
å Ļ
Ġto o
eth ing
Ġa ff
iv ing
Ġlear ning
m in
çĽ Ĭ
am es
æĸĩ åĮĸ
è ŀ
ĠT e
ie ve
Ġre du
o ad
å® Į
çķ Į
t ed
Ġh ist
ivid ual
Ċ ĊĠ
Ġpres ent
Ġis s
Ġb ody
Ġ ident
éĿ ŀ
, "
æŃ ¥
č Ċ
r ation
è £
if ied
å¸Ĥ åľº
Ġgo ing
å® ĥ
æł ¼
è¿ĩ ç¨ĭ
er y
it ions
Ġm at
Ġsoc ial
Ġb est
åħ³ ç³»
åĪ «
Ġm et
ä¾ ĭ
æł ·
Ġd i
ç ¦
r id
Ġd em
æĪ ĺ
== ==
age ment
èĮ ĥ
Ġan other
Ġbet ter
i or
Ġ :
ĠCom m
ri es
Ġ **
åĵ į
æĥ ³
: //
act er
è± ¡
Ġan al
Ġl ast
g in
ri end
æľį åĬ¡
æĢ »
Ġre st
Ġare a
Ġl ittle
é¢ Ĩ
èŀ į
w are
Ġb as
è¾ ¾
ard s
å· ²
åĽ ¾
Ġl ist
åħ ĥ
ĠĠĠĠĠĠĠĠ ĠĠ
in al
è´ £
Ġch ange
Ġbus iness
el s
] ,
åº ľ
c ri
Ġe lect
I D
at ic
Ġhe ad
) )
è¯ Ħ
ç¡ Ģ
æł ¹
éĿ ©
ĠCh rist
è¡Į ä¸º
åŁº ç¡Ģ
Th is
è® ®
èĥ½ åĬĽ
Ġof ten
éľĢ è¦ģ
ĠS p
in c
ra ph
Ġe as
Ġs pe
Ġsom ething
o int
Ġas k
Ġb en
è į
Ġ19 9
Ġrese arch
Ġ _
è¯ ¥
Ġr un
angu age
Ġb o
Ġp ar
ä¸į åĲĮ
Ġ !
o id
åĻ ¨
Ġhum an
Ġinclud e
æ³ķ å¾ĭ
Ġl arge
Ġin c
Ġw om
è Ļ
Ġd irect
iss ion
ä¸» ä¹ī
Ġm aterial
åħ Ī
Ġch ang
æĬ ¤
Ġu nt
Ġop en
ĠC o
he re
Ġprov ide
Ġc ap
T O
Ġt erm
åŁ İ
ain s
Ġind ividual
åħ· æľī
å»º è®¾
Ġen vironment
å¼ ķ
åį ³
ro p
l ing
................ ................
e k
èĬ Ĥ
æĸ Ń
Ġre ally
l i
Ġ Z
ot e
Ġo per
ra y
Ġg re
Ġloc al
Ġm ov
æ® µ
he m
åĪ¶ åº¦
p x
ä¹ ¦
Ġto p
Ġty p
Ġb re
w ork
Ġinv ol
ĠThe se
en cy
åĽ Ľ
Ġke ep
Ġty pe
2 3
æµ ĭ
Ġg roup
ĠĠĠĠĠĠĠĠĠĠĠĠĠĠĠĠ ĠĠĠ
Ġpro per
Ġfollow ing
A n
Ġ1 4
ert ain
Ġs it
åŃ Ĺ
Ġc ult
åİ Ĩ
Ġ ve
Ġfam ily
ĠE n
Ġcom e
çº ¿
oc us
æŀ Ĳ
å± Ĥ
- >
Ġp ot
çİ¯ å¢ĥ
Ġme an
ĠL e
6 0
th ing
å½± åĵį
Ġper form
æĸ¹ æ³ķ
2 1
pl oy
æĶ ¾
i um
Ġr is
èģ Į
m ed
è º
æİ §
ä¸Ń çļĦ
i od
y pe
å¤ į
éĹ ¨
ä¾ Ŀ
Ġl ight
Ġs elf
oc i
o f
n ew
o ot
in ation
Ġ1 3
å¸ Ī
led ge
R E
äºº æ°ĳ
Ġa ir
ç» ĩ
** **
æĶ¿ åºľ
Ġp ut
Ġf ore
ent ion
-- -|
å®ŀ çİ°
è· ¯
Ġcommun ity
Ġh ard
åħ¬ åı¸
Ġ --
Ġt ru
çº ¦
åŃ¦ ä¹ł
o ver
è¯ Ń
Ġte acher
çĶŁ äº§
Ġcur rent
æĺ ĵ
ot t
C on
Ġf il
re am
Ġagain st
ĠP h
Ġle g
at s
I T
b y
Ġne ver
2 4
ä¼ ĺ
èº «
è Ħ
uth or
Ġm us
å £
8 0
Ġab le
Ġl aw
( "
Ġc ase
é£ İ
åħ »
Ġp arent
ri ed
é ©
ort un
æķĻ åŃ¦
ĠC ol
ial ly
æľ Ī
e red
Ġ >
at ural
cl us
ĠT o
æľ ª
Ġc reat
L E
æĪĳ åĽ½
æĦ Ł
Ġ Ø
ĠS o
ad d
ĠO n
èĩ ³
å® ¡
r ans
å¤ ©
ç»Ħ ç»ĩ
y n
ä½ İ
or g
ç» ´
Ġme as
Ġm ar
Ġt ry
Ġ es
Ġval ue
em ber
åº ı
æĪĳ ä»¬
C h
é Ĥ
èī ²
is ed
W e
éĻ ©
Ġe le
Ġcomm on
Ġse em
åı £
E x
à ¥
Ġse cond
ĠB e
åĬ Ł
Ġcall ed
Ġor der
èĲ ¥
Ġav ail
n ame
Ġd el
éĢ Ĥ
Ġother s
er c
ar get
ĠĠĠĠĠĠĠĠ ĠĠĠĠ
ĠA ll
Ġal ways
le y
Ġre ce
éĻ Ĳ
Ġm ethod
u se
Ġe conom
Ġacc ess
å ĸ
an n
Ġf ac
åį ı
É Ļ
ç¤ º
ĠW hen
in a
æ³ ¨
Ġt urn
è´ ¢
åĪĨ æŀĲ
om m
Ġl ot
Ġs ince
æĬ ķ
ĠI m
çĲĨ è®º
Ġt em
Ġb ro
åı Ĥ
Ġc ost
çĽ ĳ
èµĦ æºĲ
è ¥
æī į
äº Ĵ
ç¥ ŀ
é ¦
Ġ z
r ight
æ· ±
ä½¿ çĶ¨
Ġpro m
æī ¿
æıĲ ä¾Ľ
éĢ ī
äº ī
æł ¸
åĨ µ
Ġse ver
ra w
aj or
at t
r s
I C
è§ Ĩ
c le
Ġ1 1
Ġm aking
æŁ ¥
f or
l u
çĽ ´
Ġen ergy
Ġch o
åŁº æľ¬
åĬ ³
Ġob ject
è¦ģ æ±Ĥ
è¥ ¿
ä½ľ çĶ¨
åı ª
Ġne xt
ur y
Ġcont rol
Ġare as
A S
éħ į
åĪ Ĵ
åĲ į
iv ed
å¤ ĩ
Ġcre ate
ĠB y
us h
ä½ľ ä¸º
çľ ĭ
æĸ¹ å¼ı
Ġeduc ation
or ies
Ġben ef
or th
g er
Ġp ost
Ġme ans
æĬ ¥
Ġcon n
å° ĳ
Ġph ys
Ġt reat
Ġ3 0
s et
Ġgo vernment
éĩ ĩ
Ġs w
èĩ ´
å¿ µ
é Ĵ
Ġc al
Ġneed s
Ġwh y
ab ly
æ £
ĠN o
6 4
end ed
ent ly
an ces
s on
ä»¥ åıĬ
ĠâĢ ĺ
3 3
Ġsign ific
ç© º
one y
ãĢ Ģ
ç ħ
il ities
Âł Âł
Ġme et
as ter
åĪĽ æĸ°
ç² ¾
it er
res ent
Ġg iven
Ġsu ccess
æĭ ¬
æī ĭ
Ġc r
oh n
æĹ ı
è ¨
Ġm ove
Ġl im
âĢĿ ï¼Į
Ġst ruct
Ġb ased
è´ ¹
le t
au gh
ç§ĳ åŃ¦
ic le
Ġf riend
çŁ¥ è¯Ĩ
Ġinv est
æŀ ģ
è® °
ĠO r
i ver
ir d
Ġw r
ä½ ķ
' re
Ġte xt
æĬ Ĭ
Ġsever al
A C
æĿ ĳ
ust om
H e
our s
Ġbec ome
Ġn on
ent al
å¾ ·
Ġadd ition
Ġg r
Ġm en
ä¸Ģ ç§į
Ġg ive
ĠĠĠĠĠĠĠĠ ĠĠĠĠĠ
Ġmon th
Ġle ft
Ġavail able
p ect
i ans
æĺ ¾
Ġl anguage
æł ¡
âĢ¦ âĢ¦
le ase
ç¨ İ
Ġte am
ra in
ru ction
åŃĺ åľ¨
c rib
Ġde v
Ġimp act
Ġh ig
ut ure
7 0
çĹ ħ
åı¯ èĥ½
ĠA f
Ġexper ience
2 8
________ ________
Ġunt il
è¨ Ģ
è§ ģ
ç ģ
Wh at
Ġne ar
Ġcour se
Ġposs ible
Ġf ree
ç» Ĩ
Ġpartic ular
ä¸ ľ
Ġcons ider
æ »
it her
Ġl ow
Ġl ine
å¾ Ī
Ġw ar
æ² ¡
ç§ °
ur s
Ġ ess
Ġyou ng
olog ical
u ck
Ġfun ction
ach ing
ç»ĵ æŀĦ
Ġen s
e b
ra d
og n
2 6
ä½ĵ ç³»
op e
Ġstud ent
æĸ Ļ
Ġ //
ĠM ar
o le
ate ly
ç» Ń
Ġt imes
Ġa way
is c
Ġh ouse
E D
ç» Ļ
ä»· åĢ¼
ord ing
id ence
p or
end ing
ĠC ent
Ġknow ledge
Ġv iew
os ed
a ff
id d
Ġm ajor
Ġcle ar
Ġf our
Ġcount ry
ĠHow ever
Ġm il
è¿ °
Ã ©
g round
Ġapp lic
u ment
ç½ ®
ill ion
Ġf ocus
an e
Ġdisc uss
Ġ ::
é¢ Ħ
Ġk ind
Ġb ig
it or
ç» ľ
ra p
Ġ à¤
æ´» åĬ¨
å½¢ æĪĲ
åĨħ å®¹
Ġdif f
è İ
ro ll
å Ķ
Ġg ot
æ¸ ħ
9 9
Ġf ar
id es
åĮħ æĭ¬
un e
Ġcon c
Ġimpro ve
Ġserv ices
og raph
ap s
ist ance
' m
è®¾ è®¡
Ġ %
Ġm ult
Ġs ure
Ġproble m
U M
Z E
l er
ĠĠĠĠĠĠĠĠĠĠĠĠĠĠĠĠ Ġ
çĽ¸ åħ³
get her
Ġto gether
ur ther
Ġke y
er al
äºº çļĦ
a pt
Ġspec ific
ç ª
c ing
Ġpartic ip
Ġ2 5
Ġt re
A s
Ġchar acter
u ro
æµ ·
Ġsk ills
ĠM e
Ġg en
Ġresp ons
Ġe y
Ġa ch
id s
ç§ ¯
ic ation
åĬ ¿
å¾ ģ
å¸ ĥ
Ġ x
Ġ )
fe rence
Ġa ut
du ct
Ġquest ion
ĠTh at
Ġl ove
åĬ³ åĬ¨
P ro
Ġ= >
Ġs ide
Ġknow n
Ġpol ic
éĻ ¤
RO M
åºĶ çĶ¨
Ġsp ace
Ġ- >
Ġc ell
è· µ
ĠI nt
å¤ ±
Ġactiv ities
ç½ĳ ç»ľ
SI ZE
os p
Ġel se
ĠA t
æ¶ Ī
Ġind ust
ĠB l
åŁ ¹
ĠSt ud
Ġwork ing
Ġacc ount
æłĩ åĩĨ
w h
ra g
æ° Ķ
a pe
a per
v ious
Ġt ell
rib ut
ow s
è¯ ķ
Ġper iod
Ġc ertain
ĠC an
å¸ ¦
ure d
åĬ ©
, âĢĿ
åħ¶ ä»ĸ
Ġpot ential
Ġunderstand ing
ĠU S
Ġrel ations
a f
Ġin tern
Ġd ays
Ġc ir
ab or
Ġf ull
ä¸ Ķ
en n
åĲĮ æĹ¶
ag n
Ġha ving
ĠG o
Ġear ly
e ad
u le
ak en
Ġsh ort
Ġen ough
as k
u ation
ĠAmeric an
Ġh y
Ġv ol
ĠAf ric
ç½ ª
æ²¡ æľī
Ġ1 00
ive ly
Ġdet erm
) :
I S
åĪ ¤
çĬ ¶
A M
Ġp ay
Ġca us
äº Ķ
u ff
äº§ ä¸ļ
Ġen c
Ġsignific ant
Ġf uture
-- |
d d
2 9
Ġd ri
ĠĠĠĠĠĠĠĠ ĠĠĠĠĠĠ
è¿ ĳ
s ide
å± Ģ
ord er
if t
ĠM an
am ple
2 7
éĥ¨ åĪĨ
ç ĥ
Ġc rit
éĢ Ł
om s
Ġn atural
åħ ļ
ur ch
b o
. )
åģ ļ
ress ion
Ġa ge
ĠĠĠĠĠĠĠĠĠĠĠĠĠĠĠĠ ĠĠĠĠĠĠĠ
Ġrequ ire
ore d
iqu e
å®ŀ è·µ
æĪĸ èĢħ
æĶ¿ çŃĸ
å°± æĺ¯
åı Ī
or ld
å®ī åħ¨
a ut
at ors
Ġ @
ol l
a ult
ric t
Ġc ame
il ar
I f
4 5
æıĲ é«ĺ
åİĨ åı²
Ġs ing
å¹ ¿
ward s
sw er
E T
um p
il s
Ġd one
Ġf low
åĳ ½
ä¹ĭ éĹ´
ic ult
Ġar g
b ack
æĥħ åĨµ
åį ĩ
Ġbeh av
Ġ ,
Ġne cess
Ġmark et
E C
åĳ Ĭ
åĽł æŃ¤
## ##
Ġcont ent
ar ing
å§ ĭ
Ġwom en
ä» ħ
Ċ ĠĠ
Ġst ep
Ġal ong
Ġab ove
I ON
æŁ Ĳ
ot s
Ġspec ies
æ¬ ¾
Ġcon d
ĠA ss
f ace
Ġopp ortun
ys is
Ġvar ious
Ġm ind
Ġa uthor
u nt
Ġth ing
è¿Ļ äºĽ
b l
ĠSt ate
Ġle ast
um m
ĠS chool
art ment
Ġwor ds
Ġm oney
le ction
Ġst ory
éĺ ¶
æ Ĥ
ç ĭ
Ġ2 4
çĽ® æłĩ
Ġam ong
ĠF r
Ġem ploy
æł¹ æį®
å± ŀ
çķ ¥
6 6
Ġs ays
åħ ī
T o
Ù Ħ
Ġch all
it ing
c ul
Ġspec ial
Ġf re
Ġre ason
æıĲ åĩº
æĶ¹ éĿ©
Ġwor ks
ib ility
Ġrec ord
Ġqu ality
Ġp ain
Ġor ig
Ġcomple te
et er
åľ Ł
Ġ X
Ġd ue
al f
ĠĠĠĠĠĠĠĠ ĠĠĠĠĠĠĠ
Ġcomp ut
on se
du c
åĸ Ħ
ain ed
B SIZE
Ġprof ess
Ġp ast
ĠC O
åĽ ŀ
ã ģ
rodu ction
ç ¢
ĠUn iversity
l ished
ĠJ ohn
ple ment
Ġto ol
i pp
sel ves
Ġf und
Ġproble ms
Ġsub ject
Ġhist ory
3 5
Ġtru e
çľ Ł
read y
è´£ ä»»
çħ §
ĠA m
ob al
ĠC al
Ġris k
9 0
Ġmem bers
Ġpol it
f er
Ġthough t
Ġd r
" )
A P
Ġj ob
åĢ º
Ġsystem s
Ġam ount
Ġex ist
æ£ Ģ
Ġserv ice
Ġdis e
ä¹ Ī
è¯ ī
ip s
un ction
Ġan im
Ġh old
clus ion
Ġt alk
F ROM
Y ou
tt p
m ost
st r
Ġs ym
ĠA pp
Ġstr ong
éļ ¾
ig ure
ver age
Ġac ross
rou ps
å® ³
åĿ ĩ
s erv
Ġup on
ab les
c ur
å¯¹ äºİ
Ġf r
åĽ ´
Ġ err
Ġadd ress
y le
Ġl ater
åĪ Ĺ
Ġresult s
ific ation
S ection
ĠM ay
al es
å· ®
åĮ Ĺ
åı ·
á ĥ
åĨ į
Ġo pt
h old
æĮ ī
åİ »
å»º ç«ĭ
7 5
è¶ Ĭ
è¡Į æĶ¿
è®¤ ä¸º
æ ¦Ĥ
on es
æī §
Ġrep resent
L L
i ation
æĢĿ æĥ³
pl ay
é¡ »
ä¿Ŀ æĬ¤
Ġhe art
h ing
æĪĲ ä¸º
ĠUn ited
Ġcon cept
Ġto t
O T
el t
is on
Ġres ources
con t
Ġdid n
as ing
ĠEng lish
il le
is ing
Ġstr ateg
éļ ı
b r
l s
Ġbuild ing
T ype
gg est
æ¯ ı
ĠW ith
æĻ º
Ġwe ek
ol ution
ac es
Ġass ess
Ġs ound
R es
e xt
âĢĿ ãĢĤ
u ed
åı °
ature s
Ġman agement
ĠĠĠĠĠĠĠĠĠĠĠĠĠĠĠĠ ĠĠ
Ġp ress
ĠĠĠĠĠĠĠĠĠĠĠĠĠĠĠĠĠĠĠĠĠĠĠĠĠĠĠĠĠĠĠĠ ĠĠĠĠĠĠĠĠĠĠĠĠĠĠĠĠĠĠĠĠĠĠĠĠĠĠĠĠĠĠĠĠ
Ġincre ase
3 2
âĢ ¢
ĠS ome
Ġro le
Ġbe gin
The re
ĠC ar
Ġal ready
ä¸ĸ çķĮ
s y
ie f
è¿Ļ ç§į
en ing
Ġt ri
åĲĪ åĲĮ
b t
ĠâĢ Ķ
Ġm akes
Ġquest ions
c hed
ff ic
Ġpl ant
it le
Ġf ield
Ġ5 0
Ġlevel s
g ress
m e
ĠS u
i res
ĠD o
Ġ â
Ġparent s
æĪ ·
Ġe ver
ud e
Ġread ing
he ad
re ct
Ġper cent
} {
ĠSt ates
g r
Ġan n
th ough
a im
le x
Ġg round
p ri
en e
éĩ Į
col or
ww w
Ġhig her
re f
Ġass oci
Ġpro b
è¶ ³
Ġs ize
åį Ĺ
Ġrelations hip
Ġdiff icult
Ġm ot
en ed
I I
è´ §
ä¿ ®
Ġtyp es
äº§ çĶŁ
Ġn et
ra nd
å¼ Ĥ
Ġw ind
c he
ç« ł
Ġp ub
åĨ Ľ
' ve
un g
äº§ åĵģ
éļ ľ
ç¦ »
Ġcomp any
o ber
è¯¾ ç¨ĭ
A r
im port
Ġ& &
Ġl a
um e
Ġto day
Ġg ame
å®ŀ æĸ½
ĠIn st
Ġl ive
Ġtechn ology
æĹ¶ éĹ´
å®ļ çļĦ
Ġan t
å· ±
Ġmod el
i ents
Ġse en
Ġt arget
H ow
Ġind ic
-------- ----
ĠP r
Ġdes crib
ĠD es
Ġrequ ired
c her
Ä ±
Ġst op
cri pt
è ĳ
Ġsu ggest
Ġb r
åĲ ¦
Ġchang es
m l
ĠN ational
Ġw alk
th is
ac y
Ġc ustom
) *
åĽ½ éĻħ
Ġdo ing
Ġcomple x
èİ ·
] .
æ Ĵ
iv ity
Ġs ent
Ġest ab
Ġapp ear
eng th
Ġwho le
act ion
n a
Ġche ck
Ġev ent
u ild
re g
Ġst at
is ter
Ġpre vent
ĠA g
çĶŁ æ´»
c o
il t
Ġess ential
Ġw ays
ç¾ ¤
Ġc ause
Ġg roups
e y
åĪ© çĶ¨
c er
ĠO ne
æİ§ åĪ¶
ĠI N
Ġ* /
åħ ħ
Ġcom b
éĺ ²
1 00
è® ©
ĠA ct
èĤ ¡
ĠE duc
å¤ Ł
Ġs at
Ġto ok
å¤Ħ çĲĨ
m ber
Ġr ange
ĠC ont
éĩĳ èŀį
ty pe
Ġd am
Ġon ce
sp an
IN G
Ġf ace
ar i
Ġcl ose
pec ially
ver t
Ġwhe ther
Ġpri v
åı ¤
Ġbl ood
Ġf urther
Ġdet ail
ä¸ĵ ä¸ļ
Ġwor d
Ġw ent
åıĳ çĶŁ
ĠD ep
Ġact ually
F or
é¦ ĸ
Ġperson al
ä¼ Ĺ
uro pe
our n
è¯ ·
i ol
8 5
æĿ Ĳ
æĭ ħ
f l
ĠE m
3 6
H E
çİ° ä»£
å¿ «
Ġlike ly
ä¿ ĥ
Ġproduct s
Ġiss ues
æķ° åŃĹ
åĩ ı
å¾ Ģ
ne y
: **
ä¸ ĩ
Ġe ither
æ ¿
Ġin it
Ġsh all
Ġph ot
C l
4 4
ight s
ist ic
Ġgener al
Ġsim ilar
ä¸ ¥
Ġso ft
æĿ¡ ä»¶
Ġim plement
ĠĠĠĠĠĠĠĠĠĠĠĠĠĠĠĠ ĠĠĠĠ
æľº æŀĦ
Ġre view
è®¡ ç®Ĺ
ic ro
op y
ip le
éĻ į
é¢Ĩ åŁŁ
è§£ åĨ³
ç» Ī
é Ł
A D
Ġsome one
Ġne g
Ġd oc
at ory
åĬ ŀ
Ġexper ien
åĬŁ èĥ½
ib r
å¿ħ é¡»
ag ed
a i
Ġb i
ĠG u
ess age
ad em
èĩª å·±
ret urn
Ġ4 0
æĬķ èµĦ
åĳ ¨
Ġde ath
Ġens ure
æİ ¢
p art
c ast
Ġtra ining
è´ Ł
æľº åĪ¶
åºĶ å½ĵ
ut es
Ġr ather
Ġneed ed
ç¬¬ ä¸Ģ
le v
O n
Ġcond itions
3 8
Ġt aken
lect ed
s er
à ²
ï¼ Ł
c hes
æĶ¿ æ²»
ill ed
ĠA b
Ġy et
ĠH is
p ose
çª ģ
Ġeff ort
o on
æ¿ Ģ
Ġb it
et y
å®ŀ éĻħ
éĤ £
EN T
æľī æķĪ
3 4
åħ ĭ
Ġoff ic
æĢ§ çļĦ
Ġn ature
é¡¹ çĽ®
Ġ ill
è´¨ éĩı
æ¨¡ å¼ı
ul es
å¯ Ł
æĸ ¯
tt ps
Ġcount ries
Ġf ail
Ġs ens
Ġless on
å Ħ
Ġwrit ing
Ġqu ick
Ø §
Ġide a
çĶ± äºİ
åį İ
C om
re l
m a
op h
ĠS oc
é£İ éĻ©
Ġab s
N D
6 5
æ°´ å¹³
em s
æį Ł
u f
in ter
ar r
Ġ `
çİ ĭ
å§ Ķ
ç Ī
Ġc e
g o
ĠE urope
n ers
Ġra d
Ġteacher s
3 7
em pt
Ġf all
I nt
æİ Ĵ
o or
æ ¼
C O
Ġbel ieve
Ġcons um
Ġ vers
ĠQ u
it ation
ä¸į èĥ½
Ġd ig
Ġs ource
å ²
ir t
Ġmaterial s
ra ft
Ġphys ical
d ef
' ll
Ġcan not
Ġprogram s
ir it
å¼ ł
Ġt ax
å½¢ å¼ı
Ġbe low
Ġschool s
N UM
é »
? "
éĥ¨ éĹ¨
Ġ Ù
ear ch
ĠCom p
Ġf ive
B ut
çĸ Ĺ
Ġgrow th
Ġpos ition
and s
ur b
è§ Ĵ
V al
Ġmus ic
end s
å¯ Ĩ
ĠS ystem
Ġprovid ed
Ġre pl
æ³ķ éĻ¢
Ġhow ever
éĩ Ĭ
Ġstart ed
a e
oc al
ren ces
Ġask ed
è¿Ļ ä¸Ģ
3 9
åĮ »
z e
t able
Ġdoes n
ut ions
ĠM y
Ġrec ogn
Ġbre ak
Ġinf lu
Ġ2 1
å¦Ĥ æŀľ
Ġc ut
åħ ´
Ġ id
å¸ ģ
èī º
ä¼ł ç»Ł
Ġcir c
Ġpr inc
N ame
Ġes pecially
Ġim m
Ġocc ur
Ġse x
ç¼ ĸ
åĪ Ŀ
è¶ ħ
av es
I L
çĭ ¬
Ġpr im
ĠĠĠĠĠĠĠĠĠĠĠĠĠĠĠĠ ĠĠĠĠĠ
Ġc ity
Ġn orm
ĠW ill
Ġet c
ĠC ount
Ġcon duct
A nd
Ġprot ect
Ġprodu ction
Ġm or
id th
å® ¢
Ġm om
ç® Ģ
åįķ ä½į
å¹ ²
äºº åĳĺ
Ġp ort
Ġpract ice
Ġm illion
Ġtot al
re en
Ġlook ing
Ġcol or
Ġd om
èĥ ŀ
Ġus ually
ly ing
å® ĺ
ä¸Ĭ çļĦ
çĲ ĥ
ãĢĤ âĢĿ
i ate
č ĊĠĠĠ
ĠM ed
iz ing
ä¹ ¡
Ġnecess ary
row n
Ċ ĠĠĠĠ
ĠN e
le ge
Ġsc ient
Ġs ite
Ġ Ð
ro om
A l
iss ions
ag ing
en c
al se
Ġcomp et
it es
Ġsing le
ĠT ra
ĠG e
é© ¬
ĠF l
Ġmain tain
==== ====
Ġro om
Ġpoint s
Ġget ting
ĠS outh
is es
Ġconc ern
æīĢ æľī
Ġfam il
min ist
c an
Ġa ction
U R
ore s
o ke
ĠM r
Ġanal ysis
6 7
Ġn ight
ol ic
j oy
åľ° åĮº
ĠIn tern
Ġpop ulation
ĠP er
itt ed
al t
åıĳå±ķ çļĦ
Ġsu per
Ġab ility
M P
an ced
Ġal most
èĩª çĦ¶
8 8
h ood
Ġs ense
Ġp red
es us
Ġ Â
æ°ĳ æĹı
P l
ç» ¼
åİŁ åĪĻ
ĠP e
Ġb ir
> <
Ġthem selves
å·¥ ç¨ĭ
Ġl iving
h t
Ġh ours
Ġbl ack
éľĢ æ±Ĥ
Ġb ring
Ġach ieve
ren g
çĬ ¯
Ġh alf
çľ ģ
Ġent ire
Ġn ational
[ _
m y
Ġ= =
b ject
è® ¸
æķ ħ
åĩ ł
æ ¢
.. /
ove red
å ĥ
et imes
Ġl ay
æĻ ¯
C H
y l
ĠHe alth
D E
ĠS ection
P Y
Ġan swer
Ġcle an
Ġto ld
ç¨ĭ åºı
Ġcol l
Ġprovid es
Ġt aking
Ġany thing
æķĻ å¸Ī
éĺ¶ æ®µ
Ġl arg
Ġl og
Ġb ar
åıĺ åĮĸ
Ġl ower
Ġl iter
çº ª
Ġappro ach
g en
æĻ ®
Ġde g
Ġrec omm
à¤ ¾
å± ±
Ġsc ience
Ġsa fe
ric ult
Ġw a
ä¸» ä½ĵ
ĠN ot
èĢ ģ
èµĦ æľ¬
re c
ç»Ĩ èĥŀ
è¡ ¥
W hen
is ions
Ċĉĉ ĉ
ç¼ º
ac ed
åħ· ä½ĵ
ce ll
æĪ ¿
9 5
ef ore
om es
åĪ ĩ
åĩº çİ°
Ġchall eng
èĪ ¬
ke y
ç»ĵ åĲĪ
çº ³
Ġ ri
on y
ain ing
ĠAfric a
her n
Ġpos itive
ed s
r c
Ġsh are
ist ics
Ġaff ect
ç¬¬ äºĮ
çļĦ åıĳå±ķ
ers on
le ment
( );
Ġl o
Ġeconom ic
Ġst aff
Ġeffect s
Ġfriend s
ep end
ict ion
Ġreg ard
åŁ¹ åħ»
ad a
Ġac cept
Ġob serv
ĠD r
ç¨ ³
åı ¦
ĠEduc ation
U n
Ġtem per
ĠE ar
cept ion
Ġrel ated
Ġp ath
Ġ ut
u el
Ġst e
Ġactiv ity
Ã ¼
Ġt able
7 2
op ic
cri ption
ott om
l ist
b ar
y p
ĠP art
U T
ve y
ç« ŀ
Ġtreat ment
é¢ Ŀ
åħ³ äºİ
Ġl ives
Ġd est
or ing
m ing
Ġ2 2
ĠĠĠĠĠĠĠĠĠĠĠĠĠĠĠĠĠĠĠĠĠĠĠĠ ĠĠĠ
ĠW orld
s l
è£ ģ
ç»ĵ æŀľ
um ber
ç§ »
ä»ĸ ä»¬
åĽ ¢
Ġval ues
Ġcom es
0 4
åĪ ĳ
ĠC ons
Ġb ad
ide red
æ ĵ
Ġredu ce
o ff
Ġen joy
ens ion
æī§ è¡Į
Ġwh ite
ourn al
ä¸Ģ äºĽ
an ks
f ig
æĭ ©
en ces
ĠT N
i am
Ġappro pri
Ġeffect ive
5 5
6 9
å¿ Ĺ
ver se
idd le
et ic
Ġhe av
Ġmonth s
anc ial
Ġ2 8
Ġre d
Ġperform ance
ĠS te
èĥ½ å¤Ł
Ġp ie
Ġpolic y
Ġdise ase
ud d
pl ic
Ġresp ect
Ġnot hing
Ġem ot
åģ ¿
ä¸Ģ èĪ¬
çļĦ æĺ¯
ĠM in
A t
Ġr ate
m b
èį ¯
d ate
Ġcons idered
re et
Ġterm s
åŁİ å¸Ĥ
Ġsu st
av ing
C T
im um
arg in
è¯Ħ ä»·
it ch
Ġsim ple
r r
Ġp ict
çł ´
Ġf ire
ĠRe g
Ġb ur
Ġvar i
ä» ĺ
Ġon line
çĻ ½
le ep
4 8
7 8
åħ± åĲĮ
Ġindust ry
Ġeng ine
ĠJ esus
Ġp ack
æī ¹
ç Į
ä¿ĥ è¿Ľ
Ċ ĠĠĠĠĠĠĠĠĠĠĠĠĠĠĠĠĠĠĠ
Ġp aper
å¼Ģ åıĳ
Ġbec ame
t d
ä¸į æĸŃ
ac c
Ġf arm
end er
ĠS erv
ac hed
Ġro ad
å Ĥ
A B
Ġmat ter
Ġdevelop ed
Ġcre ated
ĠJ u
åı Į
Ġtra vel
Ġde ep
Ġev ents
ab it
è¡ Ģ
ag er
Ġindividual s
Ġc amp
in ary
b ook
Ġrel ig
at ter
p ly
an a
he l
dition al
Ġg ir
Ġident ify
t op
n am
} \
å¯ Į
æ» ¡
S E
Ġey es
Ġbenef its
d om
ĠB o
sy ch
Ù Ĭ
ell ing
åĲ «
**** ****
im ent
B y
d iv
Ġev al
Ġsoc iety
ĠA fter
p y
éĵ ¶
åĨľ ä¸ļ
ov ed
Ġv ide
ful ly
Ġl ab
S h
Ġout side
Ġcont act
æĦı ä¹ī
Ġeff ic
Ġwr ite
l in
æł¸ å¿ĥ
Ġ2 3
it ution
ä¸į æĺ¯
um b
Ġbe gan
Ġpolit ical
ĠP ar
æľī åħ³
åģ ¥
åħ ¸
è¿ ŀ
Ġst reng
st ance
ru g
Ġstruct ure
Ġm ass
Ġprob ably
éĢī æĭ©
èĲ ½
Ġpart s
t est
at ives
è¾ ĵ
Ġcontin ue
ĠDe velop
ĊĊ ĠĠĠĠĠĠĠ
Ġn ut
Ġev idence
ç»ı èĲ¥
ĠH er
## #
Ġeas y
Ġde al
m od
n ed
ç§ĳ æĬĢ
ç»¼ åĲĪ
ä¸ ¾
ĠN orth
Ġfr ont
0 5
N A
è½ ¦
Ġ2 6
iel ds
port s
b ased
Ġco ver
R I
ç©º éĹ´
s u
Ġcomp an
Ġav oid
åĽł ç´ł
Ġ er
Ġcomp on
Ġpl ants
ç²¾ ç¥ŀ
å¢ŀ åĬł
èĳ Ĺ
åĦ ¿
Ġto wards
æī ©
Ġhand s
Ġcomput er
Ġa ud
Ġf ile
ct ions
æĪĲ æľ¬
Ġbu y
åĨ Ļ
åį ł
Ġcl aim
ç´ ¢
æ ħ
Ġinclud es
Ġfact ors
m en
Ġc ou
åĿ ļ
ig ation
9 8
åĲĪ ä½ľ
Ð ¾
Ġenc ou
å ł
se qu
çĽ´ æİ¥
è¿ Ŀ
çĻ ¾
Ġc y
èĮĥ åĽ´
id ed
Ġwe bs
C ont
åıĳ çİ°
Ġw ide
s a
Ġpre vious
åľ° æĸ¹
ĠP res
Ġresp onse
Ġ2 7
Ġright s
ĠY ork
m d
å£ «
t ime
ĠM c
Ġte aching
ä¾ ¿
éĵ ¾
l ight
Ġhe ld
Ġset t
3 1
å·² ç»ı
O L
Ġcon text
iv il
Ġit self
l ike
ol es
l oad
ç» §
Ġmin utes
Ġw on
f ect
c ode
ag s
ap ter
Ġgl obal
Ġs ix
Ġcor rect
è¾ ¹
ar ies
Ġexp ect
Ġl oss
åħ¬ åħ±
Ġs low
è¿Ļ ä¸ª
Ġsa w
ic les
g ed
äº Ī
Ġf ram
Ġc ases
il es
éĶ Ģ
Ġwrit ten
Ġhel ps
Ġfe ed
Ġ< /
S o
v ille
Ġmed ia
Ġde cl
åİ ĭ
cur ity
I R
æ± ī
æĶ¯ æĮģ
Ġiss ue
D e
ä¸Ģ æŃ¥
Ġc red
ĠDep artment
w here
ĊĠĠĠĠĠĠĠĠ Ġ
å¤§ çļĦ
6 8
Ġstud ies
Ġse par
rough t
rem e
è½ ½
G et
çĶŁ æĢģ
å¾ ®
ect or
å± ħ
Ġh ot
è¡¨ çİ°
l t
æį ¢
4 7
ĠO ct
åĪ© çĽĬ
ĠG l
Ġag o
Ġacc ording
Ġm other
Ġth ird
Ġlong er
Ġatt ention
Ġbeh ind
æĺİ ç¡®
e es
com p
Ġmean ing
Ġag ree
st er
Ġhim self
f ort
åħ¨ éĿ¢
Ġmeas ure
Ġd og
Ġd ou
ä»£ è¡¨
åħ į
} ,
æŃ ¢
4 9
Ġu nd
Ġ3 5
ä» Ĭ
æĮ ¥
Ġche m
åĥ ı
* ,
ac hes
åħ Ń
ens ive
çī¹ å¾ģ
è¿ĩç¨ĭ ä¸Ń
éģ Ĺ
un ch
Ġst ay
ç¬¬ ä¸ī
am b
Ġart icle
è ħ
ail y
ch an
Ġimport ance
ä¸ª äºº
æİ¨ åĬ¨
æľ Ŀ
Ġf av
Ġtry ing
St ring
Ġpro gress
ä» Ģ
Ġb al
ĠG erm
Ġlook ed
Ġus es
erv ation
um n
Ġ ver
op er
op t
å½ ķ
ĠComm un
ä¿Ŀ éļľ
c ome
Ġc oun
Ġinvol ved
å·¥ ä¸ļ
ĠW ar
æī ĵ
Ċĉĉ ĉĉ
. ;
I m
Ġreg ular
Ġf elt
ĠA c
æ²» çĲĨ
Ġv iol
æ¦Ĥ å¿µ
åıĤ ä¸İ
ä¼ °
ĠWh y
Ġdesign ed
Ġhist or
ĠCh ild
itt ing
Ġevery one
Ġide as
ĠA ug
Ġsur face
A G
U N
ĠO F
ĠR ep
Ġoff er
Ġthink ing
m on
b ut
g es
Ġf ul
å¢ŀ éķ¿
os ing
Ġa verage
Ġatt ack
rib ution
Ġpri or
Ġassoci ated
E L
f o
Ġevery thing
" .
æĹ¶ ä»£
ĠA ust
Ġst ress
åĽł ä¸º
Ġpriv ate
r ast
u x
â ĳ
Ġpre p
Ġst ates
Ġback ground
Ġshow s
Ġincre ased
åĮĸ çļĦ
ĠAmeric a
cl ass
u k
ä¸ ´
Ġs un
èµĦ äº§
y d
å ¦
ĠPl an
in o
Ġapp l
ER T
Ġf ish
ĠChrist ian
rib ute
Ġconn ect
ĠJ une
å¦Ĥ ä½ķ
Ġ3 2
j ust
ĠB rit
iv al
Ġpat tern
ç¾İ åĽ½
or ks
Ġf ather
ess ion
Ġcl imate
S S
èĭ ±
Ġp age
ä» ĭ
7 7
b on
S e
è¯ »
Ġl ink
æĿ Ĥ
å¤§ åŃ¦
æĿĥ åĪ©
h ib
ct or
Ġexp ress
d ata
Ġad ult
ĠS m
è® Ń
ç«ŀ äºī
ĠE l
ï¼Į âĢľ
ĠC or
Ġfre qu
çĶ »
Ġpur pose
] )
æĪĺ çķ¥
ç¡® å®ļ
å° Ķ
form ation
Ġg as
Ġqu ite
ĠV al
Ġ( _
Ġmethod s
åº ·
æĬ Ĺ
ac ity
Ġsa f
am ples
c il
m it
b or
Ġappropri ate
b ed
Ġthrough out
' d
> </
E M
Ġgre en
o ice
Ġc ode
Ġa ware
Ġ2 9
Ġdef in
Ġ/ *
çī Ī
ĠH igh
éĶ ®
Ġspe ak
å®ŀ éªĮ
cre t
N o
æĦı è¯Ĩ
å¯¼ èĩ´
æİ¨ è¿Ľ
ĠThe n
Ġwant ed
å¤ ®
Ġsust ain
op s
air s
Ġd raw
æĸ° çļĦ
Ġanal y
éŁ ³
ou d
Ġs um
ĠW est
ç« ¯
0 3
Ġbook s
è£ ħ
pp er
Ġan g
Ġcon dition
ĠJ an
all s
Ġproper ty
t rans
ĠPro gram
Ġb ase
i i
ĠPro ject
éĢ Ĳ
Ġbu ilt
Ġbehav ior
Ġt akes
Ġvis it
a id
Ġcons ist
åĬł å¼º
8 9
h a
ĠY our
ç§¯ æŀģ
S c
S et
Ġdoc ument
o ly
æĹ ¢
Ġfe atures
ä¸Ń å¿ĥ
ĠE d
è¿ ľ
| |
it iz
ix ed
å¼Ģ å§ĭ
Ġins ide
er ve
å ĭ
ä¹ Ĳ
åį ±
ç¬ ¦
re w
Ġcommun ities
E P
Ġin sp
ist ry
Ġseem s
ra ge
Ġre v
ä¹Ł æĺ¯
æ ĳ
Ð µ
Ġl ack
äºº æīį
Ġe c
ip ment
ul ations
ĠC ity
Ġf oot
Ġs il
ce ed
h am
Ġinclud ed
Ġmed ical
land s
Q u
ç¨ĭ åº¦
le ft
Ġfin ancial
ed eral
T opic
Ġinst ead
æĺ¯ åĲ¦
Ġreport ed
Ġsim ply
è¿Ľ ä¸ĢæŃ¥
Ġl ate
æĹ¶ æľŁ
Ġw atch
Ġcult ure
Ġm ax
Ġcompan ies
Ġm ach
} .
æĵ į
Ġstand ard
æ± Ł
č ĊĠ
Ġto wn
Ġmod ern
Ġso on
Ġenvironment al
Ġex erc
ä»Ģ ä¹Ī
Ġb orn
æĻº èĥ½
åħ¶ ä¸Ń
çĿ £
it ary
Ġbe aut
å¥ ³
u ge
t ies
ash ing
ĠRes earch
Ġsaf ety
æĤ £
Ġex c
Ġbas ic
Ġmem ber
Ġpre t
" ;
Ġs ources
Ġcell s
Ð °
Ġ6 0
Ġun ique
éĺ Ł
Ġpop ular
U S
ä»İ èĢĮ
Ġ Ã
Ġear th
he t
æı ¡
k ind
æ¶ ī
ĠJu ly
ĠM on
æŁ ĵ
ĠU nder
Ġd iv
Ġdem on
å¤ ´
Ġincre asing
ic on
Ġtool s
ark et
le ar
Ġar ch
æĮģ ç»Ń
çļĦ éĩįè¦ģ
) +
äº «
Ġim med
Ġ$ (
Ġs on
è¯ Ŀ
o es
äºº ç±»
å ¡
ĠCount y
Ġim age
é£ Ł
Ġw ond
se e
ç¤¾ä¼ļ ä¸»ä¹ī
å¾Ĺ åĪ°
çĲĨ è§£
u ra
åº Ń
Ġexp ected
9 7
åŃ¦ ç§ĳ
è® ¼
Ġdiffe rence
Ġs qu
Ġgo als
ht ml
ĠSe pt
b ox
o e
Ġnum bers
ç»Ł ä¸Ģ
Ġaddition al
æİ ª
Ġsoft ware
è´§ å¸ģ
åĢ Ł
ess on
Ġso il
ĠCh ar
Ġpro pos
i ples
Ġwe ight
ang er
Ġfore st
ĠU se
Ġgre ater
è®¤ è¯Ĩ
Ġc ross
D ata
Ġinst all
è§Ħ èĮĥ
Ġsu ff
ĠTe chn
èī ¯
l am
as ons
) =
åĲĦ ç§į
æ ½
| ----------------
ir m
åĮº åŁŁ
ĠSc ience
ĠS ub
ast ic
Ġse arch
åĨ³ å®ļ
Ġcol lect
Ġpo or
Â ·
ĠWh ile
Ġsp irit
Ġb rain
ĠT r
i pl
åŁº äºİ
pp ed
u ments
åĽ º
Ġproject s
Ġs ection
et ers
Ġg e
I V
Ġatt empt
ĠJ ew
Ġrel ative
æ¶Ī è´¹
ot al
æ¯Ķ è¾ĥ
ĠO ther
m m
if orn
A ll
ĠA re
Ġser ies
ĠB ar
Ġthere fore
ä½Ĩ æĺ¯
Ġmom ent
Ġopportun ities
è¯ī è®¼
Ġfe et
èİ· å¾Ĺ
éĢĤ çĶ¨
att le
Ġdec ision
Ġw ood
hen s
9 6
qu est
Ġreg ion
Ġas pect
o at
it em
O bject
or age
Ġf ru
ä» į
å° ½
b ol
ri e
ä¸º äºĨ
Ġpur ch
ĠG ener
h aps
è´ Ń
Ġcent ury
ĠRe ad
Ġlead ers
ĠA cc
æĶ¶ åħ¥
is f
ĠH ar
Ġquick ly
Ġrequ est
I nd
ri al
Ġf a
Ġcult ural
ä¾ µ
Ġj o
Ġapplic ation
Ġint rodu
ĠM arch
Ġst ri
i us
7 4
f unction
ĠØ §
Ġpr int
çĬ¯ ç½ª
å¤ ª
éĵ¶ è¡Į
D D
c ks
è¡ ¡
E n
Ġdis play
w ater
Ġhe at
a ul
å®Į åĸĦ
in ks
ĠC our
if f
ä¹ĭéĹ´ çļĦ
Ġh ref
iqu es
imate ly
Ġem erg
ac he
ien cy
åı¸ æ³ķ
Ġorig inal
ap an
ĠCh ina
å½ Ĵ
stand ing
Ġprofess ional
w ord
e ch
es tern
ĠA pr
ĠG ra
æĿĲ æĸĻ
I d
ĠAr t
ĠP ark
è®¡ åĪĴ
Ġs leep
Ġo il
ĠU s
Ġbl ock
im s
Ġallow s
ĠT rans
Ġis n
-------------------------------- --------------------------------
Ġrece ived
åľŁ åľ°
Ġpress ure
åħ³ éĶ®
çŁ ³
Ġvar iety
éĴ Ī
Ġnew s
Ġnet work
å ¨
ĠJ e
C C
clud e
( '
---| ---|
Ġfin al
çĽ® åīį
Ġin n
ĠF in
æīĢ ä»¥
Ġsit uation
add ing
ä½ ı
Ġth reat
Ġpre c
ur g
ar ily
Ġcom ing
éĩĩ çĶ¨
it ute
Ġtrans port
Ġve h
Ġsom etimes
Ġst yle
åıĳ æĮ¥
us ed
Ġsh own
it ude
å° Ħ
æŀ Ĺ
s ize
augh t
Ġus er
am a
Ġj ud
ĠW ater
âĢĶ âĢĶ
Ġs n
Ġbel ie
iforn ia
Ġhealth y
çī¹ çĤ¹
G O
æľº åħ³
Ġparticular ly
ic ip
Ġcreat ing
p ed
Ġg ave
ri pt
4 6
Ġse curity
es e
8 7
Ä ģ
Ġm iss
ibr ary
Ġcont ract
æıĲ åįĩ
çĶ ³
ĠT w
çĽ® çļĦ
4 3
è´ ¸
Ġmult iple
am er
Ġdeterm ine
ĠH ist
Ġob tain
import ant
c ial
Ġplan ning
8 6
ĠT est
åĤ ¨
èģĮ ä¸ļ
t r
w ise
Ġs y
Ġfamil ies
Ġyour self
ï¼ļ âĢľ
L e
åį «
hem at
è§£ éĩĬ
it te
Ġcont ain
og le
ï¼ī ï¼Į
Ġsk in
Ġd iet
Ġb ed
ec ause
ĠInd ia
Ġgo al
çĶŁ çī©
os ition
Ġcommun ication
åħħ åĪĨ
Ġprodu ce
ä¸¤ ä¸ª
Ġopportun ity
u ary
Ġd rug
æĺ¯ æĮĩ
åĨľ æĿĳ
å· ŀ
Ġwebs ite
è¿Ļ æł·
Ġelect ric
Ġrese ar
ell ow
Ġle ave
uf act
umm ary
Ġt as
ä¸Ń å¤®
l ation
Ġh ttp
Ġresp ond
../ ../
ĠL ear
Ġh or
ĠR el
Ġser ious
æ¨¡ åŀĭ
ĠM od
Ġe at
Ġh on
Ġr out
ren ch
Ġon es
Ġwr ong
Ġrece ive
ĠR et
æ ļ
Ġvide o
at ur
Ġal tern
Ġcrit ical
enc ies
M A
p id
Ù Ĩ
ä» ¤
Ġwom an
cher s
Ġl ost
Ġex act
0 2
ä¸į ä»ħ
Ġd ark
g ar
å¯¹ è±¡
Ġeduc ational
çī ĩ
C ol
p m
ĠS T
åŃ¦ æł¡
Ġl ength
èµ °
D istance
Ġar ri
Ġapp ly
Ġext ra
Ġrec ent
Ġoff ice
Âł Ċ
Ġh ar
äºº ä»¬
æ ¹
Ġw ild
d o
Ġad minist
Ġk new
Ġt ou
åħ¨ çĲĥ
Ġs ort
Ġs old
tern al
v est
æĮī çħ§
in ated
Ġtra ck
Ġp le
è¯ į
m p
Ġstep s
ĠK ing
æĿ¥ çļĦ
Val ue
ĠStud ents
ĠT O
ĠDevelop ment
Ġh ost
Ġh arm
r im
Ġen h
Ġfor ce
Ġexpl ore
Ġst ring
an ch
e qu
al y
Ġneg ative
am ent
Ġinter act
éļı çĿĢ
as c
par am
ĠS ch
ĠJ ust
00 00
Ø ±
ĠA ND
å¹³ åı°
è¿Ĳ åĬ¨
vent ion
e ed
L ist
ĠM us
an cy
è® ²
Ġcount y
ĠD ist
Ġadd ed
0 9
Ġequ ipment
b ody
Ġh ope
Ġd aily
ar a
ï¼ İ
ä» ½
Ġem ail
Ġs al
O r
éĢł æĪĲ
à¥ į
ul um
Ġ201 0
èĥ Į
Ġrem ember
Ġag ricult
è§ ī
Ġmeet ing
e ks
Ġf alse
Ġorgan ization
Ġb rought
å¼Ģ å±ķ
Ġanim als
iz ations
it able
Ġchalleng es
W ith
M od
Ġem issions
æ¼ Ķ
hed ul
äº¤ æĺĵ
Ġnorm al
ĊĊ Ċ
ire ction
Ġlearn ed
çĮ ®
Ġwas te
Ġsub st
pl ace
å¾ Ħ
Ġm ental
åħ¨ åĽ½
ĠCal ifornia
m ar
Ġl ed
ĠCent er
Ġse ason
è Ĩ
çļĦ ä¸Ģ
ĠD is
Ġbro ad
çĥ Ń
Ġve get
Ġf em
I G
Ġpro ced
èĻ ĳ
è¾¾ åĪ°
è® ¨
7 9
8 4
Ġd en
Ġ201 1
ograph y
e al
ree k
é ¼
èīº æľ¯
è§Ħ åĪĴ
Ġstand ards
æ³ ¢
6 3
Ġa p
åº ĵ
g ing
Ġd ate
I P
ĠP re
Ġprovid ing
adem ic
Ġm ention
Ġdec isions
d es
Ġfor ms
E rr
Ġh ttps
Ġ ;
Ġany one
ä»» åĬ¡
èĻ ½
Ġcan cer
A d
Ġme chan
Ġ4 5
g l
s m
ound s
éĩį çĤ¹
äº ¬
Ġpract ices
Ġn il
Ġsur v
Ġt ree
âĢ¦âĢ¦ âĢ¦âĢ¦
Ġp ick
Ġqu al
D es
Ġt er
Ġcho ose
ĠN ow
ill ing
Ġfl u
ell ig
Ġsp read
und red
Ġl if
b a
è§Ħ æ¨¡
Ġdr ink
O ne
F l
åİ ¿
Ġper fect
i ra
y ond
ä¼ ¤
Ġdo or
Ġvers ion
Ġhe ard
Ġcost s
I M
ĠM ore
ĠE ast
sa fe
rid ge
æĵį ä½ľ
f ile
Ġdevelop ing
ĠO ff
Ġ201 2
Ġc ru
æ¡Ī ä»¶
Ġdem and
ä¸ĸ çºª
r ite
Ġthe ory
ĠF irst
Ġ ir
Ġfor ward
Ġact ive
AT ION
Ġrun ning
ĠCh urch
ron ic
ĠEn vironment
æĹ ©
Ġdirect ly
Ġturn ed
p ath
Ġstreng th
Ġb ox
é ¥
Ġdam age
ä½ĵ çİ°
ĠApr il
ĠR ed
Ġtemper ature
Ġf at
u i
pt oms
åħ «
A pp
Ñ Ĥ
ĠT HE
Ġ3 6
Ġintern ational
Ġlim ited
4 2
Ġpol l
æ¬ §
Ġcommun ic
Ġit ems
æ´ ¾
#### ####
7 3
Ġinter p
ĠC he
g roup
Ġim ag
Ġeas ily
ĠEar th
ãĢĭ ï¼Į
ç Ĩ
ough t
P h
åĬ ±
os is
ur ance
ĠP ublic
Ġk ids
Ġexperien ces
Ġind epend
ĠOct ober
åº ķ
w idth
å¼Ģ æĶ¾
d own
d f
iz es
? âĢĿ
w ith
Ġm icro
Ġcomm and
U ES
ä»¥ ä¸ĭ
çĶµ åŃĲ
Ġcom pl
Ġgener ally
Ġca pt
ĠAust ral
ĠSept ember
Ð ¸
res p
Ġw in
Ġc at
Ġre ve
im al
Ġref lect
Ġcon cent
ĠL ord
čĊ č
æŀ ¶
èĩª çĶ±
5 8
Ġbehav i
æİ Ī
Ġwor th
Ġtra de
ĠAug ust
Ġprim ary
Ġw at
Ġgu id
ĠĠĠĠĠĠĠĠĠĠĠĠĠĠĠĠĠĠĠĠĠĠĠĠĠĠĠĠĠĠĠĠ ĠĠĠĠĠĠĠĠĠĠĠĠĠĠĠĠĠĠĠĠĠĠĠĠ
O C
res h
con st
n es
Ġexam ples
ĠIn ter
Ġmove ment
åĪĽ éĢł
ĠØ§ ÙĦ
Ġwas n
f ord
t es
Ġcar ry
b all
Ġloc ation
b it
ĠD on
Ġele ments
çĽ¸ å¯¹
Ġover all
Ġf air
ve re
è¿ ½
v is
r is
d is
Ġch urch
Ġ: =
Ġprocess es
äºĭ å®ŀ
Ġsupp ly
æİª æĸ½
æľī çļĦ
Ġconst ruction
Ġne igh
d ing
èĢħ çļĦ
Ġr ules
è¯ģ æį®
Ġf ast
ĠĠĠĠĠĠĠĠĠĠĠĠĠĠĠĠ ĠĠĠĠĠĠ
Ġg ames
ĠS pec
U LL
ĠD av
Ġleg al
èģ ļ
Ġmon itor
ä¸Ģ å®ļ
Ġ> =
Ġhe ar
Ġpr ice
qu e
Ġref er
å¾ ħ
Ġcal cul
æĸ¹ æ¡Ī
Ġstrateg ies
y ear
in ate
Ġh abit
å®Į æĪĲ
æŀĦ æĪĲ
Ġbir th
L esson
Ġtra ditional
Ġl oad
5 9
è¯Ħ ä¼°
Ġrequ ires
ĠInd ian
n o
ä¸ļ åĬ¡
ä»· æł¼
om en
åĲ ¸
å½ĵ äºĭ
ĠCl ass
at form
od es
Ġ8 0
Ġn one
æ¸ ¸
Ġestab lish
! "
a ur
Ġcent er
Ġt en
ĠC ur
Ġwh ose
ä¸įåĲĮ çļĦ
A dd
Ġassess ment
Ġde ad
), (
ĠP ut
Ġpret ty
è´¢ äº§
m ission
Ġdig ital
Ġre ach
am ed
Ġcon vers
ign ed
åĪ »
Ã ¡
Ġsay ing
ad es
if ul
un k
çļĦ åŁºæľ¬
Ġd er
................................ ................................
Ġw arm
Ġan c
ĠF eb
äºº åı£
åıĬ åħ¶
Ġprom ot
Ġbegin ning
ä¼ ¼
Ġ| |
Ġbo ard
Ġt itle
Ġwork ed
Ġpat ients
Ġc itiz
Ġs us
5 6
Ġs we
Ġb order
Ġsee k
åĲĪ çĲĨ
ĠS w
Ġc ard
ä¾ĭ å¦Ĥ
ig r
Ġin put
Ġst ore
h ttp
IN S
Ġprot ection
Ġex ec
Ġfil m
å® Ĺ
è¡Į ä¸ļ
çŃ ĳ
è¯ Ĺ
Ġs em
Ġp sych
Ġgo es
Ġm ount
Ġcomp ared
çĽĳ çĿ£
ok en
s ub
Ġf ight
è°ĥ æķ´
ĠS an
ĠR iver
ru e
ĠCan ada
ashing ton
8 3
Ġm essage
Ġext reme
Ġin j
p an
Ġpl aces
ĠC oun
Ġ3 1
T able
ĠM ost
P S
Ġ201 5
ĠHe re
er ia
ĠF rom
æ± ĩ
u ous
Ġeffort s
Ġtechn iques
Ġinvol ves
Ġadv ant
Ġacc om
ĠPres ident
4 1
Ġopt ions
cl es
è¾ ĳ
æī¿ æĭħ
oc ks
Ġpub lished
é ¾
Ġpart y
Ġallow ed
ove mber
U L
itte e
Ġpict ure
m et
re hens
7 1
ĠWill iam
äº ļ
ĠM any
ç½ ļ
Ġcont ribut
Ġdemon str
ond on
i ar
ç¢ ³
è® ¢
èĭ ¥
Ġgrow ing
ĠP ract
Ġh undred
Ġpl ans
! !
b efore
ç¨³ å®ļ
Ġuse ful
Ġcaus ed
ĠSe e
Ġchem ical
ä¹ī åĬ¡
ĠS im
Ġman ufact
ric ulum
Ġst ru
ĠW ork
I s
ce mber
æ² ³
( $
Ġoffic ial
æĢ§ åĴĮ
Ġstat us
Ġ 01
æĮĩ å¯¼
æĬ¥ åĳĬ
Ġm ap
id ents
Ġpart ners
Ġrespons ible
Ġapplic ations
er o
Ġst ra
7 6
Ġ// /
Ġex cept
f rom
l ier
Ġth ous
Ġm iddle
Ġre lev
è¯Ń è¨Ģ
Ġexist ing
Ġem b
Ġ20 20
C E
oc ol
N ew
ab ilities
Ġestab lished
æľ Ľ
Ġtre es
çļĦ éĹ®é¢ĺ
Ġsuccess ful
ĠAss oci
ä½ Ļ
P ar
ĠS k
Ġinterest ing
Ġtr ust
Ġb ab
Ġloc ated
ric k
av a
æĭ ī
åİŁ åĽł
val ue
çļĦ åŁºç¡Ģ
åĪĨ éħį
Ġp an
å® ¤
éķ ĩ
Ġcap ital
å£ °
çĭ¬ ç«ĭ
re ed
Ġsol ution
Ġlarg er
O P
Ġst age
çĽ¸ äºĴ
æ Ĳ
Ġse c
éĶ Ļ
Ġd ied
åĿ Ĺ
Ġsit es
Ġl ines
ĠJ apan
at ab
D A
Ġbe yond
ur ation
ç» ĥ
Ġb reat
ra b
um an
ç»ı éªĮ
è¿Ĳ çĶ¨
çŁ Ń
ĠM at
p oint
Ġm outh
äººæ°ĳ æ³ķéĻ¢
M y
Ġc ateg
ri ef
m itted
Ġent er
F F
åĪ¶ å®ļ
éĥ½ æĺ¯
Ġcho ice
Ġre asons
Ġcom fort
res ult
çī© è´¨
m ore
s es
ĠY ear
Ġd ry
Ġe th
Ġeval u
Ġact ions
Ġlead ing
ã Ĥ
åĪ¶ éĢł
z z
ĠI I
---- --|
Ġp ul
y ing
çī¹ åĪ«
çķ Ļ
est ion
ĠH ouse
Ġp up
st ate
èĢĮ ä¸Ķ
éĩį å¤§
Ġg iving
Ġhy d
Ġg ives
p en
èĢĥ èĻĳ
c a
Ġm is
Ġaut om
Ġco ord
ur t
Ġse lect
éĿ Ĵ
Ġn ation
ĠF rench
è´ ·
Ġest im
augh ter
p ite
ç ı
Ġfollow ed
ĠIntern ational
ç £
ust r
Ġm agn
Ġh ous
Ġsc ale
Ġmeas ures
T ER
Ġbas is
åºĶ è¯¥
æİ Į
Ġf ear
Ġinflu ence
Ġdetail s
Ġc opy
Ġgra du
Ġbro ther
åĩ »
Ġfeel ing
çļĦ å½±åĵį
è®¾ å¤ĩ
ĠO ur
Ġmov ed
Ġgo vern
Ġth us
ru pt
ul a
Ġsym ptoms
äº ĳ
Ġal one
o very
Ġd im
Ġrequire ments
ent y
Ġse a
Ġf it
ch ange
Ġcontin ued
ul ate
Ġp ark
0 8
5 7
id ing
ĠL ake
os ure
Ġad apt
è¿Ļ æĺ¯
Ġhapp en
Ĺ ı
Ġ2 000
ab led
ï¼ī ãĢĤ
Ġwe eks
åĢ Ļ
Ġcomplete ly
æŀĦ å»º
è¶ ĭ
Ġac qu
çİ° å®ŀ
Ġprodu ced
Ġdef ined
Ġc ivil
ä¹ °
Ġpar am
Ġmed ic
ter m
ĠSoc ial
å¼º è°ĥ
Ġc ook
ĠG et
ä¸ ĥ
f a
è´¢ æĶ¿
6 1
å±ŀ äºİ
Ġcom ment
Ġrecomm end
en ge
ä¿Ŀ è¯ģ
åł Ĥ
Ġt our
ä½ĵ åĪ¶
Ġsc en
è½ ¯
Ġinte gr
åľ° ä½į
èģĶ ç½ĳ
i ately
Ġlim it
S C
l ife
Ð ½
Ġha ir
S he
Ġwe b
ä¸Ń åįİ
Ġ ...
Ġfav or
Ġconst ant
Ġcap acity
e v
Ġspe ed
èĩªå·± çļĦ
Th at
ĠMan agement
ĠO f
F rom
ä¹ĭ ä¸Ģ
æ ¤
çĶ ļ
åĨ ²
ĠBrit ish
Ġal though
Ġmov ing
Ġbenef it
ir us
ĠV AL
in ct
ĠD em
Ġv oice
ĠD ata
Ġr ates
Ġnot e
Ġfa ith
ab el
Ġs ong
åĽ °
fe rences
r ange
Ġd ro
5 00
ou l
Ġqu ant
Ġeconom y
Ġph one
Ã ¢
Ġd ie
Ġm ut
Ġc orn
Ġb ank
ĠM ich
ĠE nd
çļĦ çłĶç©¶
5 3
Ġrem ain
æī ĺ
5 2
Ġhigh ly
Ġsur pr
5 4
é ī
9 3
Ġb ul
æīĭ æ®µ
o o
Ġread y
for ce
Ġt end
æĺ ł
Ġro ck
éģ ¿
B e
è¿Ľ åħ¥
Ġ3 4
Ġsat isf
T H
ĠN et
Ġm ag
Ġc ool
Ġpro te
at us
éī ´
ic a
å¾ ª
O S
Ġ201 3
Ġs end
åŃ¦çĶŁ çļĦ
Ġp lease
Ġdep end
Ġst ream
æ³ Ľ
or ge
éĩı çļĦ
å ª
ĠP ol
k now
Ġh op
æŃ ¦
ĠD ef
æŃ »
it ect
ĠN ovember
INS ERT
Ġop in
Ġget s
Ġpred ict
ĠL et
Ġ! =
Ġ200 8
6 2
Ġm er
Ġtr uth
N ot
out hern
ud get
Ġm o
ç» ¿
ĠB ook
as ure
is ation
f ield
r ition
ÂłÂł ÂłÂł
Ġequ al
Ġcol lection
å¤į æĿĤ
Ġconcept s
ul ated
Ġpl aced
ĠR om
8 2
Ġa w
Ġpe ace
Ġass ist
è§Ħ åĪĻ
æķĪ çİĩ
èĻ ļ
ĠN ULL
ĠO ver
æĸ¹ åĲĳ
ĠD ay
Ġcoll abor
ĠP y
ĠInt roduction
olog ies
æĺ Ł
el ine
ual ity
ä¾Ŀ æį®
ol ute
å¥½ çļĦ
ex p
un c
Ġ201 7
Ġo ption
ew ork
åĿļ æĮģ
å ©
è´¸ æĺĵ
Ġerr or
Ġrelationship s
Ġde b
åķĨ åĵģ
ĠR uss
l ast
å¤ «
Ġset ting
om ing
ĠL ondon
f low
ä¼ļ è®¡
Ġun it
ĠPro f
ib er
Ġcompon ents
S D
æķ £
Ġdescrib ed
åıĸ å¾Ĺ
ff ect
sw ers
çĹ ĩ
Ġyou th
or ation
Ġinst ruction
Ġgra ph
Ġc old
ruct ure
Ġcaus es
a it
v ar
ĠR em
I B
st ring
è°ĥ æŁ¥
n py
Ġ200 9
ĠCent ral
Ġident ified
Ġdeg ree
f ra
ĠEurope an
com es
çī¹ èī²
è Ľ
Ġm ission
Ġn ames
Ġ9 0
Ġpers pect
Ġappl ied
Ġst ories
åģ ĩ
è ı
al ing
çİ° è±¡
S ee
ĠW ashington
yp es
ç§ ģ
Ġpie ce
Ġvis ual
ĠO ut
Ġ ×
ĠD irect
Ġmil itary
Ġf ing
ĠBl ack
Ġus ers
ç»Ħ æĪĲ
Ġv ict
ib ly
æ¸ ©
oth ing
err or
i ance
he st
å» ¶
Ġchang ed
Ġcurrent ly
åģ¥ åº·
Ġful ly
cont ent
Ġ7 0
g al
x y
èµĦ éĩĳ
æĭ Ł
In stance
Ġscient ific
Ġfor mer
com m
ä¸¥ éĩį
Ġsur round
ĠJan uary
ĠDe cember
Ġele ment
æĪĲ æŀľ
Ġde cre
Ġm atch
Ġinter view
èĭ ı
Ġb all
æ²» çĸĹ
éĿ ł
Ġinst ance
b b
Ġpro p
Ù ħ
åıª æľī
AT E
O f
Ġ201 4
éĻį ä½İ
éĺ ³
å½ĵäºĭ äºº
Ġe p
ĠVAL UES
æķ´ ä½ĵ
Ġ201 8
Ġey e
Ġpolic ies
ri age
h ouse
çļĦ äºº
ä¼ĺ åĬ¿
urb an
Ġmil es
Ġmor ning
Ġb ound
ĊĊ ĊĊ
Ġimmed iately
b uild
Ġ201 6
ĠE ven
Ġplay ing
Ġanim al
à¤ °
åįı è®®
åį °
æĺ¯ åľ¨
c are
il ing
D S
k en
ĠA nt
Ġnear ly
ĠK h
Ġwork ers
________________ ________________
p ing
ir ing
ob ile
ĠPh il
Ñ ģ
Ġinc ome
9 4
M S
] (
Ġw ife
çĬ¶ æĢģ
ĠServ ice
èĥ½ æºĲ
Ġv irt
ind ex
Ġcar bon
anc ing
Ġsum mer
w ell
C P
èģĶ ç³»
ĠN OT
act ers
Ġclass room
Ġc and
T ext
Ġt ask
Ġcol lege
åıĹ åĪ°
Ġpass ed
Ġd irection
éĻĲ åĪ¶
å¿ĥ çĲĨ
Ġdev ices
é¦ĸ åħĪ
ĠM ary
Ġbl ue
ĠF ore
ind ows
n y
r an
ä¹ Ŀ
i j
çĶ³ è¯·
od ies
am ily
è½ »
Ġrelig ious
Å Ł
l or
ro ad
Ġgra de
yn am
éĴĪ å¯¹
Ġhe ight
pp ort
Ġcent ral
ĠA ir
Ġhouse hold
act ive
å¸ Ŀ
Ġrelev ant
g n
w ood
Ġs av
th at
åĩı å°ĳ
åĽ½ åĨħ
ram e
ru ary
ph as
ĠPe ople
8 1
ç´ §
Ġke pt
Ġf ine
Ġm ill
Ġlaw s
ĠA ng
æĢĿ ç»´
åĶ ®
d ed
am s
åį ´
Ġv ill
æĴ Ń
I F
ä¿Ŀ éĻ©
oc r
äº ¿
ĠP at
Ġparticip ants
a res
Ġwe ather
Ġatt ract
ä¸ °
: "
H O
am in
äºĨ è§£
ines e
å»º çŃĳ
Ġpresent ed
Ġach ie
ex ample
l im
ä»» ä½ķ
ĠI S
safe ly
Ġdev ice
in put
ĠM iss
Ġac ademic
m ov
con n
Ġsit u
at o
oc ation
re p
$ {
g y
åĪĨ ä¸º
ç± ³
è¯ ¯
rap y
C L
i ers
Ġsol id
å¸ ®
Err or
Ġc ro
Ġcred it
pos ition
Ġinst ru
Ġsl ight
Ġch ance
èµ Ķ
Ġce le
est s
ĠSt r
ro te
Ġmy self
Ġbeaut iful
re ate
Ġte ach
åķĨ ä¸ļ
Ġstrateg y
ĠN ame
å° ģ
u it
ĠSt reet
l ib
Ġre le
ĠB en
ĠW ell
Ġpower ful
es ter
G l
n et
ç» Ŀ
ĠĠĠĠĠĠĠĠĠĠĠĠĠĠĠĠĠĠĠĠĠĠĠĠ ĠĠ
ä¸į åı¯
ect ions
Ġv ia
Ġinst ruct
èĦ ĳ
Ġobject s
ï ¬
Ċ ĠĠĠĠĠĠĠĠĠĠĠĠĠĠĠĠĠĠĠĠĠĠĠ
ĠU N
Ġclass es
ĠGener al
Ġd ream
Ġexerc ise
ä»¥ ä¸Ĭ
ĠL a
é ²
F igure
ĠL aw
éĹ®é¢ĺ çļĦ
åĽ Ń
ffic ient
Ġto ward
al ed
i able
Ġorig in
n av
Ġexpl ain
Ġwond er
ä¸Ģ æĸ¹éĿ¢
ĠO h
èĩª èº«
pr int
ub e
l a
Ġtest s
åĲ ¯
ic o
Ġgra nd
g u
ĠJ ames
Ġorgan izations
Ġrec ently
* .
é¢ ĳ
0 6
Ġl at
Ġu lt
ĠM rs
çĻ »
Ġle aves
Ġ200 6
éĩĩ åıĸ
P A
åį Ĭ
Ġoper ations
âĢ ĺ
ĠS ur
Ġsa ve
éķ¿ æľŁ
] [_
Ġg ain
Ġconn ection
c ore
æ¸ Ĳ
ĠChild ren
il ed
a ign
æ ¥
æĶ¹ åıĺ
Ġnum er
Ġass um
Ġconduct ed
éĩįè¦ģ çļĦ
bo ard
åį ļ
Ġhapp ened
Ġf ields
çĶ¨ äºİ
Wh y
Ġpl atform
in ner
Ġres ource
Ġser ve
Ġdiscuss ion
ç¬¦ åĲĪ
Ġre pe
æľĢ é«ĺ
å§Ķ åĳĺ
c raft
ç«ĭ æ³ķ
Ġresear chers
Ġm ess
AL L
Ġconf lic
ĠCol lege
al a
ra ck
æĹł æ³ķ
Ġc ry
è¡¨ ç¤º
Ġsp ring
çł ģ
Ġinn ov
ĠCoun cil
æ°ĳ äºĭ
' )
Ġconst ruct
0 7
ard en
åĨħ éĥ¨
9 2
ĊĊ ĠĠĠĠĠĠĠĠĠĠĠ
ç±» åŀĭ
æ± ¡
Ġper haps
Ġdiffe rences
Ġmem ory
è¿Ĳ è¡Į
Ġgir l
os es
ain t
Ġm id
con fig
Ġro b
Ġapp rec
Ġ ign
ĠD isc
Ġsh ape
i y
Ġt ried
l og
Ġp et
ĠV ol
å± ¥
Ġbec omes
æĽ ²
n s
ro y
Ġcont ains
ç» ©
æĦı è§ģ
Ġl ik
Ġval id
Ġdist ance
Ġn ative
ãĢ Ĳ
Ġbal ance
è¦ģ ç´ł
Ġgu ide
çĸ «
Ġeffic ient
K ey
Ġl abor
Ġcustom ers
Ġproper ties
in clude
ĠY es
Ġdec ided
Ġcon sequ
Ġtrans fer
est ic
èŀį åĲĪ
ĠE ach
åħ³ æ³¨
ĠAn n
ä» ²
Ġmod els
Ġmar ried
Ġr ich
ä½ĵ çļĦ
Ġc ock
Ã ¶
Ġf igure
ç¬ Ķ
Ġpat ient
Ġfe ature
åĢº åĬ¡
Ġcomm erc
å¢ŀ å¼º
æĥħåĨµ ä¸ĭ
Ġstate ment
Ġad just
ra el
ĠC ong
Ġprinc iples
ãĢ ĳ
æĺİ æĺ¾
K E
el ines
Ġtest ing
å®Į åħ¨
Ġmat hemat
is ms
Ġstru gg
F A
æİ¢ ç´¢
Ġchar acters
Ġf lex
A fter
å® £
æķ° åŃ¦
ĠAfric an
ĠK e
ĠI d
Ġeffect ively
éģĵ å¾·
Ġsmall er
Ġse qu
in y
Ġ201 9
Ġc overed
b ottom
ĠM or
éĢ ģ
åĶ Ĳ
ten ance
Ġocc up
h ttps
æĽ´ å¤ļ
Ġtalk ing
Ġsustain able
Ġt im
ä½ ł
Ġtou ch
æİĮ æı¡
b al
å® Ī
ens ity
Ġw et
Ġbe g
è®¾ æĸ½
çº ¢
Ġoff ers
atab ase
ĠCon st
C S
Ġm argin
è· Ŀ
Ġ200 7
b in
Ġh uge
9 1
hedul er
. '
Ġdri ve
è®¤ å®ļ
Ñ Ģ
p ack
ĠEng land
ç½ Ĺ
c all
Ġwh om
ĠTh om
Ġprom ote
Ġinit i
( ),
ç ¯
Ġim ages
Ġt rou
åĬĽ çļĦ
èĻ½ çĦ¶
Ġ200 3
Ġlet ter
5 1
Ġv ot
Ġun less
Ġbel ief
Ġaspect s
Ġfru it
z ing
Ġr ule
Ġd anger
çī© çļĦ
è° ĵ
h y
Ġsp ent
n ic
Ġe ight
éħ ¸
om et
R A
Ġ\ (
æĽ´ åĬł
Ġstart ing
Ġold er
ur ning
ç« ¥
Ġa st
ĠE v
çĽĳ ç®¡
ol f
Ġcomple ted
éĿ© åĳ½
æ³¨ æĦı
çĽ ¾
use um
ĠDes ign
The y
è®¸ å¤ļ
Ġcou ple
Ġh our
åıį æĺł
ĠP aul
ĊĊ ĠĠĠĠĠ
Ġf uel
Ġor d
ar io
ot hes
sc heduler
æĤ£ èĢħ
Ġc ore
Ġinc or
ĠAl so
èµĦ æĸĻ
Ġn orth
Ġst ock
Ġs outh
Ġp ow
Ġlook s
Ġout put
Ġcitiz ens
Com p
Ġexact ly
ate ver
æĿ Ł
æīį èĥ½
Ġtra in
Ġra re
St ate
T S
ĠCh inese
Ġinst it
Ġa im
al d
ĠĠĠĠĠĠĠĠĠĠĠĠĠĠĠĠĠĠĠĠĠĠĠĠ ĠĠĠĠĠĠĠ
ĠUn ion
Ġshow ed
Ġhapp y
U s
Ġb rand
æ¤ į
ress ed
ä¹¡ æĿĳ
ify ing
ar row
çŁ Ľ
Ġrem ains
======== ========
Ġclear ly
Ġear lier
Ġcomp ar
æĸĩ ä»¶
F orm
éĢ Ķ
Ġtop ic
Ġmajor ity
che ck
w ide
åºĶ çļĦ
Ġappro x
Int roduction
i os
Ġsur vey
ĠLear ning
æľĢ ç»Ī
te red
l ock
èĪ ª
T e
Ġwalk ing
Ġf ig
è¡¨ è¾¾
çĶļ èĩ³
Ġh osp
ĠS am
us iness
ĠPut nam
M e
æĶ¯ ä»ĺ
ã ĥ
è¯ ¸
Ġf ederal
Ġes c
é©¬ åħĭ
Ġinit ial
çĪ ±
Ġp en
Ġbuild ings
åĨ³ çŃĸ
Ġinterest ed
r b
re es
Ġtrans form
æĿ İ
r ical
at is
Ġfore ign
ĠĠĠĠĠĠĠĠĠĠĠĠĠĠĠĠĠĠĠĠĠĠĠĠ Ġ
Ġdi agn
å¹´ çļĦ
is her
ä¾Ŀ æ³ķ
S p
éĢļ å¸¸
Ġco ast
æ¶ī åıĬ
Ġfin ally
ic ense
Ġinvest ig
ĠS ince
Ġsh ared
ĠFeb ruary
çŁĽ çĽ¾
G o
ak er
N ow
Ġw ants
we b
ĠGo vernment
çĶ¨ æĪ·
å°± ä¸ļ
çģ µ
Ġencou rag
é» Ħ
SI ON
l ocal
å·¥ åħ·
ç« Ļ
è¯´ æĺİ
it ter
Ġtyp ically
b re
t a
ĠInst itute
åį ĥ
i as
Ġf resh
Ġint ent
å®¶ åºŃ
æľª æĿ¥
å¨ ģ
S te
é¡ º
æķĪ æŀľ
Ġeas ier
Ġs ch
Ġst uff
ĠL in
Ġact ual
Ġfl oor
æ»¡ è¶³
ç ĺ
P P
Ġplay ers
ĠE very
è¯ģ æĺİ
æĸĩ æĺİ
f il
Ġw rote
Ġint ellig
V ER
å° ļ
Ġbusiness es
Ġr ound
il it
ail s
Ġtre nd
ĠDav id
ing u
Ġann ual
Ġro ll
Ġcharacter istics
, .
Ġfun ctions
Ġr at
çŃ ¾
è· ¨
st ream
å®ĥ ä»¬
Ġdist ribution
s up
ĠR ober
åŁº åĽł
know n
è´ «
å¼ķ å¯¼
Ġpattern s
ĠJ ournal
Ġinterp ret
æ¯ į
ĠComm ission
Ġmov ie
Ġmach ine
Ġb ottom
ĠU K
ä½ľ åĩº
ç§ Ł
ĠIn c
u able
le g
ol low
Ġcont roll
ar ter
b and
id a
Ġhistor ical
ç¦ ı
Ġcomp rehens
Ġpre par
g ment
% )
m argin
ĠP ri
éĢ Ģ
ĠRe port
Â °
g ener
Ġpup ils
Ġcommerc ial
è§Ħ å¾ĭ
ĠAl though
Ġpract ical
ĠM al
Ġcl os
Ġ ur
ĠA tt
Ġp ush
Ġinvol ve
èĨ ľ
æĮĩ åĩº
Ġexp and
ac ing
Ġch arg
å® ĭ
ĠAn y
çī© çĲĨ
åĵ ²
æĿĥ çļĦ
èĽ ĭ
Ġcare er
Ġ3 3
é©¬åħĭ æĢĿ
åĪĨ ç±»
ad ow
èĬ ±
Ġc op
i pe
ĠB ecause
åĨľ æ°ĳ
çļĦ ä¸»è¦ģ
Ġm aster
Ġoper ation
Ð¾ Ð
Ġman age
h and
çĲĨ å¿µ
å®¢ è§Ĥ
ĠBo ard
Ġra in
Ġob vious
å¼ ±
ĠQ ue
âĢĿ .
æ¶ ²
Ġre ality
Ġ4 8
Ġpres ence
Ġem phas
æİ¥ åıĹ
è¿ĺ æĺ¯
Ġsu gar
Ġon to
20 20
sp ace
ĠIs rael
Ġs ample
Ġw all
Ġsol ar
ĠS ol
ĠL and
Ġrem ove
å° ¤
Ġdef ault
ce an
row s
æ¯ Ĵ
Ġplay ed
æĢ§ è´¨
Ġg old
Ġbl og
P ath
S ource
Ġs ell
ĠB r
A b
Ġserv ed
M M
ç ¿
ĠPro t
å¹¿ æ³Ľ
Ġencou rage
D ef
T E
ĠEng ine
l ink
Ġut il
éĿŀ å¸¸
çŃ Ķ
Ċ ĠĠĠĠĠĠĠĠĠĠĠĠĠĠĠĠĠĠĠĠĠĠĠĠĠĠĠĠĠĠĠĠ
se ct
ĠB uild
~ ~
åī Ĥ
f ont
è Ĵ
se mb
ous ly
Ġchall enge
O W
idd en
} }
åľ¨ äºİ
é¢Ĩ å¯¼
, '
. *
m as
åĪ ¸
Ġcould n
Ġhig hest
Ġass ert
ç§° ä¸º
Ġvol unt
Ġch arge
Ù İ
Ġb ra
Ġnot ice
Ġs in
ĠD uring
AS A
M B
æĮĩ æłĩ
Re ad
Ġst orage
Ġcur riculum
æĽ ¾
æĸ¹éĿ¢ çļĦ
r ate
udd en
ĠG roup
ç¤ ¼
Ġvis ion
q l
Ġn amed
æ® Ĭ
ad o
æĢ ¥
åį ĸ
ib us
Ġregard ing
ĠP al
Ġs ac
ĠM o
Ġpol ice
Ġacc ur
hip s
ĠOff ice
Ġp ray
Ġex cell
Ġfac ilities
Ġd ra
wh at
Ġw ish
ĠS et
d ir
Ġe ating
ĠWh ite
% ;
åĪĨ å¸ĥ
Ġmay be
Ġreport s
ĠAssoci ation
+ +
ven ue
201 7
Ġra ce
çĨ Ł
ä¼ĺ åĮĸ
Ġemploy ees
Ġprep ared
éĢ »
Ġgl ass
Ø ¯
ä¼ģä¸ļ çļĦ
è§Ĥ çĤ¹
Ġ Î
Ġcar ried
ĠOn ce
m osp
æı ı
ĠJ ack
p re
$ (
Ġre lease
a a
å·® å¼Ĥ
Ġs an
Ġk n
lic k
g ra
æ´ ²
Ġri ver
æ³ķ çļĦ
ç¥ŀ ç»ı
ot a
åĪ© äºİ
Ġ ice
Ġl ived
çº ·
åģ ı
à ³
ĠB as
Ġcon v
Ġsc reen
D P
iven ess
I A
Ġ( [
Ġrecord s
but ton
om b
ä»¥ æĿ¥
Ġatt end
c ount
Ġd ed
Ġob l
éļ Ĳ
äº ²
æĪĲ ç«ĭ
Ġ ?
æĺ¯ ä¸Ģä¸ª
Ġp ric
Ġadult s
ĠPro v
Ġstra ight
-- -
ĠG r
Ġexp ression
å¿ħ è¦ģ
Ġc atch
Ġb udget
Ġre ached
( [
p onse
con s
çģ «
å½ĵ åīį
ĠN umber
Ġaff ected
Ġlarg est
èµĶ åģ¿
Ġp aid
Ġtechn ical
ĠGerm an
C omm
Ġgir ls
ä»² è£ģ
åĮĸ åŃ¦
ien ces
fe red
Ġh it
Ġdo ctor
ĠP ost
Ġheav y
Ġinform ed
v an
Ġ Âł
éĻ Ħ
å®ļ ä¹ī
Ġfact or
æ½ ľ
AB LE
å±¥ è¡Į
Ġar m
s k
Ġra pid
ĠS er
ãĢģ âĢľ
Ø ¨
æĹ¥ æľ¬
d en
äºĴ èģĶç½ĳ
a el
å§Ķåĳĺ ä¼ļ
ik i
{ \
ĠC ON
ort hern
Ġro ot
d b
Ġmot iv
Ġcru cial
éĢ» è¾ĳ
P art
ĠG reen
Ġgener ation
i ant
ĠH ome
åĪĨ åĪ«
Ġun f
Ġb oy
Ġnot es
Ġexper t
om y
Ġcre ation
S ome
ĠIn formation
Ġse ven
æĶ »
Ġs and
Ġstruct ures
ĠHist ory
Ġre act
Ġemot ional
ĠP ort
Ġfl oat
am m
Ġarch itect
Pl ant
M arket
å· ¨
ch ild
ĠSoc iety
Ġmention ed
Ġind ex
Ġu int
Ġcomm it
ur ies
Ġthough ts
ĠIs land
Ġhapp ens
ç¼ ©
-------- --|
D o
ç¥ ¨
Ġm ist
å¹´ ä»£
oss ary
ä¹ĭ åĲİ
Ġ200 5
Ġrespons ibility
Ġabs olute
å®ŀ è¡Į
åıį åºĶ
ĠOr gan
le vel
Ġpres ident
ribut ed
ĠTechn ology
é¡ ¾
Ġfood s
Con clusion
x n
Ã §
Ġobserv ed
ES S
æł¹ æľ¬
Ġcamp aign
Ġbab y
Ġcele br
ĠM et
ĠU p
ĠSt and
Ġseem ed
s rc
Ġform at
éĢĤ åºĶ
ĠO b
åŃ¦ çļĦ
******** ********
st e
ĠCommun ity
Ġme ant
Ġsp ot
be ing
à¥ ĩ
æŃ£ ç¡®
äº ¡
å· ´
m es
ĠB ro
Ġocc as
Ġcons ult
Ġn or
Ġn av
Ġaud ience
Ġdist rict
Ġof fered
Ġh om
Ġcon clusion
ĠThe ir
å½¢ æĢģ
resp ond
çľ ¼
äº¤ éĢļ
and a
ens es
Ġtas ks
ers ion
æ·± åħ¥
---- -|
åįı è°ĥ
ar ian
ĠF ound
ĠL ou
Ġk ing
ç³»ç»Ł çļĦ
éĵ ģ
Ġaut o
Ġprofess ion
T L
Ġp ed
Ġre ference
ST R
p arent
O ut
un ct
ĠRe v
Ġcour t
Ġw inter
ä¹ ı
Ġconsum ption
w orks
Ġc ast
å»º è®®
Ġp ull
ang ing
Ġsh op
h ome
æĺ¯ ä¸Ģç§į
\ (
Ġdise ases
D C
Ġt al
ĠRe view
Ġimplement ation
å© ļ
æī ¾
åĳ Ī
c oh
æķ´ ä¸ª
ag o
æ³ķ è§Ħ
è®¡ç®Ĺ æľº
Ġd oll
ĠA v
Ġinstit utions
Ġinvest ment
Ġsym bol
Ġn ice
Ġwe ak
pt y
ĠIs lam
od ay
éģ ĩ
Ġ urban
Ġsh ip
èĽĭ çĻ½
Ġsol utions
ĠG ood
S P
Ġimpro ved
åª Ĵ
å¸® åĬ©
-------- -|
ä¸į å¾Ĺ
Ġfil es
ĠRep ublic
ĠĠĠĠĠĠĠĠĠĠĠĠĠĠĠĠĠĠĠĠĠĠĠĠ ĠĠĠĠ
Ġhum ans
å· ¦
Ġph il
Ġrem ov
çī¹ æ®Ĭ
pos es
ipp ed
Ġsepar ate
' '
g a
ĠInt e
S u
Ġhelp ed
éĤ£ ä¹Ī
Ġcirc um
å¹¶ ä¸Ķ
ĠD ec
Ġ5 8
e ared
Ġsp end
ç»¿ èī²
ĠH el
ĠD el
Ġd u
æ² ¹
éģ į
åħļ çļĦ
Ġcertain ly
ip al
è§Ĵ åº¦
Å «
d oc
ĠM em
ä¹ İ
æ´ ĭ
Ġn uc
ĠRe c
Ġfem ale
Ġc amer
m ap
Ġout comes
Ġ q
Ġt aught
ro gen
ĠG reat
ĠAd d
Ġreturn ed
Ġse vere
éĩį è§Ĩ
Ġpropos ed
Ġ ing
EC T
ĠDist rict
ĠS en
( ).
b order
os ystem
ord s
St ud
um er
èĦ ±
çĶ °
Ġconn ected
åħ µ
por ary
Ġcustom er
Ġass istance
Cl ass
Ġman ner
if ically
Ġc ert
our ney
Ġjob s
dition ally
ĠP ress
ic ed
rel ated
ra z
g s
Ġd aughter
Ind ex
se c
Ġinterest s
Ġdescrib e
ĠGe orge
æľŁ éĹ´
çĸ ĳ
ust ain
Ġse lected
ĠSt ring
č ĊĠĠĠĠĠĠĠ
ĠM ex
ĠF ood
ĠR oad
"> <
ĠP M
. âĢĶ
Ġs ector
Ġimpact s
Ġenh ance
Ġs ales
al ign
æĸ Ĺ
bl ock
éĽĨ ä¸Ń
m t
Ġrem oved
æıĲä¾Ľ äºĨ
S ub
Ġb acter
Ġr u
Ġpre fer
Ġr ise
Ġe gg
Ġ7 5
or ial
U p
ĠA p
ab et
Ġsk ill
æįŁ å®³
app ing
è Ĺı
o om
ç»´ æĬ¤
Ġmil k
ĠR E
Ġredu ced
Ġgr ass
re qu
Ġ( $
è¾ ©
Ġval uable
Ġst ar
ann el
r d
Ġg one
Ġother wise
ä¿Ŀ æĮģ
Ġgr ant
ĠI II
ra ction
äºĭ ä»¶
çļĦ ç¤¾ä¼ļ
ir gin
Ġappear s
Ġfor ces
us ing
os oph
pp ing
rast ructure
èĢĮ è¨Ģ
èģĶ åĲĪ
ur ity
Ġaltern ative
Ġliter ature
èĢĮ æĺ¯
C ON
Ġpo ly
n el
ĠL ist
U B
ut y
201 8
A A
Ġm ix
ĠAustral ia
çļĦ å¤§
ul ner
Ġscient ists
ï ½
ĠD et
Ġsupport ed
Ġchang ing
Ġcont ribute
Ġk ill
åĮĹ äº¬
Ġmet al
at in
çĽ ĸ
ish ing
ç³» åĪĹ
Ġrepl ace
ĠT otal
çº ł
Ġsc ore
Ġfre ed
Ġexperien ced
ot ic
Wh ile
è§Ħå®ļ çļĦ
ar n
Ġadvant age
åĬł å¿«
Ġcom ments
Ġra ise
ĠM ain
ag ue
The se
o oth
åį ·
i xt
or row
é«ĺ æł¡
Ġbel ong
us hed
å±Ĥ æ¬¡
G R
d a
al ysis
åĪ¤ æĸŃ
æķ° éĩı
Ġaware ness
us ion
ĠJ er
â ħ
Ġno vel
è° Ī
Ġfl at
Ġfind ing
Ġincre ases
Ø ©
è´Ł è´£
æĿ¥ è¯´
Ã Ń
Ġanc ient
) ï¼Į
ĠComm ittee
Ġsound s
ĠPh ys
Ġintern al
Ġcoun ter
he ight
ç´ ¯
ĠEx pl
Ġhy p
ĠH ol
Ġwind ow
T ime
åī §
Ġmin or
Ġ ),
çļĦ è§Ħå®ļ
Ġl ib
âĢĿ ,
Ġ200 2
Ġsex ual
çļĦ æĸ°
Ġse cret
3 00
ĠB el
åº Ĭ
AM E
åĦ¿ ç«¥
ç ĵ
ãĢĤ ï¼Ī
ĠJe an
èĥĮ æĻ¯
ap ers
Ġbec oming
ä¸° å¯Į
Ġwould n
Ġpur poses
é¼ ĵ
çĸ ¾
Ġann oun
Ù Ī
éĺ »
Ġwa it
æī© å¤§
Ġare n
æ° §
æĦ ¿
ol ved
Ġan x
t ical
ĠUnder standing
E X
Ġ3 7
olic y
ĠB i
ĠW he
ĠEnvironment al
k a
éĢ ı
å¥ ¹
ĠIntern et
8 00
Ġtrans l
Ġsitu ations
ç®Ģ åįķ
Ġm it
å¼ķ èµ·
ĠGo ogle
Ġauthor ity
ot o
ĠAmeric ans
èį ī
V ID
Ġant i
Ġgood s
rodu ct
åıĮ æĸ¹
d bo
im ents
à¤ ¤
äº¤ æµģ
A cc
åĪĨ åŃĲ
Ġat mosp
Ġcreat ive
åĮ» çĸĹ
Ġs now
ĠR ich
Ġst ation
Ġcons c
` `
F L
ĠB ay
ĠE lect
so ft
Ġco oper
Ġb atter
Ġplay er
ens ions
B C
m at
Ġb illion
Ġem p
ä¼ł æĴŃ
u ing
" );
å¹¶ ä¸į
ĠServ ices
AR G
Ġveh icle
åĳ ³
Ġsign s
P C
Ġdeterm ined
p a
]. [
è½¯ ä»¶
id ate
Ġagricult ural
æ· ·
Ġval ley
Ġvol ume
Ġmonitor ing
. **
it ness
è¿ ģ
ä¸Ģ å®ļçļĦ
l en
ab s
ĠAr ch
è¯· æ±Ĥ
Ġwill ing
Ġsignificant ly
Ġref ers
ç¢ į
æ¯ı ä¸ª
Ġill ustr
or a
ä¸Ĭ è¿°
Ġconcern s
ĠC are
ĠE th
è¯¾ åłĤ
Ġd ivid
ĠEn ergy
åĢº æĿĥ
M an
ens us
Instance ID
r m
æ¶ µ
èµ· æĿ¥
ĠA rab
oss ible
ãĢ Į
Ġspe ech
Ġh us
å® ½
ĠF OR
åİŁ çĲĨ
å¾Ī å¤ļ
E d
Ġdes cription
å¥ Ĺ
L et
Ġw ww
Ġshow ing
ail ed
Ġown ers
Ġredu cing
è¶ĭ åĬ¿
** :
i ated
M L
Ġass ign
åħ¬ å¹³
ä¸Ģ èĩ´
Ġdou ble
ĠM ark
Ġle aving
Ġleg is
Ġdiscuss ed
ä¿¡ åı·
Ġm m
Ġ3 8
Ġcl in
oy al
Ġmar riage
ĠT ime
es h
Ġpers ons
Ġtechn ologies
ang ed
è¡¨ æĺİ
Ġsh ift
Ġbelie ved
ãĢ į
æł ĳ
and er
Ġexper iment
ĠD an
ĠC H
Ġarg ument
Ġim pl
éĻ Ī
è§Ĥ å¿µ
Ġcol umn
S A
e er
g ov
Ġsh ap
Ġj oint
Ġ3 9
Ġs udden
Ġb and
back ground
---- ---|
æĬ µ
Ġprot ected
Ġw el
ĠM art
Ġwh atever
Ġmost ly
ic ks
ä¸ī ä¸ª
æŃ¤ å¤ĸ
è®¤ çŁ¥
Ġapprox imately
æĸĩ åŃ¦
Ġadv anced
Ġth row
ag ram
Ġopin ion
ost er
Ġdis app
Ġhelp ing
Ġviol ence
ĠCour t
om a
Ġcompon ent
Ġmax imum
S ize
p ub
ĠThom as
ï¼ ģ
ig ration
çĽ Ł
åĶ ¯
ç ¹
Ġopen ed
Ġf uck
Ġfund ing
ĠSm ith
Ġslight ly
ig en
èµ ĭ
åĲ ¬
Ġp p
å½ĵ æĹ¶
Ġun its
çĦ¶ èĢĮ
ĠG en
erv ed
ç ĩ
Ġl iqu
è¶ħ è¿ĩ
re nd
orm al
Ġexp osure
x l
por ate
\ +
Ġfollow s
Ġindepend ent
æ² ¿
T rans
al le
adem y
\( ^
. _
Ġel if
Ġslow ly
åĵ² åŃ¦
Ġc ities
Ġrele ased
ä¾Ľ åºĶ
ES T
Ġfocus ed
Ġins urance
Ġre new
s hip
Ġgu ess
Ġ4 2
æĮ ¯
Ġcall s
P E
Ġperspect ive
it age
os en
Ġr ub
çİ°ä»£ åĮĸ
Ġcl osed
E m
Ġl ibrary
k it
es p
Ġnut ri
è®¨ è®º
çĻ» è®°
Ġv irus
Ġsp ect
ĠS y
ä¸Ģ æĺ¯
Ġra ised
Ġn ull
ç¡ ¬
Ġinv ent
go ing
r t
Ġb odies
Ġapp oint
ĠJew ish
le te
ĠT able
ç¤¾ åĮº
Ġs pl
äºº å·¥
éĢļ ä¿¡
Ġb rief
Ġf ell
å¾Ģ å¾Ģ
æĬĢ èĥ½
Ġident ity
èĦ ī
z a
è§Ĥ å¯Ł
æ±¡ æŁĵ
Ġup d
OR D
Ġallow ing
Ġteam s
ĠCar ol
201 9
ut ive
ĠTe acher
Ġris ks
P T
Ġm ale
angu ages
l o
Ġex hib
Ġextreme ly
ind ing
Ġ6 4
wh ich
Ġbehavi our
se ction
ä¸º ä¸»
) (
h i
m ax
éĢŁ åº¦
Ġ200 4
ĠW here
Ġcol lected
Ġd ynam
ĠE xt
ĠCong ress
Ġnot ed
per ty
æĪĲ åĬŁ
on ents
Ġh omes
ĠEx per
ĠD E
ä½ľ åĵģ
O ver
t ra
ograph ic
ĠComp any
ock et
ĠC ode
ĠH uman
Ġkeep ing
Ġh ol
ä¾ §
ĠWh o
Ġrecomm ended
Ġb ott
ord ers
20 21
201 6
Ġp ages
Ġd b
Ġro t
rid ay
ĠThere fore
ç»ı è¿ĩ
à¤ ¿
èĩª ä¸»
ro s
åı ³
ĠM icro
am eter
åĵ ª
Ġsee ing
st ract
Ġconf ig
A g
éª ¨
Ġres istance
çİ¯ èĬĤ
Ġpie ces
èĩª æĪĳ
ib ilities
Ġj ourney
ĠV is
è®Ń ç»ĥ
æĿ¥ æºĲ
æĹ §
ab ric
Ġro w
ĠAcc ording
bt n
Ġf irm
ph ys
Ġint ended
åĲİ çļĦ
Ġocc urs
Ġrelative ly
Ġv acc
ĠF ather
Ġevent ually
ers cript
Ġr ural
og en
u ke
ä¸» å¼ł
Ġd rop
Ġ20 21
æľ¬ è´¨
Ġcons ervation
Ġprote in
ð Ŀ
äº ¦
è´ ¯
Ġadv ance
ĠTw o
[ '
-------- |
æľ¬ èº«
Ġform ed
ĠEx amples
Ġb urn
å° Ĭ
Ġun ivers
ĠSe cond
åŃ¦ æľ¯
ç¼ ĵ
å¤Ħ äºİ
Ġproper ly
sc ape
çŃĸ çķ¥
ĠS om
Ġcor respond
Ġsus p
ĠO R
ĠCon ference
ĠFr ance
A ss
Ġwat ers
ãĢĤ âĢľ
éģ µ
Ġev olution
em pl
het ic
Ġthous ands
c al
Ġst im
çŁ ¿
å¹³ è¡¡
Ġexcell ent
ant ic
Ġintrodu ced
Ġs rc
Ġdel iver
sup erscript
O D
Ġmain tenance
Ġmin imum
Ġcour ses
on ent
as te
sc roll
Ġhand le
Ġadv ice
ĠT V
æ£Ģ æµĭ
y a
ä½¿ å¾Ĺ
æįŁ å¤±
å°¤ åħ¶
Ġte eth
åĩº çīĪ
text superscript
ĠM ake
ĠA P
æĿ ¿
ĠNew s
m ark
im age
ç»Ł è®¡
è½¬ åıĺ
------------ -|
Ġindust rial
Ġengine ering
AR T
Ġ( "
Ġk illed
ç¯ ĩ
ä¸ĭ çļĦ
Ġdisc ipl
ä¸¤ ç§į
p adding
Ġcol on
se y
Ġsc hem
çĽ¸ åĲĮ
Ġbre ast
ç¾¤ ä¼Ĺ
( &
Ġ iron
çŃ ¹
è¡Į åĬ¨
Ġfind ings
æĻ® éģį
è´ µ
Ġst orm
ĠM ac
Ġsh ot
ang es
åħ± äº«
åĬĽ éĩı
Ġw ire
Ġproced ures
æŃ Į
ar p
æľ «
ĠL ife
Ġ6 5
Ġf if
åĪ° äºĨ
it ud
Ġaccount s
Ġemot ions
{ }
ç¼º ä¹ı
ĠRober t
Ġs umm
ab ul
ĠFr anc
% ï¼Į
ĠP RO
Ġch apter
Ġ5 5
æĪĲ åĳĺ
He re
ĠS elf
In st
Ġst reet
Ġac id
D F
es sel
Ġinte g
Ġspirit ual
r ont
æµģ åĬ¨
çĶŁ åĳ½
Ġelectric ity
åŃ¦ èĢħ
Ġcont rast
å® ı
at ically
Ġhold s
ĠUs ing
Ġsu fficient
çľŁ æŃ£
Ġrad io
Ġg un
ak ed
C an
ĠB usiness
Ġent ry
çĶ ²
ĠâĢ ¦
Ġdest roy
Ġj ournal
ä¼ļ è®®
Ġdist inct
Ġcy cle
Ġdefin ition
Ġpoll ution
ed ia
å¸ Į
Ġrelig ion
ĠC apt
In fo
Ġmarket ing
h ow
åĩ ½
r ift
pt ions
Ġpurch ase
Ġv ulner
201 5
ç®Ĺ æ³ķ
b i
Ġs ports
Ġth ick
ĠI F
coh ol
Ġl ose
è¥¿ æĸ¹
ĠS und
Ġdo ct
Ġeffic iency
æĿĥ çĽĬ
è®¾ ç½®
IT Y
Ġfeed back
é ¸
ri an
$ $
Ġlay er
çļĦ æĸ¹å¼ı
Ġredu ction
éħį ç½®
è¯ Ĭ
æľĢ å¤§
AN D
ak ers
ite ly
ĠWe b
ĠB ank
ĠL ike
ĠAss ess
s ource
du le
con tain
y cl
Ġg ender
Ġknow s
ĠS ec
æıĲåĩº äºĨ
ç£ ģ
E O
o ch
ri x
æľĢ åĲİ
Ġconflic t
v ate
ic ial
Ġit em
Ġan swers
Ġplan et
Ġeng age
å±ħ æ°ĳ
éĢĲ æ¸Ĳ
Ġsh ut
() )
az ing
Ġb ond
ĠW estern
è½¬ ç§»
Ġwe alth
é«ĺ çŃī
è¶ £
åĪĳ äºĭ
Ġaccom pl
Ġlead s
Ġtop ics
is hes
ed ing
ĠP ath
éģ¿ åħį
c d
çļĦ åħ³ç³»
ĠB et
arg s
ĠFound ation
å¹´ æĿ¥
) /
ĠE conom
Ġdep th
Ġintern et
Ġj ump
æ¯Ķ å¦Ĥ
çªģ åĩº
æĬ ĺ
ĠC ap
å¹ ħ
Ġjust ice
Ġfamil iar
O ur
I ST
Ġw idth
å¤ļ ç§į
i very
ä¼ ¦
à¥ Ģ
Ġst ick
Ġcl ub
Ġher self
Ġlearn ers
çľŁ å®ŀ
e per
ĠT H
æĽ ¿
èµ ĸ
Ġf ont
Ġf illed
ä¸į è¶³
Ġset s
ĠGerm any
in fo
Ġs oul
ĠE qu
ax ter
Ġp adding
uth ors
æĸĩ çĮ®
Re g
p op
ĠF orm
ĠUS A
D on
us es
" :
åŃ Ķ
åĽ½ æ°ĳ
itution al
if ier
äºĮ æĺ¯
Ġcirc uit
Ġ ]
ĠS un
if orm
ĠSp ace
ĠF e
æĺ¾ ç¤º
ç¹ ģ
S pec
åĲĪ æ³ķ
éĢĲ æŃ¥
å ³
Ġwe ar
æĮ ĳ
æĥħ å½¢
ĠÙ Ī
æľī åĪ©äºİ
Ġcl im
å¼º åĮĸ
Ġec osystem
Ġbir ds
4 00
åĲ Ľ
Ġcomb ination
ortun ately
ĠH en
Ġra nd
en ced
t w
Ġex change
Ġless ons
Con fig
Ġad op
p age
č ĊĠĠĠĠĠĠĠĠĠĠĠ
Ġv ary
s pec
Ġ ).
æĭ ĵ
åĿ ı
Ġsu itable
è ĸ
Ġsupp l
Ġ200 1
Ġexpl ained
èı Į
sp ect
Ġ4 4
Ġpr ison
Ġwe ap
Ġsm art
Ġnumer ous
ĠK now
2 000
å¤§ éĩı
It em
å±Ĥ éĿ¢
ĠDirect or
P L
l ook
ĠTh us
è¿Ľ ç¨ĭ
ç¦ ģ
in i
ĠD O
Ġsw itch
rie ved
Ġinf rastructure
in ating
Ġfl ood
k y
Ġm ole
ĠM il
con ds
ç»§ ç»Ń
l ines
é º
Ġm ort
Ġag encies
w ip
ç» į
åĢ ¾
Ġcontin ues
Ġimpro ving
est ions
Ġdisc overed
å¿« éĢŁ
ut ed
um s
Ġparticip ate
Ġjo in
Ġd iversity
us er
ang le
Ġv it
Ġexpl an
Ġleg s
Ġsec ure
Ġl oved
Ġsubject s
Ġaff ord
C M
ĠL anguage
Ġar range
r ig
ĠĠĠĠĠĠĠĠĠĠĠĠĠĠĠĠĠĠĠĠĠĠĠĠĠĠĠĠĠĠĠĠ ĠĠĠĠĠ
äº§ æĿĥ
Ġext ent
em et
æĿ¥ çľĭ
ĠChristian ity
Ġs ides
Ġtre ated
st ances
ĉĉ ĉĉ
Ġperform ed
Ġag ency
Ġfeel ings
Ġpercent age
Ġgu y
æĢ» ä½ĵ
Ġrecord ed
ï¬ ģ
Ġhe aring
ool s
Ġfreed om
% ,
ind er
Ġ4 1
Ġag reed
Re quest
M r
ĠI D
éĻ Ĩ
A tt
' ]
Ġl ock
am ps
ber g
æľ¬ æĸĩ
com ing
Ġswe et
am ental
Ġsy nt
Ġst ated
ff ee
åĬ¨ åĬĽ
åľ° çĲĨ
èĤ¡ ä¸ľ
on ym
C A
æ¯Ķ ä¾ĭ
Ġs ed
Ġar ms
åĬ³åĬ¨ èĢħ
Ġthe rapy
ç¬¬ åĽĽ
c m
æĬ ½
Ġtechn ique
ic ated
ĠS al
ĠFore st
if er
Ġoper ating
Ġpart ies
yn c
ol ve
Ġparticip ation
ĠCont rol
Ġhus band
Ġt iss
ĠD iv
Ġtru ly
l ay
res ents
) ãĢĤ
Ġres idents
âĢĿ ãĢģâĢľ
åĽ½ æľī
å¹ ¼
emet ery
\ )
Ġfor g
N E
ĠP ower
Ġtra ffic
EN D
Ġview s
ãĢģ ãĢĬ
ck now
Ġth r
Ġal g
åŃ¦ éĻ¢
åħ °
P ack
è Ń
ĠC ath
Ġpart ner
ĠJ ose
Ġtrans ition
Ġv oid
Ġme at
Ġman aged
ĠAd v
Ġdetail ed
ĠT ur
ĠN A
Ar ray
h ost
p ace
æ° ı
æĭ ¥
Ġsol ve
Ġser ver
def ault
Ġconcern ed
å® ª
é«ĺ åº¦
ĠV ict
ĠM ount
ĠB axter
Ġu pper
åĮħ åĲ«
Ġeng aged
ĠB ur
æģ ¶
C R
Ġo k
ä¹ ħ
æķ ĳ
S H
äºĭ ä¸ļ
è¿Ľè¡Į äºĨ
Ġresult ing
Ġhold ing
Ġfail ure
ĠS ustain
F ile
Ġen em
Ġdep ending
Ġneigh bor
de red
åħ· å¤ĩ
Ġr id
Ġveh icles
Ġpric es
Ġm ath
Ġex cess
è° ±
Ġg od
Ġpul led
åı ¥
æľī éĻĲ
f ree
ph one
Ġtr ig
Ġreg ions
åĿ Ģ
Ġnut rition
ĠS at
Ġfam ous
Ġfac ilit
Ġb ill
ä¸» åĬ¨
Ġed ge
çĬ¶ åĨµ
Ġapp arent
ĠEx p
çĺ ¤
Ġpre m
ial og
Ġfund s
Ġa id
ĠR ob
Ġse ed
Ġfram ework
ĠD i
ĠN ASA
Ġel im
çļĦ æĸ¹æ³ķ
st art
ink ing
æīĢ è°ĵ
ogn itive
Ġmot ion
çļĦ ä½ľçĶ¨
ĠM ass
Ġspe aking
é Ń
Ġdou bt
ĠProf ess
Ġg arden
ĠC amp
Ġsc ript
å¹³ åĿĩ
Ġcon ver
ĠS ing
æĬ ĳ
èĤ ¿
IN T
å¤Ħ ç½ļ
Ġimprove ment
Ġp al
è¿ĺ æľī
Ġleaders hip
Ġdes pite
in n
rit ing
é ½
Ġg ather
ĠA N
Ġj u
éĽ ¶
è½¬ åĮĸ
å®¡ æŁ¥
ĠId ent
y ou
Ġlab el
Ġwatch ing
semb ly
os a
ĠT ex
éĽĨ ä½ĵ
ä½ľ èĢħ
Ġreg ist
åĴĮ ç¤¾ä¼ļ
åĩĨ ç¡®
è½¬ åŀĭ
ul f
Ġcr is
ç»§ æī¿
ãĢĤ ãĢĬ
20 22
201 2
Ġfram e
ä¸ĭ éĻį
ond ay
Ġ9 5
ĠW ood
æĬķ åħ¥
R ec
åıĬ æĹ¶
Ġvari ables
Ġt on
Ġs ession
é¢Ħ æµĭ
Ġs en
Ġ4 6
ç»ıæµİ åıĳå±ķ
Ġ4 7
Ġform al
Ġam b
G ui
iver se
Y es
Ġs amples
è® ¿
Ġpre gn
éĺ ¿
Ġlead er
Ġtell s
Ġfail ed
Ġeval uation
ĠB oth
Ġour selves
' .
Ġpl astic
Ġtransport ation
j o
Ġch art
Ġcl ick
Ġemerg ency
Ġdrink ing
Ġsc ene
èĲ½ å®ŀ
Ġprep are
Ġp hen
Ġg ram
ĠSp irit
è¿Ŀ æ³ķ
ult s
è¾ ħ
é© ±
Ġcl ient
O M
Ġsh oot
æµĭ è¯ķ
ĠA D
æ¯ ķ
Ġstand ing
Ġn arr
ber t
ro t
Ġdis s
Ġt rib
à¤ ¯
e ah
Ġ4 3
P er
Ġto x
Ġsh aring
Ġk m
ðĿ ĳ
è´ ¡
Ġask ing
Ġread ers
Ġdec ide
Ġrest aur
ident ial
Th rift
OR T
æ¹ ĸ
ĠS l
Ġhabit at
it ors
Ġdrug s
ĠStr ateg
æĶ¹ åĸĦ
Ġfrequ ently
an ish
ĠW il
ĠH ave
éĿ¢ ä¸´
plic ations
ar ant
ç½ ²
Ġp un
æ± ł
Ġgreat est
Ġlist ed
Ġ199 9
Ġsubst ant
ed y
Ġar ray
Ġdes ire
éļ¾ ä»¥
p at
ĠE X
ap h
Res ponse
Ã ¤
Ġy rs
Ġte a
èĩª åĬ¨
Ġsupport ing
6 00
Ġqu iet
åħ¨ éĥ¨
å®¡ è®¡
ari os
ä¸´ åºĬ
Ġcommon ly
Ġprevious ly
An swer
ash ion
C D
ĠV er
md l
åģ ľ
it a
Ġobject ives
Ġrep resents
ĠFr ank
é» ĳ
el lect
Ġtri p
Ġd ram
Ġal t
Ġv essel
å¤§ æķ°æį®
Ġun c
åŁº éĩĳ
æĭ Ľ
Ġcho ices
ou ble
Ġwor se
Ġk iss
Ġobtain ed
cre te
Ġprocess ing
åŁ¹ è®Ń
å ´
Ġt ight
Ġopt im
ĠP et
be gin
Ġindic ate
( (
In ter
) ).
g reg
Con text
Ġclaim s
fra c
ri a
Ġadd ing
Ġhelp ful
çº¦ å®ļ
Mod el
it z
ĠM ill
Ġor g
Ġagree ment
Ġestim ated
åħ¬ æ°ĳ
O h
) );
as tern
ess ions
Ġill ness
ul s
Ġ1 50
è§ ¦
æ¡Ī ä¾ĭ
Ġneigh b
h op
Ġex ternal
ĠSu per
M ar
ic it
Ġpl ays
F e
ĠA ut
vers ion
æ¡ Ĩ
Ġaccept ed
V iew
Ġph ase
Ġsuggest s
Ġrand om
y er
ĠC reek
ĠRe al
Ġadminist ration
w in
ri er
è ª
or ter
Ġoccur red
Ġl anguages
os ite
Ġrespons es
Ġf old
Ġw est
ver ty
Ġunt o
ĠPr inc
AG E
çİ° åľ¨
201 0
ĠA R
åĽ½ çļĦ
Ġcaus ing
ĠSpec ial
Ġpo verty
Ġsupp osed
Ġabs or
Ġf ill
ĠP op
Ġsign al
ĠAc ademy
Ġl inks
ç´ł è´¨
çĪ ¶
Ġv ent
ak s
Ġthan k
l ong
r ich
Ġpict ures
çļĦ è¡Įä¸º
Ġfor ced
Ġv ote
Ġk id
çĥ Ī
S O
Ġm obile
åĨ Į
ĠĠĠĠĠĠĠĠĠĠĠĠĠĠĠĠĠĠĠĠĠĠĠĠ ĠĠĠĠĠĠ
k g
N ode
Ġ5 6
é£ ŀ
ĠAd minist
ĠC hem
ĠV irgin
ĠB er
ĠRead ing
Ġa part
Ġconf idence
ä¸ª ä½ĵ
ä½į ç½®
Ste p
ĠB ir
çı Ń
ir ty
ĠP lease
ĠØ§ÙĦ Ø
at al
Ġspec ifically
Ġy ellow
Ġregular ly
x b
ust er
B l
æľ ¨
Ġlat est
å¯ »
Ġorgan ic
ä»ĭ ç»į
Ġb ow
Ġf ert
Ġdri ving
Ġfarm ers
R em
w est
åħ± åĴĮ
ĠCon clusion
å¿ħ çĦ¶
th on
Ġart icles
c hen
ï¼ī ãĢģ
æ£Ģ æŁ¥
ĠAg ricult
é¼ĵ åĬ±
L og
f unc
om in
ä¸ĵ å®¶
201 3
ĠLou is
ri p
Ġdep artment
d y
ific ations
Ġinstru ment
Ġg ar
se lect
ĠV e
Ġfil ter
æĢ§ èĥ½
Ġ7 2
ĠN on
åº Ł
Ġcar s
éĴ ±
P r
m essage
Ġ );
Ġf aster
as m
Ġst ood
éĶĢ åĶ®
çļ ĩ
åĬ ª
Ġch ain
Ġcontin uous
u nder
ĠPl ay
f ill
if ies
çĦ¶ åĲİ
201 4
ac ific
ĠStud y
ĠChe ck
ĠRom an
ad y
vert ical
is ters
ent h
Ġtw enty
Ex ception
Ġappro aches
Ġhosp ital
acc ount
M ap
ĠL ong
ĠL ook
Ġper man
Ġd atabase
clud ing
éľ ²
çĸ¾ çĹħ
' );
ĠN or
Ġfin ished
é¾ Ļ
Ġintellig ence
Con n
åĩ½ æķ°
ĠI ll
æ¶ ¦
Ġcrit eria
F irst
æĿĥ åĬĽ
Q U
a fter
Ġy es
Ġse lection
ĠCour se
gy pt
am il
ĠCol or
Ġt ips
Ġcare fully
ĠM ethod
Ġconsequ ences
om ic
Ġfavor ite
web kit
ĠEngine ering
Ġ ................................................................
Ġgener ate
åıĤ èĢĥ
or ith
Ġm ur
Ġen able
è ĵ
ad ian
Ġdisc over
Ġaccur ate
abul ary
s he
it ative
Ġb right
st atic
he dule
ĠT itle
æĢĿ èĢĥ
ĠChar les
Ġdog s
Ġnuc lear
x c
ĠF und
Ġturn s
ĠH ill
ä»İ äºĭ
ĠIm port
Ġk it
Ġ5 2
head er
M ENT
s ummary
Ġa head
çļ ®
ĠCl ub
Ġm ixed
ä¹Ł æľī
E nd
t ings
ĠS on
oc abulary
Ġlist en
Ġmanufact ure
Ġsqu are
Ġarri ved
c s
Ã ³
f irst
Ġst ret
ä¿ Ĺ
a ud
u gg
Ġphot o
Ġconcent r
/ *
Ġst atic
Ġapp eared
Ġdom ain
st yle
Ġachieve ment
ra x
Ġinf ection
Ġport ion
W ell
Ġpro port
201 1
Ġvari able
p df
y les
Ġab use
äºĨ ä¸Ģ
Ġsuggest ed
am ing
å¤ļ æķ°
âĢĿ âĢľ
çĶ¨ äºº
Ġstop ped
D IR
Ġw alls
ĠC reat
ia h
ĠT or
æĥ ¯
Ġsm ooth
Ġcompet ition
ĠJew s
A Y
Ġc ash
ĠM ont
è¢« åĳĬ
Ġmot or
} )
Ĩ Ĵ
ä» ª
Ġ4 9
åı¯ æĮģç»Ń
ĠLe ad
Ġfund amental
Ġcircum stances
ĠJ ud
æĺ ¥
è¯ķ éªĮ
ĠP eter
Ġde bt
åĲĦ ä¸ª
Ġp ure
ol ar
åĳĺ å·¥
åıª æĺ¯
èŀį èµĦ
ing ly
ĠJ ac
le ments
N e
st ood
clus ive
f ocus
Ġdet ect
Ġb attle
Ġconsist ent
c ular
Ġlot s
çī¹åĪ« æĺ¯
èĢ Ĺ
are n
æĪĺ äºī
Ġhy per
C o
ĠO ld
Ġexp osed
Ġm el
å¸¦ æĿ¥
ap i
Ġs ight
æ± ½
ĠB ible
éĿ Ļ
ç¤¾ä¼ļ çļĦ
æŃ£ å¸¸
åŃĺ åĤ¨
Ġdoc uments
Ġa ward
åħ ¼
Ġme re
åħ¬ ä¼Ĺ
è®° å½ķ
Ġflow ers
c ar
ĠH all
ĠIt s
é«ĺ çļĦ
ĠP arent
Y our
Ġf le
Ġ5 3
f riend
ill a
Ġr xn
Ġmathemat ics
u zz
ic iency
æłĩ å¿Ĺ
ĠĠĠĠĠĠĠĠĠĠĠĠĠĠĠĠĠĠĠĠĠĠĠĠ ĠĠĠĠĠ
Ġs itting
Ġanx iety
Ġre nt
Ġfor t
() );
ĠPract ice
we ight
æ³¨ éĩį
t hen
od ing
Ġagricult ure
Ġcomprehens ive
l wip
he red
ä¾Ľ ç»Ļ
Ġal cohol
ab il
ĠN atural
éĺ ħ
Ġconvers ation
) ]
Ġs ick
ĠInd ust
Ġbeg ins
Ġra il
è¯Ĩ åĪ«
ĠCur rent
ĠDe v
Ġstart s
Ġhous ing
' :
r or
ä¹ĭ åīį
Ġcamer a
rom e
ĠJapan ese
ĠA lex
æ°ĳ ä¸»
Ġmeas ured
Ġphil osoph
c ard
ra int
ĠB rown
ç² ®
in te
Ġph r
Ġloc ations
x f
ot ed
ist an
ear s
æ¢ °
it is
Ġdep ends
Ġelect rical
Ġcomfort able
G ener
Ġm ine
iz er
Ġimp ossible
Ġm ent
our se
éŁ³ ä¹Ĳ
Ġclos er
h av
ĠM ax
ipp ing
ä¸¥ æł¼
) {
Ġrel ax
åĨħ çļĦ
Ġbacter ia
Ġl i
è¿ «
Ġide al
b ra
Ġa x
Ġdi verse
Ġatmosp here
en a
ĠO pen
ç³ ĸ
ç»ıæµİ åŃ¦
sh are
æ³ķ å®ļ
éĻ ·
Ġcol le
Ġopen ing
Ġp il
T ra
ĠO bject
pro ve
æĮĳ æĪĺ
o ose
Ġis land
ĠL og
ĠK ore
iet ies
å¾ª çİ¯
Ġf ix
æĢ İ
è¦ Ĩ
Ġtarget s
å¯¹ å¤ĸ
Ġinter action
Ġadminist r
è¯ ¢
ĠCO VID
Ġwalk ed
Ġentire ly
å± ĭ
åıĳ å¸ĥ
ĠS il
åīį æıĲ
Ġvill age
Ġre form
Ġoff ering
Ġcomb ined
Ġproced ure
abet es
ĠJ o
ag ers
ĠCh apter
çī¹ å®ļ
Ġdec ades
é¦ Ĩ
Ġwa iting
p ost
an ing
ç² Ĵ
S W
Ñ ĥ
ĠS outhern
å¹³ çŃī
Ġfound ation
t rue
Ġt ail
æľº åĻ¨
Ġsupport s
Ġreg ional
æĶ¶ çĽĬ
æĻ® éĢļ
Ġcommunic ate
Ġpop ulations
Ġ5 1
ĠMex ico
Ġst ake
in st
ĠF urther
S ystem
ĠO k
åī ¯
ĠAn other
ĠAs ia
Ġgener ated
w orld
ĠT om
ĠD NA
å·¥ä½ľ çļĦ
åį± æľº
Ġb low
ce l
__ _
Ġc row
Ġc rop
ĠS ar
Ġis ol
Ġmed ium
######## ########
Ġr ough
Ġ20 22
Ġbo ys
åĽ¢ éĺŁ
Ġsurround ing
T est
g est
Ġ çļĦ
è´¹ çĶ¨
éĻ¤ äºĨ
æħ ¢
ç¡® ä¿Ŀ
ä¿¡ çĶ¨
è®¾ ç«ĭ
Ġlet ters
çļĦåŁºç¡Ģ ä¸Ĭ
Ġh ur
em ic
ä¹ ±
åį ¡
ren e
åŁİ ä¹¡
hold ers
éĢĶ å¾Ħ
ĠF amily
Ġ199 8
omm od
åŁİ éķĩ
Ġgra ce
æķĪ åºĶ
Ġbro ken
Ġmod ule
az on
et ime
åįı åĲĮ
Ġappear ance
z en
Ġin sect
ĠRet rieved
Ġwide ly
f all
Ġkind s
Ġconsc ious
Ġm ode
å¤ļ æł·
Ġimm igr
Ġguid elines
A meric
ĠB ig
è¯ ĳ
ĠSu pport
åį« çĶŁ
1 01
ans ion
lic ation
Ġread er
Ġ+ =
b ase
r um
w iki
P oint
Ġt ong
B S
c ase
Ġa cknow
æĹ ħ
éĹ »
ĠĠĠĠĠĠĠĠĠĠĠĠĠĠĠĠĠĠĠĠĠĠĠĠĠĠĠĠĠĠĠĠ Ġ
B U
B ox
ĠRes ources
atur day
ä¸Ń å°ı
Ġind eed
å¤ļ ä¸ª
Ġelect ronic
Ġha z
ĠK ey
Ġmult i
re al
ad s
Ġr ul
og y
ç§ ¦
R el
Ġ$ {
Ġsecond ary
Ġsignific ance
Ġmount ain
Ġexp ensive
åħ¸ åŀĭ
as y
ĠC ult
Ġext ract
t arget
Ð »
Ġre action
Ġch osen
å½ »
ä»ĸ äºº
Ġsign ed
Ġhealth care
Ġ199 0
How ever
f oot
Ġfl ight
è¶Ĭ æĿ¥
è®º æĸĩ
Ġemploy ment
Ġtas te
äº§çĶŁ çļĦ
éĢ Ĵ
è´ ¥
Ġachie ved
il er
Ġsc ores
iod iversity
ore tical
å®Į æķ´
l abel
Ġw itness
ĠT ype
Ġne ck
Ġqu e
æ°ĳ éĹ´
ĠTex as
> ,
Ġmin im
ĠSp anish
æľī æľº
pro t
Ġad vert
Ġbe ar
æıı è¿°
Ġshe l
ĠVict or
Ġdist ributed
è¶ĬæĿ¥ è¶Ĭ
te en
ploy ment
ĠOn ly
Ġimplement ed
ĠCh ange
Ġprogram me
Ġgu ard
ĠA S
ç§ĳ çłĶ
æīĢ å¾Ĺ
Ġadv oc
ĠH and
âĢ¦âĢ¦âĢ¦âĢ¦ âĢ¦âĢ¦âĢ¦âĢ¦
A ST
xy gen
ĠP sych
ç§ ©
clud ed
èŃ ¦
åĬª åĬĽ
G E
Ġdis p
è½ ®
M ain
Ġfor th
ĠM el
Ġprogram ming
åĳ¨ æľŁ
Ġsens itive
r as
ĠB ill
èİ· åıĸ
or ida
Ġr an
é¡ µ
Ġreg ulations
Ġmedic ine
M ore
Ġp air
å®¹ æĺĵ
ĠCarol ina
ĠC ivil
ĠMich ael
atur ally
ĠVal ley
åı¤ ä»£
è´· æ¬¾
Ġliqu id
M ay
ro oms
çļĦ ä¸Ģä¸ª
æĺ¯ ä¸Ģ
Ġmo ist
. </
D ep
Ġp ump
Ġanaly ze
J ohn
w ar
çļĦ æ³ķå¾ĭ
Ġfor get
ov es
Ġevalu ate
çºł çº·
R d
k ing
Ġrem aining
Ġ5 4
ocr atic
Ġdanger ous
Ġun s
U D
Ġn arrow
ce ived
Ġr ank
Ġput ting
Ġamount s
Ġlink ed
Col or
çº ¯
Ġvis ible
Ġclose ly
" ]
ï¼Į ãĢĬ
Ġn ations
ant ly
ç¨İ æĶ¶
å° ¼
çĻ Į
æķ´ åĲĪ
ig ital
Ġco ffee
"> </
Ġbur ied
Ġcorn er
p act
ĠW ild
Ġv ital
æ³ķ æ²»
Ġend if
æĢ» ç»ĵ
æĺ¾ èĳĹ
Ġparam eters
ist ant
Ġf n
è´ ¦
Ġfact s
æĴ ĳ
m ath
at ers
Ġto w
à¤ ¨
A p
Ġl iv
ĠI r
ĠJose ph
ro ph
et t
ĠP oint
fe rent
äººå·¥ æĻºèĥ½
Ġst one
Ġexper ts
å² ģ
Ġprofession als
P R
åĪ ĺ
æ·± åº¦
Ġcomm itted
ok ing
Ġz ero
ĠGl obal
Ġf ro
ic ians
éĩ İ
Ġac res
Ġb ought
am pl
Ġa uthors
Ġd ress
æ° ¸
ĠTh rough
Ġrefer red
ĠM ag
sc ale
Ġf ixed
I ES
u a
Ġcal c
Ġf rag
åĩº çļĦ
P re
a wn
as p
ĠF ederal
Ġad equ
Ġob ser
ed er
Ġn urs
Ġinj ury
ĠM a
ĠE st
Ġsett ings
um es
Ġb ath
Ġha ven
Ġ5 00
Ġe ast
ĠP olicy
Ġdom estic
cl ient
A ct
on a
Ġ3 00
ĠCon n
æķĻèĤ² çļĦ
ĠR ef
F ield
Ġs ister
ues day
Ġre b
UL T
ĠC le
åħ ģ
Ġmin ute
l ers
Ġexpress ed
end ar
Ġt error
Ġtyp ical
è¿½ æ±Ĥ
o z
Ġfac ility
Ġcro ps
æĺ¯ å¯¹
ĠSund ay
i at
Ġmiss ing
et te
W indows
ic ious
ĠS pe
Ġguid ance
Ġb an
ĠT own
im ary
åĽ½å®¶ çļĦ
Ġgen etic
Ġvirt ual
ĠN ov
éĩį æĸ°
Ġdep os
------------ --|
le ts
os h
Ġmain ly
ĠDisc uss
Ġman ager
å¤ĸ éĥ¨
Ġdel ivery
æħ §
Ġm al
ĠS uch
Ġsu c
å®ŀ ä½ĵ
à¤ ķ
äºĮ åįģ
åı ¶
ĠW al
Ġrem ained
u ps
çļĦ æķ°æį®
Ġse conds
Ġus age
ĠHe ad
Ġfl ag
val id
urs day
è´ ´
Ġad oles
åĮº åĪ«
ĠDo es
in er
oc ial
Ġown er
Ġcris is
ç§© åºı
æĬĬ æı¡
in ity
Ġn ode
çĶ¨äºº åįķä½į
ĠCom put
Ġear n
æĶ¯ æĴĳ
Ġprinc iple
Gl ossary
ĠS ign
Ġexist ence
ic ient
b f
it ure
Ġb ag
ç» ĺ
Ch ild
v ation
Ġens uring
V E
or ough
Ġk ne
Ġrest rict
Ġsequ ence
l ength
Ù ĩ
Ġc up
Ġknow ing
æļ ´
T w
ĠN one
Ġ6 6
Ġcr im
Ġprim arily
Ġs yn
å®¢ æĪ·
Ġfrequ ency
Ġint ellect
Ġsp aces
Ġbreat h
æĥ ł
Ġsent ence
] ;
ri ve
Ġend s
IN E
E vent
Ġ5 7
An y
ĠInst ead
lin ux
S er
ĠA uthor
el ess
åİ Ĥ
ĠGu ide
ĠSec urity
F T
! âĢĿ
K S
n b
èģĮ èĥ½
Ġess ay
å® ľ
ĠM er
ĠP ot
Ġofficial s
Ġest ate
äºī è®®
C he
Ġre in
ace book
Ġp ool
å± Ĭ
Ġno ise
è° Ĳ
Ġsur g
æ·± åĮĸ
Ġrecogn ized
c f
ä¸Ĭ æµ·
Ġthan ks
ĠVirgin ia
Ġs ad
ĠS and
å¤ ı
ĠF riday
ell ed
åĨĽ äºĭ
è¿ŀ æİ¥
Ġter rit
v a
Ġs port
ĠF un
cl aim
un icip
ĠN O
Ġact s
F OR
æĬĢæľ¯ çļĦ
äº¤ æį¢
Ġgu ys
Rd X
ol ars
ru it
erson al
ĠAssess ment
ĠAd ditionally
Ġb rown
è´¢ åĬ¡
af ety
åĪ º
çŃī æĸ¹éĿ¢
Ċ ĠĠĠĠĠĠĠĠĠĠĠĠĠĠĠĠĠĠĠĠĠĠĠĠĠĠĠ
çļĦ åĨħå®¹
Ġint roduction
Ġo cean
Ġcol ors
éļľ ç¢į
d RdX
ĠM ad
ĠL ee
Ġsp ending
Ġtw ice
S erv
ic ian
sc ript
Ġext ended
Ġpack age
Ġhar vest
T ypes
ER S
ĠCon f
wh ile
Ġrecogn ize
Ġhon est
L O
Ġunder stood
å ĺ
Ġwor ry
Ġmeet ings
å «
Ċ ĠĠĠĠĠĠ
ĠM arket
Ġra w
Ġplan ned
Ġmor al
Ġc aught
ä¸Ģ çĽ´
Ġad opt
è½ ¨
Ġ8 5
æ¿Ģ åĬ±
ag on
ple te
æµģ ç¨ĭ
ĠComm on
B O
Ġ9 9
M et
ĠBuild ing
I O
ro ke
Ġal ign
çĤ İ
Ġmus cle
Ġcateg ory
ĠG old
çĦ ¦
Ġarg uments
ic ate
æĹ¶ åĢĻ
é©¬åħĭæĢĿ ä¸»ä¹ī
ĠC emetery
-------- ---|
Ġfl av
k ins
Ġreg ul
æ£Ģ å¯Ł
ĠG O
ĠO N
Ġindic ated
ä»į çĦ¶
ä¼ ´
ĠR ights
Ġ5 9
Ġsat ell
Ġc um
ĠL o
Ġbl ess
Ġhigh light
Ġlist ening
åĬ³åĬ¨ åĲĪåĲĮ
Ġphot os
æ¥ ļ
ä¸Ģ æĸ¹
Ġinstruct ions
F in
Ð º
Ġv ast
æķĻ æĿĲ
åĲĦ ç±»
Ġv ac
à¤ Ĥ
Ġdirect or
é¾ Ħ
D O
g rad
å¼ ĥ
Ġdis abilities
d ep
ĠL icense
y r
ed nes
Ġperiod s
Ġchalleng ing
Ġv s
ra cy
ĠIn f
Ġposs ibly
ĠP enn
Ġte le
ĠSt art
Ġheav en
Ġjud ge
ĠE gypt
" "
or ry
ĠA ccess
Ġinter vention
Ġrepresent ed
Ġrec ycl
åı¦ ä¸Ģæĸ¹éĿ¢
p es
Ġunder t
itud es
Ġsc re
Ġown ed
èĭ± åĽ½
ä¾µ æĿĥ
th let
M ost
åĬ¡ éĻ¢
P O
ric s
Ġconcent ration
Ġin h
Ġwrit er
if est
Ġab und
è¿Ľ æŃ¥
Ġb ird
Ġh ab
å½ ©
çĶ± æŃ¤
Ġre ject
ir ation
Ġsub s
æĥħ æĦŁ
H T
Ġdown load
Ġcap able
ĠA M
ä¸Ģ æł·
çĽ¸åħ³ çļĦ
Ġfing er
Ġing red
ĠHen ry
C all
Ä± n
re y
çļĦ èĥ½åĬĽ
ç¬¬ åįģ
opy right
Ġc ards
Ġt ut
ĠTh ose
ant a
T R
ic ago
vent ions
Ġcult iv
çļĦ è¿ĩç¨ĭ
Ġphot ograph
ĠHist or
ĠOb ama
å®ı è§Ĥ
Ġd ance
ĠW rite
åĲĮ æł·
Ġacc ommod
Ġrel ation
in ations
x e
ä¸Ģ æ¬¡
Ġag ent
Ġmaintain ing
e re
j s
Ġs alt
ri ers
ĠE ffect
åĬ¨ æĢģ
Ġam azing
ç¼ ĺ
æ¡Ĩ æŀ¶
èį¯ çī©
ç»© æķĪ
p et
ĠP acific
ab eth
Ġtemper atures
åŃ £
Ġcons ists
200 8
è£ Ĥ
Ġprinc ipal
Ġapprec iate
Ġphen omen
A m
Ġcl othes
Ġfeel s
g ba
m aking
Ġg ro
Ġbeaut y
Ġappro ved
Ġ199 6
äºĪ ä»¥
B uild
in et
Ġo l
or al
ĠWh ich
éĺ¶ çº§
Ġadop ted
æķ ı
åĬŀ æ³ķ
ĠT im
æŃ£ åľ¨
Ġper m
Ġdep art
Ġtrend s
ra ce
æģ ¢
Ġconsider ing
ĠF unction
Ġrepe ated
I E
ç»ıæµİ çļĦ
Ġreal ize
Ġcreat es
t le
Ġch ief
ç§ Ģ
Ġeven ing
Ġcomput ers
C ur
Ġb anks
Ġn ob
è¯ ¦
Ġcont aining
éĺ Ĳ
Ġequ ival
onym ous
e ers
crib e
erv es
ĠIm Gui
Ġgovern ments
he nt
AR Y
an ed
çĽ¸ æ¯Ķ
Ġrev olution
v oid
Ġm oon
ĠM useum
Ġapp eal
ne g
åįģ åĪĨ
å®ŀè·µ ä¸Ń
Ġerr ors
Ġincreasing ly
ĠRuss ian
åī ²
éĿŀ æ³ķ
Ġdeg rees
> >
Ġp ip
ĠR ad
åº¦ çļĦ
Ġbut ton
ç¥ ĸ
Ġforest s
Ġth in
åĽ½ åĬ¡éĻ¢
éª Ĺ
Ġobject ive
åĳĪ çİ°
T Y
Ġy ield
Ġ6 3
ĠSustain able
æĬ ¼
is k
ĠE N
ĠAre a
æ¬§ æ´²
b ing
çļĦ åİĨåı²
ĠE r
çĩ ĥ
end if
å®ļ ä½į
", "
Ġopp osite
B ack
Ġ ille
se m
se ll
Ġ( *
ä¼ĺ åħĪ
å² Ĺ
Ġl uck
aw s
r ance
i ot
t ion
Ġthe rm
or gan
çĽ¸ å½ĵ
ym bol
çģ ¾
Ġdefin itely
é½ Ĳ
uss y
Ġnet works
Ġconnect ions
Ġtrou ble
p ass
æĹł è®º
An other
