{
  "version": "1.0",
  "truncation": null,
  "padding": null,
  "added_tokens": [
    {
      "id": 0,
      "content": "<|endoftext|>",
      "single_word": false,
      "lstrip": false,
      "rstrip": false,
      "normalized": false,
      "special": true
    },
    {
      "id": 1,
      "content": "<|im_start|>",
      "single_word": false,
      "lstrip": false,
      "rstrip": false,
      "normalized": false,
      "special": true
    },
    {
      "id": 2,
      "content": "<|im_end|>",
      "single_word": false,
      "lstrip": false,
      "rstrip": false,
      "normalized": false,
      "special": true
    }
  ],
  "normalizer": null,
  "pre_tokenizer": {
    "type": "ByteLevel",
    "add_prefix_space": false,
    "trim_offsets": true,
    "use_regex": true
  },
  "post_processor": {
    "type": "ByteLevel",
    "add_prefix_space": true,
    "trim_offsets": true,
    "use_regex": true
  },
  "decoder": {
    "type": "ByteLevel",
    "add_prefix_space": true,
    "trim_offsets": true,
    "use_regex": true
  },
  "model": {
    "type": "BPE",
    "dropout": null,
    "unk_token": null,
    "continuing_subword_prefix": null,
    "end_of_word_suffix": null,
    "fuse_unk": false,
    "byte_fallback": false,
    "ignore_merges": false,
    "vocab": {
      "<|endoftext|>": 0,
      "<|im_start|>": 1,
      "<|im_end|>": 2,
      "!": 3,
      "\"": 4,
      "#": 5,
      "$": 6,
      "%": 7,
      "&": 8,
      "'": 9,
      "(": 10,
      ")": 11,
      "*": 12,
      "+": 13,
      ",": 14,
      "-": 15,
      ".": 16,
      "/": 17,
      "0": 18,
      "1": 19,
      "2": 20,
      "3": 21,
      "4": 22,
      "5": 23,
      "6": 24,
      "7": 25,
      "8": 26,
      "9": 27,
      ":": 28,
      ";": 29,
      "<": 30,
      "=": 31,
      ">": 32,
      "?": 33,
      "@": 34,
      "A": 35,
      "B": 36,
      "C": 37,
      "D": 38,
      "E": 39,
      "F": 40,
      "G": 41,
      "H": 42,
      "I": 43,
      "J": 44,
      "K": 45,
      "L": 46,
      "M": 47,
      "N": 48,
      "O": 49,
      "P": 50,
      "Q": 51,
      "R": 52,
      "S": 53,
      "T": 54,
      "U": 55,
      "V": 56,
      "W": 57,
      "X": 58,
      "Y": 59,
      "Z": 60,
      "[": 61,
      "\\": 62,
      "]": 63,
      "^": 64,
      "_": 65,
      "`": 66,
      "a": 67,
      "b": 68,
      "c": 69,
      "d": 70,
      "e": 71,
      "f": 72,
      "g": 73,
      "h": 74,
      "i": 75,
      "j": 76,
      "k": 77,
      "l": 78,
      "m": 79,
      "n": 80,
      "o": 81,
      "p": 82,
      "q": 83,
      "r": 84,
      "s": 85,
      "t": 86,
      "u": 87,
      "v": 88,
      "w": 89,
      "x": 90,
      "y": 91,
      "z": 92,
      "{": 93,
      "|": 94,
      "}": 95,
      "~": 96,
      "¡": 97,
      "¢": 98,
      "£": 99,
      "¤": 100,
      "¥": 101,
      "¦": 102,
      "§": 103,
      "¨": 104,
      "©": 105,
      "ª": 106,
      "«": 107,
      "¬": 108,
      "®": 109,
      "¯": 110,
      "°": 111,
      "±": 112,
      "²": 113,
      "³": 114,
      "´": 115,
      "µ": 116,
      "¶": 117,
      "·": 118,
      "¸": 119,
      "¹": 120,
      "º": 121,
      "»": 122,
      "¼": 123,
      "½": 124,
      "¾": 125,
      "¿": 126,
      "À": 127,
      "Á": 128,
      "Â": 129,
      "Ã": 130,
      "Ä": 131,
      "Å": 132,
      "Æ": 133,
      "Ç": 134,
      "È": 135,
      "É": 136,
      "Ê": 137,
      "Ë": 138,
      "Ì": 139,
      "Í": 140,
      "Î": 141,
      "Ï": 142,
      "Ð": 143,
      "Ñ": 144,
      "Ò": 145,
      "Ó": 146,
      "Ô": 147,
      "Õ": 148,
      "Ö": 149,
      "×": 150,
      "Ø": 151,
      "Ù": 152,
      "Ú": 153,
      "Û": 154,
      "Ü": 155,
      "Ý": 156,
      "Þ": 157,
      "ß": 158,
      "à": 159,
      "á": 160,
      "â": 161,
      "ã": 162,
      "ä": 163,
      "å": 164,
      "æ": 165,
      "ç": 166,
      "è": 167,
      "é": 168,
      "ê": 169,
      "ë": 170,
      "ì": 171,
      "í": 172,
      "î": 173,
      "ï": 174,
      "ð": 175,
      "ñ": 176,
      "ò": 177,
      "ó": 178,
      "ô": 179,
      "õ": 180,
      "ö": 181,
      "÷": 182,
      "ø": 183,
      "ù": 184,
      "ú": 185,
      "û": 186,
      "ü": 187,
      "ý": 188,
      "þ": 189,
      "ÿ": 190,
      "Ā": 191,
      "ā": 192,
      "Ă": 193,
      "ă": 194,
      "Ą": 195,
      "ą": 196,
      "Ć": 197,
      "ć": 198,
      "Ĉ": 199,
      "ĉ": 200,
      "Ċ": 201,
      "ċ": 202,
      "Č": 203,
      "č": 204,
      "Ď": 205,
      "ď": 206,
      "Đ": 207,
      "đ": 208,
      "Ē": 209,
      "ē": 210,
      "Ĕ": 211,
      "ĕ": 212,
      "Ė": 213,
      "ė": 214,
      "Ę": 215,
      "ę": 216,
      "Ě": 217,
      "ě": 218,
      "Ĝ": 219,
      "ĝ": 220,
      "Ğ": 221,
      "ğ": 222,
      "Ġ": 223,
      "ġ": 224,
      "Ģ": 225,
      "ģ": 226,
      "Ĥ": 227,
      "ĥ": 228,
      "Ħ": 229,
      "ħ": 230,
      "Ĩ": 231,
      "ĩ": 232,
      "Ī": 233,
      "ī": 234,
      "Ĭ": 235,
      "ĭ": 236,
      "Į": 237,
      "į": 238,
      "İ": 239,
      "ı": 240,
      "Ĳ": 241,
      "ĳ": 242,
      "Ĵ": 243,
      "ĵ": 244,
      "Ķ": 245,
      "ķ": 246,
      "ĸ": 247,
      "Ĺ": 248,
      "ĺ": 249,
      "Ļ": 250,
      "ļ": 251,
      "Ľ": 252,
      "ľ": 253,
      "Ŀ": 254,
      "ŀ": 255,
      "Ł": 256,
      "ł": 257,
      "Ń": 258,
      "ĠĠ": 259,
      "Ġt": 260,
      "Ġa": 261,
      "he": 262,
      "in": 263,
      "ĠĠĠĠ": 264,
      "re": 265,
      "on": 266,
      "Ġthe": 267,
      "er": 268,
      "Ġs": 269,
      "at": 270,
      "Ġo": 271,
      "en": 272,
      "Ġw": 273,
      "Ġc": 274,
      "es": 275,
      "nd": 276,
      "it": 277,
      "is": 278,
      "or": 279,
      "al": 280,
      "Ġp": 281,
      "ing": 282,
      "Ġb": 283,
      "an": 284,
      "ed": 285,
      "Ġf": 286,
      "ou": 287,
      "ar": 288,
      "Ġof": 289,
      "Ġm": 290,
      "Ġin": 291,
      "Ġand": 292,
      "ä¸": 293,
      "Ġto": 294,
      "ion": 295,
      "ĠĠĠĠĠĠĠĠ": 296,
      "ic": 297,
      "Ġd": 298,
      "le": 299,
      "ï¼": 300,
      "--": 301,
      "ro": 302,
      "as": 303,
      "Ġh": 304,
      "ent": 305,
      "ï¼Į": 306,
      "Ġth": 307,
      "çļ": 308,
      "çļĦ": 309,
      "ãĢ": 310,
      "ct": 311,
      "il": 312,
      "âĢ": 313,
      "Ġe": 314,
      "om": 315,
      "st": 316,
      "Ġre": 317,
      "ve": 318,
      "Ġl": 319,
      "Ġn": 320,
      "Ġ|": 321,
      "et": 322,
      "äº": 323,
      "ĠT": 324,
      "Ġg": 325,
      "ly": 326,
      "ĠI": 327,
      "ol": 328,
      "id": 329,
      "ĠS": 330,
      "se": 331,
      "ut": 332,
      "ot": 333,
      "im": 334,
      "Ġbe": 335,
      "Ġis": 336,
      "ce": 337,
      "ation": 338,
      "ra": 339,
      "ĠA": 340,
      "ow": 341,
      "ch": 342,
      "åı": 343,
      "ĠC": 344,
      "ur": 345,
      "..": 346,
      "ig": 347,
      "----": 348,
      "åħ": 349,
      "Ġfor": 350,
      "Ġy": 351,
      "æľ": 352,
      "Ġu": 353,
      "Ġst": 354,
      "ãĢĤ": 355,
      "ä»": 356,
      "Ġon": 357,
      "Ġthat": 358,
      "am": 359,
      "ver": 360,
      "åĪ": 361,
      "ad": 362,
      "Ġ1": 363,
      "el": 364,
      "ĠĠĠ": 365,
      "ay": 366,
      "ir": 367,
      "å®": 368,
      "ul": 369,
      "her": 370,
      "if": 371,
      "ĠĠĠĠĠĠĠĠĠĠĠĠĠĠĠĠ": 372,
      "ith": 373,
      "Ġ(": 374,
      "Ġyou": 375,
      "ĠM": 376,
      "Ġas": 377,
      "ĠP": 378,
      "Ġpro": 379,
      "ç»": 380,
      "Ġit": 381,
      "od": 382,
      "Ġwith": 383,
      "ä½": 384,
      "Ġcon": 385,
      "è¿": 386,
      "ãĢģ": 387,
      "çĶ": 388,
      "ter": 389,
      "ment": 390,
      "ge": 391,
      "Ġwh": 392,
      "Ġan": 393,
      "åĬ": 394,
      "åĲ": 395,
      "å¤": 396,
      "ate": 397,
      "Ġare": 398,
      "åľ": 399,
      "Ġal": 400,
      "ĠB": 401,
      "ess": 402,
      "Ġ2": 403,
      "ab": 404,
      "Ġor": 405,
      "æĺ": 406,
      "Ġhe": 407,
      "ĠThe": 408,
      "op": 409,
      "ill": 410,
      "æĸ": 411,
      "ers": 412,
      "ac": 413,
      "th": 414,
      "00": 415,
      "us": 416,
      "ist": 417,
      "ect": 418,
      "åĽ": 419,
      "ri": 420,
      "em": 421,
      "ĠW": 422,
      "Ġwe": 423,
      "ĠH": 424,
      "ke": 425,
      "ĠD": 426,
      "ld": 427,
      "est": 428,
      "ore": 429,
      "nt": 430,
      "pp": 431,
      "and": 432,
      "Ġcom": 433,
      "è®": 434,
      "åŃ": 435,
      "ä¹": 436,
      "ity": 437,
      "Ġex": 438,
      "um": 439,
      "è¯": 440,
      "qu": 441,
      "ĠR": 442,
      "ĠE": 443,
      "ure": 444,
      "Ġde": 445,
      "oc": 446,
      "Ġv": 447,
      "Ġwas": 448,
      "ĠF": 449,
      "ant": 450,
      "un": 451,
      "æĪ": 452,
      "igh": 453,
      "ort": 454,
      "ies": 455,
      "ive": 456,
      "ud": 457,
      "os": 458,
      "Ġat": 459,
      "ĠN": 460,
      "Ġha": 461,
      "ain": 462,
      "rom": 463,
      "--------": 464,
      "ä¼": 465,
      "ĠL": 466,
      "....": 467,
      "æĺ¯": 468,
      "æķ": 469,
      "Ġsu": 470,
      "Ġne": 471,
      "Ġch": 472,
      "iv": 473,
      "Ġby": 474,
      "åº": 475,
      "ĠG": 476,
      "âĢĻ": 477,
      "ä¸Ģ": 478,
      "res": 479,
      "Ġnot": 480,
      "Ġr": 481,
      "art": 482,
      "Ġse": 483,
      "Ġle": 484,
      "åĴ": 485,
      "end": 486,
      "æĿ": 487,
      "Ġfrom": 488,
      "åĴĮ": 489,
      "Ġcan": 490,
      "âĢľ": 491,
      "âĢĿ": 492,
      "__": 493,
      "Ġsh": 494,
      "åľ¨": 495,
      "è¡": 496,
      "æĢ": 497,
      "å¯": 498,
      "åĮ": 499,
      "å¹": 500,
      "pt": 501,
      "pe": 502,
      "Ġthis": 503,
      "ial": 504,
      "éĩ": 505,
      "Ġhave": 506,
      "ould": 507,
      "ä¸Ń": 508,
      "å¼": 509,
      "æĹ": 510,
      "ight": 511,
      "äºº": 512,
      "è§": 513,
      "rou": 514,
      "ust": 515,
      "ĠO": 516,
      "all": 517,
      "æ³": 518,
      "æľī": 519,
      "ä¸º": 520,
      "our": 521,
      "åį": 522,
      "èĢ": 523,
      "çĽ": 524,
      "åŃ¦": 525,
      "å°": 526,
      "åĨ": 527,
      "age": 528,
      "æĶ": 529,
      "pl": 530,
      "out": 531,
      "Ġab": 532,
      "ions": 533,
      "red": 534,
      "ard": 535,
      "éĢ": 536,
      "Ġwor": 537,
      "ome": 538,
      "æī": 539,
      "og": 540,
      "'s": 541,
      "gh": 542,
      "ff": 543,
      "ĠĠĠĠĠĠĠ": 544,
      "ĠJ": 545,
      "ical": 546,
      "åĽ½": 547,
      "ĊĠĠĠ": 548,
      "è´": 549,
      "ag": 550,
      "per": 551,
      "å¾": 552,
      "ine": 553,
      "Ġ\"": 554,
      "ç§": 555,
      "Ġpl": 556,
      "ie": 557,
      "te": 558,
      "çİ": 559,
      "ich": 560,
      "Ġ=": 561,
      "**": 562,
      "ä¸į": 563,
      "å±": 564,
      "åĩ": 565,
      "Ġk": 566,
      "Ġim": 567,
      "Ġus": 568,
      "ost": 569,
      "Ġ3": 570,
      "ell": 571,
      "Ġen": 572,
      "ther": 573,
      "iz": 574,
      "ide": 575,
      "æ³ķ": 576,
      "Ġwill": 577,
      "èĥ": 578,
      "ak": 579,
      "ip": 580,
      "Âł": 581,
      "æł": 582,
      "act": 583,
      "Ġtheir": 584,
      "Ġdo": 585,
      "æĬ": 586,
      "du": 587,
      "Ġall": 588,
      "Ġwhe": 589,
      "ä»¥": 590,
      "Ġme": 591,
      "ult": 592,
      "å·": 593,
      "ru": 594,
      "å¸": 595,
      "Ġthey": 596,
      "cl": 597,
      "able": 598,
      "Ġyour": 599,
      "çĲ": 600,
      "ast": 601,
      "ated": 602,
      "å½": 603,
      "ear": 604,
      "ans": 605,
      "are": 606,
      "åıĳ": 607,
      "ass": 608,
      "ind": 609,
      "The": 610,
      "ame": 611,
      "ance": 612,
      "è¦": 613,
      "çĶŁ": 614,
      "ack": 615,
      "ok": 616,
      "orm": 617,
      "cc": 618,
      "ĠU": 619,
      "è¦ģ": 620,
      "å¯¹": 621,
      "çĶ¨": 622,
      "Ġgo": 623,
      "è¡Į": 624,
      "ib": 625,
      "Ġad": 626,
      "Ġcl": 627,
      "çĲĨ": 628,
      "æŀ": 629,
      "Ġcomp": 630,
      "éĻ": 631,
      "ild": 632,
      "Ġbut": 633,
      "Ġj": 634,
      "vel": 635,
      "Ġres": 636,
      "æ°": 637,
      "ĊĠ": 638,
      "ä¸ļ": 639,
      "ous": 640,
      "èµ": 641,
      "äºĨ": 642,
      "ap": 643,
      "ong": 644,
      "ä¿": 645,
      "çī": 646,
      "ĠIn": 647,
      "åŁ": 648,
      "Ġint": 649,
      "ations": 650,
      "01": 651,
      "Ġhis": 652,
      "ry": 653,
      "ction": 654,
      "Ġwhich": 655,
      "çŃ": 656,
      "ary": 657,
      "one": 658,
      "ice": 659,
      "ake": 660,
      "æµ": 661,
      "éĿ": 662,
      "èĥ½": 663,
      "port": 664,
      "æŃ": 665,
      "Ġcont": 666,
      "ĠTh": 667,
      "æİ": 668,
      "Ġ-": 669,
      "Ġhas": 670,
      "éĹ": 671,
      "æĢ§": 672,
      "Ġout": 673,
      "ach": 674,
      "ren": 675,
      "ents": 676,
      "ual": 677,
      "Ġte": 678,
      "å¤§": 679,
      "ign": 680,
      "ub": 681,
      "å®ļ": 682,
      "........": 683,
      "Ġmore": 684,
      "ĠĠĠĠĠ": 685,
      "åĮĸ": 686,
      "Ġso": 687,
      "Ġman": 688,
      "ater": 689,
      "äºİ": 690,
      "ia": 691,
      "ime": 692,
      "ue": 693,
      "å®ŀ": 694,
      "ence": 695,
      "Ġdis": 696,
      "ä¸İ": 697,
      "æĪĲ": 698,
      "Ġother": 699,
      "ace": 700,
      "æĸ¹": 701,
      "av": 702,
      "ber": 703,
      "ä½ľ": 704,
      "çº": 705,
      "fe": 706,
      "ep": 707,
      "Ġ4": 708,
      "ä½ĵ": 709,
      "Ġone": 710,
      "au": 711,
      ").": 712,
      "ĠSt": 713,
      "ose": 714,
      "ä¼ļ": 715,
      "Ġup": 716,
      "åĪĨ": 717,
      "èĩ": 718,
      "å¿": 719,
      "Ġwere": 720,
      "ount": 721,
      "é¢": 722,
      "Ġ0": 723,
      "so": 724,
      "Ġapp": 725,
      "con": 726,
      "Ġ$": 727,
      "ç¨": 728,
      "ase": 729,
      "ĠâĢ": 730,
      "ord": 731,
      "Ġabout": 732,
      "ĠK": 733,
      "very": 734,
      "ĊĊ": 735,
      "ire": 736,
      "ook": 737,
      "ition": 738,
      "ew": 739,
      "ä¸ª": 740,
      "ĠĠĠĠĠĠĠĠĠĠĠĠĠĠĠĠĠĠĠĠĠĠĠĠĠĠĠĠĠĠĠĠ": 741,
      "ress": 742,
      "Ġher": 743,
      "Ġper": 744,
      "æĮ": 745,
      "form": 746,
      "ks": 747,
      "Ġun": 748,
      "Ġwho": 749,
      "ike": 750,
      "Ġsp": 751,
      "int": 752,
      "åı¯": 753,
      "ll": 754,
      "ite": 755,
      "ĠV": 756,
      "____": 757,
      "Ġif": 758,
      "Ġpart": 759,
      "ile": 760,
      "Ġ19": 761,
      "åĪ¶": 762,
      "Ġqu": 763,
      "Ġthem": 764,
      "now": 765,
      "Ġstud": 766,
      "ang": 767,
      "åĬ¨": 768,
      "),": 769,
      "Ġ5": 770,
      "----------------": 771,
      "æĹ¶": 772,
      "åİ": 773,
      "ä¾": 774,
      "xt": 775,
      "ool": 776,
      "Ġev": 777,
      "ä¸»": 778,
      "äº§": 779,
      "ç»ı": 780,
      "ens": 781,
      "Ġar": 782,
      "çİ°": 783,
      "ĠCh": 784,
      "Ġhad": 785,
      "ä¸Ĭ": 786,
      "ces": 787,
      "åľ°": 788,
      "Ġpe": 789,
      "nder": 790,
      "éĥ": 791,
      "ood": 792,
      "è¿Ľ": 793,
      "low": 794,
      "ject": 795,
      "ail": 796,
      "reat": 797,
      "ric": 798,
      "åĩº": 799,
      "ree": 800,
      "åĲĪ": 801,
      "ings": 802,
      "ory": 803,
      "Ġsc": 804,
      "Ġcomm": 805,
      "Ġ{": 806,
      "ç®": 807,
      "erv": 808,
      "Ġmy": 809,
      "è¾": 810,
      "åĲĮ": 811,
      "Ġalso": 812,
      "ors": 813,
      "ĠIt": 814,
      "Ġthere": 815,
      "Ġsome": 816,
      "ç«": 817,
      "å¹´": 818,
      "åħ³": 819,
      "Ġag": 820,
      "ish": 821,
      "ĠY": 822,
      "è¿Ļ": 823,
      "Ġwork": 824,
      "æľ¬": 825,
      "ç¤": 826,
      "æı": 827,
      "ç³": 828,
      "ĊĠĠĠĠĠĠĠĠ": 829,
      "ram": 830,
      "Ġwhen": 831,
      "Ġtime": 832,
      "Ġwould": 833,
      "çŃī": 834,
      "åĳ": 835,
      "æį": 836,
      "åħ¶": 837,
      "ning": 838,
      "å±ķ": 839,
      "ple": 840,
      "åĬĽ": 841,
      "ays": 842,
      "ople": 843,
      "pec": 844,
      "Ġbec": 845,
      "ç³»": 846,
      "Ġsa": 847,
      "åºĶ": 848,
      "Ġour": 849,
      "Ġlike": 850,
      "ound": 851,
      "ĊĠĠĠĠĠĠĠ": 852,
      "æ²": 853,
      "å·¥": 854,
      "Ġbeen": 855,
      "Ġ*": 856,
      "ck": 857,
      "Ġpre": 858,
      "ally": 859,
      "Ġover": 860,
      "ough": 861,
      "Ġany": 862,
      "lic": 863,
      "ove": 864,
      "Ġinto": 865,
      "ĉĉ": 866,
      "è¿ĩ": 867,
      "Ġhow": 868,
      "æķĻ": 869,
      "ities": 870,
      "èĢĮ": 871,
      "Ġthan": 872,
      "Ġyear": 873,
      "ĠâĢľ": 874,
      "æ±": 875,
      "Ġro": 876,
      "æķ°": 877,
      "ph": 878,
      "clud": 879,
      "èĤ": 880,
      "Ġtra": 881,
      "Ġknow": 882,
      "Ġunder": 883,
      "ç¨ĭ": 884,
      "ä¹ĭ": 885,
      "Ġwhat": 886,
      "ob": 887,
      "æĸĩ": 888,
      "ç½": 889,
      "æĶ¿": 890,
      "ov": 891,
      "åº¦": 892,
      "rent": 893,
      "we": 894,
      "ink": 895,
      "ments": 896,
      "Ġpeople": 897,
      "ons": 898,
      "ef": 899,
      "å»": 900,
      "urn": 901,
      "Ġ6": 902,
      "æĦ": 903,
      "rough": 904,
      "ark": 905,
      "æ°ĳ": 906,
      "é«": 907,
      "éĩį": 908,
      "Ġneed": 909,
      "ĠThis": 910,
      "Ġact": 911,
      "Ġind": 912,
      "lect": 913,
      "æĭ": 914,
      "ys": 915,
      "row": 916,
      "èµĦ": 917,
      "yst": 918,
      "æĿ¥": 919,
      "æĸ°": 920,
      "é«ĺ": 921,
      "ific": 922,
      "Ġdes": 923,
      "hed": 924,
      "èĢħ": 925,
      "Ġem": 926,
      "Ġrec": 927,
      "Ġuse": 928,
      "ian": 929,
      "åĵ": 930,
      "Ġnew": 931,
      "::": 932,
      "velop": 933,
      "ĠHe": 934,
      "åĪ°": 935,
      "Ġdif": 936,
      "à¤": 937,
      "chool": 938,
      "rit": 939,
      "'t": 940,
      "20": 941,
      "vers": 942,
      "Ġmay": 943,
      "get": 944,
      "èĩª": 945,
      "æĥ": 946,
      "ause": 947,
      "Ġcons": 948,
      "¦Ĥ": 949,
      "Ġbet": 950,
      "ç©": 951,
      "åĢ": 952,
      "Ġacc": 953,
      "ath": 954,
      "tern": 955,
      "æıĲ": 956,
      "ates": 957,
      "In": 958,
      "ç¬": 959,
      "Ġget": 960,
      "åŁº": 961,
      "Ġshe": 962,
      "irst": 963,
      "old": 964,
      "Ġits": 965,
      "Ġno": 966,
      "çł": 967,
      "Ġ'": 968,
      "round": 969,
      "olog": 970,
      "ystem": 971,
      ");": 972,
      "cess": 973,
      "ne": 974,
      "Ġ&": 975,
      "åıĳå±ķ": 976,
      "ious": 977,
      "Ġtr": 978,
      "éĿ¢": 979,
      "ata": 980,
      "Ġfe": 981,
      "å»º": 982,
      "Ġoff": 983,
      "ĠĠĠĠĠĠ": 984,
      "Ġthese": 985,
      "ï¼ī": 986,
      "å¢": 987,
      "Ġass": 988,
      "æīĢ": 989,
      "Ġchild": 990,
      "ft": 991,
      "å®¶": 992,
      "Ġtw": 993,
      "iss": 994,
      "Ġrel": 995,
      "è§Ħ": 996,
      "own": 997,
      "åħ¬": 998,
      "æľº": 999,
      "è½": 1000,
      "Ġ.": 1001,
      "ï¼Ī": 1002,
      "ĠRe": 1003,
      "eth": 1004,
      "åħ¨": 1005,
      "ç¤¾": 1006,
      "éĢļ": 1007,
      "Ġprov": 1008,
      "çĽ¸": 1009,
      "Ġinclud": 1010,
      "ç¡": 1011,
      "åĬ¡": 1012,
      "Ġam": 1013,
      "cre": 1014,
      "19": 1015,
      "Ġra": 1016,
      "sel": 1017,
      "çī©": 1018,
      "Ġ[": 1019,
      "ç§į": 1020,
      "åī": 1021,
      "ative": 1022,
      "Ġbl": 1023,
      "Ġ8": 1024,
      "ps": 1025,
      "æ´": 1026,
      "è®¾": 1027,
      "Ġcol": 1028,
      "//": 1029,
      "les": 1030,
      "å¤ļ": 1031,
      "Ġ7": 1032,
      "æ¯": 1033,
      "ert": 1034,
      "rib": 1035,
      "è°": 1036,
      "erm": 1037,
      "ational": 1038,
      "ract": 1039,
      "æĿĥ": 1040,
      "çŁ": 1041,
      "æį®": 1042,
      "10": 1043,
      "Ġhel": 1044,
      "Ġjust": 1045,
      "Ġthrough": 1046,
      "ating": 1047,
      "äºĭ": 1048,
      "Ġonly": 1049,
      "éģ": 1050,
      "ä»£": 1051,
      "ĠWh": 1052,
      "Ġimp": 1053,
      "éĥ¨": 1054,
      "Ġsuch": 1055,
      "ä¸ĭ": 1056,
      "ility": 1057,
      "Ġpo": 1058,
      "åĨħ": 1059,
      "Ġshould": 1060,
      "fter": 1061,
      "ied": 1062,
      "éĺ": 1063,
      "éĩı": 1064,
      "åıĬ": 1065,
      "##": 1066,
      "ics": 1067,
      ".,": 1068,
      "ise": 1069,
      "ty": 1070,
      "ful": 1071,
      "Ġdevelop": 1072,
      "ick": 1073,
      "åĽł": 1074,
      "ener": 1075,
      "ng": 1076,
      "wn": 1077,
      "Ġ201": 1078,
      "ced": 1079,
      "ange": 1080,
      "ock": 1081,
      "Ġeff": 1082,
      "ont": 1083,
      "mer": 1084,
      "åĪ©": 1085,
      "ï¼ļ": 1086,
      "ç»Ł": 1087,
      "å¼ı": 1088,
      "ä¹Ł": 1089,
      "èģ": 1090,
      "Ġcould": 1091,
      "Ġspec": 1092,
      "oth": 1093,
      "å¦Ĥ": 1094,
      "åĲİ": 1095,
      "å¥": 1096,
      "ss": 1097,
      "Ġhim": 1098,
      "Ġmost": 1099,
      "Ġob": 1100,
      "Ġexp": 1101,
      "ection": 1102,
      "Ġbu": 1103,
      "Ġused": 1104,
      "alth": 1105,
      "Ġsupp": 1106,
      "é¡": 1107,
      "æĪĳ": 1108,
      "ient": 1109,
      "ond": 1110,
      "Ġprodu": 1111,
      "éĹ´": 1112,
      "Ġph": 1113,
      "oy": 1114,
      "ç¤¾ä¼ļ": 1115,
      "Ġwhere": 1116,
      "Ġ<": 1117,
      "Ġadd": 1118,
      "æĪĸ": 1119,
      "Ġfirst": 1120,
      "ç®¡": 1121,
      "oss": 1122,
      "als": 1123,
      "Ġatt": 1124,
      "................": 1125,
      "è®¡": 1126,
      "Ġreg": 1127,
      "ife": 1128,
      "Ġdiffe": 1129,
      "ãĢĬ": 1130,
      "Ġ9": 1131,
      "hen": 1132,
      "ãĢĭ": 1133,
      "ç¬¬": 1134,
      "Ġinv": 1135,
      "æĽ": 1136,
      "Ġmake": 1137,
      "Ġtwo": 1138,
      "ature": 1139,
      "ble": 1140,
      "com": 1141,
      "Ġfl": 1142,
      "Ġthen": 1143,
      "000": 1144,
      "ĠPro": 1145,
      "cy": 1146,
      "Ġlear": 1147,
      "ER": 1148,
      "æ¬": 1149,
      "ä¿Ŀ": 1150,
      "fore": 1151,
      "ä»İ": 1152,
      "ä¹ī": 1153,
      "âĢĶ": 1154,
      "çĤ": 1155,
      "cept": 1156,
      "å½ĵ": 1157,
      "ring": 1158,
      "iew": 1159,
      "è·": 1160,
      "Ġco": 1161,
      "ade": 1162,
      "ible": 1163,
      "==": 1164,
      "ular": 1165,
      "Ġsub": 1166,
      "itt": 1167,
      "Ġwell": 1168,
      "Ġend": 1169,
      "ç»ĵ": 1170,
      "Ġac": 1171,
      "çłĶ": 1172,
      "éļ": 1173,
      "Ġback": 1174,
      "ex": 1175,
      "å°±": 1176,
      "Ġschool": 1177,
      "ased": 1178,
      "Ġpers": 1179,
      "its": 1180,
      "uring": 1181,
      "led": 1182,
      "ize": 1183,
      "Ġclass": 1184,
      "Ġmany": 1185,
      "ä¿¡": 1186,
      "æľ¯": 1187,
      "åĬł": 1188,
      "Ġhelp": 1189,
      "å¼Ģ": 1190,
      "aw": 1191,
      ".\"": 1192,
      "Ġinst": 1193,
      "è§£": 1194,
      "æµİ": 1195,
      "ily": 1196,
      "ower": 1197,
      "æĬĢ": 1198,
      "ĠWe": 1199,
      "ident": 1200,
      "å¹¶": 1201,
      "é¢ĺ": 1202,
      "Ġpr": 1203,
      "çķ": 1204,
      "Ġsm": 1205,
      "ä½¿": 1206,
      "Ġrem": 1207,
      "æŀĦ": 1208,
      "å½¢": 1209,
      "æłĩ": 1210,
      "æĦı": 1211,
      "åģ": 1212,
      "ax": 1213,
      "æľŁ": 1214,
      "uch": 1215,
      "æĺİ": 1216,
      "çľ": 1217,
      "ĠCom": 1218,
      "uc": 1219,
      "Ġval": 1220,
      "Ġsee": 1221,
      "Ġsystem": 1222,
      "gan": 1223,
      "ience": 1224,
      "ç»ıæµİ": 1225,
      "Ġsaid": 1226,
      "çī¹": 1227,
      "arch": 1228,
      "ĠâĢĵ": 1229,
      "up": 1230,
      "sp": 1231,
      "Ġbecause": 1232,
      "ĠUn": 1233,
      "gram": 1234,
      "è®º": 1235,
      "çĽ®": 1236,
      "ms": 1237,
      "å¾Ĺ": 1238,
      "Ġinter": 1239,
      "ç«ĭ": 1240,
      "ç©¶": 1241,
      "Ġ\\": 1242,
      "éľ": 1243,
      "è¶": 1244,
      "ç±": 1245,
      "Ġ10": 1246,
      "Ġfol": 1247,
      "çĶ±": 1248,
      "Ġyears": 1249,
      "ural": 1250,
      "Ġke": 1251,
      "è¡¨": 1252,
      "12": 1253,
      "=\"": 1254,
      "ork": 1255,
      "ict": 1256,
      "hes": 1257,
      "ween": 1258,
      "Ġed": 1259,
      "Ġevery": 1260,
      "de": 1261,
      "iet": 1262,
      "aking": 1263,
      "Ġ20": 1264,
      "ices": 1265,
      "ç§ĳ": 1266,
      "æŁ": 1267,
      "å¸Ĥ": 1268,
      "Ġtrans": 1269,
      "ç´": 1270,
      "éķ": 1271,
      "åħ¥": 1272,
      "è´¨": 1273,
      "Ġpol": 1274,
      "ten": 1275,
      "Ġset": 1276,
      "Ġway": 1277,
      "ĠĠĠĠĠĠĠĠĠĠĠĠĠĠĠĠĠĠĠĠĠĠĠĠ": 1278,
      "æĻ": 1279,
      "Ġty": 1280,
      "Ġ}": 1281,
      "Ġret": 1282,
      "ä¸ī": 1283,
      "Ġinform": 1284,
      "Ġdid": 1285,
      "ution": 1286,
      "Ġwater": 1287,
      "ode": 1288,
      "Ġstudents": 1289,
      "Th": 1290,
      "hip": 1291,
      "å¤ĸ": 1292,
      "tt": 1293,
      "IN": 1294,
      "Ġnum": 1295,
      "Ġlook": 1296,
      "å¹³": 1297,
      "Ġ200": 1298,
      "çĤ¹": 1299,
      "ĊĠĠĠĠĠĠĠĠĠĠĠ": 1300,
      "Ġread": 1301,
      "________": 1302,
      "chn": 1303,
      "Ġimport": 1304,
      "åĮº": 1305,
      "ä»¬": 1306,
      "æģ": 1307,
      "Ġpres": 1308,
      "stand": 1309,
      "ts": 1310,
      "Ġresp": 1311,
      "æ¸": 1312,
      "åħ·": 1313,
      "Ġbetween": 1314,
      "èĤ²": 1315,
      "Ġ18": 1316,
      "ON": 1317,
      "ants": 1318,
      "Ġcommun": 1319,
      "ï¼Ľ": 1320,
      "ruct": 1321,
      "50": 1322,
      "Ġvery": 1323,
      "Ġexper": 1324,
      "ublic": 1325,
      "æŃ¤": 1326,
      "ä»ĸ": 1327,
      "Ġcount": 1328,
      "Ġeven": 1329,
      "Ġgood": 1330,
      "æ±Ĥ": 1331,
      "çĦ": 1332,
      "Ġrequ": 1333,
      "åīį": 1334,
      "æº": 1335,
      "çłĶç©¶": 1336,
      "åıĺ": 1337,
      "other": 1338,
      "Ġhigh": 1339,
      "St": 1340,
      "éĹ®": 1341,
      "Ġeach": 1342,
      "åĿ": 1343,
      "Ġlong": 1344,
      "arg": 1345,
      "ues": 1346,
      "Ġdifferent": 1347,
      "æķĪ": 1348,
      "iel": 1349,
      "ward": 1350,
      "åŃĲ": 1351,
      "Ġsur": 1352,
      "Ġbeing": 1353,
      "ness": 1354,
      "Ġgra": 1355,
      "Ġafter": 1356,
      "land": 1357,
      "Ġright": 1358,
      "ather": 1359,
      "ä»·": 1360,
      "ĊĠĠĠĠĠ": 1361,
      "ĠAn": 1362,
      "Ġserv": 1363,
      "Ġmod": 1364,
      "Ġloc": 1365,
      "Ġown": 1366,
      "Ġchildren": 1367,
      "ec": 1368,
      "self": 1369,
      "æ²»": 1370,
      "ix": 1371,
      "ç»Ħ": 1372,
      "è®¤": 1373,
      "éĽ": 1374,
      "èī": 1375,
      "ives": 1376,
      "io": 1377,
      "</": 1378,
      "åŀ": 1379,
      "Ġdoes": 1380,
      "ä»¶": 1381,
      "Ġent": 1382,
      "ines": 1383,
      "å°Ĩ": 1384,
      "æľĢ": 1385,
      "ting": 1386,
      "äºĮ": 1387,
      "è¯Ĩ": 1388,
      "ds": 1389,
      "ES": 1390,
      "ited": 1391,
      "Ġdef": 1392,
      "Ġfollow": 1393,
      "Ġexam": 1394,
      "ä½į": 1395,
      "éľĢ": 1396,
      "und": 1397,
      "ä¸ŃåĽ½": 1398,
      "sc": 1399,
      "erg": 1400,
      "å¼º": 1401,
      "ç±»": 1402,
      "ä¼ģ": 1403,
      "Ġthose": 1404,
      "ures": 1405,
      "11": 1406,
      "Ġvar": 1407,
      "æ¡": 1408,
      "ç¾": 1409,
      "åİŁ": 1410,
      "æ¶": 1411,
      "ever": 1412,
      "å¿ĥ": 1413,
      "Ġcre": 1414,
      "vent": 1415,
      "Ġmuch": 1416,
      "ĠAs": 1417,
      "Ġsign": 1418,
      "åı¯ä»¥": 1419,
      "åĲĳ": 1420,
      "Ġform": 1421,
      "Ġdet": 1422,
      "Ġprocess": 1423,
      "Ġdisc": 1424,
      "Ġthink": 1425,
      "ĠHow": 1426,
      "çĦ¶": 1427,
      "ins": 1428,
      "Ġwant": 1429,
      "Ġperson": 1430,
      "Ġsoc": 1431,
      "Ġworld": 1432,
      "Ġdown": 1433,
      "çĿ": 1434,
      "ull": 1435,
      "æ´»": 1436,
      "ually": 1437,
      "è¿Ľè¡Į": 1438,
      "Ġsk": 1439,
      "ĠIf": 1440,
      "Ġbefore": 1441,
      "Ġcall": 1442,
      "Ġcar": 1443,
      "Ġinf": 1444,
      "åħ±": 1445,
      "Ġagain": 1446,
      "ĊĊĠĠĠ": 1447,
      "Ġear": 1448,
      "Ġmade": 1449,
      "æĽ´": 1450,
      "Ġdata": 1451,
      "ved": 1452,
      "åĲĦ": 1453,
      "Ġhand": 1454,
      "æĮĩ": 1455,
      "air": 1456,
      "æºĲ": 1457,
      "ä¼ģä¸ļ": 1458,
      "Ġcur": 1459,
      "Ġlife": 1460,
      "æĿ¡": 1461,
      "arm": 1462,
      "Ġhealth": 1463,
      "Ġdec": 1464,
      "ĠThey": 1465,
      "Ġnow": 1466,
      "Ġprogram": 1467,
      "iron": 1468,
      "Ġdist": 1469,
      "ç¼": 1470,
      "AR": 1471,
      "Ġsim": 1472,
      "ages": 1473,
      "ology": 1474,
      "Ġpartic": 1475,
      "Ġresult": 1476,
      "æŃ£": 1477,
      "ody": 1478,
      "åĪĽ": 1479,
      "å¯¼": 1480,
      "çŁ¥": 1481,
      "éĹ®é¢ĺ": 1482,
      "Ġcomple": 1483,
      "æĥħ": 1484,
      "è°ĥ": 1485,
      "Ġgener": 1486,
      "Ġeffect": 1487,
      "Ġgu": 1488,
      "è¯ģ": 1489,
      "åĵģ": 1490,
      "éķ¿": 1491,
      "éĩĳ": 1492,
      "ale": 1493,
      "ä¸Ģä¸ª": 1494,
      "201": 1495,
      "åĪĻ": 1496,
      "ving": 1497,
      "Ġel": 1498,
      "Ġless": 1499,
      "Ġplay": 1500,
      "Ġinformation": 1501,
      "Ġmin": 1502,
      "åľº": 1503,
      "Ġfam": 1504,
      "Ċĉĉ": 1505,
      "ç¡®": 1506,
      "Ġinte": 1507,
      "çĶµ": 1508,
      "ah": 1509,
      "Ġstr": 1510,
      "ĠYou": 1511,
      "ave": 1512,
      "æŀľ": 1513,
      "rest": 1514,
      "roup": 1515,
      "Ġdon": 1516,
      "ash": 1517,
      "æ¨": 1518,
      "æĢĿ": 1519,
      "ç®¡çĲĨ": 1520,
      "ĠSe": 1521,
      "()": 1522,
      "any": 1523,
      "æĬĢæľ¯": 1524,
      "âĢ¦": 1525,
      "æĹł": 1526,
      "åŀĭ": 1527,
      "Ġsame": 1528,
      "read": 1529,
      "-|": 1530,
      "Ġappro": 1531,
      "ality": 1532,
      "gg": 1533,
      "Ġsupport": 1534,
      "Ġext": 1535,
      "Ġche": 1536,
      "éª": 1537,
      "ven": 1538,
      "way": 1539,
      "orn": 1540,
      "ĠDe": 1541,
      "ute": 1542,
      "iness": 1543,
      "æĶ¹": 1544,
      "cent": 1545,
      "ä»»": 1546,
      "Ġfind": 1547,
      "ivers": 1548,
      "Ġpoint": 1549,
      "è¢": 1550,
      "ier": 1551,
      "Ġlevel": 1552,
      "ential": 1553,
      "AT": 1554,
      "Ġincre": 1555,
      "Ġstart": 1556,
      "be": 1557,
      "Ġrep": 1558,
      "ĠAl": 1559,
      "ä½Ĩ": 1560,
      "day": 1561,
      "Ġexpl": 1562,
      "ically": 1563,
      "18": 1564,
      "uth": 1565,
      "alk": 1566,
      "ized": 1567,
      "Ġmon": 1568,
      "è§Ĥ": 1569,
      "æķĻèĤ²": 1570,
      "imes": 1571,
      "éħ": 1572,
      "ism": 1573,
      "ym": 1574,
      "vern": 1575,
      "Ġshow": 1576,
      "Ġunderstand": 1577,
      "the": 1578,
      "åŃĺ": 1579,
      "ĠAnd": 1580,
      "Ġtake": 1581,
      "Ġtechn": 1582,
      "Ġfun": 1583,
      "ä¼ł": 1584,
      "Ġfact": 1585,
      "Ġboth": 1586,
      "äºĽ": 1587,
      "30": 1588,
      "...": 1589,
      "viron": 1590,
      "ĠĠĠĠĠĠĠĠĠ": 1591,
      "Ġmem": 1592,
      "Ġmed": 1593,
      "Ġday": 1594,
      "irect": 1595,
      "å§": 1596,
      "Ġwhile": 1597,
      "uss": 1598,
      "arent": 1599,
      "ined": 1600,
      "ern": 1601,
      "åĨ³": 1602,
      "ouse": 1603,
      "Ġfound": 1604,
      "æĮģ": 1605,
      "Ġop": 1606,
      "Ġusing": 1607,
      "æ¨¡": 1608,
      "åĽ½å®¶": 1609,
      "eng": 1610,
      "Ġthough": 1611,
      "å¾ĭ": 1612,
      "èĲ": 1613,
      "å¢ŀ": 1614,
      "Wh": 1615,
      "16": 1616,
      "ption": 1617,
      "ĠFor": 1618,
      "\",": 1619,
      "22": 1620,
      "Ġ/": 1621,
      "æ®": 1622,
      "Ġhum": 1623,
      "der": 1624,
      "ves": 1625,
      "text": 1626,
      "æ°´": 1627,
      "åķ": 1628,
      "å°ı": 1629,
      "Ġdep": 1630,
      "Ġprovid": 1631,
      "EN": 1632,
      "äº¤": 1633,
      "Ġref": 1634,
      "sh": 1635,
      "Ġimportant": 1636,
      "anc": 1637,
      "arge": 1638,
      "åĳĺ": 1639,
      "ton": 1640,
      "Ġstate": 1641,
      "17": 1642,
      "çİ¯": 1643,
      "Ġav": 1644,
      "Ġfin": 1645,
      "å¤Ħ": 1646,
      "è¢«": 1647,
      "ank": 1648,
      "ince": 1649,
      "ox": 1650,
      "æµģ": 1651,
      "15": 1652,
      "ists": 1653,
      "é£": 1654,
      "RO": 1655,
      "æ¯Ķ": 1656,
      "ien": 1657,
      "Ġmain": 1658,
      "éĥ½": 1659,
      "view": 1660,
      "åŃ¦çĶŁ": 1661,
      "Ġrese": 1662,
      "Ġ+": 1663,
      "ĠAr": 1664,
      "ected": 1665,
      "Ġsom": 1666,
      "Ġduring": 1667,
      "pr": 1668,
      "Ġlead": 1669,
      "AL": 1670,
      "âĢĵ": 1671,
      "meric": 1672,
      "æİ¥": 1673,
      "Ġgl": 1674,
      "',": 1675,
      "ĠCon": 1676,
      "ĠNew": 1677,
      "ĠEx": 1678,
      "æĶ¶": 1679,
      "åı¸": 1680,
      "Ġeduc": 1681,
      "æģ¯": 1682,
      "Ġplan": 1683,
      "ĠSc": 1684,
      "Ġ#": 1685,
      "ç¥": 1686,
      "Ġproble": 1687,
      "åĢ¼": 1688,
      "Ġart": 1689,
      "vironment": 1690,
      "ource": 1691,
      "Ġcle": 1692,
      "éĢł": 1693,
      "oh": 1694,
      "Ġconst": 1695,
      "ww": 1696,
      "ç½ĳ": 1697,
      "Ġmust": 1698,
      "éĢļè¿ĩ": 1699,
      "Ġdesign": 1700,
      "Ċĉ": 1701,
      "rol": 1702,
      "Ġbuild": 1703,
      "ĠĠĠĠĠĠĠĠĠĠĠ": 1704,
      "Ġtest": 1705,
      "Ġquest": 1706,
      "èĬ": 1707,
      "å¢ĥ": 1708,
      "èµ·": 1709,
      "Ġcent": 1710,
      "ared": 1711,
      "Ġnumber": 1712,
      "Ġbel": 1713,
      "åĩĨ": 1714,
      "--------------------------------": 1715,
      "akes": 1716,
      "è¯´": 1717,
      "Ġsol": 1718,
      "Ġaround": 1719,
      "æķ°æį®": 1720,
      "ĠInd": 1721,
      "atch": 1722,
      "åĨľ": 1723,
      "ivid": 1724,
      "éĶ": 1725,
      "ä¾Ľ": 1726,
      "æ·": 1727,
      "ik": 1728,
      "line": 1729,
      "è¿Ĳ": 1730,
      "ner": 1731,
      "Ġvis": 1732,
      ".âĢĿ": 1733,
      "ĠWhat": 1734,
      "iqu": 1735,
      "Ġproject": 1736,
      "åķĨ": 1737,
      "Ġbus": 1738,
      "to": 1739,
      "13": 1740,
      "å¸¸": 1741,
      "par": 1742,
      "elf": 1743,
      "SI": 1744,
      "ä¹ł": 1745,
      "ired": 1746,
      "rodu": 1747,
      "Ġ12": 1748,
      "æ¡Ī": 1749,
      "çĸ": 1750,
      "OR": 1751,
      "Ġstill": 1752,
      "æĢģ": 1753,
      "ĠBut": 1754,
      "ters": 1755,
      "Ġactiv": 1756,
      "Ġreal": 1757,
      "è½¬": 1758,
      "ĠAd": 1759,
      "14": 1760,
      "çĿĢ": 1761,
      "put": 1762,
      "åįģ": 1763,
      "ug": 1764,
      "æĹ¥": 1765,
      "åįķ": 1766,
      "ç²": 1767,
      "ional": 1768,
      "éģĵ": 1769,
      "è¯¾": 1770,
      "Ġorgan": 1771,
      "Ġsmall": 1772,
      "Ġpublic": 1773,
      "åıĹ": 1774,
      "Ġcare": 1775,
      "ield": 1776,
      "Ġreturn": 1777,
      "æİ¨": 1778,
      "ĠGod": 1779,
      "ify": 1780,
      "æĸ½": 1781,
      "è¿ĺ": 1782,
      "ĠAmeric": 1783,
      "Ġfeel": 1784,
      "æľį": 1785,
      "ases": 1786,
      "Ġlearn": 1787,
      "ç³»ç»Ł": 1788,
      "Ġgrow": 1789,
      "Ġca": 1790,
      "ets": 1791,
      "Ġgreat": 1792,
      "oun": 1793,
      "rist": 1794,
      "Ġplace": 1795,
      "åĮħ": 1796,
      "Ġposs": 1797,
      "Ġcour": 1798,
      "Ġpur": 1799,
      "bers": 1800,
      "Ġsay": 1801,
      "25": 1802,
      "Ġthree": 1803,
      "Ġland": 1804,
      "ider": 1805,
      "Ġ16": 1806,
      "val": 1807,
      "Ġpower": 1808,
      "ĠQ": 1809,
      "åıĸ": 1810,
      "èĮ": 1811,
      "ense": 1812,
      "Ġprot": 1813,
      "ources": 1814,
      "pos": 1815,
      "ĠShe": 1816,
      "çİĩ": 1817,
      "å®ī": 1818,
      "cond": 1819,
      "ĠThere": 1820,
      "sw": 1821,
      "Ġequ": 1822,
      "rence": 1823,
      "èģĶ": 1824,
      "Ġins": 1825,
      "\">": 1826,
      "çĻ": 1827,
      "çĹ": 1828,
      "ining": 1829,
      "err": 1830,
      "çĬ": 1831,
      "Ġconf": 1832,
      "Ġcontin": 1833,
      "Ġdevelopment": 1834,
      "acher": 1835,
      "man": 1836,
      "éĻ¢": 1837,
      "éĵ": 1838,
      "ross": 1839,
      "Ġproduct": 1840,
      "å·¥ä½ľ": 1841,
      "ee": 1842,
      "Ġsl": 1843,
      "éĻħ": 1844,
      "ateg": 1845,
      "ason": 1846,
      "Ġwrit": 1847,
      "ĠSh": 1848,
      "Ġfood": 1849,
      "ret": 1850,
      "ä¸ĵ": 1851,
      "åıį": 1852,
      "dx": 1853,
      "angu": 1854,
      "Ġhome": 1855,
      "ars": 1856,
      "é¡¹": 1857,
      "Ġlet": 1858,
      "Ġpract": 1859,
      "ĠCl": 1860,
      "Ġcor": 1861,
      "Ġser": 1862,
      "ĠRes": 1863,
      "Ġallow": 1864,
      "rem": 1865,
      "Ġpat": 1866,
      "ST": 1867,
      "aterial": 1868,
      "ways": 1869,
      "ills": 1870,
      "Ġbeh": 1871,
      "Ġstudy": 1872,
      "ç´ł": 1873,
      "Ġname": 1874,
      "ital": 1875,
      "ral": 1876,
      "Ġpos": 1877,
      "ittle": 1878,
      "ĠPl": 1879,
      "ä¸¤": 1880,
      "ethod": 1881,
      "Ġ15": 1882,
      "ä¿¡æģ¯": 1883,
      "æ¬¡": 1884,
      "Ġstand": 1885,
      "Ġchar": 1886,
      "èĪ": 1887,
      "Ġest": 1888,
      "ccess": 1889,
      "lish": 1890,
      "ä¸ĸ": 1891,
      "aj": 1892,
      "Re": 1893,
      "dition": 1894,
      "Ġimpro": 1895,
      "Ġpop": 1896,
      "Ġincluding": 1897,
      "Ġreport": 1898,
      "200": 1899,
      "åŁŁ": 1900,
      "çŃĸ": 1901,
      "az": 1902,
      "ĠIs": 1903,
      "åı²": 1904,
      "ä¸»è¦ģ": 1905,
      "Ġhere": 1906,
      "imate": 1907,
      "Ġbook": 1908,
      "æķ´": 1909,
      "Ġthings": 1910,
      "éĽĨ": 1911,
      "è±": 1912,
      "èĢĥ": 1913,
      "pro": 1914,
      "å½±": 1915,
      "Ġwithout": 1916,
      "ron": 1917,
      "iety": 1918,
      "è§Ħå®ļ": 1919,
      "Ġprof": 1920,
      "ished": 1921,
      "ator": 1922,
      "Ġold": 1923,
      "It": 1924,
      "40": 1925,
      "conom": 1926,
      "bs": 1927,
      "Ġide": 1928,
      "Ġ00": 1929,
      "iven": 1930,
      "app": 1931,
      "not": 1932,
      "less": 1933,
      "Ġi": 1934,
      "ĠEng": 1935,
      "Ġadv": 1936,
      "æĶ¯": 1937,
      "çº§": 1938,
      "å®¹": 1939,
      "éªĮ": 1940,
      "ç®Ĺ": 1941,
      "Ġhapp": 1942,
      "è¾ĥ": 1943,
      "col": 1944,
      "Ġmark": 1945,
      "ability": 1946,
      "Ġinterest": 1947,
      "ization": 1948,
      "èĭ": 1949,
      "Ġfew": 1950,
      "Ġpass": 1951,
      "ĠâĢ¢": 1952,
      "Ġpri": 1953,
      "Ġet": 1954,
      "Ġwithin": 1955,
      "tain": 1956,
      "æĸ¹éĿ¢": 1957,
      "Ġexample": 1958,
      "Ġopp": 1959,
      "vernment": 1960,
      "å¿ħ": 1961,
      "ulation": 1962,
      "Ġmight": 1963,
      "AN": 1964,
      "amp": 1965,
      "Ġ17": 1966,
      "ision": 1967,
      "itive": 1968,
      "å¥½": 1969,
      "éĩįè¦ģ": 1970,
      "ering": 1971,
      "Ġeng": 1972,
      "ç¾İ": 1973,
      "ples": 1974,
      "iversity": 1975,
      "ergy": 1976,
      "Ġocc": 1977,
      "ĊĠĠĠĠĠĠĠĠĠĠĠĠĠĠĠ": 1978,
      "outh": 1979,
      "åĻ": 1980,
      "Ġtoo": 1981,
      "ething": 1982,
      "Ġaff": 1983,
      "iving": 1984,
      "Ġlearning": 1985,
      "min": 1986,
      "çĽĬ": 1987,
      "ames": 1988,
      "æĸĩåĮĸ": 1989,
      "èŀ": 1990,
      "ĠTe": 1991,
      "ieve": 1992,
      "Ġredu": 1993,
      "oad": 1994,
      "å®Į": 1995,
      "çķĮ": 1996,
      "ted": 1997,
      "Ġhist": 1998,
      "ividual": 1999,
      "ĊĊĠ": 2000,
      "Ġpresent": 2001,
      "Ġiss": 2002,
      "Ġbody": 2003,
      "Ġident": 2004,
      "éĿŀ": 2005,
      ",\"": 2006,
      "æŃ¥": 2007,
      "čĊ": 2008,
      "ration": 2009,
      "è£": 2010,
      "ified": 2011,
      "å¸Ĥåľº": 2012,
      "Ġgoing": 2013,
      "å®ĥ": 2014,
      "æł¼": 2015,
      "è¿ĩç¨ĭ": 2016,
      "ery": 2017,
      "itions": 2018,
      "Ġmat": 2019,
      "Ġsocial": 2020,
      "Ġbest": 2021,
      "åħ³ç³»": 2022,
      "åĪ«": 2023,
      "Ġmet": 2024,
      "ä¾ĭ": 2025,
      "æł·": 2026,
      "Ġdi": 2027,
      "ç¦": 2028,
      "rid": 2029,
      "Ġdem": 2030,
      "æĪĺ": 2031,
      "====": 2032,
      "agement": 2033,
      "èĮĥ": 2034,
      "Ġanother": 2035,
      "Ġbetter": 2036,
      "ior": 2037,
      "Ġ:": 2038,
      "ĠComm": 2039,
      "ries": 2040,
      "Ġ**": 2041,
      "åĵį": 2042,
      "æĥ³": 2043,
      "://": 2044,
      "acter": 2045,
      "è±¡": 2046,
      "Ġanal": 2047,
      "Ġlast": 2048,
      "gin": 2049,
      "riend": 2050,
      "æľįåĬ¡": 2051,
      "æĢ»": 2052,
      "Ġrest": 2053,
      "Ġarea": 2054,
      "Ġlittle": 2055,
      "é¢Ĩ": 2056,
      "èŀį": 2057,
      "ware": 2058,
      "Ġbas": 2059,
      "è¾¾": 2060,
      "ards": 2061,
      "å·²": 2062,
      "åĽ¾": 2063,
      "Ġlist": 2064,
      "åħĥ": 2065,
      "ĠĠĠĠĠĠĠĠĠĠ": 2066,
      "inal": 2067,
      "è´£": 2068,
      "Ġchange": 2069,
      "Ġbusiness": 2070,
      "els": 2071,
      "],": 2072,
      "åºľ": 2073,
      "cri": 2074,
      "Ġelect": 2075,
      "ID": 2076,
      "atic": 2077,
      "Ġhead": 2078,
      "))": 2079,
      "è¯Ħ": 2080,
      "ç¡Ģ": 2081,
      "æł¹": 2082,
      "éĿ©": 2083,
      "ĠChrist": 2084,
      "è¡Įä¸º": 2085,
      "åŁºç¡Ģ": 2086,
      "This": 2087,
      "è®®": 2088,
      "èĥ½åĬĽ": 2089,
      "Ġoften": 2090,
      "éľĢè¦ģ": 2091,
      "ĠSp": 2092,
      "inc": 2093,
      "raph": 2094,
      "Ġeas": 2095,
      "Ġspe": 2096,
      "Ġsomething": 2097,
      "oint": 2098,
      "Ġask": 2099,
      "Ġben": 2100,
      "èį": 2101,
      "Ġ199": 2102,
      "Ġresearch": 2103,
      "Ġ_": 2104,
      "è¯¥": 2105,
      "Ġrun": 2106,
      "anguage": 2107,
      "Ġbo": 2108,
      "Ġpar": 2109,
      "ä¸įåĲĮ": 2110,
      "Ġ!": 2111,
      "oid": 2112,
      "åĻ¨": 2113,
      "Ġhuman": 2114,
      "Ġinclude": 2115,
      "æ³ķå¾ĭ": 2116,
      "Ġlarge": 2117,
      "Ġinc": 2118,
      "Ġwom": 2119,
      "èĻ": 2120,
      "Ġdirect": 2121,
      "ission": 2122,
      "ä¸»ä¹ī": 2123,
      "Ġmaterial": 2124,
      "åħĪ": 2125,
      "Ġchang": 2126,
      "æĬ¤": 2127,
      "Ġunt": 2128,
      "Ġopen": 2129,
      "ĠCo": 2130,
      "here": 2131,
      "Ġprovide": 2132,
      "Ġcap": 2133,
      "TO": 2134,
      "Ġterm": 2135,
      "åŁİ": 2136,
      "ains": 2137,
      "Ġindividual": 2138,
      "åħ·æľī": 2139,
      "å»ºè®¾": 2140,
      "Ġenvironment": 2141,
      "å¼ķ": 2142,
      "åį³": 2143,
      "rop": 2144,
      "ling": 2145,
      "................................": 2146,
      "ek": 2147,
      "èĬĤ": 2148,
      "æĸŃ": 2149,
      "Ġreally": 2150,
      "li": 2151,
      "ĠZ": 2152,
      "ote": 2153,
      "Ġoper": 2154,
      "ray": 2155,
      "Ġgre": 2156,
      "Ġlocal": 2157,
      "Ġmov": 2158,
      "æ®µ": 2159,
      "hem": 2160,
      "åĪ¶åº¦": 2161,
      "px": 2162,
      "ä¹¦": 2163,
      "Ġtop": 2164,
      "Ġtyp": 2165,
      "Ġbre": 2166,
      "work": 2167,
      "Ġinvol": 2168,
      "ĠThese": 2169,
      "ency": 2170,
      "åĽĽ": 2171,
      "Ġkeep": 2172,
      "Ġtype": 2173,
      "23": 2174,
      "æµĭ": 2175,
      "Ġgroup": 2176,
      "ĠĠĠĠĠĠĠĠĠĠĠĠĠĠĠĠĠĠĠ": 2177,
      "Ġproper": 2178,
      "Ġfollowing": 2179,
      "An": 2180,
      "Ġ14": 2181,
      "ertain": 2182,
      "Ġsit": 2183,
      "åŃĹ": 2184,
      "Ġcult": 2185,
      "åİĨ": 2186,
      "Ġve": 2187,
      "Ġfamily": 2188,
      "ĠEn": 2189,
      "Ġcome": 2190,
      "çº¿": 2191,
      "ocus": 2192,
      "æŀĲ": 2193,
      "å±Ĥ": 2194,
      "->": 2195,
      "Ġpot": 2196,
      "çİ¯å¢ĥ": 2197,
      "Ġmean": 2198,
      "ĠLe": 2199,
      "60": 2200,
      "thing": 2201,
      "å½±åĵį": 2202,
      "Ġperform": 2203,
      "æĸ¹æ³ķ": 2204,
      "21": 2205,
      "ploy": 2206,
      "æĶ¾": 2207,
      "ium": 2208,
      "Ġris": 2209,
      "èģĮ": 2210,
      "med": 2211,
      "èº": 2212,
      "æİ§": 2213,
      "ä¸ŃçļĦ": 2214,
      "iod": 2215,
      "ype": 2216,
      "å¤į": 2217,
      "éĹ¨": 2218,
      "ä¾Ŀ": 2219,
      "Ġlight": 2220,
      "Ġself": 2221,
      "oci": 2222,
      "of": 2223,
      "new": 2224,
      "oot": 2225,
      "ination": 2226,
      "Ġ13": 2227,
      "å¸Ī": 2228,
      "ledge": 2229,
      "RE": 2230,
      "äººæ°ĳ": 2231,
      "Ġair": 2232,
      "ç»ĩ": 2233,
      "****": 2234,
      "æĶ¿åºľ": 2235,
      "Ġput": 2236,
      "Ġfore": 2237,
      "ention": 2238,
      "---|": 2239,
      "å®ŀçİ°": 2240,
      "è·¯": 2241,
      "Ġcommunity": 2242,
      "Ġhard": 2243,
      "åħ¬åı¸": 2244,
      "Ġ--": 2245,
      "Ġtru": 2246,
      "çº¦": 2247,
      "åŃ¦ä¹ł": 2248,
      "over": 2249,
      "è¯Ń": 2250,
      "Ġteacher": 2251,
      "çĶŁäº§": 2252,
      "Ġcurrent": 2253,
      "æĺĵ": 2254,
      "ott": 2255,
      "Con": 2256,
      "Ġfil": 2257,
      "ream": 2258,
      "Ġagainst": 2259,
      "ĠPh": 2260,
      "Ġleg": 2261,
      "ats": 2262,
      "IT": 2263,
      "by": 2264,
      "Ġnever": 2265,
      "24": 2266,
      "ä¼ĺ": 2267,
      "èº«": 2268,
      "èĦ": 2269,
      "uthor": 2270,
      "Ġmus": 2271,
      "å£": 2272,
      "80": 2273,
      "Ġable": 2274,
      "Ġlaw": 2275,
      "(\"": 2276,
      "Ġcase": 2277,
      "é£İ": 2278,
      "åħ»": 2279,
      "Ġparent": 2280,
      "ried": 2281,
      "é©": 2282,
      "ortun": 2283,
      "æķĻåŃ¦": 2284,
      "ĠCol": 2285,
      "ially": 2286,
      "æľĪ": 2287,
      "ered": 2288,
      "Ġ>": 2289,
      "atural": 2290,
      "clus": 2291,
      "ĠTo": 2292,
      "æľª": 2293,
      "Ġcreat": 2294,
      "LE": 2295,
      "æĪĳåĽ½": 2296,
      "æĦŁ": 2297,
      "ĠØ": 2298,
      "ĠSo": 2299,
      "add": 2300,
      "ĠOn": 2301,
      "èĩ³": 2302,
      "å®¡": 2303,
      "rans": 2304,
      "å¤©": 2305,
      "ç»Ħç»ĩ": 2306,
      "yn": 2307,
      "ä½İ": 2308,
      "org": 2309,
      "ç»´": 2310,
      "Ġmeas": 2311,
      "Ġmar": 2312,
      "Ġtry": 2313,
      "Ġes": 2314,
      "Ġvalue": 2315,
      "ember": 2316,
      "åºı": 2317,
      "æĪĳä»¬": 2318,
      "Ch": 2319,
      "éĤ": 2320,
      "èī²": 2321,
      "ised": 2322,
      "We": 2323,
      "éĻ©": 2324,
      "Ġele": 2325,
      "Ġcommon": 2326,
      "Ġseem": 2327,
      "åı£": 2328,
      "Ex": 2329,
      "à¥": 2330,
      "Ġsecond": 2331,
      "ĠBe": 2332,
      "åĬŁ": 2333,
      "Ġcalled": 2334,
      "Ġorder": 2335,
      "èĲ¥": 2336,
      "Ġavail": 2337,
      "name": 2338,
      "Ġdel": 2339,
      "éĢĤ": 2340,
      "Ġothers": 2341,
      "erc": 2342,
      "arget": 2343,
      "ĠĠĠĠĠĠĠĠĠĠĠĠ": 2344,
      "ĠAll": 2345,
      "Ġalways": 2346,
      "ley": 2347,
      "Ġrece": 2348,
      "éĻĲ": 2349,
      "Ġmethod": 2350,
      "use": 2351,
      "Ġeconom": 2352,
      "Ġaccess": 2353,
      "åĸ": 2354,
      "ann": 2355,
      "Ġfac": 2356,
      "åįı": 2357,
      "ÉĻ": 2358,
      "ç¤º": 2359,
      "ĠWhen": 2360,
      "ina": 2361,
      "æ³¨": 2362,
      "Ġturn": 2363,
      "è´¢": 2364,
      "åĪĨæŀĲ": 2365,
      "omm": 2366,
      "Ġlot": 2367,
      "Ġsince": 2368,
      "æĬķ": 2369,
      "ĠIm": 2370,
      "çĲĨè®º": 2371,
      "Ġtem": 2372,
      "Ġbro": 2373,
      "åıĤ": 2374,
      "Ġcost": 2375,
      "çĽĳ": 2376,
      "èµĦæºĲ": 2377,
      "è¥": 2378,
      "æīį": 2379,
      "äºĴ": 2380,
      "ç¥ŀ": 2381,
      "é¦": 2382,
      "Ġz": 2383,
      "right": 2384,
      "æ·±": 2385,
      "ä½¿çĶ¨": 2386,
      "Ġprom": 2387,
      "æī¿": 2388,
      "æıĲä¾Ľ": 2389,
      "éĢī": 2390,
      "äºī": 2391,
      "æł¸": 2392,
      "åĨµ": 2393,
      "Ġsever": 2394,
      "raw": 2395,
      "ajor": 2396,
      "att": 2397,
      "rs": 2398,
      "IC": 2399,
      "è§Ĩ": 2400,
      "cle": 2401,
      "Ġ11": 2402,
      "Ġmaking": 2403,
      "æŁ¥": 2404,
      "for": 2405,
      "lu": 2406,
      "çĽ´": 2407,
      "Ġenergy": 2408,
      "Ġcho": 2409,
      "åŁºæľ¬": 2410,
      "åĬ³": 2411,
      "Ġobject": 2412,
      "è¦ģæ±Ĥ": 2413,
      "è¥¿": 2414,
      "ä½ľçĶ¨": 2415,
      "åıª": 2416,
      "Ġnext": 2417,
      "ury": 2418,
      "Ġcontrol": 2419,
      "Ġareas": 2420,
      "AS": 2421,
      "éħį": 2422,
      "åĪĴ": 2423,
      "åĲį": 2424,
      "ived": 2425,
      "å¤ĩ": 2426,
      "Ġcreate": 2427,
      "ĠBy": 2428,
      "ush": 2429,
      "ä½ľä¸º": 2430,
      "çľĭ": 2431,
      "æĸ¹å¼ı": 2432,
      "Ġeducation": 2433,
      "ories": 2434,
      "Ġbenef": 2435,
      "orth": 2436,
      "ger": 2437,
      "Ġpost": 2438,
      "Ġmeans": 2439,
      "æĬ¥": 2440,
      "Ġconn": 2441,
      "å°ĳ": 2442,
      "Ġphys": 2443,
      "Ġtreat": 2444,
      "Ġ30": 2445,
      "set": 2446,
      "Ġgovernment": 2447,
      "éĩĩ": 2448,
      "Ġsw": 2449,
      "èĩ´": 2450,
      "å¿µ": 2451,
      "éĴ": 2452,
      "Ġcal": 2453,
      "Ġneeds": 2454,
      "Ġwhy": 2455,
      "ably": 2456,
      "æ£": 2457,
      "ĠNo": 2458,
      "64": 2459,
      "ended": 2460,
      "ently": 2461,
      "ances": 2462,
      "son": 2463,
      "ä»¥åıĬ": 2464,
      "ĠâĢĺ": 2465,
      "33": 2466,
      "Ġsignific": 2467,
      "ç©º": 2468,
      "oney": 2469,
      "ãĢĢ": 2470,
      "çħ": 2471,
      "ilities": 2472,
      "ÂłÂł": 2473,
      "Ġmeet": 2474,
      "aster": 2475,
      "åĪĽæĸ°": 2476,
      "ç²¾": 2477,
      "iter": 2478,
      "resent": 2479,
      "Ġgiven": 2480,
      "Ġsuccess": 2481,
      "æĭ¬": 2482,
      "æīĭ": 2483,
      "Ġcr": 2484,
      "ohn": 2485,
      "æĹı": 2486,
      "è¨": 2487,
      "Ġmove": 2488,
      "Ġlim": 2489,
      "âĢĿï¼Į": 2490,
      "Ġstruct": 2491,
      "Ġbased": 2492,
      "è´¹": 2493,
      "let": 2494,
      "augh": 2495,
      "ç§ĳåŃ¦": 2496,
      "icle": 2497,
      "Ġfriend": 2498,
      "çŁ¥è¯Ĩ": 2499,
      "Ġinvest": 2500,
      "æŀģ": 2501,
      "è®°": 2502,
      "ĠOr": 2503,
      "iver": 2504,
      "ird": 2505,
      "Ġwr": 2506,
      "ä½ķ": 2507,
      "'re": 2508,
      "Ġtext": 2509,
      "æĬĬ": 2510,
      "Ġseveral": 2511,
      "AC": 2512,
      "æĿĳ": 2513,
      "ustom": 2514,
      "He": 2515,
      "ours": 2516,
      "Ġbecome": 2517,
      "Ġnon": 2518,
      "ental": 2519,
      "å¾·": 2520,
      "Ġaddition": 2521,
      "Ġgr": 2522,
      "Ġmen": 2523,
      "ä¸Ģç§į": 2524,
      "Ġgive": 2525,
      "ĠĠĠĠĠĠĠĠĠĠĠĠĠ": 2526,
      "Ġmonth": 2527,
      "Ġleft": 2528,
      "Ġavailable": 2529,
      "pect": 2530,
      "ians": 2531,
      "æĺ¾": 2532,
      "Ġlanguage": 2533,
      "æł¡": 2534,
      "âĢ¦âĢ¦": 2535,
      "lease": 2536,
      "ç¨İ": 2537,
      "Ġteam": 2538,
      "rain": 2539,
      "ruction": 2540,
      "åŃĺåľ¨": 2541,
      "crib": 2542,
      "Ġdev": 2543,
      "Ġimpact": 2544,
      "Ġhig": 2545,
      "uture": 2546,
      "70": 2547,
      "çĹħ": 2548,
      "åı¯èĥ½": 2549,
      "ĠAf": 2550,
      "Ġexperience": 2551,
      "28": 2552,
      "________________": 2553,
      "Ġuntil": 2554,
      "è¨Ģ": 2555,
      "è§ģ": 2556,
      "çģ": 2557,
      "What": 2558,
      "Ġnear": 2559,
      "Ġcourse": 2560,
      "Ġpossible": 2561,
      "Ġfree": 2562,
      "ç»Ĩ": 2563,
      "Ġparticular": 2564,
      "ä¸ľ": 2565,
      "Ġconsider": 2566,
      "æ»": 2567,
      "ither": 2568,
      "Ġlow": 2569,
      "Ġline": 2570,
      "å¾Ī": 2571,
      "Ġwar": 2572,
      "æ²¡": 2573,
      "ç§°": 2574,
      "urs": 2575,
      "Ġess": 2576,
      "Ġyoung": 2577,
      "ological": 2578,
      "uck": 2579,
      "Ġfunction": 2580,
      "aching": 2581,
      "ç»ĵæŀĦ": 2582,
      "Ġens": 2583,
      "eb": 2584,
      "rad": 2585,
      "ogn": 2586,
      "26": 2587,
      "ä½ĵç³»": 2588,
      "ope": 2589,
      "Ġstudent": 2590,
      "æĸĻ": 2591,
      "Ġ//": 2592,
      "ĠMar": 2593,
      "ole": 2594,
      "ately": 2595,
      "ç»Ń": 2596,
      "Ġtimes": 2597,
      "Ġaway": 2598,
      "isc": 2599,
      "Ġhouse": 2600,
      "ED": 2601,
      "ç»Ļ": 2602,
      "ä»·åĢ¼": 2603,
      "ording": 2604,
      "idence": 2605,
      "por": 2606,
      "ending": 2607,
      "ĠCent": 2608,
      "Ġknowledge": 2609,
      "Ġview": 2610,
      "osed": 2611,
      "aff": 2612,
      "idd": 2613,
      "Ġmajor": 2614,
      "Ġclear": 2615,
      "Ġfour": 2616,
      "Ġcountry": 2617,
      "ĠHowever": 2618,
      "Ġmil": 2619,
      "è¿°": 2620,
      "Ã©": 2621,
      "ground": 2622,
      "Ġapplic": 2623,
      "ument": 2624,
      "ç½®": 2625,
      "illion": 2626,
      "Ġfocus": 2627,
      "ane": 2628,
      "Ġdiscuss": 2629,
      "Ġ::": 2630,
      "é¢Ħ": 2631,
      "Ġkind": 2632,
      "Ġbig": 2633,
      "itor": 2634,
      "ç»ľ": 2635,
      "rap": 2636,
      "Ġà¤": 2637,
      "æ´»åĬ¨": 2638,
      "å½¢æĪĲ": 2639,
      "åĨħå®¹": 2640,
      "Ġdiff": 2641,
      "èİ": 2642,
      "roll": 2643,
      "åĶ": 2644,
      "Ġgot": 2645,
      "æ¸ħ": 2646,
      "99": 2647,
      "Ġfar": 2648,
      "ides": 2649,
      "åĮħæĭ¬": 2650,
      "une": 2651,
      "Ġconc": 2652,
      "Ġimprove": 2653,
      "Ġservices": 2654,
      "ograph": 2655,
      "aps": 2656,
      "istance": 2657,
      "'m": 2658,
      "è®¾è®¡": 2659,
      "Ġ%": 2660,
      "Ġmult": 2661,
      "Ġsure": 2662,
      "Ġproblem": 2663,
      "UM": 2664,
      "ZE": 2665,
      "ler": 2666,
      "ĠĠĠĠĠĠĠĠĠĠĠĠĠĠĠĠĠ": 2667,
      "çĽ¸åħ³": 2668,
      "gether": 2669,
      "Ġtogether": 2670,
      "urther": 2671,
      "Ġkey": 2672,
      "eral": 2673,
      "äººçļĦ": 2674,
      "apt": 2675,
      "Ġspecific": 2676,
      "çª": 2677,
      "cing": 2678,
      "Ġparticip": 2679,
      "Ġ25": 2680,
      "Ġtre": 2681,
      "As": 2682,
      "Ġcharacter": 2683,
      "uro": 2684,
      "æµ·": 2685,
      "Ġskills": 2686,
      "ĠMe": 2687,
      "Ġgen": 2688,
      "Ġrespons": 2689,
      "Ġey": 2690,
      "Ġach": 2691,
      "ids": 2692,
      "ç§¯": 2693,
      "ication": 2694,
      "åĬ¿": 2695,
      "å¾ģ": 2696,
      "å¸ĥ": 2697,
      "Ġx": 2698,
      "Ġ)": 2699,
      "ference": 2700,
      "Ġaut": 2701,
      "duct": 2702,
      "Ġquestion": 2703,
      "ĠThat": 2704,
      "Ġlove": 2705,
      "åĬ³åĬ¨": 2706,
      "Pro": 2707,
      "Ġ=>": 2708,
      "Ġside": 2709,
      "Ġknown": 2710,
      "Ġpolic": 2711,
      "éĻ¤": 2712,
      "ROM": 2713,
      "åºĶçĶ¨": 2714,
      "Ġspace": 2715,
      "Ġ->": 2716,
      "Ġcell": 2717,
      "è·µ": 2718,
      "ĠInt": 2719,
      "å¤±": 2720,
      "Ġactivities": 2721,
      "ç½ĳç»ľ": 2722,
      "SIZE": 2723,
      "osp": 2724,
      "Ġelse": 2725,
      "ĠAt": 2726,
      "æ¶Ī": 2727,
      "Ġindust": 2728,
      "ĠBl": 2729,
      "åŁ¹": 2730,
      "ĠStud": 2731,
      "Ġworking": 2732,
      "Ġaccount": 2733,
      "æłĩåĩĨ": 2734,
      "wh": 2735,
      "rag": 2736,
      "æ°Ķ": 2737,
      "ape": 2738,
      "aper": 2739,
      "vious": 2740,
      "Ġtell": 2741,
      "ribut": 2742,
      "ows": 2743,
      "è¯ķ": 2744,
      "Ġperiod": 2745,
      "Ġcertain": 2746,
      "ĠCan": 2747,
      "å¸¦": 2748,
      "ured": 2749,
      "åĬ©": 2750,
      ",âĢĿ": 2751,
      "åħ¶ä»ĸ": 2752,
      "Ġpotential": 2753,
      "Ġunderstanding": 2754,
      "ĠUS": 2755,
      "Ġrelations": 2756,
      "af": 2757,
      "Ġintern": 2758,
      "Ġdays": 2759,
      "Ġcir": 2760,
      "abor": 2761,
      "Ġfull": 2762,
      "ä¸Ķ": 2763,
      "enn": 2764,
      "åĲĮæĹ¶": 2765,
      "agn": 2766,
      "Ġhaving": 2767,
      "ĠGo": 2768,
      "Ġearly": 2769,
      "ead": 2770,
      "ule": 2771,
      "aken": 2772,
      "Ġshort": 2773,
      "Ġenough": 2774,
      "ask": 2775,
      "uation": 2776,
      "ĠAmerican": 2777,
      "Ġhy": 2778,
      "Ġvol": 2779,
      "ĠAfric": 2780,
      "ç½ª": 2781,
      "æ²¡æľī": 2782,
      "Ġ100": 2783,
      "ively": 2784,
      "Ġdeterm": 2785,
      "):": 2786,
      "IS": 2787,
      "åĪ¤": 2788,
      "çĬ¶": 2789,
      "AM": 2790,
      "Ġpay": 2791,
      "Ġcaus": 2792,
      "äºĶ": 2793,
      "uff": 2794,
      "äº§ä¸ļ": 2795,
      "Ġenc": 2796,
      "Ġsignificant": 2797,
      "Ġfuture": 2798,
      "--|": 2799,
      "dd": 2800,
      "29": 2801,
      "Ġdri": 2802,
      "ĠĠĠĠĠĠĠĠĠĠĠĠĠĠ": 2803,
      "è¿ĳ": 2804,
      "side": 2805,
      "å±Ģ": 2806,
      "order": 2807,
      "ift": 2808,
      "ĠMan": 2809,
      "ample": 2810,
      "27": 2811,
      "éĥ¨åĪĨ": 2812,
      "çĥ": 2813,
      "Ġcrit": 2814,
      "éĢŁ": 2815,
      "oms": 2816,
      "Ġnatural": 2817,
      "åħļ": 2818,
      "urch": 2819,
      "bo": 2820,
      ".)": 2821,
      "åģļ": 2822,
      "ression": 2823,
      "Ġage": 2824,
      "ĠĠĠĠĠĠĠĠĠĠĠĠĠĠĠĠĠĠĠĠĠĠĠ": 2825,
      "Ġrequire": 2826,
      "ored": 2827,
      "ique": 2828,
      "å®ŀè·µ": 2829,
      "æĪĸèĢħ": 2830,
      "æĶ¿çŃĸ": 2831,
      "å°±æĺ¯": 2832,
      "åıĪ": 2833,
      "orld": 2834,
      "å®īåħ¨": 2835,
      "aut": 2836,
      "ators": 2837,
      "Ġ@": 2838,
      "oll": 2839,
      "ault": 2840,
      "rict": 2841,
      "Ġcame": 2842,
      "ilar": 2843,
      "If": 2844,
      "45": 2845,
      "æıĲé«ĺ": 2846,
      "åİĨåı²": 2847,
      "Ġsing": 2848,
      "å¹¿": 2849,
      "wards": 2850,
      "swer": 2851,
      "ET": 2852,
      "ump": 2853,
      "ils": 2854,
      "Ġdone": 2855,
      "Ġflow": 2856,
      "åĳ½": 2857,
      "ä¹ĭéĹ´": 2858,
      "icult": 2859,
      "Ġarg": 2860,
      "back": 2861,
      "æĥħåĨµ": 2862,
      "åįĩ": 2863,
      "Ġbehav": 2864,
      "Ġ,": 2865,
      "Ġnecess": 2866,
      "Ġmarket": 2867,
      "EC": 2868,
      "åĳĬ": 2869,
      "åĽłæŃ¤": 2870,
      "####": 2871,
      "Ġcontent": 2872,
      "aring": 2873,
      "å§ĭ": 2874,
      "Ġwomen": 2875,
      "ä»ħ": 2876,
      "ĊĠĠ": 2877,
      "Ġstep": 2878,
      "Ġalong": 2879,
      "Ġabove": 2880,
      "ION": 2881,
      "æŁĲ": 2882,
      "ots": 2883,
      "Ġspecies": 2884,
      "æ¬¾": 2885,
      "Ġcond": 2886,
      "ĠAss": 2887,
      "face": 2888,
      "Ġopportun": 2889,
      "ysis": 2890,
      "Ġvarious": 2891,
      "Ġmind": 2892,
      "Ġauthor": 2893,
      "unt": 2894,
      "Ġthing": 2895,
      "è¿ĻäºĽ": 2896,
      "bl": 2897,
      "ĠState": 2898,
      "Ġleast": 2899,
      "umm": 2900,
      "ĠSchool": 2901,
      "artment": 2902,
      "Ġwords": 2903,
      "Ġmoney": 2904,
      "lection": 2905,
      "Ġstory": 2906,
      "éĺ¶": 2907,
      "æĤ": 2908,
      "çĭ": 2909,
      "Ġ24": 2910,
      "çĽ®æłĩ": 2911,
      "Ġamong": 2912,
      "ĠFr": 2913,
      "Ġemploy": 2914,
      "æł¹æį®": 2915,
      "å±ŀ": 2916,
      "çķ¥": 2917,
      "66": 2918,
      "Ġsays": 2919,
      "åħī": 2920,
      "To": 2921,
      "ÙĦ": 2922,
      "Ġchall": 2923,
      "iting": 2924,
      "cul": 2925,
      "Ġspecial": 2926,
      "Ġfre": 2927,
      "Ġreason": 2928,
      "æıĲåĩº": 2929,
      "æĶ¹éĿ©": 2930,
      "Ġworks": 2931,
      "ibility": 2932,
      "Ġrecord": 2933,
      "Ġquality": 2934,
      "Ġpain": 2935,
      "Ġorig": 2936,
      "Ġcomplete": 2937,
      "eter": 2938,
      "åľŁ": 2939,
      "ĠX": 2940,
      "Ġdue": 2941,
      "alf": 2942,
      "ĠĠĠĠĠĠĠĠĠĠĠĠĠĠĠ": 2943,
      "Ġcomput": 2944,
      "onse": 2945,
      "duc": 2946,
      "åĸĦ": 2947,
      "ained": 2948,
      "BSIZE": 2949,
      "Ġprofess": 2950,
      "Ġpast": 2951,
      "ĠCO": 2952,
      "åĽŀ": 2953,
      "ãģ": 2954,
      "roduction": 2955,
      "ç¢": 2956,
      "ĠUniversity": 2957,
      "lished": 2958,
      "ĠJohn": 2959,
      "plement": 2960,
      "Ġtool": 2961,
      "ipp": 2962,
      "selves": 2963,
      "Ġfund": 2964,
      "Ġproblems": 2965,
      "Ġsubject": 2966,
      "Ġhistory": 2967,
      "35": 2968,
      "Ġtrue": 2969,
      "çľŁ": 2970,
      "ready": 2971,
      "è´£ä»»": 2972,
      "çħ§": 2973,
      "ĠAm": 2974,
      "obal": 2975,
      "ĠCal": 2976,
      "Ġrisk": 2977,
      "90": 2978,
      "Ġmembers": 2979,
      "Ġpolit": 2980,
      "fer": 2981,
      "Ġthought": 2982,
      "Ġdr": 2983,
      "\")": 2984,
      "AP": 2985,
      "Ġjob": 2986,
      "åĢº": 2987,
      "Ġsystems": 2988,
      "Ġamount": 2989,
      "Ġexist": 2990,
      "æ£Ģ": 2991,
      "Ġservice": 2992,
      "Ġdise": 2993,
      "ä¹Ī": 2994,
      "è¯ī": 2995,
      "ips": 2996,
      "unction": 2997,
      "Ġanim": 2998,
      "Ġhold": 2999,
      "clusion": 3000,
      "Ġtalk": 3001,
      "FROM": 3002,
      "You": 3003,
      "ttp": 3004,
      "most": 3005,
      "str": 3006,
      "Ġsym": 3007,
      "ĠApp": 3008,
      "Ġstrong": 3009,
      "éļ¾": 3010,
      "igure": 3011,
      "verage": 3012,
      "Ġacross": 3013,
      "roups": 3014,
      "å®³": 3015,
      "åĿĩ": 3016,
      "serv": 3017,
      "Ġupon": 3018,
      "ables": 3019,
      "cur": 3020,
      "å¯¹äºİ": 3021,
      "Ġfr": 3022,
      "åĽ´": 3023,
      "Ġerr": 3024,
      "Ġaddress": 3025,
      "yle": 3026,
      "Ġlater": 3027,
      "åĪĹ": 3028,
      "Ġresults": 3029,
      "ification": 3030,
      "Section": 3031,
      "ĠMay": 3032,
      "ales": 3033,
      "å·®": 3034,
      "åĮĹ": 3035,
      "åı·": 3036,
      "áĥ": 3037,
      "åĨį": 3038,
      "Ġopt": 3039,
      "hold": 3040,
      "æĮī": 3041,
      "åİ»": 3042,
      "å»ºç«ĭ": 3043,
      "75": 3044,
      "è¶Ĭ": 3045,
      "è¡ĮæĶ¿": 3046,
      "è®¤ä¸º": 3047,
      "æ¦Ĥ": 3048,
      "ones": 3049,
      "æī§": 3050,
      "Ġrepresent": 3051,
      "LL": 3052,
      "iation": 3053,
      "æĢĿæĥ³": 3054,
      "play": 3055,
      "é¡»": 3056,
      "ä¿ĿæĬ¤": 3057,
      "Ġheart": 3058,
      "hing": 3059,
      "æĪĲä¸º": 3060,
      "ĠUnited": 3061,
      "Ġconcept": 3062,
      "Ġtot": 3063,
      "OT": 3064,
      "elt": 3065,
      "ison": 3066,
      "Ġresources": 3067,
      "cont": 3068,
      "Ġdidn": 3069,
      "asing": 3070,
      "ĠEnglish": 3071,
      "ille": 3072,
      "ising": 3073,
      "Ġstrateg": 3074,
      "éļı": 3075,
      "br": 3076,
      "ls": 3077,
      "Ġbuilding": 3078,
      "Type": 3079,
      "ggest": 3080,
      "æ¯ı": 3081,
      "ĠWith": 3082,
      "æĻº": 3083,
      "Ġweek": 3084,
      "olution": 3085,
      "aces": 3086,
      "Ġassess": 3087,
      "Ġsound": 3088,
      "Res": 3089,
      "ext": 3090,
      "âĢĿãĢĤ": 3091,
      "ued": 3092,
      "åı°": 3093,
      "atures": 3094,
      "Ġmanagement": 3095,
      "ĠĠĠĠĠĠĠĠĠĠĠĠĠĠĠĠĠĠ": 3096,
      "Ġpress": 3097,
      "ĠĠĠĠĠĠĠĠĠĠĠĠĠĠĠĠĠĠĠĠĠĠĠĠĠĠĠĠĠĠĠĠĠĠĠĠĠĠĠĠĠĠĠĠĠĠĠĠĠĠĠĠĠĠĠĠĠĠĠĠĠĠĠĠ": 3098,
      "Ġincrease": 3099,
      "32": 3100,
      "âĢ¢": 3101,
      "ĠSome": 3102,
      "Ġrole": 3103,
      "Ġbegin": 3104,
      "There": 3105,
      "ĠCar": 3106,
      "Ġalready": 3107,
      "ä¸ĸçķĮ": 3108,
      "sy": 3109,
      "ief": 3110,
      "è¿Ļç§į": 3111,
      "ening": 3112,
      "Ġtri": 3113,
      "åĲĪåĲĮ": 3114,
      "bt": 3115,
      "ĠâĢĶ": 3116,
      "Ġmakes": 3117,
      "Ġquestions": 3118,
      "ched": 3119,
      "ffic": 3120,
      "Ġplant": 3121,
      "itle": 3122,
      "Ġfield": 3123,
      "Ġ50": 3124,
      "Ġlevels": 3125,
      "gress": 3126,
      "me": 3127,
      "ĠSu": 3128,
      "ires": 3129,
      "ĠDo": 3130,
      "Ġâ": 3131,
      "Ġparents": 3132,
      "æĪ·": 3133,
      "Ġever": 3134,
      "ude": 3135,
      "Ġreading": 3136,
      "head": 3137,
      "rect": 3138,
      "Ġpercent": 3139,
      "}{": 3140,
      "ĠStates": 3141,
      "gr": 3142,
      "Ġann": 3143,
      "though": 3144,
      "aim": 3145,
      "lex": 3146,
      "Ġground": 3147,
      "pri": 3148,
      "ene": 3149,
      "éĩĮ": 3150,
      "color": 3151,
      "www": 3152,
      "Ġhigher": 3153,
      "ref": 3154,
      "Ġassoci": 3155,
      "Ġprob": 3156,
      "è¶³": 3157,
      "Ġsize": 3158,
      "åįĹ": 3159,
      "Ġrelationship": 3160,
      "Ġdifficult": 3161,
      "Ġmot": 3162,
      "ened": 3163,
      "II": 3164,
      "è´§": 3165,
      "ä¿®": 3166,
      "Ġtypes": 3167,
      "äº§çĶŁ": 3168,
      "Ġnet": 3169,
      "rand": 3170,
      "å¼Ĥ": 3171,
      "Ġwind": 3172,
      "che": 3173,
      "ç«ł": 3174,
      "Ġpub": 3175,
      "åĨĽ": 3176,
      "'ve": 3177,
      "ung": 3178,
      "äº§åĵģ": 3179,
      "éļľ": 3180,
      "ç¦»": 3181,
      "Ġcompany": 3182,
      "ober": 3183,
      "è¯¾ç¨ĭ": 3184,
      "Ar": 3185,
      "import": 3186,
      "Ġ&&": 3187,
      "Ġla": 3188,
      "ume": 3189,
      "Ġtoday": 3190,
      "Ġgame": 3191,
      "å®ŀæĸ½": 3192,
      "ĠInst": 3193,
      "Ġlive": 3194,
      "Ġtechnology": 3195,
      "æĹ¶éĹ´": 3196,
      "å®ļçļĦ": 3197,
      "Ġant": 3198,
      "å·±": 3199,
      "Ġmodel": 3200,
      "ients": 3201,
      "Ġseen": 3202,
      "Ġtarget": 3203,
      "How": 3204,
      "Ġindic": 3205,
      "------------": 3206,
      "ĠPr": 3207,
      "Ġdescrib": 3208,
      "ĠDes": 3209,
      "Ġrequired": 3210,
      "cher": 3211,
      "Ä±": 3212,
      "Ġstop": 3213,
      "cript": 3214,
      "èĳ": 3215,
      "Ġsuggest": 3216,
      "Ġbr": 3217,
      "åĲ¦": 3218,
      "Ġchanges": 3219,
      "ml": 3220,
      "ĠNational": 3221,
      "Ġwalk": 3222,
      "this": 3223,
      "acy": 3224,
      "Ġcustom": 3225,
      ")*": 3226,
      "åĽ½éĻħ": 3227,
      "Ġdoing": 3228,
      "Ġcomplex": 3229,
      "èİ·": 3230,
      "].": 3231,
      "æĴ": 3232,
      "ivity": 3233,
      "Ġsent": 3234,
      "Ġestab": 3235,
      "Ġappear": 3236,
      "ength": 3237,
      "Ġwhole": 3238,
      "action": 3239,
      "na": 3240,
      "Ġcheck": 3241,
      "Ġevent": 3242,
      "uild": 3243,
      "reg": 3244,
      "Ġstat": 3245,
      "ister": 3246,
      "Ġprevent": 3247,
      "ĠAg": 3248,
      "çĶŁæ´»": 3249,
      "co": 3250,
      "ilt": 3251,
      "Ġessential": 3252,
      "Ġways": 3253,
      "ç¾¤": 3254,
      "Ġcause": 3255,
      "Ġgroups": 3256,
      "ey": 3257,
      "åĪ©çĶ¨": 3258,
      "cer": 3259,
      "ĠOne": 3260,
      "æİ§åĪ¶": 3261,
      "ĠIN": 3262,
      "Ġ*/": 3263,
      "åħħ": 3264,
      "Ġcomb": 3265,
      "éĺ²": 3266,
      "100": 3267,
      "è®©": 3268,
      "ĠAct": 3269,
      "èĤ¡": 3270,
      "ĠEduc": 3271,
      "å¤Ł": 3272,
      "Ġsat": 3273,
      "Ġtook": 3274,
      "å¤ĦçĲĨ": 3275,
      "mber": 3276,
      "Ġrange": 3277,
      "ĠCont": 3278,
      "éĩĳèŀį": 3279,
      "type": 3280,
      "Ġdam": 3281,
      "Ġonce": 3282,
      "span": 3283,
      "ING": 3284,
      "Ġface": 3285,
      "ari": 3286,
      "Ġclose": 3287,
      "pecially": 3288,
      "vert": 3289,
      "Ġwhether": 3290,
      "Ġpriv": 3291,
      "åı¤": 3292,
      "Ġblood": 3293,
      "Ġfurther": 3294,
      "Ġdetail": 3295,
      "ä¸ĵä¸ļ": 3296,
      "Ġword": 3297,
      "Ġwent": 3298,
      "åıĳçĶŁ": 3299,
      "ĠDep": 3300,
      "Ġactually": 3301,
      "For": 3302,
      "é¦ĸ": 3303,
      "Ġpersonal": 3304,
      "ä¼Ĺ": 3305,
      "urope": 3306,
      "ourn": 3307,
      "è¯·": 3308,
      "iol": 3309,
      "85": 3310,
      "æĿĲ": 3311,
      "æĭħ": 3312,
      "fl": 3313,
      "ĠEm": 3314,
      "36": 3315,
      "HE": 3316,
      "çİ°ä»£": 3317,
      "å¿«": 3318,
      "Ġlikely": 3319,
      "ä¿ĥ": 3320,
      "Ġproducts": 3321,
      "Ġissues": 3322,
      "æķ°åŃĹ": 3323,
      "åĩı": 3324,
      "å¾Ģ": 3325,
      "ney": 3326,
      ":**": 3327,
      "ä¸ĩ": 3328,
      "Ġeither": 3329,
      "æ¿": 3330,
      "Ġinit": 3331,
      "Ġshall": 3332,
      "Ġphot": 3333,
      "Cl": 3334,
      "44": 3335,
      "ights": 3336,
      "istic": 3337,
      "Ġgeneral": 3338,
      "Ġsimilar": 3339,
      "ä¸¥": 3340,
      "Ġsoft": 3341,
      "æĿ¡ä»¶": 3342,
      "Ġimplement": 3343,
      "ĠĠĠĠĠĠĠĠĠĠĠĠĠĠĠĠĠĠĠĠ": 3344,
      "æľºæŀĦ": 3345,
      "Ġreview": 3346,
      "è®¡ç®Ĺ": 3347,
      "icro": 3348,
      "opy": 3349,
      "iple": 3350,
      "éĻį": 3351,
      "é¢ĨåŁŁ": 3352,
      "è§£åĨ³": 3353,
      "ç»Ī": 3354,
      "éŁ": 3355,
      "AD": 3356,
      "Ġsomeone": 3357,
      "Ġneg": 3358,
      "Ġdoc": 3359,
      "atory": 3360,
      "åĬŀ": 3361,
      "Ġexperien": 3362,
      "åĬŁèĥ½": 3363,
      "ibr": 3364,
      "å¿ħé¡»": 3365,
      "aged": 3366,
      "ai": 3367,
      "Ġbi": 3368,
      "ĠGu": 3369,
      "essage": 3370,
      "adem": 3371,
      "èĩªå·±": 3372,
      "return": 3373,
      "Ġ40": 3374,
      "æĬķèµĦ": 3375,
      "åĳ¨": 3376,
      "Ġdeath": 3377,
      "Ġensure": 3378,
      "æİ¢": 3379,
      "part": 3380,
      "cast": 3381,
      "Ġtraining": 3382,
      "è´Ł": 3383,
      "æľºåĪ¶": 3384,
      "åºĶå½ĵ": 3385,
      "utes": 3386,
      "Ġrather": 3387,
      "Ġneeded": 3388,
      "ç¬¬ä¸Ģ": 3389,
      "lev": 3390,
      "On": 3391,
      "Ġconditions": 3392,
      "38": 3393,
      "Ġtaken": 3394,
      "lected": 3395,
      "ser": 3396,
      "à²": 3397,
      "ï¼Ł": 3398,
      "ches": 3399,
      "æĶ¿æ²»": 3400,
      "illed": 3401,
      "ĠAb": 3402,
      "Ġyet": 3403,
      "ĠHis": 3404,
      "pose": 3405,
      "çªģ": 3406,
      "Ġeffort": 3407,
      "oon": 3408,
      "æ¿Ģ": 3409,
      "Ġbit": 3410,
      "ety": 3411,
      "å®ŀéĻħ": 3412,
      "éĤ£": 3413,
      "ENT": 3414,
      "æľīæķĪ": 3415,
      "34": 3416,
      "åħĭ": 3417,
      "Ġoffic": 3418,
      "æĢ§çļĦ": 3419,
      "Ġnature": 3420,
      "é¡¹çĽ®": 3421,
      "Ġill": 3422,
      "è´¨éĩı": 3423,
      "æ¨¡å¼ı": 3424,
      "ules": 3425,
      "å¯Ł": 3426,
      "æĸ¯": 3427,
      "ttps": 3428,
      "Ġcountries": 3429,
      "Ġfail": 3430,
      "Ġsens": 3431,
      "Ġlesson": 3432,
      "åĦ": 3433,
      "Ġwriting": 3434,
      "Ġquick": 3435,
      "Ø§": 3436,
      "Ġidea": 3437,
      "çĶ±äºİ": 3438,
      "åįİ": 3439,
      "Com": 3440,
      "rel": 3441,
      "ma": 3442,
      "oph": 3443,
      "ĠSoc": 3444,
      "é£İéĻ©": 3445,
      "Ġabs": 3446,
      "ND": 3447,
      "65": 3448,
      "æ°´å¹³": 3449,
      "ems": 3450,
      "æįŁ": 3451,
      "uf": 3452,
      "inter": 3453,
      "arr": 3454,
      "Ġ`": 3455,
      "çİĭ": 3456,
      "å§Ķ": 3457,
      "çĪ": 3458,
      "Ġce": 3459,
      "go": 3460,
      "ĠEurope": 3461,
      "ners": 3462,
      "Ġrad": 3463,
      "Ġteachers": 3464,
      "37": 3465,
      "empt": 3466,
      "Ġfall": 3467,
      "Int": 3468,
      "æİĴ": 3469,
      "oor": 3470,
      "æ¼": 3471,
      "CO": 3472,
      "Ġbelieve": 3473,
      "Ġconsum": 3474,
      "Ġvers": 3475,
      "ĠQu": 3476,
      "itation": 3477,
      "ä¸įèĥ½": 3478,
      "Ġdig": 3479,
      "Ġsource": 3480,
      "å²": 3481,
      "irt": 3482,
      "Ġmaterials": 3483,
      "raft": 3484,
      "Ġphysical": 3485,
      "def": 3486,
      "'ll": 3487,
      "Ġcannot": 3488,
      "Ġprograms": 3489,
      "irit": 3490,
      "å¼ł": 3491,
      "Ġtax": 3492,
      "å½¢å¼ı": 3493,
      "Ġbelow": 3494,
      "Ġschools": 3495,
      "NUM": 3496,
      "é»": 3497,
      "?\"": 3498,
      "éĥ¨éĹ¨": 3499,
      "ĠÙ": 3500,
      "earch": 3501,
      "ĠComp": 3502,
      "Ġfive": 3503,
      "But": 3504,
      "çĸĹ": 3505,
      "Ġgrowth": 3506,
      "Ġposition": 3507,
      "ands": 3508,
      "urb": 3509,
      "è§Ĵ": 3510,
      "Val": 3511,
      "Ġmusic": 3512,
      "ends": 3513,
      "å¯Ĩ": 3514,
      "ĠSystem": 3515,
      "Ġprovided": 3516,
      "Ġrepl": 3517,
      "æ³ķéĻ¢": 3518,
      "Ġhowever": 3519,
      "éĩĬ": 3520,
      "Ġstarted": 3521,
      "ae": 3522,
      "ocal": 3523,
      "rences": 3524,
      "Ġasked": 3525,
      "è¿Ļä¸Ģ": 3526,
      "39": 3527,
      "åĮ»": 3528,
      "ze": 3529,
      "table": 3530,
      "Ġdoesn": 3531,
      "utions": 3532,
      "ĠMy": 3533,
      "Ġrecogn": 3534,
      "Ġbreak": 3535,
      "Ġinflu": 3536,
      "Ġ21": 3537,
      "å¦Ĥæŀľ": 3538,
      "Ġcut": 3539,
      "åħ´": 3540,
      "Ġid": 3541,
      "å¸ģ": 3542,
      "èīº": 3543,
      "ä¼łç»Ł": 3544,
      "Ġcirc": 3545,
      "Ġprinc": 3546,
      "Name": 3547,
      "Ġespecially": 3548,
      "Ġimm": 3549,
      "Ġoccur": 3550,
      "Ġsex": 3551,
      "ç¼ĸ": 3552,
      "åĪĿ": 3553,
      "è¶ħ": 3554,
      "aves": 3555,
      "IL": 3556,
      "çĭ¬": 3557,
      "Ġprim": 3558,
      "ĠĠĠĠĠĠĠĠĠĠĠĠĠĠĠĠĠĠĠĠĠ": 3559,
      "Ġcity": 3560,
      "Ġnorm": 3561,
      "ĠWill": 3562,
      "Ġetc": 3563,
      "ĠCount": 3564,
      "Ġconduct": 3565,
      "And": 3566,
      "Ġprotect": 3567,
      "Ġproduction": 3568,
      "Ġmor": 3569,
      "idth": 3570,
      "å®¢": 3571,
      "Ġmom": 3572,
      "ç®Ģ": 3573,
      "åįķä½į": 3574,
      "å¹²": 3575,
      "äººåĳĺ": 3576,
      "Ġport": 3577,
      "Ġpractice": 3578,
      "Ġmillion": 3579,
      "Ġtotal": 3580,
      "reen": 3581,
      "Ġlooking": 3582,
      "Ġcolor": 3583,
      "Ġdom": 3584,
      "èĥŀ": 3585,
      "Ġusually": 3586,
      "lying": 3587,
      "å®ĺ": 3588,
      "ä¸ĬçļĦ": 3589,
      "çĲĥ": 3590,
      "ãĢĤâĢĿ": 3591,
      "iate": 3592,
      "čĊĠĠĠ": 3593,
      "ĠMed": 3594,
      "izing": 3595,
      "ä¹¡": 3596,
      "Ġnecessary": 3597,
      "rown": 3598,
      "ĊĠĠĠĠ": 3599,
      "ĠNe": 3600,
      "lege": 3601,
      "Ġscient": 3602,
      "Ġsite": 3603,
      "ĠÐ": 3604,
      "room": 3605,
      "Al": 3606,
      "issions": 3607,
      "aging": 3608,
      "enc": 3609,
      "alse": 3610,
      "Ġcompet": 3611,
      "ites": 3612,
      "Ġsingle": 3613,
      "ĠTra": 3614,
      "ĠGe": 3615,
      "é©¬": 3616,
      "ĠFl": 3617,
      "Ġmaintain": 3618,
      "========": 3619,
      "Ġroom": 3620,
      "Ġpoints": 3621,
      "Ġgetting": 3622,
      "ĠSouth": 3623,
      "ises": 3624,
      "Ġconcern": 3625,
      "æīĢæľī": 3626,
      "Ġfamil": 3627,
      "minist": 3628,
      "can": 3629,
      "Ġaction": 3630,
      "UR": 3631,
      "ores": 3632,
      "oke": 3633,
      "ĠMr": 3634,
      "Ġanalysis": 3635,
      "67": 3636,
      "Ġnight": 3637,
      "olic": 3638,
      "joy": 3639,
      "åľ°åĮº": 3640,
      "ĠIntern": 3641,
      "Ġpopulation": 3642,
      "ĠPer": 3643,
      "itted": 3644,
      "alt": 3645,
      "åıĳå±ķçļĦ": 3646,
      "Ġsuper": 3647,
      "Ġability": 3648,
      "MP": 3649,
      "anced": 3650,
      "Ġalmost": 3651,
      "èĩªçĦ¶": 3652,
      "88": 3653,
      "hood": 3654,
      "Ġsense": 3655,
      "Ġpred": 3656,
      "esus": 3657,
      "ĠÂ": 3658,
      "æ°ĳæĹı": 3659,
      "Pl": 3660,
      "ç»¼": 3661,
      "åİŁåĪĻ": 3662,
      "ĠPe": 3663,
      "Ġbir": 3664,
      "><": 3665,
      "Ġthemselves": 3666,
      "å·¥ç¨ĭ": 3667,
      "Ġliving": 3668,
      "ht": 3669,
      "Ġhours": 3670,
      "Ġblack": 3671,
      "éľĢæ±Ĥ": 3672,
      "Ġbring": 3673,
      "Ġachieve": 3674,
      "reng": 3675,
      "çĬ¯": 3676,
      "Ġhalf": 3677,
      "çľģ": 3678,
      "Ġentire": 3679,
      "Ġnational": 3680,
      "[_": 3681,
      "my": 3682,
      "Ġ==": 3683,
      "bject": 3684,
      "è®¸": 3685,
      "æķħ": 3686,
      "åĩł": 3687,
      "æ¢": 3688,
      "../": 3689,
      "overed": 3690,
      "åĥ": 3691,
      "etimes": 3692,
      "Ġlay": 3693,
      "æĻ¯": 3694,
      "CH": 3695,
      "yl": 3696,
      "ĠHealth": 3697,
      "DE": 3698,
      "ĠSection": 3699,
      "PY": 3700,
      "Ġanswer": 3701,
      "Ġclean": 3702,
      "Ġtold": 3703,
      "ç¨ĭåºı": 3704,
      "Ġcoll": 3705,
      "Ġprovides": 3706,
      "Ġtaking": 3707,
      "Ġanything": 3708,
      "æķĻå¸Ī": 3709,
      "éĺ¶æ®µ": 3710,
      "Ġlarg": 3711,
      "Ġlog": 3712,
      "Ġbar": 3713,
      "åıĺåĮĸ": 3714,
      "Ġlower": 3715,
      "Ġliter": 3716,
      "çºª": 3717,
      "Ġapproach": 3718,
      "gen": 3719,
      "æĻ®": 3720,
      "Ġdeg": 3721,
      "Ġrecomm": 3722,
      "à¤¾": 3723,
      "å±±": 3724,
      "Ġscience": 3725,
      "Ġsafe": 3726,
      "ricult": 3727,
      "Ġwa": 3728,
      "ä¸»ä½ĵ": 3729,
      "ĠNot": 3730,
      "èĢģ": 3731,
      "èµĦæľ¬": 3732,
      "rec": 3733,
      "ç»Ĩèĥŀ": 3734,
      "è¡¥": 3735,
      "When": 3736,
      "isions": 3737,
      "Ċĉĉĉ": 3738,
      "ç¼º": 3739,
      "aced": 3740,
      "åħ·ä½ĵ": 3741,
      "cell": 3742,
      "æĪ¿": 3743,
      "95": 3744,
      "efore": 3745,
      "omes": 3746,
      "åĪĩ": 3747,
      "åĩºçİ°": 3748,
      "Ġchalleng": 3749,
      "èĪ¬": 3750,
      "key": 3751,
      "ç»ĵåĲĪ": 3752,
      "çº³": 3753,
      "Ġri": 3754,
      "ony": 3755,
      "aining": 3756,
      "ĠAfrica": 3757,
      "hern": 3758,
      "Ġpositive": 3759,
      "eds": 3760,
      "rc": 3761,
      "Ġshare": 3762,
      "istics": 3763,
      "Ġaffect": 3764,
      "ç¬¬äºĮ": 3765,
      "çļĦåıĳå±ķ": 3766,
      "erson": 3767,
      "lement": 3768,
      "();": 3769,
      "Ġlo": 3770,
      "Ġeconomic": 3771,
      "Ġstaff": 3772,
      "Ġeffects": 3773,
      "Ġfriends": 3774,
      "epend": 3775,
      "iction": 3776,
      "Ġregard": 3777,
      "åŁ¹åħ»": 3778,
      "ada": 3779,
      "Ġaccept": 3780,
      "Ġobserv": 3781,
      "ĠDr": 3782,
      "ç¨³": 3783,
      "åı¦": 3784,
      "ĠEducation": 3785,
      "Un": 3786,
      "Ġtemper": 3787,
      "ĠEar": 3788,
      "ception": 3789,
      "Ġrelated": 3790,
      "Ġpath": 3791,
      "Ġut": 3792,
      "uel": 3793,
      "Ġste": 3794,
      "Ġactivity": 3795,
      "Ã¼": 3796,
      "Ġtable": 3797,
      "72": 3798,
      "opic": 3799,
      "cription": 3800,
      "ottom": 3801,
      "list": 3802,
      "bar": 3803,
      "yp": 3804,
      "ĠPart": 3805,
      "UT": 3806,
      "vey": 3807,
      "ç«ŀ": 3808,
      "Ġtreatment": 3809,
      "é¢Ŀ": 3810,
      "åħ³äºİ": 3811,
      "Ġlives": 3812,
      "Ġdest": 3813,
      "oring": 3814,
      "ming": 3815,
      "Ġ22": 3816,
      "ĠĠĠĠĠĠĠĠĠĠĠĠĠĠĠĠĠĠĠĠĠĠĠĠĠĠĠ": 3817,
      "ĠWorld": 3818,
      "sl": 3819,
      "è£ģ": 3820,
      "ç»ĵæŀľ": 3821,
      "umber": 3822,
      "ç§»": 3823,
      "ä»ĸä»¬": 3824,
      "åĽ¢": 3825,
      "Ġvalues": 3826,
      "Ġcomes": 3827,
      "04": 3828,
      "åĪĳ": 3829,
      "ĠCons": 3830,
      "Ġbad": 3831,
      "idered": 3832,
      "æĵ": 3833,
      "Ġreduce": 3834,
      "off": 3835,
      "Ġenjoy": 3836,
      "ension": 3837,
      "æī§è¡Į": 3838,
      "Ġwhite": 3839,
      "ournal": 3840,
      "ä¸ĢäºĽ": 3841,
      "anks": 3842,
      "fig": 3843,
      "æĭ©": 3844,
      "ences": 3845,
      "ĠTN": 3846,
      "iam": 3847,
      "Ġappropri": 3848,
      "Ġeffective": 3849,
      "55": 3850,
      "69": 3851,
      "å¿Ĺ": 3852,
      "verse": 3853,
      "iddle": 3854,
      "etic": 3855,
      "Ġheav": 3856,
      "Ġmonths": 3857,
      "ancial": 3858,
      "Ġ28": 3859,
      "Ġred": 3860,
      "Ġperformance": 3861,
      "ĠSte": 3862,
      "èĥ½å¤Ł": 3863,
      "Ġpie": 3864,
      "Ġpolicy": 3865,
      "Ġdisease": 3866,
      "udd": 3867,
      "plic": 3868,
      "Ġrespect": 3869,
      "Ġnothing": 3870,
      "Ġemot": 3871,
      "åģ¿": 3872,
      "ä¸ĢèĪ¬": 3873,
      "çļĦæĺ¯": 3874,
      "ĠMin": 3875,
      "At": 3876,
      "Ġrate": 3877,
      "mb": 3878,
      "èį¯": 3879,
      "date": 3880,
      "Ġconsidered": 3881,
      "reet": 3882,
      "Ġterms": 3883,
      "åŁİå¸Ĥ": 3884,
      "Ġsust": 3885,
      "aving": 3886,
      "CT": 3887,
      "imum": 3888,
      "argin": 3889,
      "è¯Ħä»·": 3890,
      "itch": 3891,
      "Ġsimple": 3892,
      "rr": 3893,
      "Ġpict": 3894,
      "çł´": 3895,
      "Ġfire": 3896,
      "ĠReg": 3897,
      "Ġbur": 3898,
      "Ġvari": 3899,
      "ä»ĺ": 3900,
      "Ġonline": 3901,
      "çĻ½": 3902,
      "leep": 3903,
      "48": 3904,
      "78": 3905,
      "åħ±åĲĮ": 3906,
      "Ġindustry": 3907,
      "Ġengine": 3908,
      "ĠJesus": 3909,
      "Ġpack": 3910,
      "æī¹": 3911,
      "çĮ": 3912,
      "ä¿ĥè¿Ľ": 3913,
      "ĊĠĠĠĠĠĠĠĠĠĠĠĠĠĠĠĠĠĠĠ": 3914,
      "Ġpaper": 3915,
      "å¼Ģåıĳ": 3916,
      "Ġbecame": 3917,
      "td": 3918,
      "ä¸įæĸŃ": 3919,
      "acc": 3920,
      "Ġfarm": 3921,
      "ender": 3922,
      "ĠServ": 3923,
      "ached": 3924,
      "Ġroad": 3925,
      "åĤ": 3926,
      "AB": 3927,
      "Ġmatter": 3928,
      "Ġdeveloped": 3929,
      "Ġcreated": 3930,
      "ĠJu": 3931,
      "åıĮ": 3932,
      "Ġtravel": 3933,
      "Ġdeep": 3934,
      "Ġevents": 3935,
      "abit": 3936,
      "è¡Ģ": 3937,
      "ager": 3938,
      "Ġindividuals": 3939,
      "Ġcamp": 3940,
      "inary": 3941,
      "book": 3942,
      "Ġrelig": 3943,
      "atter": 3944,
      "ply": 3945,
      "ana": 3946,
      "hel": 3947,
      "ditional": 3948,
      "Ġgir": 3949,
      "Ġidentify": 3950,
      "top": 3951,
      "nam": 3952,
      "}\\": 3953,
      "å¯Į": 3954,
      "æ»¡": 3955,
      "SE": 3956,
      "Ġeyes": 3957,
      "Ġbenefits": 3958,
      "dom": 3959,
      "ĠBo": 3960,
      "sych": 3961,
      "ÙĬ": 3962,
      "elling": 3963,
      "åĲ«": 3964,
      "********": 3965,
      "iment": 3966,
      "By": 3967,
      "div": 3968,
      "Ġeval": 3969,
      "Ġsociety": 3970,
      "ĠAfter": 3971,
      "py": 3972,
      "éĵ¶": 3973,
      "åĨľä¸ļ": 3974,
      "oved": 3975,
      "Ġvide": 3976,
      "fully": 3977,
      "Ġlab": 3978,
      "Sh": 3979,
      "Ġoutside": 3980,
      "Ġcontact": 3981,
      "æĦıä¹ī": 3982,
      "Ġeffic": 3983,
      "Ġwrite": 3984,
      "lin": 3985,
      "æł¸å¿ĥ": 3986,
      "Ġ23": 3987,
      "itution": 3988,
      "ä¸įæĺ¯": 3989,
      "umb": 3990,
      "Ġbegan": 3991,
      "Ġpolitical": 3992,
      "ĠPar": 3993,
      "æľīåħ³": 3994,
      "åģ¥": 3995,
      "åħ¸": 3996,
      "è¿ŀ": 3997,
      "Ġstreng": 3998,
      "stance": 3999,
      "rug": 4000,
      "Ġstructure": 4001,
      "Ġmass": 4002,
      "Ġprobably": 4003,
      "éĢīæĭ©": 4004,
      "èĲ½": 4005,
      "Ġparts": 4006,
      "test": 4007,
      "atives": 4008,
      "è¾ĵ": 4009,
      "Ġcontinue": 4010,
      "ĠDevelop": 4011,
      "ĊĊĠĠĠĠĠĠĠ": 4012,
      "Ġnut": 4013,
      "Ġevidence": 4014,
      "ç»ıèĲ¥": 4015,
      "ĠHer": 4016,
      "###": 4017,
      "Ġeasy": 4018,
      "Ġdeal": 4019,
      "mod": 4020,
      "ned": 4021,
      "ç§ĳæĬĢ": 4022,
      "ç»¼åĲĪ": 4023,
      "ä¸¾": 4024,
      "ĠNorth": 4025,
      "Ġfront": 4026,
      "05": 4027,
      "NA": 4028,
      "è½¦": 4029,
      "Ġ26": 4030,
      "ields": 4031,
      "ports": 4032,
      "based": 4033,
      "Ġcover": 4034,
      "RI": 4035,
      "ç©ºéĹ´": 4036,
      "su": 4037,
      "Ġcompan": 4038,
      "Ġavoid": 4039,
      "åĽłç´ł": 4040,
      "Ġer": 4041,
      "Ġcompon": 4042,
      "Ġplants": 4043,
      "ç²¾ç¥ŀ": 4044,
      "å¢ŀåĬł": 4045,
      "èĳĹ": 4046,
      "åĦ¿": 4047,
      "Ġtowards": 4048,
      "æī©": 4049,
      "Ġhands": 4050,
      "Ġcomputer": 4051,
      "Ġaud": 4052,
      "Ġfile": 4053,
      "ctions": 4054,
      "æĪĲæľ¬": 4055,
      "Ġbuy": 4056,
      "åĨĻ": 4057,
      "åįł": 4058,
      "Ġclaim": 4059,
      "ç´¢": 4060,
      "æħ": 4061,
      "Ġincludes": 4062,
      "Ġfactors": 4063,
      "men": 4064,
      "Ġcou": 4065,
      "åĿļ": 4066,
      "igation": 4067,
      "98": 4068,
      "åĲĪä½ľ": 4069,
      "Ð¾": 4070,
      "Ġencou": 4071,
      "åł": 4072,
      "sequ": 4073,
      "çĽ´æİ¥": 4074,
      "è¿Ŀ": 4075,
      "çĻ¾": 4076,
      "Ġcy": 4077,
      "èĮĥåĽ´": 4078,
      "ided": 4079,
      "Ġwebs": 4080,
      "Cont": 4081,
      "åıĳçİ°": 4082,
      "Ġwide": 4083,
      "sa": 4084,
      "Ġprevious": 4085,
      "åľ°æĸ¹": 4086,
      "ĠPres": 4087,
      "Ġresponse": 4088,
      "Ġ27": 4089,
      "Ġrights": 4090,
      "ĠYork": 4091,
      "md": 4092,
      "å£«": 4093,
      "time": 4094,
      "ĠMc": 4095,
      "Ġteaching": 4096,
      "ä¾¿": 4097,
      "éĵ¾": 4098,
      "light": 4099,
      "Ġheld": 4100,
      "Ġsett": 4101,
      "31": 4102,
      "å·²ç»ı": 4103,
      "OL": 4104,
      "Ġcontext": 4105,
      "ivil": 4106,
      "Ġitself": 4107,
      "like": 4108,
      "oles": 4109,
      "load": 4110,
      "ç»§": 4111,
      "Ġminutes": 4112,
      "Ġwon": 4113,
      "fect": 4114,
      "code": 4115,
      "ags": 4116,
      "apter": 4117,
      "Ġglobal": 4118,
      "Ġsix": 4119,
      "Ġcorrect": 4120,
      "è¾¹": 4121,
      "aries": 4122,
      "Ġexpect": 4123,
      "Ġloss": 4124,
      "åħ¬åħ±": 4125,
      "Ġslow": 4126,
      "è¿Ļä¸ª": 4127,
      "Ġsaw": 4128,
      "icles": 4129,
      "ged": 4130,
      "äºĪ": 4131,
      "Ġfram": 4132,
      "Ġcases": 4133,
      "iles": 4134,
      "éĶĢ": 4135,
      "Ġwritten": 4136,
      "Ġhelps": 4137,
      "Ġfeed": 4138,
      "Ġ</": 4139,
      "So": 4140,
      "ville": 4141,
      "Ġmedia": 4142,
      "Ġdecl": 4143,
      "åİĭ": 4144,
      "curity": 4145,
      "IR": 4146,
      "æ±ī": 4147,
      "æĶ¯æĮģ": 4148,
      "Ġissue": 4149,
      "De": 4150,
      "ä¸ĢæŃ¥": 4151,
      "Ġcred": 4152,
      "ĠDepartment": 4153,
      "where": 4154,
      "ĊĠĠĠĠĠĠĠĠĠ": 4155,
      "å¤§çļĦ": 4156,
      "68": 4157,
      "Ġstudies": 4158,
      "Ġsepar": 4159,
      "rought": 4160,
      "reme": 4161,
      "è½½": 4162,
      "Get": 4163,
      "çĶŁæĢģ": 4164,
      "å¾®": 4165,
      "ector": 4166,
      "å±ħ": 4167,
      "Ġhot": 4168,
      "è¡¨çİ°": 4169,
      "lt": 4170,
      "æį¢": 4171,
      "47": 4172,
      "ĠOct": 4173,
      "åĪ©çĽĬ": 4174,
      "ĠGl": 4175,
      "Ġago": 4176,
      "Ġaccording": 4177,
      "Ġmother": 4178,
      "Ġthird": 4179,
      "Ġlonger": 4180,
      "Ġattention": 4181,
      "Ġbehind": 4182,
      "æĺİç¡®": 4183,
      "ees": 4184,
      "comp": 4185,
      "Ġmeaning": 4186,
      "Ġagree": 4187,
      "ster": 4188,
      "Ġhimself": 4189,
      "fort": 4190,
      "åħ¨éĿ¢": 4191,
      "Ġmeasure": 4192,
      "Ġdog": 4193,
      "Ġdou": 4194,
      "ä»£è¡¨": 4195,
      "åħį": 4196,
      "},": 4197,
      "æŃ¢": 4198,
      "49": 4199,
      "Ġund": 4200,
      "Ġ35": 4201,
      "ä»Ĭ": 4202,
      "æĮ¥": 4203,
      "Ġchem": 4204,
      "åĥı": 4205,
      "*,": 4206,
      "aches": 4207,
      "åħŃ": 4208,
      "ensive": 4209,
      "çī¹å¾ģ": 4210,
      "è¿ĩç¨ĭä¸Ń": 4211,
      "éģĹ": 4212,
      "unch": 4213,
      "Ġstay": 4214,
      "ç¬¬ä¸ī": 4215,
      "amb": 4216,
      "Ġarticle": 4217,
      "èħ": 4218,
      "aily": 4219,
      "chan": 4220,
      "Ġimportance": 4221,
      "ä¸ªäºº": 4222,
      "æİ¨åĬ¨": 4223,
      "æľĿ": 4224,
      "Ġfav": 4225,
      "Ġtrying": 4226,
      "String": 4227,
      "Ġprogress": 4228,
      "ä»Ģ": 4229,
      "Ġbal": 4230,
      "ĠGerm": 4231,
      "Ġlooked": 4232,
      "Ġuses": 4233,
      "ervation": 4234,
      "umn": 4235,
      "Ġver": 4236,
      "oper": 4237,
      "opt": 4238,
      "å½ķ": 4239,
      "ĠCommun": 4240,
      "ä¿Ŀéļľ": 4241,
      "come": 4242,
      "Ġcoun": 4243,
      "Ġinvolved": 4244,
      "å·¥ä¸ļ": 4245,
      "ĠWar": 4246,
      "æīĵ": 4247,
      "Ċĉĉĉĉ": 4248,
      ".;": 4249,
      "Im": 4250,
      "Ġregular": 4251,
      "Ġfelt": 4252,
      "ĠAc": 4253,
      "æ²»çĲĨ": 4254,
      "Ġviol": 4255,
      "æ¦Ĥå¿µ": 4256,
      "åıĤä¸İ": 4257,
      "ä¼°": 4258,
      "ĠWhy": 4259,
      "Ġdesigned": 4260,
      "Ġhistor": 4261,
      "ĠChild": 4262,
      "itting": 4263,
      "Ġeveryone": 4264,
      "Ġideas": 4265,
      "ĠAug": 4266,
      "Ġsurface": 4267,
      "AG": 4268,
      "UN": 4269,
      "ĠOF": 4270,
      "ĠRep": 4271,
      "Ġoffer": 4272,
      "Ġthinking": 4273,
      "mon": 4274,
      "but": 4275,
      "ges": 4276,
      "Ġful": 4277,
      "å¢ŀéķ¿": 4278,
      "osing": 4279,
      "Ġaverage": 4280,
      "Ġattack": 4281,
      "ribution": 4282,
      "Ġprior": 4283,
      "Ġassociated": 4284,
      "EL": 4285,
      "fo": 4286,
      "Ġeverything": 4287,
      "\".": 4288,
      "æĹ¶ä»£": 4289,
      "ĠAust": 4290,
      "Ġstress": 4291,
      "åĽłä¸º": 4292,
      "Ġprivate": 4293,
      "rast": 4294,
      "ux": 4295,
      "âĳ": 4296,
      "Ġprep": 4297,
      "Ġstates": 4298,
      "Ġbackground": 4299,
      "Ġshows": 4300,
      "Ġincreased": 4301,
      "åĮĸçļĦ": 4302,
      "ĠAmerica": 4303,
      "class": 4304,
      "uk": 4305,
      "ä¸´": 4306,
      "Ġsun": 4307,
      "èµĦäº§": 4308,
      "yd": 4309,
      "å¦": 4310,
      "ĠPlan": 4311,
      "ino": 4312,
      "Ġappl": 4313,
      "ERT": 4314,
      "Ġfish": 4315,
      "ĠChristian": 4316,
      "ribute": 4317,
      "Ġconnect": 4318,
      "ĠJune": 4319,
      "å¦Ĥä½ķ": 4320,
      "Ġ32": 4321,
      "just": 4322,
      "ĠBrit": 4323,
      "ival": 4324,
      "Ġpattern": 4325,
      "ç¾İåĽ½": 4326,
      "orks": 4327,
      "Ġfather": 4328,
      "ession": 4329,
      "Ġclimate": 4330,
      "SS": 4331,
      "èĭ±": 4332,
      "Ġpage": 4333,
      "ä»ĭ": 4334,
      "77": 4335,
      "bon": 4336,
      "Se": 4337,
      "è¯»": 4338,
      "Ġlink": 4339,
      "æĿĤ": 4340,
      "å¤§åŃ¦": 4341,
      "æĿĥåĪ©": 4342,
      "hib": 4343,
      "ctor": 4344,
      "Ġexpress": 4345,
      "data": 4346,
      "Ġadult": 4347,
      "ĠSm": 4348,
      "è®Ń": 4349,
      "ç«ŀäºī": 4350,
      "ĠEl": 4351,
      "ï¼ĮâĢľ": 4352,
      "ĠCor": 4353,
      "Ġfrequ": 4354,
      "çĶ»": 4355,
      "Ġpurpose": 4356,
      "])": 4357,
      "æĪĺçķ¥": 4358,
      "ç¡®å®ļ": 4359,
      "å°Ķ": 4360,
      "formation": 4361,
      "Ġgas": 4362,
      "Ġquite": 4363,
      "ĠVal": 4364,
      "Ġ(_": 4365,
      "Ġmethods": 4366,
      "åº·": 4367,
      "æĬĹ": 4368,
      "acity": 4369,
      "Ġsaf": 4370,
      "amples": 4371,
      "cil": 4372,
      "mit": 4373,
      "bor": 4374,
      "Ġappropriate": 4375,
      "bed": 4376,
      "Ġthroughout": 4377,
      "'d": 4378,
      "></": 4379,
      "EM": 4380,
      "Ġgreen": 4381,
      "oice": 4382,
      "Ġcode": 4383,
      "Ġaware": 4384,
      "Ġ29": 4385,
      "Ġdefin": 4386,
      "Ġ/*": 4387,
      "çīĪ": 4388,
      "ĠHigh": 4389,
      "éĶ®": 4390,
      "Ġspeak": 4391,
      "å®ŀéªĮ": 4392,
      "cret": 4393,
      "No": 4394,
      "æĦıè¯Ĩ": 4395,
      "å¯¼èĩ´": 4396,
      "æİ¨è¿Ľ": 4397,
      "ĠThen": 4398,
      "Ġwanted": 4399,
      "å¤®": 4400,
      "Ġsustain": 4401,
      "ops": 4402,
      "airs": 4403,
      "Ġdraw": 4404,
      "æĸ°çļĦ": 4405,
      "Ġanaly": 4406,
      "éŁ³": 4407,
      "oud": 4408,
      "Ġsum": 4409,
      "ĠWest": 4410,
      "ç«¯": 4411,
      "03": 4412,
      "Ġbooks": 4413,
      "è£ħ": 4414,
      "pper": 4415,
      "Ġang": 4416,
      "Ġcondition": 4417,
      "ĠJan": 4418,
      "alls": 4419,
      "Ġproperty": 4420,
      "trans": 4421,
      "ĠProgram": 4422,
      "Ġbase": 4423,
      "ii": 4424,
      "ĠProject": 4425,
      "éĢĲ": 4426,
      "Ġbuilt": 4427,
      "Ġbehavior": 4428,
      "Ġtakes": 4429,
      "Ġvisit": 4430,
      "aid": 4431,
      "Ġconsist": 4432,
      "åĬłå¼º": 4433,
      "89": 4434,
      "ha": 4435,
      "ĠYour": 4436,
      "ç§¯æŀģ": 4437,
      "Sc": 4438,
      "Set": 4439,
      "Ġdocument": 4440,
      "oly": 4441,
      "æĹ¢": 4442,
      "Ġfeatures": 4443,
      "ä¸Ńå¿ĥ": 4444,
      "ĠEd": 4445,
      "è¿ľ": 4446,
      "||": 4447,
      "itiz": 4448,
      "ixed": 4449,
      "å¼Ģå§ĭ": 4450,
      "Ġinside": 4451,
      "erve": 4452,
      "åĭ": 4453,
      "ä¹Ĳ": 4454,
      "åį±": 4455,
      "ç¬¦": 4456,
      "rew": 4457,
      "Ġcommunities": 4458,
      "EP": 4459,
      "Ġinsp": 4460,
      "istry": 4461,
      "Ġseems": 4462,
      "rage": 4463,
      "Ġrev": 4464,
      "ä¹Łæĺ¯": 4465,
      "æĳ": 4466,
      "Ðµ": 4467,
      "Ġlack": 4468,
      "äººæīį": 4469,
      "Ġec": 4470,
      "ipment": 4471,
      "ulations": 4472,
      "ĠCity": 4473,
      "Ġfoot": 4474,
      "Ġsil": 4475,
      "ceed": 4476,
      "ham": 4477,
      "Ġincluded": 4478,
      "Ġmedical": 4479,
      "lands": 4480,
      "Qu": 4481,
      "ç¨ĭåº¦": 4482,
      "left": 4483,
      "Ġfinancial": 4484,
      "ederal": 4485,
      "Topic": 4486,
      "Ġinstead": 4487,
      "æĺ¯åĲ¦": 4488,
      "Ġreported": 4489,
      "Ġsimply": 4490,
      "è¿Ľä¸ĢæŃ¥": 4491,
      "Ġlate": 4492,
      "æĹ¶æľŁ": 4493,
      "Ġwatch": 4494,
      "Ġculture": 4495,
      "Ġmax": 4496,
      "Ġcompanies": 4497,
      "Ġmach": 4498,
      "}.": 4499,
      "æĵį": 4500,
      "Ġstandard": 4501,
      "æ±Ł": 4502,
      "čĊĠ": 4503,
      "Ġtown": 4504,
      "Ġmodern": 4505,
      "Ġsoon": 4506,
      "Ġenvironmental": 4507,
      "Ġexerc": 4508,
      "ä»Ģä¹Ī": 4509,
      "Ġborn": 4510,
      "æĻºèĥ½": 4511,
      "åħ¶ä¸Ń": 4512,
      "çĿ£": 4513,
      "itary": 4514,
      "Ġbeaut": 4515,
      "å¥³": 4516,
      "uge": 4517,
      "ties": 4518,
      "ashing": 4519,
      "ĠResearch": 4520,
      "Ġsafety": 4521,
      "æĤ£": 4522,
      "Ġexc": 4523,
      "Ġbasic": 4524,
      "Ġmember": 4525,
      "Ġpret": 4526,
      "\";": 4527,
      "Ġsources": 4528,
      "Ġcells": 4529,
      "Ð°": 4530,
      "Ġ60": 4531,
      "Ġunique": 4532,
      "éĺŁ": 4533,
      "Ġpopular": 4534,
      "US": 4535,
      "ä»İèĢĮ": 4536,
      "ĠÃ": 4537,
      "Ġearth": 4538,
      "het": 4539,
      "æı¡": 4540,
      "kind": 4541,
      "æ¶ī": 4542,
      "ĠJuly": 4543,
      "ĠMon": 4544,
      "æŁĵ": 4545,
      "ĠUnder": 4546,
      "Ġdiv": 4547,
      "Ġdemon": 4548,
      "å¤´": 4549,
      "Ġincreasing": 4550,
      "icon": 4551,
      "Ġtools": 4552,
      "arket": 4553,
      "lear": 4554,
      "Ġarch": 4555,
      "æĮģç»Ń": 4556,
      "çļĦéĩįè¦ģ": 4557,
      ")+": 4558,
      "äº«": 4559,
      "Ġimmed": 4560,
      "Ġ$(": 4561,
      "Ġson": 4562,
      "è¯Ŀ": 4563,
      "oes": 4564,
      "äººç±»": 4565,
      "å¡": 4566,
      "ĠCounty": 4567,
      "Ġimage": 4568,
      "é£Ł": 4569,
      "Ġwond": 4570,
      "see": 4571,
      "ç¤¾ä¼ļä¸»ä¹ī": 4572,
      "å¾ĹåĪ°": 4573,
      "çĲĨè§£": 4574,
      "ura": 4575,
      "åºŃ": 4576,
      "Ġexpected": 4577,
      "97": 4578,
      "åŃ¦ç§ĳ": 4579,
      "è®¼": 4580,
      "Ġdifference": 4581,
      "Ġsqu": 4582,
      "Ġgoals": 4583,
      "html": 4584,
      "ĠSept": 4585,
      "box": 4586,
      "oe": 4587,
      "Ġnumbers": 4588,
      "ç»Łä¸Ģ": 4589,
      "Ġadditional": 4590,
      "æİª": 4591,
      "Ġsoftware": 4592,
      "è´§å¸ģ": 4593,
      "åĢŁ": 4594,
      "esson": 4595,
      "Ġsoil": 4596,
      "ĠChar": 4597,
      "Ġpropos": 4598,
      "iples": 4599,
      "Ġweight": 4600,
      "anger": 4601,
      "Ġforest": 4602,
      "ĠUse": 4603,
      "Ġgreater": 4604,
      "è®¤è¯Ĩ": 4605,
      "Ġcross": 4606,
      "Data": 4607,
      "Ġinstall": 4608,
      "è§ĦèĮĥ": 4609,
      "Ġsuff": 4610,
      "ĠTechn": 4611,
      "èī¯": 4612,
      "lam": 4613,
      "asons": 4614,
      ")=": 4615,
      "åĲĦç§į": 4616,
      "æ½": 4617,
      "|----------------": 4618,
      "irm": 4619,
      "åĮºåŁŁ": 4620,
      "ĠScience": 4621,
      "ĠSub": 4622,
      "astic": 4623,
      "Ġsearch": 4624,
      "åĨ³å®ļ": 4625,
      "Ġcollect": 4626,
      "Ġpoor": 4627,
      "Â·": 4628,
      "ĠWhile": 4629,
      "Ġspirit": 4630,
      "Ġbrain": 4631,
      "ĠTr": 4632,
      "ipl": 4633,
      "åŁºäºİ": 4634,
      "pped": 4635,
      "uments": 4636,
      "åĽº": 4637,
      "Ġprojects": 4638,
      "Ġsection": 4639,
      "eters": 4640,
      "Ġge": 4641,
      "IV": 4642,
      "Ġattempt": 4643,
      "ĠJew": 4644,
      "Ġrelative": 4645,
      "æ¶Īè´¹": 4646,
      "otal": 4647,
      "æ¯Ķè¾ĥ": 4648,
      "ĠOther": 4649,
      "mm": 4650,
      "iforn": 4651,
      "All": 4652,
      "ĠAre": 4653,
      "Ġseries": 4654,
      "ĠBar": 4655,
      "Ġtherefore": 4656,
      "ä½Ĩæĺ¯": 4657,
      "Ġmoment": 4658,
      "Ġopportunities": 4659,
      "è¯īè®¼": 4660,
      "Ġfeet": 4661,
      "èİ·å¾Ĺ": 4662,
      "éĢĤçĶ¨": 4663,
      "attle": 4664,
      "Ġdecision": 4665,
      "Ġwood": 4666,
      "hens": 4667,
      "96": 4668,
      "quest": 4669,
      "Ġregion": 4670,
      "Ġaspect": 4671,
      "oat": 4672,
      "item": 4673,
      "Object": 4674,
      "orage": 4675,
      "Ġfru": 4676,
      "ä»į": 4677,
      "å°½": 4678,
      "bol": 4679,
      "rie": 4680,
      "ä¸ºäºĨ": 4681,
      "Ġpurch": 4682,
      "ĠGener": 4683,
      "haps": 4684,
      "è´Ń": 4685,
      "Ġcentury": 4686,
      "ĠRead": 4687,
      "Ġleaders": 4688,
      "ĠAcc": 4689,
      "æĶ¶åħ¥": 4690,
      "isf": 4691,
      "ĠHar": 4692,
      "Ġquickly": 4693,
      "Ġrequest": 4694,
      "Ind": 4695,
      "rial": 4696,
      "Ġfa": 4697,
      "Ġcultural": 4698,
      "ä¾µ": 4699,
      "Ġjo": 4700,
      "Ġapplication": 4701,
      "Ġintrodu": 4702,
      "ĠMarch": 4703,
      "Ġstri": 4704,
      "ius": 4705,
      "74": 4706,
      "function": 4707,
      "ĠØ§": 4708,
      "Ġprint": 4709,
      "çĬ¯ç½ª": 4710,
      "å¤ª": 4711,
      "éĵ¶è¡Į": 4712,
      "DD": 4713,
      "cks": 4714,
      "è¡¡": 4715,
      "En": 4716,
      "Ġdisplay": 4717,
      "water": 4718,
      "Ġheat": 4719,
      "aul": 4720,
      "å®ĮåĸĦ": 4721,
      "inks": 4722,
      "ĠCour": 4723,
      "iff": 4724,
      "ä¹ĭéĹ´çļĦ": 4725,
      "Ġhref": 4726,
      "iques": 4727,
      "imately": 4728,
      "Ġemerg": 4729,
      "ache": 4730,
      "iency": 4731,
      "åı¸æ³ķ": 4732,
      "Ġoriginal": 4733,
      "apan": 4734,
      "ĠChina": 4735,
      "å½Ĵ": 4736,
      "standing": 4737,
      "Ġprofessional": 4738,
      "word": 4739,
      "ech": 4740,
      "estern": 4741,
      "ĠApr": 4742,
      "ĠGra": 4743,
      "æĿĲæĸĻ": 4744,
      "Id": 4745,
      "ĠArt": 4746,
      "ĠPark": 4747,
      "è®¡åĪĴ": 4748,
      "Ġsleep": 4749,
      "Ġoil": 4750,
      "ĠUs": 4751,
      "Ġblock": 4752,
      "ims": 4753,
      "Ġallows": 4754,
      "ĠTrans": 4755,
      "Ġisn": 4756,
      "----------------------------------------------------------------": 4757,
      "Ġreceived": 4758,
      "åľŁåľ°": 4759,
      "Ġpressure": 4760,
      "åħ³éĶ®": 4761,
      "çŁ³": 4762,
      "Ġvariety": 4763,
      "éĴĪ": 4764,
      "Ġnews": 4765,
      "Ġnetwork": 4766,
      "å¨": 4767,
      "ĠJe": 4768,
      "CC": 4769,
      "clude": 4770,
      "('": 4771,
      "---|---|": 4772,
      "Ġfinal": 4773,
      "çĽ®åīį": 4774,
      "Ġinn": 4775,
      "ĠFin": 4776,
      "æīĢä»¥": 4777,
      "Ġsituation": 4778,
      "adding": 4779,
      "ä½ı": 4780,
      "Ġthreat": 4781,
      "Ġprec": 4782,
      "urg": 4783,
      "arily": 4784,
      "Ġcoming": 4785,
      "éĩĩçĶ¨": 4786,
      "itute": 4787,
      "Ġtransport": 4788,
      "Ġveh": 4789,
      "Ġsometimes": 4790,
      "Ġstyle": 4791,
      "åıĳæĮ¥": 4792,
      "used": 4793,
      "Ġshown": 4794,
      "itude": 4795,
      "å°Ħ": 4796,
      "æŀĹ": 4797,
      "size": 4798,
      "aught": 4799,
      "Ġuser": 4800,
      "ama": 4801,
      "Ġjud": 4802,
      "ĠWater": 4803,
      "âĢĶâĢĶ": 4804,
      "Ġsn": 4805,
      "Ġbelie": 4806,
      "ifornia": 4807,
      "Ġhealthy": 4808,
      "çī¹çĤ¹": 4809,
      "GO": 4810,
      "æľºåħ³": 4811,
      "Ġparticularly": 4812,
      "icip": 4813,
      "Ġcreating": 4814,
      "ped": 4815,
      "Ġgave": 4816,
      "ript": 4817,
      "46": 4818,
      "Ġsecurity": 4819,
      "ese": 4820,
      "87": 4821,
      "Äģ": 4822,
      "Ġmiss": 4823,
      "ibrary": 4824,
      "Ġcontract": 4825,
      "æıĲåįĩ": 4826,
      "çĶ³": 4827,
      "ĠTw": 4828,
      "çĽ®çļĦ": 4829,
      "43": 4830,
      "è´¸": 4831,
      "Ġmultiple": 4832,
      "amer": 4833,
      "Ġdetermine": 4834,
      "ĠHist": 4835,
      "Ġobtain": 4836,
      "important": 4837,
      "cial": 4838,
      "Ġplanning": 4839,
      "86": 4840,
      "ĠTest": 4841,
      "åĤ¨": 4842,
      "èģĮä¸ļ": 4843,
      "tr": 4844,
      "wise": 4845,
      "Ġsy": 4846,
      "Ġfamilies": 4847,
      "Ġyourself": 4848,
      "ï¼ļâĢľ": 4849,
      "Le": 4850,
      "åį«": 4851,
      "hemat": 4852,
      "è§£éĩĬ": 4853,
      "itte": 4854,
      "Ġcontain": 4855,
      "ogle": 4856,
      "ï¼īï¼Į": 4857,
      "Ġskin": 4858,
      "Ġdiet": 4859,
      "Ġbed": 4860,
      "ecause": 4861,
      "ĠIndia": 4862,
      "Ġgoal": 4863,
      "çĶŁçī©": 4864,
      "osition": 4865,
      "Ġcommunication": 4866,
      "åħħåĪĨ": 4867,
      "Ġproduce": 4868,
      "ä¸¤ä¸ª": 4869,
      "Ġopportunity": 4870,
      "uary": 4871,
      "Ġdrug": 4872,
      "æĺ¯æĮĩ": 4873,
      "åĨľæĿĳ": 4874,
      "å·ŀ": 4875,
      "Ġwebsite": 4876,
      "è¿Ļæł·": 4877,
      "Ġelectric": 4878,
      "Ġresear": 4879,
      "ellow": 4880,
      "Ġleave": 4881,
      "ufact": 4882,
      "ummary": 4883,
      "Ġtas": 4884,
      "ä¸Ńå¤®": 4885,
      "lation": 4886,
      "Ġhttp": 4887,
      "Ġrespond": 4888,
      "../../": 4889,
      "ĠLear": 4890,
      "Ġhor": 4891,
      "ĠRel": 4892,
      "Ġserious": 4893,
      "æ¨¡åŀĭ": 4894,
      "ĠMod": 4895,
      "Ġeat": 4896,
      "Ġhon": 4897,
      "Ġrout": 4898,
      "rench": 4899,
      "Ġones": 4900,
      "Ġwrong": 4901,
      "Ġreceive": 4902,
      "ĠRet": 4903,
      "æļ": 4904,
      "Ġvideo": 4905,
      "atur": 4906,
      "Ġaltern": 4907,
      "Ġcritical": 4908,
      "encies": 4909,
      "MA": 4910,
      "pid": 4911,
      "ÙĨ": 4912,
      "ä»¤": 4913,
      "Ġwoman": 4914,
      "chers": 4915,
      "Ġlost": 4916,
      "Ġexact": 4917,
      "02": 4918,
      "ä¸įä»ħ": 4919,
      "Ġdark": 4920,
      "gar": 4921,
      "å¯¹è±¡": 4922,
      "Ġeducational": 4923,
      "çīĩ": 4924,
      "Col": 4925,
      "pm": 4926,
      "ĠST": 4927,
      "åŃ¦æł¡": 4928,
      "Ġlength": 4929,
      "èµ°": 4930,
      "Distance": 4931,
      "Ġarri": 4932,
      "Ġapply": 4933,
      "Ġextra": 4934,
      "Ġrecent": 4935,
      "Ġoffice": 4936,
      "ÂłĊ": 4937,
      "Ġhar": 4938,
      "äººä»¬": 4939,
      "æ¹": 4940,
      "Ġwild": 4941,
      "do": 4942,
      "Ġadminist": 4943,
      "Ġknew": 4944,
      "Ġtou": 4945,
      "åħ¨çĲĥ": 4946,
      "Ġsort": 4947,
      "Ġsold": 4948,
      "ternal": 4949,
      "vest": 4950,
      "æĮīçħ§": 4951,
      "inated": 4952,
      "Ġtrack": 4953,
      "Ġple": 4954,
      "è¯į": 4955,
      "mp": 4956,
      "Ġsteps": 4957,
      "ĠKing": 4958,
      "æĿ¥çļĦ": 4959,
      "Value": 4960,
      "ĠStudents": 4961,
      "ĠTO": 4962,
      "ĠDevelopment": 4963,
      "Ġhost": 4964,
      "Ġharm": 4965,
      "rim": 4966,
      "Ġenh": 4967,
      "Ġforce": 4968,
      "Ġexplore": 4969,
      "Ġstring": 4970,
      "anch": 4971,
      "equ": 4972,
      "aly": 4973,
      "Ġnegative": 4974,
      "ament": 4975,
      "Ġinteract": 4976,
      "éļıçĿĢ": 4977,
      "asc": 4978,
      "param": 4979,
      "ĠSch": 4980,
      "ĠJust": 4981,
      "0000": 4982,
      "Ø±": 4983,
      "ĠAND": 4984,
      "å¹³åı°": 4985,
      "è¿ĲåĬ¨": 4986,
      "vention": 4987,
      "eed": 4988,
      "List": 4989,
      "ĠMus": 4990,
      "ancy": 4991,
      "è®²": 4992,
      "Ġcounty": 4993,
      "ĠDist": 4994,
      "Ġadded": 4995,
      "09": 4996,
      "Ġequipment": 4997,
      "body": 4998,
      "Ġhope": 4999,
      "Ġdaily": 5000,
      "ara": 5001,
      "ï¼İ": 5002,
      "ä»½": 5003,
      "Ġemail": 5004,
      "Ġsal": 5005,
      "Or": 5006,
      "éĢłæĪĲ": 5007,
      "à¥į": 5008,
      "ulum": 5009,
      "Ġ2010": 5010,
      "èĥĮ": 5011,
      "Ġremember": 5012,
      "Ġagricult": 5013,
      "è§ī": 5014,
      "Ġmeeting": 5015,
      "eks": 5016,
      "Ġfalse": 5017,
      "Ġorganization": 5018,
      "Ġbrought": 5019,
      "å¼Ģå±ķ": 5020,
      "Ġanimals": 5021,
      "izations": 5022,
      "itable": 5023,
      "Ġchallenges": 5024,
      "With": 5025,
      "Mod": 5026,
      "Ġemissions": 5027,
      "æ¼Ķ": 5028,
      "hedul": 5029,
      "äº¤æĺĵ": 5030,
      "Ġnormal": 5031,
      "ĊĊĊ": 5032,
      "irection": 5033,
      "Ġlearned": 5034,
      "çĮ®": 5035,
      "Ġwaste": 5036,
      "Ġsubst": 5037,
      "place": 5038,
      "å¾Ħ": 5039,
      "Ġmental": 5040,
      "åħ¨åĽ½": 5041,
      "ĠCalifornia": 5042,
      "mar": 5043,
      "Ġled": 5044,
      "ĠCenter": 5045,
      "Ġseason": 5046,
      "èĨ": 5047,
      "çļĦä¸Ģ": 5048,
      "ĠDis": 5049,
      "Ġbroad": 5050,
      "çĥŃ": 5051,
      "Ġveget": 5052,
      "Ġfem": 5053,
      "IG": 5054,
      "Ġproced": 5055,
      "èĻĳ": 5056,
      "è¾¾åĪ°": 5057,
      "è®¨": 5058,
      "79": 5059,
      "84": 5060,
      "Ġden": 5061,
      "Ġ2011": 5062,
      "ography": 5063,
      "eal": 5064,
      "reek": 5065,
      "é¼": 5066,
      "èīºæľ¯": 5067,
      "è§ĦåĪĴ": 5068,
      "Ġstandards": 5069,
      "æ³¢": 5070,
      "63": 5071,
      "Ġap": 5072,
      "åºĵ": 5073,
      "ging": 5074,
      "Ġdate": 5075,
      "IP": 5076,
      "ĠPre": 5077,
      "Ġproviding": 5078,
      "ademic": 5079,
      "Ġmention": 5080,
      "Ġdecisions": 5081,
      "des": 5082,
      "Ġforms": 5083,
      "Err": 5084,
      "Ġhttps": 5085,
      "Ġ;": 5086,
      "Ġanyone": 5087,
      "ä»»åĬ¡": 5088,
      "èĻ½": 5089,
      "Ġcancer": 5090,
      "Ad": 5091,
      "Ġmechan": 5092,
      "Ġ45": 5093,
      "gl": 5094,
      "sm": 5095,
      "ounds": 5096,
      "éĩįçĤ¹": 5097,
      "äº¬": 5098,
      "Ġpractices": 5099,
      "Ġnil": 5100,
      "Ġsurv": 5101,
      "Ġtree": 5102,
      "âĢ¦âĢ¦âĢ¦âĢ¦": 5103,
      "Ġpick": 5104,
      "Ġqual": 5105,
      "Des": 5106,
      "Ġter": 5107,
      "Ġchoose": 5108,
      "ĠNow": 5109,
      "illing": 5110,
      "Ġflu": 5111,
      "ellig": 5112,
      "Ġspread": 5113,
      "undred": 5114,
      "Ġlif": 5115,
      "ba": 5116,
      "è§Ħæ¨¡": 5117,
      "Ġdrink": 5118,
      "One": 5119,
      "Fl": 5120,
      "åİ¿": 5121,
      "Ġperfect": 5122,
      "ira": 5123,
      "yond": 5124,
      "ä¼¤": 5125,
      "Ġdoor": 5126,
      "Ġversion": 5127,
      "Ġheard": 5128,
      "Ġcosts": 5129,
      "IM": 5130,
      "ĠMore": 5131,
      "ĠEast": 5132,
      "safe": 5133,
      "ridge": 5134,
      "æĵįä½ľ": 5135,
      "file": 5136,
      "Ġdeveloping": 5137,
      "ĠOff": 5138,
      "Ġ2012": 5139,
      "Ġcru": 5140,
      "æ¡Īä»¶": 5141,
      "Ġdemand": 5142,
      "ä¸ĸçºª": 5143,
      "rite": 5144,
      "Ġtheory": 5145,
      "ĠFirst": 5146,
      "Ġir": 5147,
      "Ġforward": 5148,
      "Ġactive": 5149,
      "ATION": 5150,
      "Ġrunning": 5151,
      "ĠChurch": 5152,
      "ronic": 5153,
      "ĠEnvironment": 5154,
      "æĹ©": 5155,
      "Ġdirectly": 5156,
      "Ġturned": 5157,
      "path": 5158,
      "Ġstrength": 5159,
      "Ġbox": 5160,
      "é¥": 5161,
      "Ġdamage": 5162,
      "ä½ĵçİ°": 5163,
      "ĠApril": 5164,
      "ĠRed": 5165,
      "Ġtemperature": 5166,
      "Ġfat": 5167,
      "ui": 5168,
      "ptoms": 5169,
      "åħ«": 5170,
      "App": 5171,
      "ÑĤ": 5172,
      "ĠTHE": 5173,
      "Ġ36": 5174,
      "Ġinternational": 5175,
      "Ġlimited": 5176,
      "42": 5177,
      "Ġpoll": 5178,
      "æ¬§": 5179,
      "Ġcommunic": 5180,
      "Ġitems": 5181,
      "æ´¾": 5182,
      "########": 5183,
      "73": 5184,
      "Ġinterp": 5185,
      "ĠChe": 5186,
      "group": 5187,
      "Ġimag": 5188,
      "Ġeasily": 5189,
      "ĠEarth": 5190,
      "ãĢĭï¼Į": 5191,
      "çĨ": 5192,
      "ought": 5193,
      "Ph": 5194,
      "åĬ±": 5195,
      "osis": 5196,
      "urance": 5197,
      "ĠPublic": 5198,
      "Ġkids": 5199,
      "Ġexperiences": 5200,
      "Ġindepend": 5201,
      "ĠOctober": 5202,
      "åºķ": 5203,
      "width": 5204,
      "å¼ĢæĶ¾": 5205,
      "down": 5206,
      "df": 5207,
      "izes": 5208,
      "?âĢĿ": 5209,
      "with": 5210,
      "Ġmicro": 5211,
      "Ġcommand": 5212,
      "UES": 5213,
      "ä»¥ä¸ĭ": 5214,
      "çĶµåŃĲ": 5215,
      "Ġcompl": 5216,
      "Ġgenerally": 5217,
      "Ġcapt": 5218,
      "ĠAustral": 5219,
      "ĠSeptember": 5220,
      "Ð¸": 5221,
      "resp": 5222,
      "Ġwin": 5223,
      "Ġcat": 5224,
      "Ġreve": 5225,
      "imal": 5226,
      "Ġreflect": 5227,
      "Ġconcent": 5228,
      "ĠLord": 5229,
      "čĊč": 5230,
      "æŀ¶": 5231,
      "èĩªçĶ±": 5232,
      "58": 5233,
      "Ġbehavi": 5234,
      "æİĪ": 5235,
      "Ġworth": 5236,
      "Ġtrade": 5237,
      "ĠAugust": 5238,
      "Ġprimary": 5239,
      "Ġwat": 5240,
      "Ġguid": 5241,
      "ĠĠĠĠĠĠĠĠĠĠĠĠĠĠĠĠĠĠĠĠĠĠĠĠĠĠĠĠĠĠĠĠĠĠĠĠĠĠĠĠĠĠĠĠĠĠĠĠĠĠĠĠĠĠĠĠ": 5242,
      "OC": 5243,
      "resh": 5244,
      "const": 5245,
      "nes": 5246,
      "Ġexamples": 5247,
      "ĠInter": 5248,
      "Ġmovement": 5249,
      "åĪĽéĢł": 5250,
      "ĠØ§ÙĦ": 5251,
      "Ġwasn": 5252,
      "ford": 5253,
      "tes": 5254,
      "Ġcarry": 5255,
      "ball": 5256,
      "Ġlocation": 5257,
      "bit": 5258,
      "ĠDon": 5259,
      "Ġelements": 5260,
      "çĽ¸å¯¹": 5261,
      "Ġoverall": 5262,
      "Ġfair": 5263,
      "vere": 5264,
      "è¿½": 5265,
      "vis": 5266,
      "ris": 5267,
      "dis": 5268,
      "Ġchurch": 5269,
      "Ġ:=": 5270,
      "Ġprocesses": 5271,
      "äºĭå®ŀ": 5272,
      "Ġsupply": 5273,
      "æİªæĸ½": 5274,
      "æľīçļĦ": 5275,
      "Ġconstruction": 5276,
      "Ġneigh": 5277,
      "ding": 5278,
      "èĢħçļĦ": 5279,
      "Ġrules": 5280,
      "è¯ģæį®": 5281,
      "Ġfast": 5282,
      "ĠĠĠĠĠĠĠĠĠĠĠĠĠĠĠĠĠĠĠĠĠĠ": 5283,
      "Ġgames": 5284,
      "ĠSpec": 5285,
      "ULL": 5286,
      "ĠDav": 5287,
      "Ġlegal": 5288,
      "èģļ": 5289,
      "Ġmonitor": 5290,
      "ä¸Ģå®ļ": 5291,
      "Ġ>=": 5292,
      "Ġhear": 5293,
      "Ġprice": 5294,
      "que": 5295,
      "Ġrefer": 5296,
      "å¾ħ": 5297,
      "Ġcalcul": 5298,
      "æĸ¹æ¡Ī": 5299,
      "Ġstrategies": 5300,
      "year": 5301,
      "inate": 5302,
      "Ġhabit": 5303,
      "å®ĮæĪĲ": 5304,
      "æŀĦæĪĲ": 5305,
      "Ġbirth": 5306,
      "Lesson": 5307,
      "Ġtraditional": 5308,
      "Ġload": 5309,
      "59": 5310,
      "è¯Ħä¼°": 5311,
      "Ġrequires": 5312,
      "ĠIndian": 5313,
      "no": 5314,
      "ä¸ļåĬ¡": 5315,
      "ä»·æł¼": 5316,
      "omen": 5317,
      "åĲ¸": 5318,
      "å½ĵäºĭ": 5319,
      "ĠClass": 5320,
      "atform": 5321,
      "odes": 5322,
      "Ġ80": 5323,
      "Ġnone": 5324,
      "æ¸¸": 5325,
      "Ġestablish": 5326,
      "!\"": 5327,
      "aur": 5328,
      "Ġcenter": 5329,
      "Ġten": 5330,
      "ĠCur": 5331,
      "Ġwhose": 5332,
      "ä¸įåĲĮçļĦ": 5333,
      "Add": 5334,
      "Ġassessment": 5335,
      "Ġdead": 5336,
      "),(": 5337,
      "ĠPut": 5338,
      "Ġpretty": 5339,
      "è´¢äº§": 5340,
      "mission": 5341,
      "Ġdigital": 5342,
      "Ġreach": 5343,
      "amed": 5344,
      "Ġconvers": 5345,
      "igned": 5346,
      "åĪ»": 5347,
      "Ã¡": 5348,
      "Ġsaying": 5349,
      "ades": 5350,
      "iful": 5351,
      "unk": 5352,
      "çļĦåŁºæľ¬": 5353,
      "Ġder": 5354,
      "................................................................": 5355,
      "Ġwarm": 5356,
      "Ġanc": 5357,
      "ĠFeb": 5358,
      "äººåı£": 5359,
      "åıĬåħ¶": 5360,
      "Ġpromot": 5361,
      "Ġbeginning": 5362,
      "ä¼¼": 5363,
      "Ġ||": 5364,
      "Ġboard": 5365,
      "Ġtitle": 5366,
      "Ġworked": 5367,
      "Ġpatients": 5368,
      "Ġcitiz": 5369,
      "Ġsus": 5370,
      "56": 5371,
      "Ġswe": 5372,
      "Ġborder": 5373,
      "Ġseek": 5374,
      "åĲĪçĲĨ": 5375,
      "ĠSw": 5376,
      "Ġcard": 5377,
      "ä¾ĭå¦Ĥ": 5378,
      "igr": 5379,
      "Ġinput": 5380,
      "Ġstore": 5381,
      "http": 5382,
      "INS": 5383,
      "Ġprotection": 5384,
      "Ġexec": 5385,
      "Ġfilm": 5386,
      "å®Ĺ": 5387,
      "è¡Įä¸ļ": 5388,
      "çŃĳ": 5389,
      "è¯Ĺ": 5390,
      "Ġsem": 5391,
      "Ġpsych": 5392,
      "Ġgoes": 5393,
      "Ġmount": 5394,
      "Ġcompared": 5395,
      "çĽĳçĿ£": 5396,
      "oken": 5397,
      "sub": 5398,
      "Ġfight": 5399,
      "è°ĥæķ´": 5400,
      "ĠSan": 5401,
      "ĠRiver": 5402,
      "rue": 5403,
      "ĠCanada": 5404,
      "ashington": 5405,
      "83": 5406,
      "Ġmessage": 5407,
      "Ġextreme": 5408,
      "Ġinj": 5409,
      "pan": 5410,
      "Ġplaces": 5411,
      "ĠCoun": 5412,
      "Ġ31": 5413,
      "Table": 5414,
      "ĠMost": 5415,
      "PS": 5416,
      "Ġ2015": 5417,
      "ĠHere": 5418,
      "eria": 5419,
      "ĠFrom": 5420,
      "æ±ĩ": 5421,
      "uous": 5422,
      "Ġefforts": 5423,
      "Ġtechniques": 5424,
      "Ġinvolves": 5425,
      "Ġadvant": 5426,
      "Ġaccom": 5427,
      "ĠPresident": 5428,
      "41": 5429,
      "Ġoptions": 5430,
      "cles": 5431,
      "è¾ĳ": 5432,
      "æī¿æĭħ": 5433,
      "ocks": 5434,
      "Ġpublished": 5435,
      "é¾": 5436,
      "Ġparty": 5437,
      "Ġallowed": 5438,
      "ovember": 5439,
      "UL": 5440,
      "ittee": 5441,
      "Ġpicture": 5442,
      "met": 5443,
      "rehens": 5444,
      "71": 5445,
      "ĠWilliam": 5446,
      "äºļ": 5447,
      "ĠMany": 5448,
      "ç½ļ": 5449,
      "Ġcontribut": 5450,
      "Ġdemonstr": 5451,
      "ondon": 5452,
      "iar": 5453,
      "ç¢³": 5454,
      "è®¢": 5455,
      "èĭ¥": 5456,
      "Ġgrowing": 5457,
      "ĠPract": 5458,
      "Ġhundred": 5459,
      "Ġplans": 5460,
      "!!": 5461,
      "before": 5462,
      "ç¨³å®ļ": 5463,
      "Ġuseful": 5464,
      "Ġcaused": 5465,
      "ĠSee": 5466,
      "Ġchemical": 5467,
      "ä¹īåĬ¡": 5468,
      "ĠSim": 5469,
      "Ġmanufact": 5470,
      "riculum": 5471,
      "Ġstru": 5472,
      "ĠWork": 5473,
      "Is": 5474,
      "cember": 5475,
      "æ²³": 5476,
      "($": 5477,
      "Ġofficial": 5478,
      "æĢ§åĴĮ": 5479,
      "Ġstatus": 5480,
      "Ġ01": 5481,
      "æĮĩå¯¼": 5482,
      "æĬ¥åĳĬ": 5483,
      "Ġmap": 5484,
      "idents": 5485,
      "Ġpartners": 5486,
      "Ġresponsible": 5487,
      "Ġapplications": 5488,
      "ero": 5489,
      "Ġstra": 5490,
      "76": 5491,
      "Ġ///": 5492,
      "Ġexcept": 5493,
      "from": 5494,
      "lier": 5495,
      "Ġthous": 5496,
      "Ġmiddle": 5497,
      "Ġrelev": 5498,
      "è¯Ńè¨Ģ": 5499,
      "Ġexisting": 5500,
      "Ġemb": 5501,
      "Ġ2020": 5502,
      "CE": 5503,
      "ocol": 5504,
      "New": 5505,
      "abilities": 5506,
      "Ġestablished": 5507,
      "æľĽ": 5508,
      "Ġtrees": 5509,
      "çļĦéĹ®é¢ĺ": 5510,
      "Ġsuccessful": 5511,
      "ĠAssoci": 5512,
      "ä½Ļ": 5513,
      "Par": 5514,
      "ĠSk": 5515,
      "Ġinteresting": 5516,
      "Ġtrust": 5517,
      "Ġbab": 5518,
      "Ġlocated": 5519,
      "rick": 5520,
      "ava": 5521,
      "æĭī": 5522,
      "åİŁåĽł": 5523,
      "value": 5524,
      "çļĦåŁºç¡Ģ": 5525,
      "åĪĨéħį": 5526,
      "Ġpan": 5527,
      "å®¤": 5528,
      "éķĩ": 5529,
      "Ġcapital": 5530,
      "å£°": 5531,
      "çĭ¬ç«ĭ": 5532,
      "reed": 5533,
      "Ġsolution": 5534,
      "Ġlarger": 5535,
      "OP": 5536,
      "Ġstage": 5537,
      "çĽ¸äºĴ": 5538,
      "æĲ": 5539,
      "Ġsec": 5540,
      "éĶĻ": 5541,
      "Ġdied": 5542,
      "åĿĹ": 5543,
      "Ġsites": 5544,
      "Ġlines": 5545,
      "ĠJapan": 5546,
      "atab": 5547,
      "DA": 5548,
      "Ġbeyond": 5549,
      "uration": 5550,
      "ç»ĥ": 5551,
      "Ġbreat": 5552,
      "rab": 5553,
      "uman": 5554,
      "ç»ıéªĮ": 5555,
      "è¿ĲçĶ¨": 5556,
      "çŁŃ": 5557,
      "ĠMat": 5558,
      "point": 5559,
      "Ġmouth": 5560,
      "äººæ°ĳæ³ķéĻ¢": 5561,
      "My": 5562,
      "Ġcateg": 5563,
      "rief": 5564,
      "mitted": 5565,
      "Ġenter": 5566,
      "FF": 5567,
      "åĪ¶å®ļ": 5568,
      "éĥ½æĺ¯": 5569,
      "Ġchoice": 5570,
      "Ġreasons": 5571,
      "Ġcomfort": 5572,
      "result": 5573,
      "çī©è´¨": 5574,
      "more": 5575,
      "ses": 5576,
      "ĠYear": 5577,
      "Ġdry": 5578,
      "Ġeth": 5579,
      "Ġevalu": 5580,
      "Ġactions": 5581,
      "Ġleading": 5582,
      "ãĤ": 5583,
      "åĪ¶éĢł": 5584,
      "zz": 5585,
      "ĠII": 5586,
      "------|": 5587,
      "Ġpul": 5588,
      "ying": 5589,
      "çī¹åĪ«": 5590,
      "çķĻ": 5591,
      "estion": 5592,
      "ĠHouse": 5593,
      "Ġpup": 5594,
      "state": 5595,
      "èĢĮä¸Ķ": 5596,
      "éĩįå¤§": 5597,
      "Ġgiving": 5598,
      "Ġhyd": 5599,
      "Ġgives": 5600,
      "pen": 5601,
      "èĢĥèĻĳ": 5602,
      "ca": 5603,
      "Ġmis": 5604,
      "Ġautom": 5605,
      "Ġcoord": 5606,
      "urt": 5607,
      "Ġselect": 5608,
      "éĿĴ": 5609,
      "Ġnation": 5610,
      "ĠFrench": 5611,
      "è´·": 5612,
      "Ġestim": 5613,
      "aughter": 5614,
      "pite": 5615,
      "çı": 5616,
      "Ġfollowed": 5617,
      "ĠInternational": 5618,
      "ç£": 5619,
      "ustr": 5620,
      "Ġmagn": 5621,
      "Ġhous": 5622,
      "Ġscale": 5623,
      "Ġmeasures": 5624,
      "TER": 5625,
      "Ġbasis": 5626,
      "åºĶè¯¥": 5627,
      "æİĮ": 5628,
      "Ġfear": 5629,
      "Ġinfluence": 5630,
      "Ġdetails": 5631,
      "Ġcopy": 5632,
      "Ġgradu": 5633,
      "Ġbrother": 5634,
      "åĩ»": 5635,
      "Ġfeeling": 5636,
      "çļĦå½±åĵį": 5637,
      "è®¾å¤ĩ": 5638,
      "ĠOur": 5639,
      "Ġmoved": 5640,
      "Ġgovern": 5641,
      "Ġthus": 5642,
      "rupt": 5643,
      "ula": 5644,
      "Ġsymptoms": 5645,
      "äºĳ": 5646,
      "Ġalone": 5647,
      "overy": 5648,
      "Ġdim": 5649,
      "Ġrequirements": 5650,
      "enty": 5651,
      "Ġsea": 5652,
      "Ġfit": 5653,
      "change": 5654,
      "Ġcontinued": 5655,
      "ulate": 5656,
      "Ġpark": 5657,
      "08": 5658,
      "57": 5659,
      "iding": 5660,
      "ĠLake": 5661,
      "osure": 5662,
      "Ġadapt": 5663,
      "è¿Ļæĺ¯": 5664,
      "Ġhappen": 5665,
      "Ĺı": 5666,
      "Ġ2000": 5667,
      "abled": 5668,
      "ï¼īãĢĤ": 5669,
      "Ġweeks": 5670,
      "åĢĻ": 5671,
      "Ġcompletely": 5672,
      "æŀĦå»º": 5673,
      "è¶ĭ": 5674,
      "Ġacqu": 5675,
      "çİ°å®ŀ": 5676,
      "Ġproduced": 5677,
      "Ġdefined": 5678,
      "Ġcivil": 5679,
      "ä¹°": 5680,
      "Ġparam": 5681,
      "Ġmedic": 5682,
      "term": 5683,
      "ĠSocial": 5684,
      "å¼ºè°ĥ": 5685,
      "Ġcook": 5686,
      "ĠGet": 5687,
      "ä¸ĥ": 5688,
      "fa": 5689,
      "è´¢æĶ¿": 5690,
      "61": 5691,
      "å±ŀäºİ": 5692,
      "Ġcomment": 5693,
      "Ġrecommend": 5694,
      "enge": 5695,
      "ä¿Ŀè¯ģ": 5696,
      "åłĤ": 5697,
      "Ġtour": 5698,
      "ä½ĵåĪ¶": 5699,
      "Ġscen": 5700,
      "è½¯": 5701,
      "Ġintegr": 5702,
      "åľ°ä½į": 5703,
      "èģĶç½ĳ": 5704,
      "iately": 5705,
      "Ġlimit": 5706,
      "SC": 5707,
      "life": 5708,
      "Ð½": 5709,
      "Ġhair": 5710,
      "She": 5711,
      "Ġweb": 5712,
      "ä¸Ńåįİ": 5713,
      "Ġ...": 5714,
      "Ġfavor": 5715,
      "Ġconstant": 5716,
      "Ġcapacity": 5717,
      "ev": 5718,
      "Ġspeed": 5719,
      "èĩªå·±çļĦ": 5720,
      "That": 5721,
      "ĠManagement": 5722,
      "ĠOf": 5723,
      "From": 5724,
      "ä¹ĭä¸Ģ": 5725,
      "æ¤": 5726,
      "çĶļ": 5727,
      "åĨ²": 5728,
      "ĠBritish": 5729,
      "Ġalthough": 5730,
      "Ġmoving": 5731,
      "Ġbenefit": 5732,
      "irus": 5733,
      "ĠVAL": 5734,
      "inct": 5735,
      "ĠDem": 5736,
      "Ġvoice": 5737,
      "ĠData": 5738,
      "Ġrates": 5739,
      "Ġnote": 5740,
      "Ġfaith": 5741,
      "abel": 5742,
      "Ġsong": 5743,
      "åĽ°": 5744,
      "ferences": 5745,
      "range": 5746,
      "Ġdro": 5747,
      "500": 5748,
      "oul": 5749,
      "Ġquant": 5750,
      "Ġeconomy": 5751,
      "Ġphone": 5752,
      "Ã¢": 5753,
      "Ġdie": 5754,
      "Ġmut": 5755,
      "Ġcorn": 5756,
      "Ġbank": 5757,
      "ĠMich": 5758,
      "ĠEnd": 5759,
      "çļĦçłĶç©¶": 5760,
      "53": 5761,
      "Ġremain": 5762,
      "æīĺ": 5763,
      "52": 5764,
      "Ġhighly": 5765,
      "Ġsurpr": 5766,
      "54": 5767,
      "éī": 5768,
      "93": 5769,
      "Ġbul": 5770,
      "æīĭæ®µ": 5771,
      "oo": 5772,
      "Ġready": 5773,
      "force": 5774,
      "Ġtend": 5775,
      "æĺł": 5776,
      "Ġrock": 5777,
      "éģ¿": 5778,
      "Be": 5779,
      "è¿Ľåħ¥": 5780,
      "Ġ34": 5781,
      "Ġsatisf": 5782,
      "TH": 5783,
      "ĠNet": 5784,
      "Ġmag": 5785,
      "Ġcool": 5786,
      "Ġprote": 5787,
      "atus": 5788,
      "éī´": 5789,
      "ica": 5790,
      "å¾ª": 5791,
      "OS": 5792,
      "Ġ2013": 5793,
      "Ġsend": 5794,
      "åŃ¦çĶŁçļĦ": 5795,
      "Ġplease": 5796,
      "Ġdepend": 5797,
      "Ġstream": 5798,
      "æ³Ľ": 5799,
      "orge": 5800,
      "éĩıçļĦ": 5801,
      "åª": 5802,
      "ĠPol": 5803,
      "know": 5804,
      "Ġhop": 5805,
      "æŃ¦": 5806,
      "ĠDef": 5807,
      "æŃ»": 5808,
      "itect": 5809,
      "ĠNovember": 5810,
      "INSERT": 5811,
      "Ġopin": 5812,
      "Ġgets": 5813,
      "Ġpredict": 5814,
      "ĠLet": 5815,
      "Ġ!=": 5816,
      "Ġ2008": 5817,
      "62": 5818,
      "Ġmer": 5819,
      "Ġtruth": 5820,
      "Not": 5821,
      "outhern": 5822,
      "udget": 5823,
      "Ġmo": 5824,
      "ç»¿": 5825,
      "ĠBook": 5826,
      "asure": 5827,
      "isation": 5828,
      "field": 5829,
      "rition": 5830,
      "ÂłÂłÂłÂł": 5831,
      "Ġequal": 5832,
      "Ġcollection": 5833,
      "å¤įæĿĤ": 5834,
      "Ġconcepts": 5835,
      "ulated": 5836,
      "Ġplaced": 5837,
      "ĠRom": 5838,
      "82": 5839,
      "Ġaw": 5840,
      "Ġpeace": 5841,
      "Ġassist": 5842,
      "è§ĦåĪĻ": 5843,
      "æķĪçİĩ": 5844,
      "èĻļ": 5845,
      "ĠNULL": 5846,
      "ĠOver": 5847,
      "æĸ¹åĲĳ": 5848,
      "ĠDay": 5849,
      "Ġcollabor": 5850,
      "ĠPy": 5851,
      "ĠIntroduction": 5852,
      "ologies": 5853,
      "æĺŁ": 5854,
      "eline": 5855,
      "uality": 5856,
      "ä¾Ŀæį®": 5857,
      "olute": 5858,
      "å¥½çļĦ": 5859,
      "exp": 5860,
      "unc": 5861,
      "Ġ2017": 5862,
      "Ġoption": 5863,
      "ework": 5864,
      "åĿļæĮģ": 5865,
      "å©": 5866,
      "è´¸æĺĵ": 5867,
      "Ġerror": 5868,
      "Ġrelationships": 5869,
      "Ġdeb": 5870,
      "åķĨåĵģ": 5871,
      "ĠRuss": 5872,
      "last": 5873,
      "å¤«": 5874,
      "Ġsetting": 5875,
      "oming": 5876,
      "ĠLondon": 5877,
      "flow": 5878,
      "ä¼ļè®¡": 5879,
      "Ġunit": 5880,
      "ĠProf": 5881,
      "iber": 5882,
      "Ġcomponents": 5883,
      "SD": 5884,
      "æķ£": 5885,
      "Ġdescribed": 5886,
      "åıĸå¾Ĺ": 5887,
      "ffect": 5888,
      "swers": 5889,
      "çĹĩ": 5890,
      "Ġyouth": 5891,
      "oration": 5892,
      "Ġinstruction": 5893,
      "Ġgraph": 5894,
      "Ġcold": 5895,
      "ructure": 5896,
      "Ġcauses": 5897,
      "ait": 5898,
      "var": 5899,
      "ĠRem": 5900,
      "IB": 5901,
      "string": 5902,
      "è°ĥæŁ¥": 5903,
      "npy": 5904,
      "Ġ2009": 5905,
      "ĠCentral": 5906,
      "Ġidentified": 5907,
      "Ġdegree": 5908,
      "fra": 5909,
      "ĠEuropean": 5910,
      "comes": 5911,
      "çī¹èī²": 5912,
      "èĽ": 5913,
      "Ġmission": 5914,
      "Ġnames": 5915,
      "Ġ90": 5916,
      "Ġperspect": 5917,
      "Ġapplied": 5918,
      "Ġstories": 5919,
      "åģĩ": 5920,
      "èı": 5921,
      "aling": 5922,
      "çİ°è±¡": 5923,
      "See": 5924,
      "ĠWashington": 5925,
      "ypes": 5926,
      "ç§ģ": 5927,
      "Ġpiece": 5928,
      "Ġvisual": 5929,
      "ĠOut": 5930,
      "Ġ×": 5931,
      "ĠDirect": 5932,
      "Ġmilitary": 5933,
      "Ġfing": 5934,
      "ĠBlack": 5935,
      "Ġusers": 5936,
      "ç»ĦæĪĲ": 5937,
      "Ġvict": 5938,
      "ibly": 5939,
      "æ¸©": 5940,
      "othing": 5941,
      "error": 5942,
      "iance": 5943,
      "hest": 5944,
      "å»¶": 5945,
      "Ġchanged": 5946,
      "Ġcurrently": 5947,
      "åģ¥åº·": 5948,
      "Ġfully": 5949,
      "content": 5950,
      "Ġ70": 5951,
      "gal": 5952,
      "xy": 5953,
      "èµĦéĩĳ": 5954,
      "æĭŁ": 5955,
      "Instance": 5956,
      "Ġscientific": 5957,
      "Ġformer": 5958,
      "comm": 5959,
      "ä¸¥éĩį": 5960,
      "Ġsurround": 5961,
      "ĠJanuary": 5962,
      "ĠDecember": 5963,
      "Ġelement": 5964,
      "æĪĲæŀľ": 5965,
      "Ġdecre": 5966,
      "Ġmatch": 5967,
      "Ġinterview": 5968,
      "èĭı": 5969,
      "Ġball": 5970,
      "æ²»çĸĹ": 5971,
      "éĿł": 5972,
      "Ġinstance": 5973,
      "bb": 5974,
      "Ġprop": 5975,
      "Ùħ": 5976,
      "åıªæľī": 5977,
      "ATE": 5978,
      "Of": 5979,
      "Ġ2014": 5980,
      "éĻįä½İ": 5981,
      "éĺ³": 5982,
      "å½ĵäºĭäºº": 5983,
      "Ġep": 5984,
      "ĠVALUES": 5985,
      "æķ´ä½ĵ": 5986,
      "Ġ2018": 5987,
      "Ġeye": 5988,
      "Ġpolicies": 5989,
      "riage": 5990,
      "house": 5991,
      "çļĦäºº": 5992,
      "ä¼ĺåĬ¿": 5993,
      "urban": 5994,
      "Ġmiles": 5995,
      "Ġmorning": 5996,
      "Ġbound": 5997,
      "ĊĊĊĊ": 5998,
      "Ġimmediately": 5999,
      "build": 6000,
      "Ġ2016": 6001,
      "ĠEven": 6002,
      "Ġplaying": 6003,
      "Ġanimal": 6004,
      "à¤°": 6005,
      "åįıè®®": 6006,
      "åį°": 6007,
      "æĺ¯åľ¨": 6008,
      "care": 6009,
      "iling": 6010,
      "DS": 6011,
      "ken": 6012,
      "ĠAnt": 6013,
      "Ġnearly": 6014,
      "ĠKh": 6015,
      "Ġworkers": 6016,
      "________________________________": 6017,
      "ping": 6018,
      "iring": 6019,
      "obile": 6020,
      "ĠPhil": 6021,
      "Ñģ": 6022,
      "Ġincome": 6023,
      "94": 6024,
      "MS": 6025,
      "](": 6026,
      "Ġwife": 6027,
      "çĬ¶æĢģ": 6028,
      "ĠService": 6029,
      "èĥ½æºĲ": 6030,
      "Ġvirt": 6031,
      "index": 6032,
      "Ġcarbon": 6033,
      "ancing": 6034,
      "Ġsummer": 6035,
      "well": 6036,
      "CP": 6037,
      "èģĶç³»": 6038,
      "ĠNOT": 6039,
      "acters": 6040,
      "Ġclassroom": 6041,
      "Ġcand": 6042,
      "Text": 6043,
      "Ġtask": 6044,
      "Ġcollege": 6045,
      "åıĹåĪ°": 6046,
      "Ġpassed": 6047,
      "Ġdirection": 6048,
      "éĻĲåĪ¶": 6049,
      "å¿ĥçĲĨ": 6050,
      "Ġdevices": 6051,
      "é¦ĸåħĪ": 6052,
      "ĠMary": 6053,
      "Ġblue": 6054,
      "ĠFore": 6055,
      "indows": 6056,
      "ny": 6057,
      "ran": 6058,
      "ä¹Ŀ": 6059,
      "ij": 6060,
      "çĶ³è¯·": 6061,
      "odies": 6062,
      "amily": 6063,
      "è½»": 6064,
      "Ġreligious": 6065,
      "ÅŁ": 6066,
      "lor": 6067,
      "road": 6068,
      "Ġgrade": 6069,
      "ynam": 6070,
      "éĴĪå¯¹": 6071,
      "Ġheight": 6072,
      "pport": 6073,
      "Ġcentral": 6074,
      "ĠAir": 6075,
      "Ġhousehold": 6076,
      "active": 6077,
      "å¸Ŀ": 6078,
      "Ġrelevant": 6079,
      "gn": 6080,
      "wood": 6081,
      "Ġsav": 6082,
      "that": 6083,
      "åĩıå°ĳ": 6084,
      "åĽ½åĨħ": 6085,
      "rame": 6086,
      "ruary": 6087,
      "phas": 6088,
      "ĠPeople": 6089,
      "81": 6090,
      "ç´§": 6091,
      "Ġkept": 6092,
      "Ġfine": 6093,
      "Ġmill": 6094,
      "Ġlaws": 6095,
      "ĠAng": 6096,
      "æĢĿç»´": 6097,
      "åĶ®": 6098,
      "ded": 6099,
      "ams": 6100,
      "åį´": 6101,
      "Ġvill": 6102,
      "æĴŃ": 6103,
      "IF": 6104,
      "ä¿ĿéĻ©": 6105,
      "ocr": 6106,
      "äº¿": 6107,
      "ĠPat": 6108,
      "Ġparticipants": 6109,
      "ares": 6110,
      "Ġweather": 6111,
      "Ġattract": 6112,
      "ä¸°": 6113,
      ":\"": 6114,
      "HO": 6115,
      "amin": 6116,
      "äºĨè§£": 6117,
      "inese": 6118,
      "å»ºçŃĳ": 6119,
      "Ġpresented": 6120,
      "Ġachie": 6121,
      "example": 6122,
      "lim": 6123,
      "ä»»ä½ķ": 6124,
      "ĠIS": 6125,
      "safely": 6126,
      "Ġdevice": 6127,
      "input": 6128,
      "ĠMiss": 6129,
      "Ġacademic": 6130,
      "mov": 6131,
      "conn": 6132,
      "Ġsitu": 6133,
      "ato": 6134,
      "ocation": 6135,
      "rep": 6136,
      "${": 6137,
      "gy": 6138,
      "åĪĨä¸º": 6139,
      "ç±³": 6140,
      "è¯¯": 6141,
      "rapy": 6142,
      "CL": 6143,
      "iers": 6144,
      "Ġsolid": 6145,
      "å¸®": 6146,
      "Error": 6147,
      "Ġcro": 6148,
      "Ġcredit": 6149,
      "position": 6150,
      "Ġinstru": 6151,
      "Ġslight": 6152,
      "Ġchance": 6153,
      "èµĶ": 6154,
      "Ġcele": 6155,
      "ests": 6156,
      "ĠStr": 6157,
      "rote": 6158,
      "Ġmyself": 6159,
      "Ġbeautiful": 6160,
      "reate": 6161,
      "Ġteach": 6162,
      "åķĨä¸ļ": 6163,
      "Ġstrategy": 6164,
      "ĠName": 6165,
      "å°ģ": 6166,
      "uit": 6167,
      "ĠStreet": 6168,
      "lib": 6169,
      "Ġrele": 6170,
      "ĠBen": 6171,
      "ĠWell": 6172,
      "Ġpowerful": 6173,
      "ester": 6174,
      "Gl": 6175,
      "net": 6176,
      "ç»Ŀ": 6177,
      "ĠĠĠĠĠĠĠĠĠĠĠĠĠĠĠĠĠĠĠĠĠĠĠĠĠĠ": 6178,
      "ä¸įåı¯": 6179,
      "ections": 6180,
      "Ġvia": 6181,
      "Ġinstruct": 6182,
      "èĦĳ": 6183,
      "Ġobjects": 6184,
      "ï¬": 6185,
      "ĊĠĠĠĠĠĠĠĠĠĠĠĠĠĠĠĠĠĠĠĠĠĠĠ": 6186,
      "ĠUN": 6187,
      "Ġclasses": 6188,
      "ĠGeneral": 6189,
      "Ġdream": 6190,
      "Ġexercise": 6191,
      "ä»¥ä¸Ĭ": 6192,
      "ĠLa": 6193,
      "é²": 6194,
      "Figure": 6195,
      "ĠLaw": 6196,
      "éĹ®é¢ĺçļĦ": 6197,
      "åĽŃ": 6198,
      "fficient": 6199,
      "Ġtoward": 6200,
      "aled": 6201,
      "iable": 6202,
      "Ġorigin": 6203,
      "nav": 6204,
      "Ġexplain": 6205,
      "Ġwonder": 6206,
      "ä¸Ģæĸ¹éĿ¢": 6207,
      "ĠOh": 6208,
      "èĩªèº«": 6209,
      "print": 6210,
      "ube": 6211,
      "la": 6212,
      "Ġtests": 6213,
      "åĲ¯": 6214,
      "ico": 6215,
      "Ġgrand": 6216,
      "gu": 6217,
      "ĠJames": 6218,
      "Ġorganizations": 6219,
      "Ġrecently": 6220,
      "*.": 6221,
      "é¢ĳ": 6222,
      "06": 6223,
      "Ġlat": 6224,
      "Ġult": 6225,
      "ĠMrs": 6226,
      "çĻ»": 6227,
      "Ġleaves": 6228,
      "Ġ2006": 6229,
      "éĩĩåıĸ": 6230,
      "PA": 6231,
      "åįĬ": 6232,
      "Ġoperations": 6233,
      "âĢĺ": 6234,
      "ĠSur": 6235,
      "Ġsave": 6236,
      "éķ¿æľŁ": 6237,
      "][_": 6238,
      "Ġgain": 6239,
      "Ġconnection": 6240,
      "core": 6241,
      "æ¸Ĳ": 6242,
      "ĠChildren": 6243,
      "iled": 6244,
      "aign": 6245,
      "æ¥": 6246,
      "æĶ¹åıĺ": 6247,
      "Ġnumer": 6248,
      "Ġassum": 6249,
      "Ġconducted": 6250,
      "éĩįè¦ģçļĦ": 6251,
      "board": 6252,
      "åįļ": 6253,
      "Ġhappened": 6254,
      "Ġfields": 6255,
      "çĶ¨äºİ": 6256,
      "Why": 6257,
      "Ġplatform": 6258,
      "inner": 6259,
      "Ġresource": 6260,
      "Ġserve": 6261,
      "Ġdiscussion": 6262,
      "ç¬¦åĲĪ": 6263,
      "Ġrepe": 6264,
      "æľĢé«ĺ": 6265,
      "å§Ķåĳĺ": 6266,
      "craft": 6267,
      "ç«ĭæ³ķ": 6268,
      "Ġresearchers": 6269,
      "Ġmess": 6270,
      "ALL": 6271,
      "Ġconflic": 6272,
      "ĠCollege": 6273,
      "ala": 6274,
      "rack": 6275,
      "æĹłæ³ķ": 6276,
      "Ġcry": 6277,
      "è¡¨ç¤º": 6278,
      "Ġspring": 6279,
      "çłģ": 6280,
      "Ġinnov": 6281,
      "ĠCouncil": 6282,
      "æ°ĳäºĭ": 6283,
      "')": 6284,
      "Ġconstruct": 6285,
      "07": 6286,
      "arden": 6287,
      "åĨħéĥ¨": 6288,
      "92": 6289,
      "ĊĊĠĠĠĠĠĠĠĠĠĠĠ": 6290,
      "ç±»åŀĭ": 6291,
      "æ±¡": 6292,
      "Ġperhaps": 6293,
      "Ġdifferences": 6294,
      "Ġmemory": 6295,
      "è¿Ĳè¡Į": 6296,
      "Ġgirl": 6297,
      "oses": 6298,
      "aint": 6299,
      "Ġmid": 6300,
      "config": 6301,
      "Ġrob": 6302,
      "Ġapprec": 6303,
      "Ġign": 6304,
      "ĠDisc": 6305,
      "Ġshape": 6306,
      "iy": 6307,
      "Ġtried": 6308,
      "log": 6309,
      "Ġpet": 6310,
      "ĠVol": 6311,
      "å±¥": 6312,
      "Ġbecomes": 6313,
      "æĽ²": 6314,
      "ns": 6315,
      "roy": 6316,
      "Ġcontains": 6317,
      "ç»©": 6318,
      "æĦıè§ģ": 6319,
      "Ġlik": 6320,
      "Ġvalid": 6321,
      "Ġdistance": 6322,
      "Ġnative": 6323,
      "ãĢĲ": 6324,
      "Ġbalance": 6325,
      "è¦ģç´ł": 6326,
      "Ġguide": 6327,
      "çĸ«": 6328,
      "Ġefficient": 6329,
      "Key": 6330,
      "Ġlabor": 6331,
      "Ġcustomers": 6332,
      "Ġproperties": 6333,
      "include": 6334,
      "ĠYes": 6335,
      "Ġdecided": 6336,
      "Ġconsequ": 6337,
      "Ġtransfer": 6338,
      "estic": 6339,
      "èŀįåĲĪ": 6340,
      "ĠEach": 6341,
      "åħ³æ³¨": 6342,
      "ĠAnn": 6343,
      "ä»²": 6344,
      "Ġmodels": 6345,
      "Ġmarried": 6346,
      "Ġrich": 6347,
      "ä½ĵçļĦ": 6348,
      "Ġcock": 6349,
      "Ã¶": 6350,
      "Ġfigure": 6351,
      "ç¬Ķ": 6352,
      "Ġpatient": 6353,
      "Ġfeature": 6354,
      "åĢºåĬ¡": 6355,
      "Ġcommerc": 6356,
      "å¢ŀå¼º": 6357,
      "æĥħåĨµä¸ĭ": 6358,
      "Ġstatement": 6359,
      "Ġadjust": 6360,
      "rael": 6361,
      "ĠCong": 6362,
      "Ġprinciples": 6363,
      "ãĢĳ": 6364,
      "æĺİæĺ¾": 6365,
      "KE": 6366,
      "elines": 6367,
      "Ġtesting": 6368,
      "å®Įåħ¨": 6369,
      "Ġmathemat": 6370,
      "isms": 6371,
      "Ġstrugg": 6372,
      "FA": 6373,
      "æİ¢ç´¢": 6374,
      "Ġcharacters": 6375,
      "Ġflex": 6376,
      "After": 6377,
      "å®£": 6378,
      "æķ°åŃ¦": 6379,
      "ĠAfrican": 6380,
      "ĠKe": 6381,
      "ĠId": 6382,
      "Ġeffectively": 6383,
      "éģĵå¾·": 6384,
      "Ġsmaller": 6385,
      "Ġsequ": 6386,
      "iny": 6387,
      "Ġ2019": 6388,
      "Ġcovered": 6389,
      "bottom": 6390,
      "ĠMor": 6391,
      "éĢģ": 6392,
      "åĶĲ": 6393,
      "tenance": 6394,
      "Ġoccup": 6395,
      "https": 6396,
      "æĽ´å¤ļ": 6397,
      "Ġtalking": 6398,
      "Ġsustainable": 6399,
      "Ġtim": 6400,
      "ä½ł": 6401,
      "Ġtouch": 6402,
      "æİĮæı¡": 6403,
      "bal": 6404,
      "å®Ī": 6405,
      "ensity": 6406,
      "Ġwet": 6407,
      "Ġbeg": 6408,
      "è®¾æĸ½": 6409,
      "çº¢": 6410,
      "Ġoffers": 6411,
      "atabase": 6412,
      "ĠConst": 6413,
      "CS": 6414,
      "Ġmargin": 6415,
      "è·Ŀ": 6416,
      "Ġ2007": 6417,
      "bin": 6418,
      "Ġhuge": 6419,
      "91": 6420,
      "heduler": 6421,
      ".'": 6422,
      "Ġdrive": 6423,
      "è®¤å®ļ": 6424,
      "ÑĢ": 6425,
      "pack": 6426,
      "ĠEngland": 6427,
      "ç½Ĺ": 6428,
      "call": 6429,
      "Ġwhom": 6430,
      "ĠThom": 6431,
      "Ġpromote": 6432,
      "Ġiniti": 6433,
      "(),": 6434,
      "ç¯": 6435,
      "Ġimages": 6436,
      "Ġtrou": 6437,
      "åĬĽçļĦ": 6438,
      "èĻ½çĦ¶": 6439,
      "Ġ2003": 6440,
      "Ġletter": 6441,
      "51": 6442,
      "Ġvot": 6443,
      "Ġunless": 6444,
      "Ġbelief": 6445,
      "Ġaspects": 6446,
      "Ġfruit": 6447,
      "zing": 6448,
      "Ġrule": 6449,
      "Ġdanger": 6450,
      "çī©çļĦ": 6451,
      "è°ĵ": 6452,
      "hy": 6453,
      "Ġspent": 6454,
      "nic": 6455,
      "Ġeight": 6456,
      "éħ¸": 6457,
      "omet": 6458,
      "RA": 6459,
      "Ġ\\(": 6460,
      "æĽ´åĬł": 6461,
      "Ġstarting": 6462,
      "Ġolder": 6463,
      "urning": 6464,
      "ç«¥": 6465,
      "Ġast": 6466,
      "ĠEv": 6467,
      "çĽĳç®¡": 6468,
      "olf": 6469,
      "Ġcompleted": 6470,
      "éĿ©åĳ½": 6471,
      "æ³¨æĦı": 6472,
      "çĽ¾": 6473,
      "useum": 6474,
      "ĠDesign": 6475,
      "They": 6476,
      "è®¸å¤ļ": 6477,
      "Ġcouple": 6478,
      "Ġhour": 6479,
      "åıįæĺł": 6480,
      "ĠPaul": 6481,
      "ĊĊĠĠĠĠĠ": 6482,
      "Ġfuel": 6483,
      "Ġord": 6484,
      "ario": 6485,
      "othes": 6486,
      "scheduler": 6487,
      "æĤ£èĢħ": 6488,
      "Ġcore": 6489,
      "Ġincor": 6490,
      "ĠAlso": 6491,
      "èµĦæĸĻ": 6492,
      "Ġnorth": 6493,
      "Ġstock": 6494,
      "Ġsouth": 6495,
      "Ġpow": 6496,
      "Ġlooks": 6497,
      "Ġoutput": 6498,
      "Ġcitizens": 6499,
      "Comp": 6500,
      "Ġexactly": 6501,
      "atever": 6502,
      "æĿŁ": 6503,
      "æīįèĥ½": 6504,
      "Ġtrain": 6505,
      "Ġrare": 6506,
      "State": 6507,
      "TS": 6508,
      "ĠChinese": 6509,
      "Ġinstit": 6510,
      "Ġaim": 6511,
      "ald": 6512,
      "ĠĠĠĠĠĠĠĠĠĠĠĠĠĠĠĠĠĠĠĠĠĠĠĠĠĠĠĠĠĠĠ": 6513,
      "ĠUnion": 6514,
      "Ġshowed": 6515,
      "Ġhappy": 6516,
      "Us": 6517,
      "Ġbrand": 6518,
      "æ¤į": 6519,
      "ressed": 6520,
      "ä¹¡æĿĳ": 6521,
      "ifying": 6522,
      "arrow": 6523,
      "çŁĽ": 6524,
      "Ġremains": 6525,
      "================": 6526,
      "Ġclearly": 6527,
      "Ġearlier": 6528,
      "Ġcompar": 6529,
      "æĸĩä»¶": 6530,
      "Form": 6531,
      "éĢĶ": 6532,
      "Ġtopic": 6533,
      "Ġmajority": 6534,
      "check": 6535,
      "wide": 6536,
      "åºĶçļĦ": 6537,
      "Ġapprox": 6538,
      "Introduction": 6539,
      "ios": 6540,
      "Ġsurvey": 6541,
      "ĠLearning": 6542,
      "æľĢç»Ī": 6543,
      "tered": 6544,
      "lock": 6545,
      "èĪª": 6546,
      "Te": 6547,
      "Ġwalking": 6548,
      "Ġfig": 6549,
      "è¡¨è¾¾": 6550,
      "çĶļèĩ³": 6551,
      "Ġhosp": 6552,
      "ĠSam": 6553,
      "usiness": 6554,
      "ĠPutnam": 6555,
      "Me": 6556,
      "æĶ¯ä»ĺ": 6557,
      "ãĥ": 6558,
      "è¯¸": 6559,
      "Ġfederal": 6560,
      "Ġesc": 6561,
      "é©¬åħĭ": 6562,
      "Ġinitial": 6563,
      "çĪ±": 6564,
      "Ġpen": 6565,
      "Ġbuildings": 6566,
      "åĨ³çŃĸ": 6567,
      "Ġinterested": 6568,
      "rb": 6569,
      "rees": 6570,
      "Ġtransform": 6571,
      "æĿİ": 6572,
      "rical": 6573,
      "atis": 6574,
      "Ġforeign": 6575,
      "ĠĠĠĠĠĠĠĠĠĠĠĠĠĠĠĠĠĠĠĠĠĠĠĠĠ": 6576,
      "Ġdiagn": 6577,
      "å¹´çļĦ": 6578,
      "isher": 6579,
      "ä¾Ŀæ³ķ": 6580,
      "Sp": 6581,
      "éĢļå¸¸": 6582,
      "Ġcoast": 6583,
      "æ¶īåıĬ": 6584,
      "Ġfinally": 6585,
      "icense": 6586,
      "Ġinvestig": 6587,
      "ĠSince": 6588,
      "Ġshared": 6589,
      "ĠFebruary": 6590,
      "çŁĽçĽ¾": 6591,
      "Go": 6592,
      "aker": 6593,
      "Now": 6594,
      "Ġwants": 6595,
      "web": 6596,
      "ĠGovernment": 6597,
      "çĶ¨æĪ·": 6598,
      "å°±ä¸ļ": 6599,
      "çģµ": 6600,
      "Ġencourag": 6601,
      "é»Ħ": 6602,
      "SION": 6603,
      "local": 6604,
      "å·¥åħ·": 6605,
      "ç«Ļ": 6606,
      "è¯´æĺİ": 6607,
      "itter": 6608,
      "Ġtypically": 6609,
      "bre": 6610,
      "ta": 6611,
      "ĠInstitute": 6612,
      "åįĥ": 6613,
      "ias": 6614,
      "Ġfresh": 6615,
      "Ġintent": 6616,
      "å®¶åºŃ": 6617,
      "æľªæĿ¥": 6618,
      "å¨ģ": 6619,
      "Ste": 6620,
      "é¡º": 6621,
      "æķĪæŀľ": 6622,
      "Ġeasier": 6623,
      "Ġsch": 6624,
      "Ġstuff": 6625,
      "ĠLin": 6626,
      "Ġactual": 6627,
      "Ġfloor": 6628,
      "æ»¡è¶³": 6629,
      "çĺ": 6630,
      "PP": 6631,
      "Ġplayers": 6632,
      "ĠEvery": 6633,
      "è¯ģæĺİ": 6634,
      "æĸĩæĺİ": 6635,
      "fil": 6636,
      "Ġwrote": 6637,
      "Ġintellig": 6638,
      "VER": 6639,
      "å°ļ": 6640,
      "Ġbusinesses": 6641,
      "Ġround": 6642,
      "ilit": 6643,
      "ails": 6644,
      "Ġtrend": 6645,
      "ĠDavid": 6646,
      "ingu": 6647,
      "Ġannual": 6648,
      "Ġroll": 6649,
      "Ġcharacteristics": 6650,
      ",.": 6651,
      "Ġfunctions": 6652,
      "Ġrat": 6653,
      "çŃ¾": 6654,
      "è·¨": 6655,
      "stream": 6656,
      "å®ĥä»¬": 6657,
      "Ġdistribution": 6658,
      "sup": 6659,
      "ĠRober": 6660,
      "åŁºåĽł": 6661,
      "known": 6662,
      "è´«": 6663,
      "å¼ķå¯¼": 6664,
      "Ġpatterns": 6665,
      "ĠJournal": 6666,
      "Ġinterpret": 6667,
      "æ¯į": 6668,
      "ĠCommission": 6669,
      "Ġmovie": 6670,
      "Ġmachine": 6671,
      "Ġbottom": 6672,
      "ĠUK": 6673,
      "ä½ľåĩº": 6674,
      "ç§Ł": 6675,
      "ĠInc": 6676,
      "uable": 6677,
      "leg": 6678,
      "ollow": 6679,
      "Ġcontroll": 6680,
      "arter": 6681,
      "band": 6682,
      "ida": 6683,
      "Ġhistorical": 6684,
      "ç¦ı": 6685,
      "Ġcomprehens": 6686,
      "Ġprepar": 6687,
      "gment": 6688,
      "%)": 6689,
      "margin": 6690,
      "ĠPri": 6691,
      "éĢĢ": 6692,
      "ĠReport": 6693,
      "Â°": 6694,
      "gener": 6695,
      "Ġpupils": 6696,
      "Ġcommercial": 6697,
      "è§Ħå¾ĭ": 6698,
      "ĠAlthough": 6699,
      "Ġpractical": 6700,
      "ĠMal": 6701,
      "Ġclos": 6702,
      "Ġur": 6703,
      "ĠAtt": 6704,
      "Ġpush": 6705,
      "Ġinvolve": 6706,
      "èĨľ": 6707,
      "æĮĩåĩº": 6708,
      "Ġexpand": 6709,
      "acing": 6710,
      "Ġcharg": 6711,
      "å®ĭ": 6712,
      "ĠAny": 6713,
      "çī©çĲĨ": 6714,
      "åĵ²": 6715,
      "æĿĥçļĦ": 6716,
      "èĽĭ": 6717,
      "Ġcareer": 6718,
      "Ġ33": 6719,
      "é©¬åħĭæĢĿ": 6720,
      "åĪĨç±»": 6721,
      "adow": 6722,
      "èĬ±": 6723,
      "Ġcop": 6724,
      "ipe": 6725,
      "ĠBecause": 6726,
      "åĨľæ°ĳ": 6727,
      "çļĦä¸»è¦ģ": 6728,
      "Ġmaster": 6729,
      "Ġoperation": 6730,
      "Ð¾Ð": 6731,
      "Ġmanage": 6732,
      "hand": 6733,
      "çĲĨå¿µ": 6734,
      "å®¢è§Ĥ": 6735,
      "ĠBoard": 6736,
      "Ġrain": 6737,
      "Ġobvious": 6738,
      "å¼±": 6739,
      "ĠQue": 6740,
      "âĢĿ.": 6741,
      "æ¶²": 6742,
      "Ġreality": 6743,
      "Ġ48": 6744,
      "Ġpresence": 6745,
      "Ġemphas": 6746,
      "æİ¥åıĹ": 6747,
      "è¿ĺæĺ¯": 6748,
      "Ġsugar": 6749,
      "Ġonto": 6750,
      "2020": 6751,
      "space": 6752,
      "ĠIsrael": 6753,
      "Ġsample": 6754,
      "Ġwall": 6755,
      "Ġsolar": 6756,
      "ĠSol": 6757,
      "ĠLand": 6758,
      "Ġremove": 6759,
      "å°¤": 6760,
      "Ġdefault": 6761,
      "cean": 6762,
      "rows": 6763,
      "æ¯Ĵ": 6764,
      "Ġplayed": 6765,
      "æĢ§è´¨": 6766,
      "Ġgold": 6767,
      "Ġblog": 6768,
      "Path": 6769,
      "Source": 6770,
      "Ġsell": 6771,
      "ĠBr": 6772,
      "Ab": 6773,
      "Ġserved": 6774,
      "MM": 6775,
      "ç¿": 6776,
      "ĠProt": 6777,
      "å¹¿æ³Ľ": 6778,
      "Ġencourage": 6779,
      "Def": 6780,
      "TE": 6781,
      "ĠEngine": 6782,
      "link": 6783,
      "Ġutil": 6784,
      "éĿŀå¸¸": 6785,
      "çŃĶ": 6786,
      "ĊĠĠĠĠĠĠĠĠĠĠĠĠĠĠĠĠĠĠĠĠĠĠĠĠĠĠĠĠĠĠĠĠ": 6787,
      "sect": 6788,
      "ĠBuild": 6789,
      "~~": 6790,
      "åīĤ": 6791,
      "font": 6792,
      "èĴ": 6793,
      "semb": 6794,
      "ously": 6795,
      "Ġchallenge": 6796,
      "OW": 6797,
      "idden": 6798,
      "}}": 6799,
      "åľ¨äºİ": 6800,
      "é¢Ĩå¯¼": 6801,
      ",'": 6802,
      ".*": 6803,
      "mas": 6804,
      "åĪ¸": 6805,
      "Ġcouldn": 6806,
      "Ġhighest": 6807,
      "Ġassert": 6808,
      "ç§°ä¸º": 6809,
      "Ġvolunt": 6810,
      "Ġcharge": 6811,
      "Ùİ": 6812,
      "Ġbra": 6813,
      "Ġnotice": 6814,
      "Ġsin": 6815,
      "ĠDuring": 6816,
      "ASA": 6817,
      "MB": 6818,
      "æĮĩæłĩ": 6819,
      "Read": 6820,
      "Ġstorage": 6821,
      "Ġcurriculum": 6822,
      "æĽ¾": 6823,
      "æĸ¹éĿ¢çļĦ": 6824,
      "rate": 6825,
      "udden": 6826,
      "ĠGroup": 6827,
      "ç¤¼": 6828,
      "Ġvision": 6829,
      "ql": 6830,
      "Ġnamed": 6831,
      "æ®Ĭ": 6832,
      "ado": 6833,
      "æĢ¥": 6834,
      "åįĸ": 6835,
      "ibus": 6836,
      "Ġregarding": 6837,
      "ĠPal": 6838,
      "Ġsac": 6839,
      "ĠMo": 6840,
      "Ġpolice": 6841,
      "Ġaccur": 6842,
      "hips": 6843,
      "ĠOffice": 6844,
      "Ġpray": 6845,
      "Ġexcell": 6846,
      "Ġfacilities": 6847,
      "Ġdra": 6848,
      "what": 6849,
      "Ġwish": 6850,
      "ĠSet": 6851,
      "dir": 6852,
      "Ġeating": 6853,
      "ĠWhite": 6854,
      "%;": 6855,
      "åĪĨå¸ĥ": 6856,
      "Ġmaybe": 6857,
      "Ġreports": 6858,
      "ĠAssociation": 6859,
      "++": 6860,
      "venue": 6861,
      "2017": 6862,
      "Ġrace": 6863,
      "çĨŁ": 6864,
      "ä¼ĺåĮĸ": 6865,
      "Ġemployees": 6866,
      "Ġprepared": 6867,
      "éĢ»": 6868,
      "Ġglass": 6869,
      "Ø¯": 6870,
      "ä¼ģä¸ļçļĦ": 6871,
      "è§ĤçĤ¹": 6872,
      "ĠÎ": 6873,
      "Ġcarried": 6874,
      "ĠOnce": 6875,
      "mosp": 6876,
      "æıı": 6877,
      "ĠJack": 6878,
      "pre": 6879,
      "$(": 6880,
      "Ġrelease": 6881,
      "aa": 6882,
      "å·®å¼Ĥ": 6883,
      "Ġsan": 6884,
      "Ġkn": 6885,
      "lick": 6886,
      "gra": 6887,
      "æ´²": 6888,
      "Ġriver": 6889,
      "æ³ķçļĦ": 6890,
      "ç¥ŀç»ı": 6891,
      "ota": 6892,
      "åĪ©äºİ": 6893,
      "Ġice": 6894,
      "Ġlived": 6895,
      "çº·": 6896,
      "åģı": 6897,
      "à³": 6898,
      "ĠBas": 6899,
      "Ġconv": 6900,
      "Ġscreen": 6901,
      "DP": 6902,
      "iveness": 6903,
      "IA": 6904,
      "Ġ([": 6905,
      "Ġrecords": 6906,
      "button": 6907,
      "omb": 6908,
      "ä»¥æĿ¥": 6909,
      "Ġattend": 6910,
      "count": 6911,
      "Ġded": 6912,
      "Ġobl": 6913,
      "éļĲ": 6914,
      "äº²": 6915,
      "æĪĲç«ĭ": 6916,
      "Ġ?": 6917,
      "æĺ¯ä¸Ģä¸ª": 6918,
      "Ġpric": 6919,
      "Ġadults": 6920,
      "ĠProv": 6921,
      "Ġstraight": 6922,
      "---": 6923,
      "ĠGr": 6924,
      "Ġexpression": 6925,
      "å¿ħè¦ģ": 6926,
      "Ġcatch": 6927,
      "Ġbudget": 6928,
      "Ġreached": 6929,
      "([": 6930,
      "ponse": 6931,
      "cons": 6932,
      "çģ«": 6933,
      "å½ĵåīį": 6934,
      "ĠNumber": 6935,
      "Ġaffected": 6936,
      "Ġlargest": 6937,
      "èµĶåģ¿": 6938,
      "Ġpaid": 6939,
      "Ġtechnical": 6940,
      "ĠGerman": 6941,
      "Comm": 6942,
      "Ġgirls": 6943,
      "ä»²è£ģ": 6944,
      "åĮĸåŃ¦": 6945,
      "iences": 6946,
      "fered": 6947,
      "Ġhit": 6948,
      "Ġdoctor": 6949,
      "ĠPost": 6950,
      "Ġheavy": 6951,
      "Ġinformed": 6952,
      "van": 6953,
      "ĠÂł": 6954,
      "éĻĦ": 6955,
      "å®ļä¹ī": 6956,
      "Ġfactor": 6957,
      "æ½ľ": 6958,
      "ABLE": 6959,
      "å±¥è¡Į": 6960,
      "Ġarm": 6961,
      "sk": 6962,
      "Ġrapid": 6963,
      "ĠSer": 6964,
      "ãĢģâĢľ": 6965,
      "Ø¨": 6966,
      "æĹ¥æľ¬": 6967,
      "den": 6968,
      "äºĴèģĶç½ĳ": 6969,
      "ael": 6970,
      "å§Ķåĳĺä¼ļ": 6971,
      "iki": 6972,
      "{\\": 6973,
      "ĠCON": 6974,
      "orthern": 6975,
      "Ġroot": 6976,
      "db": 6977,
      "Ġmotiv": 6978,
      "Ġcrucial": 6979,
      "éĢ»è¾ĳ": 6980,
      "Part": 6981,
      "ĠGreen": 6982,
      "Ġgeneration": 6983,
      "iant": 6984,
      "ĠHome": 6985,
      "åĪĨåĪ«": 6986,
      "Ġunf": 6987,
      "Ġboy": 6988,
      "Ġnotes": 6989,
      "Ġexpert": 6990,
      "omy": 6991,
      "Ġcreation": 6992,
      "Some": 6993,
      "ĠInformation": 6994,
      "Ġseven": 6995,
      "æĶ»": 6996,
      "Ġsand": 6997,
      "Ġstructures": 6998,
      "ĠHistory": 6999,
      "Ġreact": 7000,
      "Ġemotional": 7001,
      "ĠPort": 7002,
      "Ġfloat": 7003,
      "amm": 7004,
      "Ġarchitect": 7005,
      "Plant": 7006,
      "Market": 7007,
      "å·¨": 7008,
      "child": 7009,
      "ĠSociety": 7010,
      "Ġmentioned": 7011,
      "Ġindex": 7012,
      "Ġuint": 7013,
      "Ġcommit": 7014,
      "uries": 7015,
      "Ġthoughts": 7016,
      "ĠIsland": 7017,
      "Ġhappens": 7018,
      "ç¼©": 7019,
      "----------|": 7020,
      "Do": 7021,
      "ç¥¨": 7022,
      "Ġmist": 7023,
      "å¹´ä»£": 7024,
      "ossary": 7025,
      "ä¹ĭåĲİ": 7026,
      "Ġ2005": 7027,
      "Ġresponsibility": 7028,
      "Ġabsolute": 7029,
      "å®ŀè¡Į": 7030,
      "åıįåºĶ": 7031,
      "ĠOrgan": 7032,
      "level": 7033,
      "Ġpresident": 7034,
      "ributed": 7035,
      "ĠTechnology": 7036,
      "é¡¾": 7037,
      "Ġfoods": 7038,
      "Conclusion": 7039,
      "xn": 7040,
      "Ã§": 7041,
      "Ġobserved": 7042,
      "ESS": 7043,
      "æł¹æľ¬": 7044,
      "Ġcampaign": 7045,
      "Ġbaby": 7046,
      "Ġcelebr": 7047,
      "ĠMet": 7048,
      "ĠUp": 7049,
      "ĠStand": 7050,
      "Ġseemed": 7051,
      "src": 7052,
      "Ġformat": 7053,
      "éĢĤåºĶ": 7054,
      "ĠOb": 7055,
      "åŃ¦çļĦ": 7056,
      "****************": 7057,
      "ste": 7058,
      "ĠCommunity": 7059,
      "Ġmeant": 7060,
      "Ġspot": 7061,
      "being": 7062,
      "à¥ĩ": 7063,
      "æŃ£ç¡®": 7064,
      "äº¡": 7065,
      "å·´": 7066,
      "mes": 7067,
      "ĠBro": 7068,
      "Ġoccas": 7069,
      "Ġconsult": 7070,
      "Ġnor": 7071,
      "Ġnav": 7072,
      "Ġaudience": 7073,
      "Ġdistrict": 7074,
      "Ġoffered": 7075,
      "Ġhom": 7076,
      "Ġconclusion": 7077,
      "ĠTheir": 7078,
      "å½¢æĢģ": 7079,
      "respond": 7080,
      "çľ¼": 7081,
      "äº¤éĢļ": 7082,
      "anda": 7083,
      "enses": 7084,
      "Ġtasks": 7085,
      "ersion": 7086,
      "æ·±åħ¥": 7087,
      "-----|": 7088,
      "åįıè°ĥ": 7089,
      "arian": 7090,
      "ĠFound": 7091,
      "ĠLou": 7092,
      "Ġking": 7093,
      "ç³»ç»ŁçļĦ": 7094,
      "éĵģ": 7095,
      "Ġauto": 7096,
      "Ġprofession": 7097,
      "TL": 7098,
      "Ġped": 7099,
      "Ġreference": 7100,
      "STR": 7101,
      "parent": 7102,
      "Out": 7103,
      "unct": 7104,
      "ĠRev": 7105,
      "Ġcourt": 7106,
      "Ġwinter": 7107,
      "ä¹ı": 7108,
      "Ġconsumption": 7109,
      "works": 7110,
      "Ġcast": 7111,
      "å»ºè®®": 7112,
      "Ġpull": 7113,
      "anging": 7114,
      "Ġshop": 7115,
      "home": 7116,
      "æĺ¯ä¸Ģç§į": 7117,
      "\\(": 7118,
      "Ġdiseases": 7119,
      "DC": 7120,
      "Ġtal": 7121,
      "ĠReview": 7122,
      "Ġimplementation": 7123,
      "å©ļ": 7124,
      "æī¾": 7125,
      "åĳĪ": 7126,
      "coh": 7127,
      "æķ´ä¸ª": 7128,
      "ago": 7129,
      "æ³ķè§Ħ": 7130,
      "è®¡ç®Ĺæľº": 7131,
      "Ġdoll": 7132,
      "ĠAv": 7133,
      "Ġinstitutions": 7134,
      "Ġinvestment": 7135,
      "Ġsymbol": 7136,
      "Ġnice": 7137,
      "Ġweak": 7138,
      "pty": 7139,
      "ĠIslam": 7140,
      "oday": 7141,
      "éģĩ": 7142,
      "Ġurban": 7143,
      "Ġship": 7144,
      "èĽĭçĻ½": 7145,
      "Ġsolutions": 7146,
      "ĠGood": 7147,
      "SP": 7148,
      "Ġimproved": 7149,
      "åªĴ": 7150,
      "å¸®åĬ©": 7151,
      "---------|": 7152,
      "ä¸įå¾Ĺ": 7153,
      "Ġfiles": 7154,
      "ĠRepublic": 7155,
      "ĠĠĠĠĠĠĠĠĠĠĠĠĠĠĠĠĠĠĠĠĠĠĠĠĠĠĠĠ": 7156,
      "Ġhumans": 7157,
      "å·¦": 7158,
      "Ġphil": 7159,
      "Ġremov": 7160,
      "çī¹æ®Ĭ": 7161,
      "poses": 7162,
      "ipped": 7163,
      "Ġseparate": 7164,
      "''": 7165,
      "ga": 7166,
      "ĠInte": 7167,
      "Su": 7168,
      "Ġhelped": 7169,
      "éĤ£ä¹Ī": 7170,
      "Ġcircum": 7171,
      "å¹¶ä¸Ķ": 7172,
      "ĠDec": 7173,
      "Ġ58": 7174,
      "eared": 7175,
      "Ġspend": 7176,
      "ç»¿èī²": 7177,
      "ĠHel": 7178,
      "ĠDel": 7179,
      "Ġdu": 7180,
      "æ²¹": 7181,
      "éģį": 7182,
      "åħļçļĦ": 7183,
      "Ġcertainly": 7184,
      "ipal": 7185,
      "è§Ĵåº¦": 7186,
      "Å«": 7187,
      "doc": 7188,
      "ĠMem": 7189,
      "ä¹İ": 7190,
      "æ´ĭ": 7191,
      "Ġnuc": 7192,
      "ĠRec": 7193,
      "Ġfemale": 7194,
      "Ġcamer": 7195,
      "map": 7196,
      "Ġoutcomes": 7197,
      "Ġq": 7198,
      "Ġtaught": 7199,
      "rogen": 7200,
      "ĠGreat": 7201,
      "ĠAdd": 7202,
      "Ġreturned": 7203,
      "Ġsevere": 7204,
      "éĩįè§Ĩ": 7205,
      "Ġproposed": 7206,
      "Ġing": 7207,
      "ECT": 7208,
      "ĠDistrict": 7209,
      "ĠSen": 7210,
      "().": 7211,
      "border": 7212,
      "osystem": 7213,
      "ords": 7214,
      "Stud": 7215,
      "umer": 7216,
      "èĦ±": 7217,
      "çĶ°": 7218,
      "Ġconnected": 7219,
      "åħµ": 7220,
      "porary": 7221,
      "Ġcustomer": 7222,
      "Ġassistance": 7223,
      "Class": 7224,
      "Ġmanner": 7225,
      "ifically": 7226,
      "Ġcert": 7227,
      "ourney": 7228,
      "Ġjobs": 7229,
      "ditionally": 7230,
      "ĠPress": 7231,
      "iced": 7232,
      "related": 7233,
      "raz": 7234,
      "gs": 7235,
      "Ġdaughter": 7236,
      "Index": 7237,
      "sec": 7238,
      "Ġinterests": 7239,
      "Ġdescribe": 7240,
      "ĠGeorge": 7241,
      "æľŁéĹ´": 7242,
      "çĸĳ": 7243,
      "ustain": 7244,
      "Ġselected": 7245,
      "ĠString": 7246,
      "čĊĠĠĠĠĠĠĠ": 7247,
      "ĠMex": 7248,
      "ĠFood": 7249,
      "ĠRoad": 7250,
      "\"><": 7251,
      "ĠPM": 7252,
      ".âĢĶ": 7253,
      "Ġsector": 7254,
      "Ġimpacts": 7255,
      "Ġenhance": 7256,
      "Ġsales": 7257,
      "align": 7258,
      "æĸĹ": 7259,
      "block": 7260,
      "éĽĨä¸Ń": 7261,
      "mt": 7262,
      "Ġremoved": 7263,
      "æıĲä¾ĽäºĨ": 7264,
      "Sub": 7265,
      "Ġbacter": 7266,
      "Ġru": 7267,
      "Ġprefer": 7268,
      "Ġrise": 7269,
      "Ġegg": 7270,
      "Ġ75": 7271,
      "orial": 7272,
      "Up": 7273,
      "ĠAp": 7274,
      "abet": 7275,
      "Ġskill": 7276,
      "æįŁå®³": 7277,
      "apping": 7278,
      "èĹı": 7279,
      "oom": 7280,
      "ç»´æĬ¤": 7281,
      "Ġmilk": 7282,
      "ĠRE": 7283,
      "Ġreduced": 7284,
      "Ġgrass": 7285,
      "requ": 7286,
      "Ġ($": 7287,
      "è¾©": 7288,
      "Ġvaluable": 7289,
      "Ġstar": 7290,
      "annel": 7291,
      "rd": 7292,
      "Ġgone": 7293,
      "Ġotherwise": 7294,
      "ä¿ĿæĮģ": 7295,
      "Ġgrant": 7296,
      "ĠIII": 7297,
      "raction": 7298,
      "äºĭä»¶": 7299,
      "çļĦç¤¾ä¼ļ": 7300,
      "irgin": 7301,
      "Ġappears": 7302,
      "Ġforces": 7303,
      "using": 7304,
      "osoph": 7305,
      "pping": 7306,
      "rastructure": 7307,
      "èĢĮè¨Ģ": 7308,
      "èģĶåĲĪ": 7309,
      "urity": 7310,
      "Ġalternative": 7311,
      "Ġliterature": 7312,
      "èĢĮæĺ¯": 7313,
      "CON": 7314,
      "Ġpoly": 7315,
      "nel": 7316,
      "ĠList": 7317,
      "UB": 7318,
      "uty": 7319,
      "2018": 7320,
      "AA": 7321,
      "Ġmix": 7322,
      "ĠAustralia": 7323,
      "çļĦå¤§": 7324,
      "ulner": 7325,
      "Ġscientists": 7326,
      "ï½": 7327,
      "ĠDet": 7328,
      "Ġsupported": 7329,
      "Ġchanging": 7330,
      "Ġcontribute": 7331,
      "Ġkill": 7332,
      "åĮĹäº¬": 7333,
      "Ġmetal": 7334,
      "atin": 7335,
      "çĽĸ": 7336,
      "ishing": 7337,
      "ç³»åĪĹ": 7338,
      "Ġreplace": 7339,
      "ĠTotal": 7340,
      "çºł": 7341,
      "Ġscore": 7342,
      "Ġfreed": 7343,
      "Ġexperienced": 7344,
      "otic": 7345,
      "While": 7346,
      "è§Ħå®ļçļĦ": 7347,
      "arn": 7348,
      "Ġadvantage": 7349,
      "åĬłå¿«": 7350,
      "Ġcomments": 7351,
      "Ġraise": 7352,
      "ĠMain": 7353,
      "ague": 7354,
      "These": 7355,
      "ooth": 7356,
      "åį·": 7357,
      "ixt": 7358,
      "orrow": 7359,
      "é«ĺæł¡": 7360,
      "Ġbelong": 7361,
      "ushed": 7362,
      "å±Ĥæ¬¡": 7363,
      "GR": 7364,
      "da": 7365,
      "alysis": 7366,
      "åĪ¤æĸŃ": 7367,
      "æķ°éĩı": 7368,
      "Ġawareness": 7369,
      "usion": 7370,
      "ĠJer": 7371,
      "âħ": 7372,
      "Ġnovel": 7373,
      "è°Ī": 7374,
      "Ġflat": 7375,
      "Ġfinding": 7376,
      "Ġincreases": 7377,
      "Ø©": 7378,
      "è´Łè´£": 7379,
      "æĿ¥è¯´": 7380,
      "ÃŃ": 7381,
      "Ġancient": 7382,
      ")ï¼Į": 7383,
      "ĠCommittee": 7384,
      "Ġsounds": 7385,
      "ĠPhys": 7386,
      "Ġinternal": 7387,
      "Ġcounter": 7388,
      "height": 7389,
      "ç´¯": 7390,
      "ĠExpl": 7391,
      "Ġhyp": 7392,
      "ĠHol": 7393,
      "Ġwindow": 7394,
      "Time": 7395,
      "åī§": 7396,
      "Ġminor": 7397,
      "Ġ),": 7398,
      "çļĦè§Ħå®ļ": 7399,
      "Ġlib": 7400,
      "âĢĿ,": 7401,
      "Ġ2002": 7402,
      "Ġsexual": 7403,
      "çļĦæĸ°": 7404,
      "Ġsecret": 7405,
      "300": 7406,
      "ĠBel": 7407,
      "åºĬ": 7408,
      "AME": 7409,
      "åĦ¿ç«¥": 7410,
      "çĵ": 7411,
      "ãĢĤï¼Ī": 7412,
      "ĠJean": 7413,
      "èĥĮæĻ¯": 7414,
      "apers": 7415,
      "Ġbecoming": 7416,
      "ä¸°å¯Į": 7417,
      "Ġwouldn": 7418,
      "Ġpurposes": 7419,
      "é¼ĵ": 7420,
      "çĸ¾": 7421,
      "Ġannoun": 7422,
      "ÙĪ": 7423,
      "éĺ»": 7424,
      "Ġwait": 7425,
      "æī©å¤§": 7426,
      "Ġaren": 7427,
      "æ°§": 7428,
      "æĦ¿": 7429,
      "olved": 7430,
      "Ġanx": 7431,
      "tical": 7432,
      "ĠUnderstanding": 7433,
      "EX": 7434,
      "Ġ37": 7435,
      "olicy": 7436,
      "ĠBi": 7437,
      "ĠWhe": 7438,
      "ĠEnvironmental": 7439,
      "ka": 7440,
      "éĢı": 7441,
      "å¥¹": 7442,
      "ĠInternet": 7443,
      "800": 7444,
      "Ġtransl": 7445,
      "Ġsituations": 7446,
      "ç®Ģåįķ": 7447,
      "Ġmit": 7448,
      "å¼ķèµ·": 7449,
      "ĠGoogle": 7450,
      "Ġauthority": 7451,
      "oto": 7452,
      "ĠAmericans": 7453,
      "èįī": 7454,
      "VID": 7455,
      "Ġanti": 7456,
      "Ġgoods": 7457,
      "roduct": 7458,
      "åıĮæĸ¹": 7459,
      "dbo": 7460,
      "iments": 7461,
      "à¤¤": 7462,
      "äº¤æµģ": 7463,
      "Acc": 7464,
      "åĪĨåŃĲ": 7465,
      "Ġatmosp": 7466,
      "Ġcreative": 7467,
      "åĮ»çĸĹ": 7468,
      "Ġsnow": 7469,
      "ĠRich": 7470,
      "Ġstation": 7471,
      "Ġconsc": 7472,
      "``": 7473,
      "FL": 7474,
      "ĠBay": 7475,
      "ĠElect": 7476,
      "soft": 7477,
      "Ġcooper": 7478,
      "Ġbatter": 7479,
      "Ġplayer": 7480,
      "ensions": 7481,
      "BC": 7482,
      "mat": 7483,
      "Ġbillion": 7484,
      "Ġemp": 7485,
      "ä¼łæĴŃ": 7486,
      "uing": 7487,
      "\");": 7488,
      "å¹¶ä¸į": 7489,
      "ĠServices": 7490,
      "ARG": 7491,
      "Ġvehicle": 7492,
      "åĳ³": 7493,
      "Ġsigns": 7494,
      "PC": 7495,
      "Ġdetermined": 7496,
      "pa": 7497,
      "].[": 7498,
      "è½¯ä»¶": 7499,
      "idate": 7500,
      "Ġagricultural": 7501,
      "æ··": 7502,
      "Ġvalley": 7503,
      "Ġvolume": 7504,
      "Ġmonitoring": 7505,
      ".**": 7506,
      "itness": 7507,
      "è¿ģ": 7508,
      "ä¸Ģå®ļçļĦ": 7509,
      "len": 7510,
      "abs": 7511,
      "ĠArch": 7512,
      "è¯·æ±Ĥ": 7513,
      "Ġwilling": 7514,
      "Ġsignificantly": 7515,
      "Ġrefers": 7516,
      "ç¢į": 7517,
      "æ¯ıä¸ª": 7518,
      "Ġillustr": 7519,
      "ora": 7520,
      "ä¸Ĭè¿°": 7521,
      "Ġconcerns": 7522,
      "ĠCare": 7523,
      "ĠEth": 7524,
      "è¯¾åłĤ": 7525,
      "Ġdivid": 7526,
      "ĠEnergy": 7527,
      "åĢºæĿĥ": 7528,
      "Man": 7529,
      "ensus": 7530,
      "InstanceID": 7531,
      "rm": 7532,
      "æ¶µ": 7533,
      "èµ·æĿ¥": 7534,
      "ĠArab": 7535,
      "ossible": 7536,
      "ãĢĮ": 7537,
      "Ġspeech": 7538,
      "Ġhus": 7539,
      "å®½": 7540,
      "ĠFOR": 7541,
      "åİŁçĲĨ": 7542,
      "å¾Īå¤ļ": 7543,
      "Ed": 7544,
      "Ġdescription": 7545,
      "å¥Ĺ": 7546,
      "Let": 7547,
      "Ġwww": 7548,
      "Ġshowing": 7549,
      "ailed": 7550,
      "Ġowners": 7551,
      "Ġreducing": 7552,
      "è¶ĭåĬ¿": 7553,
      "**:": 7554,
      "iated": 7555,
      "ML": 7556,
      "Ġassign": 7557,
      "åħ¬å¹³": 7558,
      "ä¸Ģèĩ´": 7559,
      "Ġdouble": 7560,
      "ĠMark": 7561,
      "Ġleaving": 7562,
      "Ġlegis": 7563,
      "Ġdiscussed": 7564,
      "ä¿¡åı·": 7565,
      "Ġmm": 7566,
      "Ġ38": 7567,
      "Ġclin": 7568,
      "oyal": 7569,
      "Ġmarriage": 7570,
      "ĠTime": 7571,
      "esh": 7572,
      "Ġpersons": 7573,
      "Ġtechnologies": 7574,
      "anged": 7575,
      "è¡¨æĺİ": 7576,
      "Ġshift": 7577,
      "Ġbelieved": 7578,
      "ãĢį": 7579,
      "æłĳ": 7580,
      "ander": 7581,
      "Ġexperiment": 7582,
      "ĠDan": 7583,
      "ĠCH": 7584,
      "Ġargument": 7585,
      "Ġimpl": 7586,
      "éĻĪ": 7587,
      "è§Ĥå¿µ": 7588,
      "Ġcolumn": 7589,
      "SA": 7590,
      "eer": 7591,
      "gov": 7592,
      "Ġshap": 7593,
      "Ġjoint": 7594,
      "Ġ39": 7595,
      "Ġsudden": 7596,
      "Ġband": 7597,
      "background": 7598,
      "-------|": 7599,
      "æĬµ": 7600,
      "Ġprotected": 7601,
      "Ġwel": 7602,
      "ĠMart": 7603,
      "Ġwhatever": 7604,
      "Ġmostly": 7605,
      "icks": 7606,
      "ä¸īä¸ª": 7607,
      "æŃ¤å¤ĸ": 7608,
      "è®¤çŁ¥": 7609,
      "Ġapproximately": 7610,
      "æĸĩåŃ¦": 7611,
      "Ġadvanced": 7612,
      "Ġthrow": 7613,
      "agram": 7614,
      "Ġopinion": 7615,
      "oster": 7616,
      "Ġdisapp": 7617,
      "Ġhelping": 7618,
      "Ġviolence": 7619,
      "ĠCourt": 7620,
      "oma": 7621,
      "Ġcomponent": 7622,
      "Ġmaximum": 7623,
      "Size": 7624,
      "pub": 7625,
      "ĠThomas": 7626,
      "ï¼ģ": 7627,
      "igration": 7628,
      "çĽŁ": 7629,
      "åĶ¯": 7630,
      "ç¹": 7631,
      "Ġopened": 7632,
      "Ġfuck": 7633,
      "Ġfunding": 7634,
      "ĠSmith": 7635,
      "Ġslightly": 7636,
      "igen": 7637,
      "èµĭ": 7638,
      "åĲ¬": 7639,
      "Ġpp": 7640,
      "å½ĵæĹ¶": 7641,
      "Ġunits": 7642,
      "çĦ¶èĢĮ": 7643,
      "ĠGen": 7644,
      "erved": 7645,
      "çĩ": 7646,
      "Ġliqu": 7647,
      "è¶ħè¿ĩ": 7648,
      "rend": 7649,
      "ormal": 7650,
      "Ġexposure": 7651,
      "xl": 7652,
      "porate": 7653,
      "\\+": 7654,
      "Ġfollows": 7655,
      "Ġindependent": 7656,
      "æ²¿": 7657,
      "Trans": 7658,
      "alle": 7659,
      "ademy": 7660,
      "\\(^": 7661,
      "._": 7662,
      "Ġelif": 7663,
      "Ġslowly": 7664,
      "åĵ²åŃ¦": 7665,
      "Ġcities": 7666,
      "Ġreleased": 7667,
      "ä¾ĽåºĶ": 7668,
      "EST": 7669,
      "Ġfocused": 7670,
      "Ġinsurance": 7671,
      "Ġrenew": 7672,
      "ship": 7673,
      "Ġguess": 7674,
      "Ġ42": 7675,
      "æĮ¯": 7676,
      "Ġcalls": 7677,
      "PE": 7678,
      "Ġperspective": 7679,
      "itage": 7680,
      "osen": 7681,
      "Ġrub": 7682,
      "çİ°ä»£åĮĸ": 7683,
      "Ġclosed": 7684,
      "Em": 7685,
      "Ġlibrary": 7686,
      "kit": 7687,
      "esp": 7688,
      "Ġnutri": 7689,
      "è®¨è®º": 7690,
      "çĻ»è®°": 7691,
      "Ġvirus": 7692,
      "Ġspect": 7693,
      "ĠSy": 7694,
      "ä¸Ģæĺ¯": 7695,
      "Ġraised": 7696,
      "Ġnull": 7697,
      "ç¡¬": 7698,
      "Ġinvent": 7699,
      "going": 7700,
      "rt": 7701,
      "Ġbodies": 7702,
      "Ġappoint": 7703,
      "ĠJewish": 7704,
      "lete": 7705,
      "ĠTable": 7706,
      "ç¤¾åĮº": 7707,
      "Ġspl": 7708,
      "äººå·¥": 7709,
      "éĢļä¿¡": 7710,
      "Ġbrief": 7711,
      "Ġfell": 7712,
      "å¾Ģå¾Ģ": 7713,
      "æĬĢèĥ½": 7714,
      "Ġidentity": 7715,
      "èĦī": 7716,
      "za": 7717,
      "è§Ĥå¯Ł": 7718,
      "æ±¡æŁĵ": 7719,
      "Ġupd": 7720,
      "ORD": 7721,
      "Ġallowing": 7722,
      "Ġteams": 7723,
      "ĠCarol": 7724,
      "2019": 7725,
      "utive": 7726,
      "ĠTeacher": 7727,
      "Ġrisks": 7728,
      "PT": 7729,
      "Ġmale": 7730,
      "anguages": 7731,
      "lo": 7732,
      "Ġexhib": 7733,
      "Ġextremely": 7734,
      "inding": 7735,
      "Ġ64": 7736,
      "which": 7737,
      "Ġbehaviour": 7738,
      "section": 7739,
      "ä¸ºä¸»": 7740,
      ")(": 7741,
      "hi": 7742,
      "max": 7743,
      "éĢŁåº¦": 7744,
      "Ġ2004": 7745,
      "ĠWhere": 7746,
      "Ġcollected": 7747,
      "Ġdynam": 7748,
      "ĠExt": 7749,
      "ĠCongress": 7750,
      "Ġnoted": 7751,
      "perty": 7752,
      "æĪĲåĬŁ": 7753,
      "onents": 7754,
      "Ġhomes": 7755,
      "ĠExper": 7756,
      "ĠDE": 7757,
      "ä½ľåĵģ": 7758,
      "Over": 7759,
      "tra": 7760,
      "ographic": 7761,
      "ĠCompany": 7762,
      "ocket": 7763,
      "ĠCode": 7764,
      "ĠHuman": 7765,
      "Ġkeeping": 7766,
      "Ġhol": 7767,
      "ä¾§": 7768,
      "ĠWho": 7769,
      "Ġrecommended": 7770,
      "Ġbott": 7771,
      "orders": 7772,
      "2021": 7773,
      "2016": 7774,
      "Ġpages": 7775,
      "Ġdb": 7776,
      "Ġrot": 7777,
      "riday": 7778,
      "ĠTherefore": 7779,
      "ç»ıè¿ĩ": 7780,
      "à¤¿": 7781,
      "èĩªä¸»": 7782,
      "ros": 7783,
      "åı³": 7784,
      "ĠMicro": 7785,
      "ameter": 7786,
      "åĵª": 7787,
      "Ġseeing": 7788,
      "stract": 7789,
      "Ġconfig": 7790,
      "Ag": 7791,
      "éª¨": 7792,
      "Ġresistance": 7793,
      "çİ¯èĬĤ": 7794,
      "Ġpieces": 7795,
      "èĩªæĪĳ": 7796,
      "ibilities": 7797,
      "Ġjourney": 7798,
      "ĠVis": 7799,
      "è®Ńç»ĥ": 7800,
      "æĿ¥æºĲ": 7801,
      "æĹ§": 7802,
      "abric": 7803,
      "Ġrow": 7804,
      "ĠAccording": 7805,
      "btn": 7806,
      "Ġfirm": 7807,
      "phys": 7808,
      "Ġintended": 7809,
      "åĲİçļĦ": 7810,
      "Ġoccurs": 7811,
      "Ġrelatively": 7812,
      "Ġvacc": 7813,
      "ĠFather": 7814,
      "Ġeventually": 7815,
      "erscript": 7816,
      "Ġrural": 7817,
      "ogen": 7818,
      "uke": 7819,
      "ä¸»å¼ł": 7820,
      "Ġdrop": 7821,
      "Ġ2021": 7822,
      "æľ¬è´¨": 7823,
      "Ġconservation": 7824,
      "Ġprotein": 7825,
      "ðĿ": 7826,
      "äº¦": 7827,
      "è´¯": 7828,
      "Ġadvance": 7829,
      "ĠTwo": 7830,
      "['": 7831,
      "--------|": 7832,
      "æľ¬èº«": 7833,
      "Ġformed": 7834,
      "ĠExamples": 7835,
      "Ġburn": 7836,
      "å°Ĭ": 7837,
      "Ġunivers": 7838,
      "ĠSecond": 7839,
      "åŃ¦æľ¯": 7840,
      "ç¼ĵ": 7841,
      "å¤Ħäºİ": 7842,
      "Ġproperly": 7843,
      "scape": 7844,
      "çŃĸçķ¥": 7845,
      "ĠSom": 7846,
      "Ġcorrespond": 7847,
      "Ġsusp": 7848,
      "ĠOR": 7849,
      "ĠConference": 7850,
      "ĠFrance": 7851,
      "Ass": 7852,
      "Ġwaters": 7853,
      "ãĢĤâĢľ": 7854,
      "éģµ": 7855,
      "Ġevolution": 7856,
      "empl": 7857,
      "hetic": 7858,
      "Ġthousands": 7859,
      "cal": 7860,
      "Ġstim": 7861,
      "çŁ¿": 7862,
      "å¹³è¡¡": 7863,
      "Ġexcellent": 7864,
      "antic": 7865,
      "Ġintroduced": 7866,
      "Ġsrc": 7867,
      "Ġdeliver": 7868,
      "superscript": 7869,
      "OD": 7870,
      "Ġmaintenance": 7871,
      "Ġminimum": 7872,
      "Ġcourses": 7873,
      "onent": 7874,
      "aste": 7875,
      "scroll": 7876,
      "Ġhandle": 7877,
      "Ġadvice": 7878,
      "ĠTV": 7879,
      "æ£Ģæµĭ": 7880,
      "ya": 7881,
      "ä½¿å¾Ĺ": 7882,
      "æįŁå¤±": 7883,
      "å°¤åħ¶": 7884,
      "Ġteeth": 7885,
      "åĩºçīĪ": 7886,
      "textsuperscript": 7887,
      "ĠMake": 7888,
      "ĠAP": 7889,
      "æĿ¿": 7890,
      "ĠNews": 7891,
      "mark": 7892,
      "image": 7893,
      "ç»Łè®¡": 7894,
      "è½¬åıĺ": 7895,
      "-------------|": 7896,
      "Ġindustrial": 7897,
      "Ġengineering": 7898,
      "ART": 7899,
      "Ġ(\"": 7900,
      "Ġkilled": 7901,
      "ç¯ĩ": 7902,
      "ä¸ĭçļĦ": 7903,
      "Ġdiscipl": 7904,
      "ä¸¤ç§į": 7905,
      "padding": 7906,
      "Ġcolon": 7907,
      "sey": 7908,
      "Ġschem": 7909,
      "çĽ¸åĲĮ": 7910,
      "Ġbreast": 7911,
      "ç¾¤ä¼Ĺ": 7912,
      "(&": 7913,
      "Ġiron": 7914,
      "çŃ¹": 7915,
      "è¡ĮåĬ¨": 7916,
      "Ġfindings": 7917,
      "æĻ®éģį": 7918,
      "è´µ": 7919,
      "Ġstorm": 7920,
      "ĠMac": 7921,
      "Ġshot": 7922,
      "anges": 7923,
      "åħ±äº«": 7924,
      "åĬĽéĩı": 7925,
      "Ġwire": 7926,
      "Ġprocedures": 7927,
      "æŃĮ": 7928,
      "arp": 7929,
      "æľ«": 7930,
      "ĠLife": 7931,
      "Ġ65": 7932,
      "Ġfif": 7933,
      "åĪ°äºĨ": 7934,
      "itud": 7935,
      "Ġaccounts": 7936,
      "Ġemotions": 7937,
      "{}": 7938,
      "ç¼ºä¹ı": 7939,
      "ĠRobert": 7940,
      "Ġsumm": 7941,
      "abul": 7942,
      "ĠFranc": 7943,
      "%ï¼Į": 7944,
      "ĠPRO": 7945,
      "Ġchapter": 7946,
      "Ġ55": 7947,
      "æĪĲåĳĺ": 7948,
      "Here": 7949,
      "ĠSelf": 7950,
      "Inst": 7951,
      "Ġstreet": 7952,
      "Ġacid": 7953,
      "DF": 7954,
      "essel": 7955,
      "Ġinteg": 7956,
      "Ġspiritual": 7957,
      "ront": 7958,
      "æµģåĬ¨": 7959,
      "çĶŁåĳ½": 7960,
      "Ġelectricity": 7961,
      "åŃ¦èĢħ": 7962,
      "Ġcontrast": 7963,
      "å®ı": 7964,
      "atically": 7965,
      "Ġholds": 7966,
      "ĠUsing": 7967,
      "Ġsufficient": 7968,
      "çľŁæŃ£": 7969,
      "Ġradio": 7970,
      "Ġgun": 7971,
      "aked": 7972,
      "Can": 7973,
      "ĠBusiness": 7974,
      "Ġentry": 7975,
      "çĶ²": 7976,
      "ĠâĢ¦": 7977,
      "Ġdestroy": 7978,
      "Ġjournal": 7979,
      "ä¼ļè®®": 7980,
      "Ġdistinct": 7981,
      "Ġcycle": 7982,
      "Ġdefinition": 7983,
      "Ġpollution": 7984,
      "edia": 7985,
      "å¸Į": 7986,
      "Ġreligion": 7987,
      "ĠCapt": 7988,
      "Info": 7989,
      "Ġmarketing": 7990,
      "how": 7991,
      "åĩ½": 7992,
      "rift": 7993,
      "ptions": 7994,
      "Ġpurchase": 7995,
      "Ġvulner": 7996,
      "2015": 7997,
      "ç®Ĺæ³ķ": 7998,
      "bi": 7999,
      "Ġsports": 8000,
      "Ġthick": 8001,
      "ĠIF": 8002,
      "cohol": 8003,
      "Ġlose": 8004,
      "è¥¿æĸ¹": 8005,
      "ĠSund": 8006,
      "Ġdoct": 8007,
      "Ġefficiency": 8008,
      "æĿĥçĽĬ": 8009,
      "è®¾ç½®": 8010,
      "ITY": 8011,
      "Ġfeedback": 8012,
      "é¸": 8013,
      "rian": 8014,
      "$$": 8015,
      "Ġlayer": 8016,
      "çļĦæĸ¹å¼ı": 8017,
      "Ġreduction": 8018,
      "éħįç½®": 8019,
      "è¯Ĭ": 8020,
      "æľĢå¤§": 8021,
      "AND": 8022,
      "akers": 8023,
      "itely": 8024,
      "ĠWeb": 8025,
      "ĠBank": 8026,
      "ĠLike": 8027,
      "ĠAssess": 8028,
      "source": 8029,
      "dule": 8030,
      "contain": 8031,
      "ycl": 8032,
      "Ġgender": 8033,
      "Ġknows": 8034,
      "ĠSec": 8035,
      "æıĲåĩºäºĨ": 8036,
      "ç£ģ": 8037,
      "EO": 8038,
      "och": 8039,
      "rix": 8040,
      "æľĢåĲİ": 8041,
      "Ġconflict": 8042,
      "vate": 8043,
      "icial": 8044,
      "Ġitem": 8045,
      "Ġanswers": 8046,
      "Ġplanet": 8047,
      "Ġengage": 8048,
      "å±ħæ°ĳ": 8049,
      "éĢĲæ¸Ĳ": 8050,
      "Ġshut": 8051,
      "())": 8052,
      "azing": 8053,
      "Ġbond": 8054,
      "ĠWestern": 8055,
      "è½¬ç§»": 8056,
      "Ġwealth": 8057,
      "é«ĺçŃī": 8058,
      "è¶£": 8059,
      "åĪĳäºĭ": 8060,
      "Ġaccompl": 8061,
      "Ġleads": 8062,
      "Ġtopics": 8063,
      "ishes": 8064,
      "eding": 8065,
      "ĠPath": 8066,
      "éģ¿åħį": 8067,
      "cd": 8068,
      "çļĦåħ³ç³»": 8069,
      "ĠBet": 8070,
      "args": 8071,
      "ĠFoundation": 8072,
      "å¹´æĿ¥": 8073,
      ")/": 8074,
      "ĠEconom": 8075,
      "Ġdepth": 8076,
      "Ġinternet": 8077,
      "Ġjump": 8078,
      "æ¯Ķå¦Ĥ": 8079,
      "çªģåĩº": 8080,
      "æĬĺ": 8081,
      "ĠCap": 8082,
      "å¹ħ": 8083,
      "Ġjustice": 8084,
      "Ġfamiliar": 8085,
      "Our": 8086,
      "IST": 8087,
      "Ġwidth": 8088,
      "å¤ļç§į": 8089,
      "ivery": 8090,
      "ä¼¦": 8091,
      "à¥Ģ": 8092,
      "Ġstick": 8093,
      "Ġclub": 8094,
      "Ġherself": 8095,
      "Ġlearners": 8096,
      "çľŁå®ŀ": 8097,
      "eper": 8098,
      "ĠTH": 8099,
      "æĽ¿": 8100,
      "èµĸ": 8101,
      "Ġfont": 8102,
      "Ġfilled": 8103,
      "ä¸įè¶³": 8104,
      "Ġsets": 8105,
      "ĠGermany": 8106,
      "info": 8107,
      "Ġsoul": 8108,
      "ĠEqu": 8109,
      "axter": 8110,
      "Ġpadding": 8111,
      "uthors": 8112,
      "æĸĩçĮ®": 8113,
      "Reg": 8114,
      "pop": 8115,
      "ĠForm": 8116,
      "ĠUSA": 8117,
      "Don": 8118,
      "uses": 8119,
      "\":": 8120,
      "åŃĶ": 8121,
      "åĽ½æ°ĳ": 8122,
      "itutional": 8123,
      "ifier": 8124,
      "äºĮæĺ¯": 8125,
      "Ġcircuit": 8126,
      "Ġ]": 8127,
      "ĠSun": 8128,
      "iform": 8129,
      "ĠSpace": 8130,
      "ĠFe": 8131,
      "æĺ¾ç¤º": 8132,
      "ç¹ģ": 8133,
      "Spec": 8134,
      "åĲĪæ³ķ": 8135,
      "éĢĲæŃ¥": 8136,
      "å³": 8137,
      "Ġwear": 8138,
      "æĮĳ": 8139,
      "æĥħå½¢": 8140,
      "ĠÙĪ": 8141,
      "æľīåĪ©äºİ": 8142,
      "Ġclim": 8143,
      "å¼ºåĮĸ": 8144,
      "Ġecosystem": 8145,
      "Ġbirds": 8146,
      "400": 8147,
      "åĲĽ": 8148,
      "Ġcombination": 8149,
      "ortunately": 8150,
      "ĠHen": 8151,
      "Ġrand": 8152,
      "enced": 8153,
      "tw": 8154,
      "Ġexchange": 8155,
      "Ġlessons": 8156,
      "Config": 8157,
      "Ġadop": 8158,
      "page": 8159,
      "čĊĠĠĠĠĠĠĠĠĠĠĠ": 8160,
      "Ġvary": 8161,
      "spec": 8162,
      "Ġ).": 8163,
      "æĭĵ": 8164,
      "åĿı": 8165,
      "Ġsuitable": 8166,
      "èĸ": 8167,
      "Ġsuppl": 8168,
      "Ġ2001": 8169,
      "Ġexplained": 8170,
      "èıĮ": 8171,
      "spect": 8172,
      "Ġ44": 8173,
      "Ġprison": 8174,
      "Ġweap": 8175,
      "Ġsmart": 8176,
      "Ġnumerous": 8177,
      "ĠKnow": 8178,
      "2000": 8179,
      "å¤§éĩı": 8180,
      "Item": 8181,
      "å±ĤéĿ¢": 8182,
      "ĠDirector": 8183,
      "PL": 8184,
      "look": 8185,
      "ĠThus": 8186,
      "è¿Ľç¨ĭ": 8187,
      "ç¦ģ": 8188,
      "ini": 8189,
      "ĠDO": 8190,
      "Ġswitch": 8191,
      "rieved": 8192,
      "Ġinfrastructure": 8193,
      "inating": 8194,
      "Ġflood": 8195,
      "ky": 8196,
      "Ġmole": 8197,
      "ĠMil": 8198,
      "conds": 8199,
      "ç»§ç»Ń": 8200,
      "lines": 8201,
      "éº": 8202,
      "Ġmort": 8203,
      "Ġagencies": 8204,
      "wip": 8205,
      "ç»į": 8206,
      "åĢ¾": 8207,
      "Ġcontinues": 8208,
      "Ġimproving": 8209,
      "estions": 8210,
      "Ġdiscovered": 8211,
      "å¿«éĢŁ": 8212,
      "uted": 8213,
      "ums": 8214,
      "Ġparticipate": 8215,
      "Ġjoin": 8216,
      "Ġdiversity": 8217,
      "user": 8218,
      "angle": 8219,
      "Ġvit": 8220,
      "Ġexplan": 8221,
      "Ġlegs": 8222,
      "Ġsecure": 8223,
      "Ġloved": 8224,
      "Ġsubjects": 8225,
      "Ġafford": 8226,
      "CM": 8227,
      "ĠLanguage": 8228,
      "Ġarrange": 8229,
      "rig": 8230,
      "ĠĠĠĠĠĠĠĠĠĠĠĠĠĠĠĠĠĠĠĠĠĠĠĠĠĠĠĠĠĠĠĠĠĠĠĠĠ": 8231,
      "äº§æĿĥ": 8232,
      "Ġextent": 8233,
      "emet": 8234,
      "æĿ¥çľĭ": 8235,
      "ĠChristianity": 8236,
      "Ġsides": 8237,
      "Ġtreated": 8238,
      "stances": 8239,
      "ĉĉĉĉ": 8240,
      "Ġperformed": 8241,
      "Ġagency": 8242,
      "Ġfeelings": 8243,
      "Ġpercentage": 8244,
      "Ġguy": 8245,
      "æĢ»ä½ĵ": 8246,
      "Ġrecorded": 8247,
      "ï¬ģ": 8248,
      "Ġhearing": 8249,
      "ools": 8250,
      "Ġfreedom": 8251,
      "%,": 8252,
      "inder": 8253,
      "Ġ41": 8254,
      "Ġagreed": 8255,
      "Request": 8256,
      "Mr": 8257,
      "ĠID": 8258,
      "éĻĨ": 8259,
      "Att": 8260,
      "']": 8261,
      "Ġlock": 8262,
      "amps": 8263,
      "berg": 8264,
      "æľ¬æĸĩ": 8265,
      "coming": 8266,
      "Ġsweet": 8267,
      "amental": 8268,
      "Ġsynt": 8269,
      "Ġstated": 8270,
      "ffee": 8271,
      "åĬ¨åĬĽ": 8272,
      "åľ°çĲĨ": 8273,
      "èĤ¡ä¸ľ": 8274,
      "onym": 8275,
      "CA": 8276,
      "æ¯Ķä¾ĭ": 8277,
      "Ġsed": 8278,
      "Ġarms": 8279,
      "åĬ³åĬ¨èĢħ": 8280,
      "Ġtherapy": 8281,
      "ç¬¬åĽĽ": 8282,
      "cm": 8283,
      "æĬ½": 8284,
      "Ġtechnique": 8285,
      "icated": 8286,
      "ĠSal": 8287,
      "ĠForest": 8288,
      "ifer": 8289,
      "Ġoperating": 8290,
      "Ġparties": 8291,
      "ync": 8292,
      "olve": 8293,
      "Ġparticipation": 8294,
      "ĠControl": 8295,
      "Ġhusband": 8296,
      "Ġtiss": 8297,
      "ĠDiv": 8298,
      "Ġtruly": 8299,
      "lay": 8300,
      "resents": 8301,
      ")ãĢĤ": 8302,
      "Ġresidents": 8303,
      "âĢĿãĢģâĢľ": 8304,
      "åĽ½æľī": 8305,
      "å¹¼": 8306,
      "emetery": 8307,
      "\\)": 8308,
      "Ġforg": 8309,
      "NE": 8310,
      "ĠPower": 8311,
      "Ġtraffic": 8312,
      "END": 8313,
      "Ġviews": 8314,
      "ãĢģãĢĬ": 8315,
      "cknow": 8316,
      "Ġthr": 8317,
      "Ġalg": 8318,
      "åŃ¦éĻ¢": 8319,
      "åħ°": 8320,
      "Pack": 8321,
      "èŃ": 8322,
      "ĠCath": 8323,
      "Ġpartner": 8324,
      "ĠJose": 8325,
      "Ġtransition": 8326,
      "Ġvoid": 8327,
      "Ġmeat": 8328,
      "Ġmanaged": 8329,
      "ĠAdv": 8330,
      "Ġdetailed": 8331,
      "ĠTur": 8332,
      "ĠNA": 8333,
      "Array": 8334,
      "host": 8335,
      "pace": 8336,
      "æ°ı": 8337,
      "æĭ¥": 8338,
      "Ġsolve": 8339,
      "Ġserver": 8340,
      "default": 8341,
      "Ġconcerned": 8342,
      "å®ª": 8343,
      "é«ĺåº¦": 8344,
      "ĠVict": 8345,
      "ĠMount": 8346,
      "ĠBaxter": 8347,
      "Ġupper": 8348,
      "åĮħåĲ«": 8349,
      "Ġengaged": 8350,
      "ĠBur": 8351,
      "æģ¶": 8352,
      "CR": 8353,
      "Ġok": 8354,
      "ä¹ħ": 8355,
      "æķĳ": 8356,
      "SH": 8357,
      "äºĭä¸ļ": 8358,
      "è¿Ľè¡ĮäºĨ": 8359,
      "Ġresulting": 8360,
      "Ġholding": 8361,
      "Ġfailure": 8362,
      "ĠSustain": 8363,
      "File": 8364,
      "Ġenem": 8365,
      "Ġdepending": 8366,
      "Ġneighbor": 8367,
      "dered": 8368,
      "åħ·å¤ĩ": 8369,
      "Ġrid": 8370,
      "Ġvehicles": 8371,
      "Ġprices": 8372,
      "Ġmath": 8373,
      "Ġexcess": 8374,
      "è°±": 8375,
      "Ġgod": 8376,
      "Ġpulled": 8377,
      "åı¥": 8378,
      "æľīéĻĲ": 8379,
      "free": 8380,
      "phone": 8381,
      "Ġtrig": 8382,
      "Ġregions": 8383,
      "åĿĢ": 8384,
      "Ġnutrition": 8385,
      "ĠSat": 8386,
      "Ġfamous": 8387,
      "Ġfacilit": 8388,
      "Ġbill": 8389,
      "ä¸»åĬ¨": 8390,
      "Ġedge": 8391,
      "çĬ¶åĨµ": 8392,
      "Ġapparent": 8393,
      "ĠExp": 8394,
      "çĺ¤": 8395,
      "Ġprem": 8396,
      "ialog": 8397,
      "Ġfunds": 8398,
      "Ġaid": 8399,
      "ĠRob": 8400,
      "Ġseed": 8401,
      "Ġframework": 8402,
      "ĠDi": 8403,
      "ĠNASA": 8404,
      "Ġelim": 8405,
      "çļĦæĸ¹æ³ķ": 8406,
      "start": 8407,
      "inking": 8408,
      "æīĢè°ĵ": 8409,
      "ognitive": 8410,
      "Ġmotion": 8411,
      "çļĦä½ľçĶ¨": 8412,
      "ĠMass": 8413,
      "Ġspeaking": 8414,
      "éŃ": 8415,
      "Ġdoubt": 8416,
      "ĠProfess": 8417,
      "Ġgarden": 8418,
      "ĠCamp": 8419,
      "Ġscript": 8420,
      "å¹³åĿĩ": 8421,
      "Ġconver": 8422,
      "ĠSing": 8423,
      "æĬĳ": 8424,
      "èĤ¿": 8425,
      "INT": 8426,
      "å¤Ħç½ļ": 8427,
      "Ġimprovement": 8428,
      "Ġpal": 8429,
      "è¿ĺæľī": 8430,
      "Ġleadership": 8431,
      "Ġdespite": 8432,
      "inn": 8433,
      "riting": 8434,
      "é½": 8435,
      "Ġgather": 8436,
      "ĠAN": 8437,
      "Ġju": 8438,
      "éĽ¶": 8439,
      "è½¬åĮĸ": 8440,
      "å®¡æŁ¥": 8441,
      "ĠIdent": 8442,
      "you": 8443,
      "Ġlabel": 8444,
      "Ġwatching": 8445,
      "sembly": 8446,
      "osa": 8447,
      "ĠTex": 8448,
      "éĽĨä½ĵ": 8449,
      "ä½ľèĢħ": 8450,
      "Ġregist": 8451,
      "åĴĮç¤¾ä¼ļ": 8452,
      "åĩĨç¡®": 8453,
      "è½¬åŀĭ": 8454,
      "ulf": 8455,
      "Ġcris": 8456,
      "ç»§æī¿": 8457,
      "ãĢĤãĢĬ": 8458,
      "2022": 8459,
      "2012": 8460,
      "Ġframe": 8461,
      "ä¸ĭéĻį": 8462,
      "onday": 8463,
      "Ġ95": 8464,
      "ĠWood": 8465,
      "æĬķåħ¥": 8466,
      "Rec": 8467,
      "åıĬæĹ¶": 8468,
      "Ġvariables": 8469,
      "Ġton": 8470,
      "Ġsession": 8471,
      "é¢Ħæµĭ": 8472,
      "Ġsen": 8473,
      "Ġ46": 8474,
      "ç»ıæµİåıĳå±ķ": 8475,
      "Ġ47": 8476,
      "Ġformal": 8477,
      "Ġamb": 8478,
      "Gui": 8479,
      "iverse": 8480,
      "Yes": 8481,
      "Ġsamples": 8482,
      "è®¿": 8483,
      "Ġpregn": 8484,
      "éĺ¿": 8485,
      "Ġleader": 8486,
      "Ġtells": 8487,
      "Ġfailed": 8488,
      "Ġevaluation": 8489,
      "ĠBoth": 8490,
      "Ġourselves": 8491,
      "'.": 8492,
      "Ġplastic": 8493,
      "Ġtransportation": 8494,
      "jo": 8495,
      "Ġchart": 8496,
      "Ġclick": 8497,
      "Ġemergency": 8498,
      "Ġdrinking": 8499,
      "Ġscene": 8500,
      "èĲ½å®ŀ": 8501,
      "Ġprepare": 8502,
      "Ġphen": 8503,
      "Ġgram": 8504,
      "ĠSpirit": 8505,
      "è¿Ŀæ³ķ": 8506,
      "ults": 8507,
      "è¾ħ": 8508,
      "é©±": 8509,
      "Ġclient": 8510,
      "OM": 8511,
      "Ġshoot": 8512,
      "æµĭè¯ķ": 8513,
      "ĠAD": 8514,
      "æ¯ķ": 8515,
      "Ġstanding": 8516,
      "Ġnarr": 8517,
      "bert": 8518,
      "rot": 8519,
      "Ġdiss": 8520,
      "Ġtrib": 8521,
      "à¤¯": 8522,
      "eah": 8523,
      "Ġ43": 8524,
      "Per": 8525,
      "Ġtox": 8526,
      "Ġsharing": 8527,
      "Ġkm": 8528,
      "ðĿĳ": 8529,
      "è´¡": 8530,
      "Ġasking": 8531,
      "Ġreaders": 8532,
      "Ġdecide": 8533,
      "Ġrestaur": 8534,
      "idential": 8535,
      "Thrift": 8536,
      "ORT": 8537,
      "æ¹ĸ": 8538,
      "ĠSl": 8539,
      "Ġhabitat": 8540,
      "itors": 8541,
      "Ġdrugs": 8542,
      "ĠStrateg": 8543,
      "æĶ¹åĸĦ": 8544,
      "Ġfrequently": 8545,
      "anish": 8546,
      "ĠWil": 8547,
      "ĠHave": 8548,
      "éĿ¢ä¸´": 8549,
      "plications": 8550,
      "arant": 8551,
      "ç½²": 8552,
      "Ġpun": 8553,
      "æ±ł": 8554,
      "Ġgreatest": 8555,
      "Ġlisted": 8556,
      "Ġ1999": 8557,
      "Ġsubstant": 8558,
      "edy": 8559,
      "Ġarray": 8560,
      "Ġdesire": 8561,
      "éļ¾ä»¥": 8562,
      "pat": 8563,
      "ĠEX": 8564,
      "aph": 8565,
      "Response": 8566,
      "Ã¤": 8567,
      "Ġyrs": 8568,
      "Ġtea": 8569,
      "èĩªåĬ¨": 8570,
      "Ġsupporting": 8571,
      "600": 8572,
      "Ġquiet": 8573,
      "åħ¨éĥ¨": 8574,
      "å®¡è®¡": 8575,
      "arios": 8576,
      "ä¸´åºĬ": 8577,
      "Ġcommonly": 8578,
      "Ġpreviously": 8579,
      "Answer": 8580,
      "ashion": 8581,
      "CD": 8582,
      "ĠVer": 8583,
      "mdl": 8584,
      "åģľ": 8585,
      "ita": 8586,
      "Ġobjectives": 8587,
      "Ġrepresents": 8588,
      "ĠFrank": 8589,
      "é»ĳ": 8590,
      "ellect": 8591,
      "Ġtrip": 8592,
      "Ġdram": 8593,
      "Ġalt": 8594,
      "Ġvessel": 8595,
      "å¤§æķ°æį®": 8596,
      "Ġunc": 8597,
      "åŁºéĩĳ": 8598,
      "æĭĽ": 8599,
      "Ġchoices": 8600,
      "ouble": 8601,
      "Ġworse": 8602,
      "Ġkiss": 8603,
      "Ġobtained": 8604,
      "crete": 8605,
      "Ġprocessing": 8606,
      "åŁ¹è®Ń": 8607,
      "å´": 8608,
      "Ġtight": 8609,
      "Ġoptim": 8610,
      "ĠPet": 8611,
      "begin": 8612,
      "Ġindicate": 8613,
      "((": 8614,
      "Inter": 8615,
      ")).": 8616,
      "greg": 8617,
      "Context": 8618,
      "Ġclaims": 8619,
      "frac": 8620,
      "ria": 8621,
      "Ġadding": 8622,
      "Ġhelpful": 8623,
      "çº¦å®ļ": 8624,
      "Model": 8625,
      "itz": 8626,
      "ĠMill": 8627,
      "Ġorg": 8628,
      "Ġagreement": 8629,
      "Ġestimated": 8630,
      "åħ¬æ°ĳ": 8631,
      "Oh": 8632,
      "));": 8633,
      "astern": 8634,
      "essions": 8635,
      "Ġillness": 8636,
      "uls": 8637,
      "Ġ150": 8638,
      "è§¦": 8639,
      "æ¡Īä¾ĭ": 8640,
      "Ġneighb": 8641,
      "hop": 8642,
      "Ġexternal": 8643,
      "ĠSuper": 8644,
      "Mar": 8645,
      "icit": 8646,
      "Ġplays": 8647,
      "Fe": 8648,
      "ĠAut": 8649,
      "version": 8650,
      "æ¡Ĩ": 8651,
      "Ġaccepted": 8652,
      "View": 8653,
      "Ġphase": 8654,
      "Ġsuggests": 8655,
      "Ġrandom": 8656,
      "yer": 8657,
      "ĠCreek": 8658,
      "ĠReal": 8659,
      "Ġadministration": 8660,
      "win": 8661,
      "rier": 8662,
      "èª": 8663,
      "orter": 8664,
      "Ġoccurred": 8665,
      "Ġlanguages": 8666,
      "osite": 8667,
      "Ġresponses": 8668,
      "Ġfold": 8669,
      "Ġwest": 8670,
      "verty": 8671,
      "Ġunto": 8672,
      "ĠPrinc": 8673,
      "AGE": 8674,
      "çİ°åľ¨": 8675,
      "2010": 8676,
      "ĠAR": 8677,
      "åĽ½çļĦ": 8678,
      "Ġcausing": 8679,
      "ĠSpecial": 8680,
      "Ġpoverty": 8681,
      "Ġsupposed": 8682,
      "Ġabsor": 8683,
      "Ġfill": 8684,
      "ĠPop": 8685,
      "Ġsignal": 8686,
      "ĠAcademy": 8687,
      "Ġlinks": 8688,
      "ç´łè´¨": 8689,
      "çĪ¶": 8690,
      "Ġvent": 8691,
      "aks": 8692,
      "Ġthank": 8693,
      "long": 8694,
      "rich": 8695,
      "Ġpictures": 8696,
      "çļĦè¡Įä¸º": 8697,
      "Ġforced": 8698,
      "Ġvote": 8699,
      "Ġkid": 8700,
      "çĥĪ": 8701,
      "SO": 8702,
      "Ġmobile": 8703,
      "åĨĮ": 8704,
      "ĠĠĠĠĠĠĠĠĠĠĠĠĠĠĠĠĠĠĠĠĠĠĠĠĠĠĠĠĠĠ": 8705,
      "kg": 8706,
      "Node": 8707,
      "Ġ56": 8708,
      "é£ŀ": 8709,
      "ĠAdminist": 8710,
      "ĠChem": 8711,
      "ĠVirgin": 8712,
      "ĠBer": 8713,
      "ĠReading": 8714,
      "Ġapart": 8715,
      "Ġconfidence": 8716,
      "ä¸ªä½ĵ": 8717,
      "ä½įç½®": 8718,
      "Step": 8719,
      "ĠBir": 8720,
      "çıŃ": 8721,
      "irty": 8722,
      "ĠPlease": 8723,
      "ĠØ§ÙĦØ": 8724,
      "atal": 8725,
      "Ġspecifically": 8726,
      "Ġyellow": 8727,
      "Ġregularly": 8728,
      "xb": 8729,
      "uster": 8730,
      "Bl": 8731,
      "æľ¨": 8732,
      "Ġlatest": 8733,
      "å¯»": 8734,
      "Ġorganic": 8735,
      "ä»ĭç»į": 8736,
      "Ġbow": 8737,
      "Ġfert": 8738,
      "Ġdriving": 8739,
      "Ġfarmers": 8740,
      "Rem": 8741,
      "west": 8742,
      "åħ±åĴĮ": 8743,
      "ĠConclusion": 8744,
      "å¿ħçĦ¶": 8745,
      "thon": 8746,
      "Ġarticles": 8747,
      "chen": 8748,
      "ï¼īãĢģ": 8749,
      "æ£ĢæŁ¥": 8750,
      "ĠAgricult": 8751,
      "é¼ĵåĬ±": 8752,
      "Log": 8753,
      "func": 8754,
      "omin": 8755,
      "ä¸ĵå®¶": 8756,
      "2013": 8757,
      "ĠLouis": 8758,
      "rip": 8759,
      "Ġdepartment": 8760,
      "dy": 8761,
      "ifications": 8762,
      "Ġinstrument": 8763,
      "Ġgar": 8764,
      "select": 8765,
      "ĠVe": 8766,
      "Ġfilter": 8767,
      "æĢ§èĥ½": 8768,
      "Ġ72": 8769,
      "ĠNon": 8770,
      "åºŁ": 8771,
      "Ġcars": 8772,
      "éĴ±": 8773,
      "Pr": 8774,
      "message": 8775,
      "Ġ);": 8776,
      "Ġfaster": 8777,
      "asm": 8778,
      "Ġstood": 8779,
      "éĶĢåĶ®": 8780,
      "çļĩ": 8781,
      "åĬª": 8782,
      "Ġchain": 8783,
      "Ġcontinuous": 8784,
      "under": 8785,
      "ĠPlay": 8786,
      "fill": 8787,
      "ifies": 8788,
      "çĦ¶åĲİ": 8789,
      "2014": 8790,
      "acific": 8791,
      "ĠStudy": 8792,
      "ĠCheck": 8793,
      "ĠRoman": 8794,
      "ady": 8795,
      "vertical": 8796,
      "isters": 8797,
      "enth": 8798,
      "Ġtwenty": 8799,
      "Exception": 8800,
      "Ġapproaches": 8801,
      "Ġhospital": 8802,
      "account": 8803,
      "Map": 8804,
      "ĠLong": 8805,
      "ĠLook": 8806,
      "Ġperman": 8807,
      "Ġdatabase": 8808,
      "cluding": 8809,
      "éľ²": 8810,
      "çĸ¾çĹħ": 8811,
      "');": 8812,
      "ĠNor": 8813,
      "Ġfinished": 8814,
      "é¾Ļ": 8815,
      "Ġintelligence": 8816,
      "Conn": 8817,
      "åĩ½æķ°": 8818,
      "ĠIll": 8819,
      "æ¶¦": 8820,
      "Ġcriteria": 8821,
      "First": 8822,
      "æĿĥåĬĽ": 8823,
      "QU": 8824,
      "after": 8825,
      "Ġyes": 8826,
      "Ġselection": 8827,
      "ĠCourse": 8828,
      "gypt": 8829,
      "amil": 8830,
      "ĠColor": 8831,
      "Ġtips": 8832,
      "Ġcarefully": 8833,
      "ĠMethod": 8834,
      "Ġconsequences": 8835,
      "omic": 8836,
      "Ġfavorite": 8837,
      "webkit": 8838,
      "ĠEngineering": 8839,
      "Ġ................................................................": 8840,
      "Ġgenerate": 8841,
      "åıĤèĢĥ": 8842,
      "orith": 8843,
      "Ġmur": 8844,
      "Ġenable": 8845,
      "èĵ": 8846,
      "adian": 8847,
      "Ġdiscover": 8848,
      "Ġaccurate": 8849,
      "abulary": 8850,
      "she": 8851,
      "itative": 8852,
      "Ġbright": 8853,
      "static": 8854,
      "hedule": 8855,
      "ĠTitle": 8856,
      "æĢĿèĢĥ": 8857,
      "ĠCharles": 8858,
      "Ġdogs": 8859,
      "Ġnuclear": 8860,
      "xc": 8861,
      "ĠFund": 8862,
      "Ġturns": 8863,
      "ĠHill": 8864,
      "ä»İäºĭ": 8865,
      "ĠImport": 8866,
      "Ġkit": 8867,
      "Ġ52": 8868,
      "header": 8869,
      "MENT": 8870,
      "summary": 8871,
      "Ġahead": 8872,
      "çļ®": 8873,
      "ĠClub": 8874,
      "Ġmixed": 8875,
      "ä¹Łæľī": 8876,
      "End": 8877,
      "tings": 8878,
      "ĠSon": 8879,
      "ocabulary": 8880,
      "Ġlisten": 8881,
      "Ġmanufacture": 8882,
      "Ġsquare": 8883,
      "Ġarrived": 8884,
      "cs": 8885,
      "Ã³": 8886,
      "first": 8887,
      "Ġstret": 8888,
      "ä¿Ĺ": 8889,
      "aud": 8890,
      "ugg": 8891,
      "Ġphoto": 8892,
      "Ġconcentr": 8893,
      "/*": 8894,
      "Ġstatic": 8895,
      "Ġappeared": 8896,
      "Ġdomain": 8897,
      "style": 8898,
      "Ġachievement": 8899,
      "rax": 8900,
      "Ġinfection": 8901,
      "Ġportion": 8902,
      "Well": 8903,
      "Ġproport": 8904,
      "2011": 8905,
      "Ġvariable": 8906,
      "pdf": 8907,
      "yles": 8908,
      "Ġabuse": 8909,
      "äºĨä¸Ģ": 8910,
      "Ġsuggested": 8911,
      "aming": 8912,
      "å¤ļæķ°": 8913,
      "âĢĿâĢľ": 8914,
      "çĶ¨äºº": 8915,
      "Ġstopped": 8916,
      "DIR": 8917,
      "Ġwalls": 8918,
      "ĠCreat": 8919,
      "iah": 8920,
      "ĠTor": 8921,
      "æĥ¯": 8922,
      "Ġsmooth": 8923,
      "Ġcompetition": 8924,
      "ĠJews": 8925,
      "AY": 8926,
      "Ġcash": 8927,
      "ĠMont": 8928,
      "è¢«åĳĬ": 8929,
      "Ġmotor": 8930,
      "})": 8931,
      "ĨĴ": 8932,
      "ä»ª": 8933,
      "Ġ49": 8934,
      "åı¯æĮģç»Ń": 8935,
      "ĠLead": 8936,
      "Ġfundamental": 8937,
      "Ġcircumstances": 8938,
      "ĠJud": 8939,
      "æĺ¥": 8940,
      "è¯ķéªĮ": 8941,
      "ĠPeter": 8942,
      "Ġdebt": 8943,
      "åĲĦä¸ª": 8944,
      "Ġpure": 8945,
      "olar": 8946,
      "åĳĺå·¥": 8947,
      "åıªæĺ¯": 8948,
      "èŀįèµĦ": 8949,
      "ingly": 8950,
      "ĠJac": 8951,
      "lements": 8952,
      "Ne": 8953,
      "stood": 8954,
      "clusive": 8955,
      "focus": 8956,
      "Ġdetect": 8957,
      "Ġbattle": 8958,
      "Ġconsistent": 8959,
      "cular": 8960,
      "Ġlots": 8961,
      "çī¹åĪ«æĺ¯": 8962,
      "èĢĹ": 8963,
      "aren": 8964,
      "æĪĺäºī": 8965,
      "Ġhyper": 8966,
      "Co": 8967,
      "ĠOld": 8968,
      "Ġexposed": 8969,
      "Ġmel": 8970,
      "å¸¦æĿ¥": 8971,
      "api": 8972,
      "Ġsight": 8973,
      "æ±½": 8974,
      "ĠBible": 8975,
      "éĿĻ": 8976,
      "ç¤¾ä¼ļçļĦ": 8977,
      "æŃ£å¸¸": 8978,
      "åŃĺåĤ¨": 8979,
      "Ġdocuments": 8980,
      "Ġaward": 8981,
      "åħ¼": 8982,
      "Ġmere": 8983,
      "åħ¬ä¼Ĺ": 8984,
      "è®°å½ķ": 8985,
      "Ġflowers": 8986,
      "car": 8987,
      "ĠHall": 8988,
      "ĠIts": 8989,
      "é«ĺçļĦ": 8990,
      "ĠParent": 8991,
      "Your": 8992,
      "Ġfle": 8993,
      "Ġ53": 8994,
      "friend": 8995,
      "illa": 8996,
      "Ġrxn": 8997,
      "Ġmathematics": 8998,
      "uzz": 8999,
      "iciency": 9000,
      "æłĩå¿Ĺ": 9001,
      "ĠĠĠĠĠĠĠĠĠĠĠĠĠĠĠĠĠĠĠĠĠĠĠĠĠĠĠĠĠ": 9002,
      "Ġsitting": 9003,
      "Ġanxiety": 9004,
      "Ġrent": 9005,
      "Ġfort": 9006,
      "());": 9007,
      "ĠPractice": 9008,
      "weight": 9009,
      "æ³¨éĩį": 9010,
      "then": 9011,
      "oding": 9012,
      "Ġagriculture": 9013,
      "Ġcomprehensive": 9014,
      "lwip": 9015,
      "hered": 9016,
      "ä¾Ľç»Ļ": 9017,
      "Ġalcohol": 9018,
      "abil": 9019,
      "ĠNatural": 9020,
      "éĺħ": 9021,
      "Ġconversation": 9022,
      ")]": 9023,
      "Ġsick": 9024,
      "ĠIndust": 9025,
      "Ġbegins": 9026,
      "Ġrail": 9027,
      "è¯ĨåĪ«": 9028,
      "ĠCurrent": 9029,
      "ĠDev": 9030,
      "Ġstarts": 9031,
      "Ġhousing": 9032,
      "':": 9033,
      "ror": 9034,
      "ä¹ĭåīį": 9035,
      "Ġcamera": 9036,
      "rome": 9037,
      "ĠJapanese": 9038,
      "ĠAlex": 9039,
      "æ°ĳä¸»": 9040,
      "Ġmeasured": 9041,
      "Ġphilosoph": 9042,
      "card": 9043,
      "raint": 9044,
      "ĠBrown": 9045,
      "ç²®": 9046,
      "inte": 9047,
      "Ġphr": 9048,
      "Ġlocations": 9049,
      "xf": 9050,
      "oted": 9051,
      "istan": 9052,
      "ears": 9053,
      "æ¢°": 9054,
      "itis": 9055,
      "Ġdepends": 9056,
      "Ġelectrical": 9057,
      "Ġcomfortable": 9058,
      "Gener": 9059,
      "Ġmine": 9060,
      "izer": 9061,
      "Ġimpossible": 9062,
      "Ġment": 9063,
      "ourse": 9064,
      "éŁ³ä¹Ĳ": 9065,
      "Ġcloser": 9066,
      "hav": 9067,
      "ĠMax": 9068,
      "ipping": 9069,
      "ä¸¥æł¼": 9070,
      "){": 9071,
      "Ġrelax": 9072,
      "åĨħçļĦ": 9073,
      "Ġbacteria": 9074,
      "Ġli": 9075,
      "è¿«": 9076,
      "Ġideal": 9077,
      "bra": 9078,
      "Ġax": 9079,
      "Ġdiverse": 9080,
      "Ġatmosphere": 9081,
      "ena": 9082,
      "ĠOpen": 9083,
      "ç³ĸ": 9084,
      "ç»ıæµİåŃ¦": 9085,
      "share": 9086,
      "æ³ķå®ļ": 9087,
      "éĻ·": 9088,
      "Ġcolle": 9089,
      "Ġopening": 9090,
      "Ġpil": 9091,
      "Tra": 9092,
      "ĠObject": 9093,
      "prove": 9094,
      "æĮĳæĪĺ": 9095,
      "oose": 9096,
      "Ġisland": 9097,
      "ĠLog": 9098,
      "ĠKore": 9099,
      "ieties": 9100,
      "å¾ªçİ¯": 9101,
      "Ġfix": 9102,
      "æĢİ": 9103,
      "è¦Ĩ": 9104,
      "Ġtargets": 9105,
      "å¯¹å¤ĸ": 9106,
      "Ġinteraction": 9107,
      "Ġadministr": 9108,
      "è¯¢": 9109,
      "ĠCOVID": 9110,
      "Ġwalked": 9111,
      "Ġentirely": 9112,
      "å±ĭ": 9113,
      "åıĳå¸ĥ": 9114,
      "ĠSil": 9115,
      "åīįæıĲ": 9116,
      "Ġvillage": 9117,
      "Ġreform": 9118,
      "Ġoffering": 9119,
      "Ġcombined": 9120,
      "Ġprocedure": 9121,
      "abetes": 9122,
      "ĠJo": 9123,
      "agers": 9124,
      "ĠChapter": 9125,
      "çī¹å®ļ": 9126,
      "Ġdecades": 9127,
      "é¦Ĩ": 9128,
      "Ġwaiting": 9129,
      "post": 9130,
      "aning": 9131,
      "ç²Ĵ": 9132,
      "SW": 9133,
      "Ñĥ": 9134,
      "ĠSouthern": 9135,
      "å¹³çŃī": 9136,
      "Ġfoundation": 9137,
      "true": 9138,
      "Ġtail": 9139,
      "æľºåĻ¨": 9140,
      "Ġsupports": 9141,
      "Ġregional": 9142,
      "æĶ¶çĽĬ": 9143,
      "æĻ®éĢļ": 9144,
      "Ġcommunicate": 9145,
      "Ġpopulations": 9146,
      "Ġ51": 9147,
      "ĠMexico": 9148,
      "Ġstake": 9149,
      "inst": 9150,
      "ĠFurther": 9151,
      "System": 9152,
      "ĠOk": 9153,
      "åī¯": 9154,
      "ĠAnother": 9155,
      "ĠAsia": 9156,
      "Ġgenerated": 9157,
      "world": 9158,
      "ĠTom": 9159,
      "ĠDNA": 9160,
      "å·¥ä½ľçļĦ": 9161,
      "åį±æľº": 9162,
      "Ġblow": 9163,
      "cel": 9164,
      "___": 9165,
      "Ġcrow": 9166,
      "Ġcrop": 9167,
      "ĠSar": 9168,
      "Ġisol": 9169,
      "Ġmedium": 9170,
      "################": 9171,
      "Ġrough": 9172,
      "Ġ2022": 9173,
      "Ġboys": 9174,
      "åĽ¢éĺŁ": 9175,
      "Ġsurrounding": 9176,
      "Test": 9177,
      "gest": 9178,
      "ĠçļĦ": 9179,
      "è´¹çĶ¨": 9180,
      "éĻ¤äºĨ": 9181,
      "æħ¢": 9182,
      "ç¡®ä¿Ŀ": 9183,
      "ä¿¡çĶ¨": 9184,
      "è®¾ç«ĭ": 9185,
      "Ġletters": 9186,
      "çļĦåŁºç¡Ģä¸Ĭ": 9187,
      "Ġhur": 9188,
      "emic": 9189,
      "ä¹±": 9190,
      "åį¡": 9191,
      "rene": 9192,
      "åŁİä¹¡": 9193,
      "holders": 9194,
      "éĢĶå¾Ħ": 9195,
      "ĠFamily": 9196,
      "Ġ1998": 9197,
      "ommod": 9198,
      "åŁİéķĩ": 9199,
      "Ġgrace": 9200,
      "æķĪåºĶ": 9201,
      "Ġbroken": 9202,
      "Ġmodule": 9203,
      "azon": 9204,
      "etime": 9205,
      "åįıåĲĮ": 9206,
      "Ġappearance": 9207,
      "zen": 9208,
      "Ġinsect": 9209,
      "ĠRetrieved": 9210,
      "Ġwidely": 9211,
      "fall": 9212,
      "Ġkinds": 9213,
      "Ġconscious": 9214,
      "Ġmode": 9215,
      "å¤ļæł·": 9216,
      "Ġimmigr": 9217,
      "Ġguidelines": 9218,
      "Americ": 9219,
      "ĠBig": 9220,
      "è¯ĳ": 9221,
      "ĠSupport": 9222,
      "åį«çĶŁ": 9223,
      "101": 9224,
      "ansion": 9225,
      "lication": 9226,
      "Ġreader": 9227,
      "Ġ+=": 9228,
      "base": 9229,
      "rum": 9230,
      "wiki": 9231,
      "Point": 9232,
      "Ġtong": 9233,
      "BS": 9234,
      "case": 9235,
      "Ġacknow": 9236,
      "æĹħ": 9237,
      "éĹ»": 9238,
      "ĠĠĠĠĠĠĠĠĠĠĠĠĠĠĠĠĠĠĠĠĠĠĠĠĠĠĠĠĠĠĠĠĠ": 9239,
      "BU": 9240,
      "Box": 9241,
      "ĠResources": 9242,
      "aturday": 9243,
      "ä¸Ńå°ı": 9244,
      "Ġindeed": 9245,
      "å¤ļä¸ª": 9246,
      "Ġelectronic": 9247,
      "Ġhaz": 9248,
      "ĠKey": 9249,
      "Ġmulti": 9250,
      "real": 9251,
      "ads": 9252,
      "Ġrul": 9253,
      "ogy": 9254,
      "ç§¦": 9255,
      "Rel": 9256,
      "Ġ${": 9257,
      "Ġsecondary": 9258,
      "Ġsignificance": 9259,
      "Ġmountain": 9260,
      "Ġexpensive": 9261,
      "åħ¸åŀĭ": 9262,
      "asy": 9263,
      "ĠCult": 9264,
      "Ġextract": 9265,
      "target": 9266,
      "Ð»": 9267,
      "Ġreaction": 9268,
      "Ġchosen": 9269,
      "å½»": 9270,
      "ä»ĸäºº": 9271,
      "Ġsigned": 9272,
      "Ġhealthcare": 9273,
      "Ġ1990": 9274,
      "However": 9275,
      "foot": 9276,
      "Ġflight": 9277,
      "è¶ĬæĿ¥": 9278,
      "è®ºæĸĩ": 9279,
      "Ġemployment": 9280,
      "Ġtaste": 9281,
      "äº§çĶŁçļĦ": 9282,
      "éĢĴ": 9283,
      "è´¥": 9284,
      "Ġachieved": 9285,
      "iler": 9286,
      "Ġscores": 9287,
      "iodiversity": 9288,
      "oretical": 9289,
      "å®Įæķ´": 9290,
      "label": 9291,
      "Ġwitness": 9292,
      "ĠType": 9293,
      "Ġneck": 9294,
      "Ġque": 9295,
      "æ°ĳéĹ´": 9296,
      "ĠTexas": 9297,
      ">,": 9298,
      "Ġminim": 9299,
      "ĠSpanish": 9300,
      "æľīæľº": 9301,
      "prot": 9302,
      "Ġadvert": 9303,
      "Ġbear": 9304,
      "æııè¿°": 9305,
      "Ġshel": 9306,
      "ĠVictor": 9307,
      "Ġdistributed": 9308,
      "è¶ĬæĿ¥è¶Ĭ": 9309,
      "teen": 9310,
      "ployment": 9311,
      "ĠOnly": 9312,
      "Ġimplemented": 9313,
      "ĠChange": 9314,
      "Ġprogramme": 9315,
      "Ġguard": 9316,
      "ĠAS": 9317,
      "ç§ĳçłĶ": 9318,
      "æīĢå¾Ĺ": 9319,
      "Ġadvoc": 9320,
      "ĠHand": 9321,
      "âĢ¦âĢ¦âĢ¦âĢ¦âĢ¦âĢ¦âĢ¦âĢ¦": 9322,
      "AST": 9323,
      "xygen": 9324,
      "ĠPsych": 9325,
      "ç§©": 9326,
      "cluded": 9327,
      "èŃ¦": 9328,
      "åĬªåĬĽ": 9329,
      "GE": 9330,
      "Ġdisp": 9331,
      "è½®": 9332,
      "Main": 9333,
      "Ġforth": 9334,
      "ĠMel": 9335,
      "Ġprogramming": 9336,
      "åĳ¨æľŁ": 9337,
      "Ġsensitive": 9338,
      "ras": 9339,
      "ĠBill": 9340,
      "èİ·åıĸ": 9341,
      "orida": 9342,
      "Ġran": 9343,
      "é¡µ": 9344,
      "Ġregulations": 9345,
      "Ġmedicine": 9346,
      "More": 9347,
      "Ġpair": 9348,
      "å®¹æĺĵ": 9349,
      "ĠCarolina": 9350,
      "ĠCivil": 9351,
      "ĠMichael": 9352,
      "aturally": 9353,
      "ĠValley": 9354,
      "åı¤ä»£": 9355,
      "è´·æ¬¾": 9356,
      "Ġliquid": 9357,
      "May": 9358,
      "rooms": 9359,
      "çļĦä¸Ģä¸ª": 9360,
      "æĺ¯ä¸Ģ": 9361,
      "Ġmoist": 9362,
      ".</": 9363,
      "Dep": 9364,
      "Ġpump": 9365,
      "Ġanalyze": 9366,
      "John": 9367,
      "war": 9368,
      "çļĦæ³ķå¾ĭ": 9369,
      "Ġforget": 9370,
      "oves": 9371,
      "Ġevaluate": 9372,
      "çºłçº·": 9373,
      "Rd": 9374,
      "king": 9375,
      "Ġremaining": 9376,
      "Ġ54": 9377,
      "ocratic": 9378,
      "Ġdangerous": 9379,
      "Ġuns": 9380,
      "UD": 9381,
      "Ġnarrow": 9382,
      "ceived": 9383,
      "Ġrank": 9384,
      "Ġputting": 9385,
      "Ġamounts": 9386,
      "Ġlinked": 9387,
      "Color": 9388,
      "çº¯": 9389,
      "Ġvisible": 9390,
      "Ġclosely": 9391,
      "\"]": 9392,
      "ï¼ĮãĢĬ": 9393,
      "Ġnations": 9394,
      "antly": 9395,
      "ç¨İæĶ¶": 9396,
      "å°¼": 9397,
      "çĻĮ": 9398,
      "æķ´åĲĪ": 9399,
      "igital": 9400,
      "Ġcoffee": 9401,
      "\"></": 9402,
      "Ġburied": 9403,
      "Ġcorner": 9404,
      "pact": 9405,
      "ĠWild": 9406,
      "Ġvital": 9407,
      "æ³ķæ²»": 9408,
      "Ġendif": 9409,
      "æĢ»ç»ĵ": 9410,
      "æĺ¾èĳĹ": 9411,
      "Ġparameters": 9412,
      "istant": 9413,
      "Ġfn": 9414,
      "è´¦": 9415,
      "Ġfacts": 9416,
      "æĴĳ": 9417,
      "math": 9418,
      "aters": 9419,
      "Ġtow": 9420,
      "à¤¨": 9421,
      "Ap": 9422,
      "Ġliv": 9423,
      "ĠIr": 9424,
      "ĠJoseph": 9425,
      "roph": 9426,
      "ett": 9427,
      "ĠPoint": 9428,
      "ferent": 9429,
      "äººå·¥æĻºèĥ½": 9430,
      "Ġstone": 9431,
      "Ġexperts": 9432,
      "å²ģ": 9433,
      "Ġprofessionals": 9434,
      "PR": 9435,
      "åĪĺ": 9436,
      "æ·±åº¦": 9437,
      "Ġcommitted": 9438,
      "oking": 9439,
      "Ġzero": 9440,
      "ĠGlobal": 9441,
      "Ġfro": 9442,
      "icians": 9443,
      "éĩİ": 9444,
      "Ġacres": 9445,
      "Ġbought": 9446,
      "ampl": 9447,
      "Ġauthors": 9448,
      "Ġdress": 9449,
      "æ°¸": 9450,
      "ĠThrough": 9451,
      "Ġreferred": 9452,
      "ĠMag": 9453,
      "scale": 9454,
      "Ġfixed": 9455,
      "IES": 9456,
      "ua": 9457,
      "Ġcalc": 9458,
      "Ġfrag": 9459,
      "åĩºçļĦ": 9460,
      "Pre": 9461,
      "awn": 9462,
      "asp": 9463,
      "ĠFederal": 9464,
      "Ġadequ": 9465,
      "Ġobser": 9466,
      "eder": 9467,
      "Ġnurs": 9468,
      "Ġinjury": 9469,
      "ĠMa": 9470,
      "ĠEst": 9471,
      "Ġsettings": 9472,
      "umes": 9473,
      "Ġbath": 9474,
      "Ġhaven": 9475,
      "Ġ500": 9476,
      "Ġeast": 9477,
      "ĠPolicy": 9478,
      "Ġdomestic": 9479,
      "client": 9480,
      "Act": 9481,
      "ona": 9482,
      "Ġ300": 9483,
      "ĠConn": 9484,
      "æķĻèĤ²çļĦ": 9485,
      "ĠRef": 9486,
      "Field": 9487,
      "Ġsister": 9488,
      "uesday": 9489,
      "Ġreb": 9490,
      "ULT": 9491,
      "ĠCle": 9492,
      "åħģ": 9493,
      "Ġminute": 9494,
      "lers": 9495,
      "Ġexpressed": 9496,
      "endar": 9497,
      "Ġterror": 9498,
      "Ġtypical": 9499,
      "è¿½æ±Ĥ": 9500,
      "oz": 9501,
      "Ġfacility": 9502,
      "Ġcrops": 9503,
      "æĺ¯å¯¹": 9504,
      "ĠSunday": 9505,
      "iat": 9506,
      "Ġmissing": 9507,
      "ette": 9508,
      "Windows": 9509,
      "icious": 9510,
      "ĠSpe": 9511,
      "Ġguidance": 9512,
      "Ġban": 9513,
      "ĠTown": 9514,
      "imary": 9515,
      "åĽ½å®¶çļĦ": 9516,
      "Ġgenetic": 9517,
      "Ġvirtual": 9518,
      "ĠNov": 9519,
      "éĩįæĸ°": 9520,
      "Ġdepos": 9521,
      "--------------|": 9522,
      "lets": 9523,
      "osh": 9524,
      "Ġmainly": 9525,
      "ĠDiscuss": 9526,
      "Ġmanager": 9527,
      "å¤ĸéĥ¨": 9528,
      "Ġdelivery": 9529,
      "æħ§": 9530,
      "Ġmal": 9531,
      "ĠSuch": 9532,
      "Ġsuc": 9533,
      "å®ŀä½ĵ": 9534,
      "à¤ķ": 9535,
      "äºĮåįģ": 9536,
      "åı¶": 9537,
      "ĠWal": 9538,
      "Ġremained": 9539,
      "ups": 9540,
      "çļĦæķ°æį®": 9541,
      "Ġseconds": 9542,
      "Ġusage": 9543,
      "ĠHead": 9544,
      "Ġflag": 9545,
      "valid": 9546,
      "ursday": 9547,
      "è´´": 9548,
      "Ġadoles": 9549,
      "åĮºåĪ«": 9550,
      "ĠDoes": 9551,
      "iner": 9552,
      "ocial": 9553,
      "Ġowner": 9554,
      "Ġcrisis": 9555,
      "ç§©åºı": 9556,
[...]
