<|endoftext|>
<|im_start|>
<|im_end|>
!
"
#
$
%
&
'
(
)
*
+
,
-
.
/
0
1
2
3
4
5
6
7
8
9
:
;
<
=
>
?
@
A
B
C
D
E
F
G
H
I
J
K
L
M
N
O
P
Q
R
S
T
U
V
W
X
Y
Z
[
\
]
^
_
`
a
b
c
d
e
f
g
h
i
j
k
l
m
n
o
p
q
r
s
t
u
v
w
x
y
z
{
|
}
~
¡
¢
£
¤
¥
¦
§
¨
©
ª
«
¬
®
¯
°
±
²
³
´
µ
¶
·
¸
¹
º
»
¼
½
¾
¿
À
Á
Â
Ã
Ä
Å
Æ
Ç
È
É
Ê
Ë
Ì
Í
Î
Ï
Ð
Ñ
Ò
Ó
Ô
Õ
Ö
×
Ø
Ù
Ú
Û
Ü
Ý
Þ
ß
à
á
â
ã
ä
å
æ
ç
è
é
ê
ë
ì
í
î
ï
ð
ñ
ò
ó
ô
õ
ö
÷
ø
ù
ú
û
ü
ý
þ
ÿ
Ā
ā
Ă
ă
Ą
ą
Ć
ć
Ĉ
ĉ
Ċ
ċ
Č
č
Ď
ď
Đ
đ
Ē
ē
Ĕ
ĕ
Ė
ė
Ę
ę
Ě
ě
Ĝ
ĝ
Ğ
ğ
Ġ
ġ
Ģ
ģ
Ĥ
ĥ
Ħ
ħ
Ĩ
ĩ
Ī
ī
Ĭ
ĭ
Į
į
İ
ı
Ĳ
ĳ
Ĵ
ĵ
Ķ
ķ
ĸ
Ĺ
ĺ
Ļ
ļ
Ľ
ľ
Ŀ
ŀ
Ł
ł
Ń
ĠĠ
Ġt
Ġa
he
in
ĠĠĠĠ
re
on
Ġthe
er
Ġs
at
Ġo
en
Ġw
Ġc
es
nd
it
is
or
al
Ġp
ing
Ġb
an
ed
Ġf
ou
ar
Ġof
Ġm
Ġin
Ġand
ä¸
Ġto
ion
ĠĠĠĠĠĠĠĠ
ic
Ġd
le
ï¼
--
ro
as
Ġh
ent
ï¼Į
Ġth
çļ
çļĦ
ãĢ
ct
il
âĢ
Ġe
om
st
Ġre
ve
Ġl
Ġn
Ġ|
et
äº
ĠT
Ġg
ly
ĠI
ol
id
ĠS
se
ut
ot
im
Ġbe
Ġis
ce
ation
ra
ĠA
ow
ch
åı
ĠC
ur
..
ig
----
åħ
Ġfor
Ġy
æľ
Ġu
Ġst
ãĢĤ
ä»
Ġon
Ġthat
am
ver
åĪ
ad
Ġ1
el
ĠĠĠ
ay
ir
å®
ul
her
if
ĠĠĠĠĠĠĠĠĠĠĠĠĠĠĠĠ
ith
Ġ(
Ġyou
ĠM
Ġas
ĠP
Ġpro
ç»
Ġit
od
Ġwith
ä½
Ġcon
è¿
ãĢģ
çĶ
ter
ment
ge
Ġwh
Ġan
åĬ
åĲ
å¤
ate
Ġare
åľ
Ġal
ĠB
ess
Ġ2
ab
Ġor
æĺ
Ġhe
ĠThe
op
ill
æĸ
ers
ac
th
00
us
ist
ect
åĽ
ri
em
ĠW
Ġwe
ĠH
ke
ĠD
ld
est
ore
nt
pp
and
Ġcom
è®
åŃ
ä¹
ity
Ġex
um
è¯
qu
ĠR
ĠE
ure
Ġde
oc
Ġv
Ġwas
ĠF
ant
un
æĪ
igh
ort
ies
ive
ud
os
Ġat
ĠN
Ġha
ain
rom
--------
ä¼
ĠL
....
æĺ¯
æķ
Ġsu
Ġne
Ġch
iv
Ġby
åº
ĠG
âĢĻ
ä¸Ģ
res
Ġnot
Ġr
art
Ġse
Ġle
åĴ
end
æĿ
Ġfrom
åĴĮ
Ġcan
âĢľ
âĢĿ
__
Ġsh
åľ¨
è¡
æĢ
å¯
åĮ
å¹
pt
pe
Ġthis
ial
éĩ
Ġhave
ould
ä¸Ń
å¼
æĹ
ight
äºº
è§
rou
ust
ĠO
all
æ³
æľī
ä¸º
our
åį
èĢ
çĽ
åŃ¦
å°
åĨ
age
æĶ
pl
out
Ġab
ions
red
ard
éĢ
Ġwor
ome
æī
og
's
gh
ff
ĠĠĠĠĠĠĠ
ĠJ
ical
åĽ½
ĊĠĠĠ
è´
ag
per
å¾
ine
Ġ"
ç§
Ġpl
ie
te
çİ
ich
Ġ=
**
ä¸į
å±
åĩ
Ġk
Ġim
Ġus
ost
Ġ3
ell
Ġen
ther
iz
ide
æ³ķ
Ġwill
èĥ
ak
ip
Âł
æł
act
Ġtheir
Ġdo
æĬ
du
Ġall
Ġwhe
ä»¥
Ġme
ult
å·
ru
å¸
Ġthey
cl
able
Ġyour
çĲ
ast
ated
å½
ear
ans
are
åıĳ
ass
ind
The
ame
ance
è¦
çĶŁ
ack
ok
orm
cc
ĠU
è¦ģ
å¯¹
çĶ¨
Ġgo
è¡Į
ib
Ġad
Ġcl
çĲĨ
æŀ
Ġcomp
éĻ
ild
Ġbut
Ġj
vel
Ġres
æ°
ĊĠ
ä¸ļ
ous
èµ
äºĨ
ap
ong
ä¿
çī
ĠIn
åŁ
Ġint
ations
01
Ġhis
ry
ction
Ġwhich
çŃ
ary
one
ice
ake
æµ
éĿ
èĥ½
port
æŃ
Ġcont
ĠTh
æİ
Ġ-
Ġhas
éĹ
æĢ§
Ġout
ach
ren
ents
ual
Ġte
å¤§
ign
ub
å®ļ
........
Ġmore
ĠĠĠĠĠ
åĮĸ
Ġso
Ġman
ater
äºİ
ia
ime
ue
å®ŀ
ence
Ġdis
ä¸İ
æĪĲ
Ġother
ace
æĸ¹
av
ber
ä½ľ
çº
fe
ep
Ġ4
ä½ĵ
Ġone
au
).
ĠSt
ose
ä¼ļ
Ġup
åĪĨ
èĩ
å¿
Ġwere
ount
é¢
Ġ0
so
Ġapp
con
Ġ$
ç¨
ase
ĠâĢ
ord
Ġabout
ĠK
very
ĊĊ
ire
ook
ition
ew
ä¸ª
ĠĠĠĠĠĠĠĠĠĠĠĠĠĠĠĠĠĠĠĠĠĠĠĠĠĠĠĠĠĠĠĠ
ress
Ġher
Ġper
æĮ
form
ks
Ġun
Ġwho
ike
Ġsp
int
åı¯
ll
ite
ĠV
____
Ġif
Ġpart
ile
Ġ19
åĪ¶
Ġqu
Ġthem
now
Ġstud
ang
åĬ¨
),
Ġ5
----------------
æĹ¶
åİ
ä¾
xt
ool
Ġev
ä¸»
äº§
ç»ı
ens
Ġar
çİ°
ĠCh
Ġhad
ä¸Ĭ
ces
åľ°
Ġpe
nder
éĥ
ood
è¿Ľ
low
ject
ail
reat
ric
åĩº
ree
åĲĪ
ings
ory
Ġsc
Ġcomm
Ġ{
ç®
erv
Ġmy
è¾
åĲĮ
Ġalso
ors
ĠIt
Ġthere
Ġsome
ç«
å¹´
åħ³
Ġag
ish
ĠY
è¿Ļ
Ġwork
æľ¬
ç¤
æı
ç³
ĊĠĠĠĠĠĠĠĠ
ram
Ġwhen
Ġtime
Ġwould
çŃī
åĳ
æį
åħ¶
ning
å±ķ
ple
åĬĽ
ays
ople
pec
Ġbec
ç³»
Ġsa
åºĶ
Ġour
Ġlike
ound
ĊĠĠĠĠĠĠĠ
æ²
å·¥
Ġbeen
Ġ*
ck
Ġpre
ally
Ġover
ough
Ġany
lic
ove
Ġinto
ĉĉ
è¿ĩ
Ġhow
æķĻ
ities
èĢĮ
Ġthan
Ġyear
ĠâĢľ
æ±
Ġro
æķ°
ph
clud
èĤ
Ġtra
Ġknow
Ġunder
ç¨ĭ
ä¹ĭ
Ġwhat
ob
æĸĩ
ç½
æĶ¿
ov
åº¦
rent
we
ink
ments
Ġpeople
ons
ef
å»
urn
Ġ6
æĦ
rough
ark
æ°ĳ
é«
éĩį
Ġneed
ĠThis
Ġact
Ġind
lect
æĭ
ys
row
èµĦ
yst
æĿ¥
æĸ°
é«ĺ
ific
Ġdes
hed
èĢħ
Ġem
Ġrec
Ġuse
ian
åĵ
Ġnew
::
velop
ĠHe
åĪ°
Ġdif
à¤
chool
rit
't
20
vers
Ġmay
get
èĩª
æĥ
ause
Ġcons
¦Ĥ
Ġbet
ç©
åĢ
Ġacc
ath
tern
æıĲ
ates
In
ç¬
Ġget
åŁº
Ġshe
irst
old
Ġits
Ġno
çł
Ġ'
round
olog
ystem
);
cess
ne
Ġ&
åıĳå±ķ
ious
Ġtr
éĿ¢
ata
Ġfe
å»º
Ġoff
ĠĠĠĠĠĠ
Ġthese
ï¼ī
å¢
Ġass
æīĢ
Ġchild
ft
å®¶
Ġtw
iss
Ġrel
è§Ħ
own
åħ¬
æľº
è½
Ġ.
ï¼Ī
ĠRe
eth
åħ¨
ç¤¾
éĢļ
Ġprov
çĽ¸
Ġinclud
ç¡
åĬ¡
Ġam
cre
19
Ġra
sel
çī©
Ġ[
ç§į
åī
ative
Ġbl
Ġ8
ps
æ´
è®¾
Ġcol
//
les
å¤ļ
Ġ7
æ¯
ert
rib
è°
erm
ational
ract
æĿĥ
çŁ
æį®
10
Ġhel
Ġjust
Ġthrough
ating
äºĭ
Ġonly
éģ
ä»£
ĠWh
Ġimp
éĥ¨
Ġsuch
ä¸ĭ
ility
Ġpo
åĨħ
Ġshould
fter
ied
éĺ
éĩı
åıĬ
##
ics
.,
ise
ty
ful
Ġdevelop
ick
åĽł
ener
ng
wn
Ġ201
ced
ange
ock
Ġeff
ont
mer
åĪ©
ï¼ļ
ç»Ł
å¼ı
ä¹Ł
èģ
Ġcould
Ġspec
oth
å¦Ĥ
åĲİ
å¥
ss
Ġhim
Ġmost
Ġob
Ġexp
ection
Ġbu
Ġused
alth
Ġsupp
é¡
æĪĳ
ient
ond
Ġprodu
éĹ´
Ġph
oy
ç¤¾ä¼ļ
Ġwhere
Ġ<
Ġadd
æĪĸ
Ġfirst
ç®¡
oss
als
Ġatt
................
è®¡
Ġreg
ife
Ġdiffe
ãĢĬ
Ġ9
hen
ãĢĭ
ç¬¬
Ġinv
æĽ
Ġmake
Ġtwo
ature
ble
com
Ġfl
Ġthen
000
ĠPro
cy
Ġlear
ER
æ¬
ä¿Ŀ
fore
ä»İ
ä¹ī
âĢĶ
çĤ
cept
å½ĵ
ring
iew
è·
Ġco
ade
ible
==
ular
Ġsub
itt
Ġwell
Ġend
ç»ĵ
Ġac
çłĶ
éļ
Ġback
ex
å°±
Ġschool
ased
Ġpers
its
uring
led
ize
Ġclass
Ġmany
ä¿¡
æľ¯
åĬł
Ġhelp
å¼Ģ
aw
."
Ġinst
è§£
æµİ
ily
ower
æĬĢ
ĠWe
ident
å¹¶
é¢ĺ
Ġpr
çķ
Ġsm
ä½¿
Ġrem
æŀĦ
å½¢
æłĩ
æĦı
åģ
ax
æľŁ
uch
æĺİ
çľ
ĠCom
uc
Ġval
Ġsee
Ġsystem
gan
ience
ç»ıæµİ
Ġsaid
çī¹
arch
ĠâĢĵ
up
sp
Ġbecause
ĠUn
gram
è®º
çĽ®
ms
å¾Ĺ
Ġinter
ç«ĭ
ç©¶
Ġ\
éľ
è¶
ç±
Ġ10
Ġfol
çĶ±
Ġyears
ural
Ġke
è¡¨
12
="
ork
ict
hes
ween
Ġed
Ġevery
de
iet
aking
Ġ20
ices
ç§ĳ
æŁ
å¸Ĥ
Ġtrans
ç´
éķ
åħ¥
è´¨
Ġpol
ten
Ġset
Ġway
ĠĠĠĠĠĠĠĠĠĠĠĠĠĠĠĠĠĠĠĠĠĠĠĠ
æĻ
Ġty
Ġ}
Ġret
ä¸ī
Ġinform
Ġdid
ution
Ġwater
ode
Ġstudents
Th
hip
å¤ĸ
tt
IN
Ġnum
Ġlook
å¹³
Ġ200
çĤ¹
ĊĠĠĠĠĠĠĠĠĠĠĠ
Ġread
________
chn
Ġimport
åĮº
ä»¬
æģ
Ġpres
stand
ts
Ġresp
æ¸
åħ·
Ġbetween
èĤ²
Ġ18
ON
ants
Ġcommun
ï¼Ľ
ruct
50
Ġvery
Ġexper
ublic
æŃ¤
ä»ĸ
Ġcount
Ġeven
Ġgood
æ±Ĥ
çĦ
Ġrequ
åīį
æº
çłĶç©¶
åıĺ
other
Ġhigh
St
éĹ®
Ġeach
åĿ
Ġlong
arg
ues
Ġdifferent
æķĪ
iel
ward
åŃĲ
Ġsur
Ġbeing
ness
Ġgra
Ġafter
land
Ġright
ather
ä»·
ĊĠĠĠĠĠ
ĠAn
Ġserv
Ġmod
Ġloc
Ġown
Ġchildren
ec
self
æ²»
ix
ç»Ħ
è®¤
éĽ
èī
ives
io
</
åŀ
Ġdoes
ä»¶
Ġent
ines
å°Ĩ
æľĢ
ting
äºĮ
è¯Ĩ
ds
ES
ited
Ġdef
Ġfollow
Ġexam
ä½į
éľĢ
und
ä¸ŃåĽ½
sc
erg
å¼º
ç±»
ä¼ģ
Ġthose
ures
11
Ġvar
æ¡
ç¾
åİŁ
æ¶
ever
å¿ĥ
Ġcre
vent
Ġmuch
ĠAs
Ġsign
åı¯ä»¥
åĲĳ
Ġform
Ġdet
Ġprocess
Ġdisc
Ġthink
ĠHow
çĦ¶
ins
Ġwant
Ġperson
Ġsoc
Ġworld
Ġdown
çĿ
ull
æ´»
ually
è¿Ľè¡Į
Ġsk
ĠIf
Ġbefore
Ġcall
Ġcar
Ġinf
åħ±
Ġagain
ĊĊĠĠĠ
Ġear
Ġmade
æĽ´
Ġdata
ved
åĲĦ
Ġhand
æĮĩ
air
æºĲ
ä¼ģä¸ļ
Ġcur
Ġlife
æĿ¡
arm
Ġhealth
Ġdec
ĠThey
Ġnow
Ġprogram
iron
Ġdist
ç¼
AR
Ġsim
ages
ology
Ġpartic
Ġresult
æŃ£
ody
åĪĽ
å¯¼
çŁ¥
éĹ®é¢ĺ
Ġcomple
æĥħ
è°ĥ
Ġgener
Ġeffect
Ġgu
è¯ģ
åĵģ
éķ¿
éĩĳ
ale
ä¸Ģä¸ª
201
åĪĻ
ving
Ġel
Ġless
Ġplay
Ġinformation
Ġmin
åľº
Ġfam
Ċĉĉ
ç¡®
Ġinte
çĶµ
ah
Ġstr
ĠYou
ave
æŀľ
rest
roup
Ġdon
ash
æ¨
æĢĿ
ç®¡çĲĨ
ĠSe
()
any
æĬĢæľ¯
âĢ¦
æĹł
åŀĭ
Ġsame
read
-|
Ġappro
ality
gg
Ġsupport
Ġext
Ġche
éª
ven
way
orn
ĠDe
ute
iness
æĶ¹
cent
ä»»
Ġfind
ivers
Ġpoint
è¢
ier
Ġlevel
ential
AT
Ġincre
Ġstart
be
Ġrep
ĠAl
ä½Ĩ
day
Ġexpl
ically
18
uth
alk
ized
Ġmon
è§Ĥ
æķĻèĤ²
imes
éħ
ism
ym
vern
Ġshow
Ġunderstand
the
åŃĺ
ĠAnd
Ġtake
Ġtechn
Ġfun
ä¼ł
Ġfact
Ġboth
äºĽ
30
...
viron
ĠĠĠĠĠĠĠĠĠ
Ġmem
Ġmed
Ġday
irect
å§
Ġwhile
uss
arent
ined
ern
åĨ³
ouse
Ġfound
æĮģ
Ġop
Ġusing
æ¨¡
åĽ½å®¶
eng
Ġthough
å¾ĭ
èĲ
å¢ŀ
Wh
16
ption
ĠFor
",
22
Ġ/
æ®
Ġhum
der
ves
text
æ°´
åķ
å°ı
Ġdep
Ġprovid
EN
äº¤
Ġref
sh
Ġimportant
anc
arge
åĳĺ
ton
Ġstate
17
çİ¯
Ġav
Ġfin
å¤Ħ
è¢«
ank
ince
ox
æµģ
15
ists
é£
RO
æ¯Ķ
ien
Ġmain
éĥ½
view
åŃ¦çĶŁ
Ġrese
Ġ+
ĠAr
ected
Ġsom
Ġduring
pr
Ġlead
AL
âĢĵ
meric
æİ¥
Ġgl
',
ĠCon
ĠNew
ĠEx
æĶ¶
åı¸
Ġeduc
æģ¯
Ġplan
ĠSc
Ġ#
ç¥
Ġproble
åĢ¼
Ġart
vironment
ource
Ġcle
éĢł
oh
Ġconst
ww
ç½ĳ
Ġmust
éĢļè¿ĩ
Ġdesign
Ċĉ
rol
Ġbuild
ĠĠĠĠĠĠĠĠĠĠĠ
Ġtest
Ġquest
èĬ
å¢ĥ
èµ·
Ġcent
ared
Ġnumber
Ġbel
åĩĨ
--------------------------------
akes
è¯´
Ġsol
Ġaround
æķ°æį®
ĠInd
atch
åĨľ
ivid
éĶ
ä¾Ľ
æ·
ik
line
è¿Ĳ
ner
Ġvis
.âĢĿ
ĠWhat
iqu
Ġproject
åķĨ
Ġbus
to
13
å¸¸
par
elf
SI
ä¹ł
ired
rodu
Ġ12
æ¡Ī
çĸ
OR
Ġstill
æĢģ
ĠBut
ters
Ġactiv
Ġreal
è½¬
ĠAd
14
çĿĢ
put
åįģ
ug
æĹ¥
åįķ
ç²
ional
éģĵ
è¯¾
Ġorgan
Ġsmall
Ġpublic
åıĹ
Ġcare
ield
Ġreturn
æİ¨
ĠGod
ify
æĸ½
è¿ĺ
ĠAmeric
Ġfeel
æľį
ases
Ġlearn
ç³»ç»Ł
Ġgrow
Ġca
ets
Ġgreat
oun
rist
Ġplace
åĮħ
Ġposs
Ġcour
Ġpur
bers
Ġsay
25
Ġthree
Ġland
ider
Ġ16
val
Ġpower
ĠQ
åıĸ
èĮ
ense
Ġprot
ources
pos
ĠShe
çİĩ
å®ī
cond
ĠThere
sw
Ġequ
rence
èģĶ
Ġins
">
çĻ
çĹ
ining
err
çĬ
Ġconf
Ġcontin
Ġdevelopment
acher
man
éĻ¢
éĵ
ross
Ġproduct
å·¥ä½ľ
ee
Ġsl
éĻħ
ateg
ason
Ġwrit
ĠSh
Ġfood
ret
ä¸ĵ
åıį
dx
angu
Ġhome
ars
é¡¹
Ġlet
Ġpract
ĠCl
Ġcor
Ġser
ĠRes
Ġallow
rem
Ġpat
ST
aterial
ways
ills
Ġbeh
Ġstudy
ç´ł
Ġname
ital
ral
Ġpos
ittle
ĠPl
ä¸¤
ethod
Ġ15
ä¿¡æģ¯
æ¬¡
Ġstand
Ġchar
èĪ
Ġest
ccess
lish
ä¸ĸ
aj
Re
dition
Ġimpro
Ġpop
Ġincluding
Ġreport
200
åŁŁ
çŃĸ
az
ĠIs
åı²
ä¸»è¦ģ
Ġhere
imate
Ġbook
æķ´
Ġthings
éĽĨ
è±
èĢĥ
pro
å½±
Ġwithout
ron
iety
è§Ħå®ļ
Ġprof
ished
ator
Ġold
It
40
conom
bs
Ġide
Ġ00
iven
app
not
less
Ġi
ĠEng
Ġadv
æĶ¯
çº§
å®¹
éªĮ
ç®Ĺ
Ġhapp
è¾ĥ
col
Ġmark
ability
Ġinterest
ization
èĭ
Ġfew
Ġpass
ĠâĢ¢
Ġpri
Ġet
Ġwithin
tain
æĸ¹éĿ¢
Ġexample
Ġopp
vernment
å¿ħ
ulation
Ġmight
AN
amp
Ġ17
ision
itive
å¥½
éĩįè¦ģ
ering
Ġeng
ç¾İ
ples
iversity
ergy
Ġocc
ĊĠĠĠĠĠĠĠĠĠĠĠĠĠĠĠ
outh
åĻ
Ġtoo
ething
Ġaff
iving
Ġlearning
min
çĽĬ
ames
æĸĩåĮĸ
èŀ
ĠTe
ieve
Ġredu
oad
å®Į
çķĮ
ted
Ġhist
ividual
ĊĊĠ
Ġpresent
Ġiss
Ġbody
Ġident
éĿŀ
,"
æŃ¥
čĊ
ration
è£
ified
å¸Ĥåľº
Ġgoing
å®ĥ
æł¼
è¿ĩç¨ĭ
ery
itions
Ġmat
Ġsocial
Ġbest
åħ³ç³»
åĪ«
Ġmet
ä¾ĭ
æł·
Ġdi
ç¦
rid
Ġdem
æĪĺ
====
agement
èĮĥ
Ġanother
Ġbetter
ior
Ġ:
ĠComm
ries
Ġ**
åĵį
æĥ³
://
acter
è±¡
Ġanal
Ġlast
gin
riend
æľįåĬ¡
æĢ»
Ġrest
Ġarea
Ġlittle
é¢Ĩ
èŀį
ware
Ġbas
è¾¾
ards
å·²
åĽ¾
Ġlist
åħĥ
ĠĠĠĠĠĠĠĠĠĠ
inal
è´£
Ġchange
Ġbusiness
els
],
åºľ
cri
Ġelect
ID
atic
Ġhead
))
è¯Ħ
ç¡Ģ
æł¹
éĿ©
ĠChrist
è¡Įä¸º
åŁºç¡Ģ
This
è®®
èĥ½åĬĽ
Ġoften
éľĢè¦ģ
ĠSp
inc
raph
Ġeas
Ġspe
Ġsomething
oint
Ġask
Ġben
èį
Ġ199
Ġresearch
Ġ_
è¯¥
Ġrun
anguage
Ġbo
Ġpar
ä¸įåĲĮ
Ġ!
oid
åĻ¨
Ġhuman
Ġinclude
æ³ķå¾ĭ
Ġlarge
Ġinc
Ġwom
èĻ
Ġdirect
ission
ä¸»ä¹ī
Ġmaterial
åħĪ
Ġchang
æĬ¤
Ġunt
Ġopen
ĠCo
here
Ġprovide
Ġcap
TO
Ġterm
åŁİ
ains
Ġindividual
åħ·æľī
å»ºè®¾
Ġenvironment
å¼ķ
åį³
rop
ling
................................
ek
èĬĤ
æĸŃ
Ġreally
li
ĠZ
ote
Ġoper
ray
Ġgre
Ġlocal
Ġmov
æ®µ
hem
åĪ¶åº¦
px
ä¹¦
Ġtop
Ġtyp
Ġbre
work
Ġinvol
ĠThese
ency
åĽĽ
Ġkeep
Ġtype
23
æµĭ
Ġgroup
ĠĠĠĠĠĠĠĠĠĠĠĠĠĠĠĠĠĠĠ
Ġproper
Ġfollowing
An
Ġ14
ertain
Ġsit
åŃĹ
Ġcult
åİĨ
Ġve
Ġfamily
ĠEn
Ġcome
çº¿
ocus
æŀĲ
å±Ĥ
->
Ġpot
çİ¯å¢ĥ
Ġmean
ĠLe
60
thing
å½±åĵį
Ġperform
æĸ¹æ³ķ
21
ploy
æĶ¾
ium
Ġris
èģĮ
med
èº
æİ§
ä¸ŃçļĦ
iod
ype
å¤į
éĹ¨
ä¾Ŀ
Ġlight
Ġself
oci
of
new
oot
ination
Ġ13
å¸Ī
ledge
RE
äººæ°ĳ
Ġair
ç»ĩ
****
æĶ¿åºľ
Ġput
Ġfore
ention
---|
å®ŀçİ°
è·¯
Ġcommunity
Ġhard
åħ¬åı¸
Ġ--
Ġtru
çº¦
åŃ¦ä¹ł
over
è¯Ń
Ġteacher
çĶŁäº§
Ġcurrent
æĺĵ
ott
Con
Ġfil
ream
Ġagainst
ĠPh
Ġleg
ats
IT
by
Ġnever
24
ä¼ĺ
èº«
èĦ
uthor
Ġmus
å£
80
Ġable
Ġlaw
("
Ġcase
é£İ
åħ»
Ġparent
ried
é©
ortun
æķĻåŃ¦
ĠCol
ially
æľĪ
ered
Ġ>
atural
clus
ĠTo
æľª
Ġcreat
LE
æĪĳåĽ½
æĦŁ
ĠØ
ĠSo
add
ĠOn
èĩ³
å®¡
rans
å¤©
ç»Ħç»ĩ
yn
ä½İ
org
ç»´
Ġmeas
Ġmar
Ġtry
Ġes
Ġvalue
ember
åºı
æĪĳä»¬
Ch
éĤ
èī²
ised
We
éĻ©
Ġele
Ġcommon
Ġseem
åı£
Ex
à¥
Ġsecond
ĠBe
åĬŁ
Ġcalled
Ġorder
èĲ¥
Ġavail
name
Ġdel
éĢĤ
Ġothers
erc
arget
ĠĠĠĠĠĠĠĠĠĠĠĠ
ĠAll
Ġalways
ley
Ġrece
éĻĲ
Ġmethod
use
Ġeconom
Ġaccess
åĸ
ann
Ġfac
åįı
ÉĻ
ç¤º
ĠWhen
ina
æ³¨
Ġturn
è´¢
åĪĨæŀĲ
omm
Ġlot
Ġsince
æĬķ
ĠIm
çĲĨè®º
Ġtem
Ġbro
åıĤ
Ġcost
çĽĳ
èµĦæºĲ
è¥
æīį
äºĴ
ç¥ŀ
é¦
Ġz
right
æ·±
ä½¿çĶ¨
Ġprom
æī¿
æıĲä¾Ľ
éĢī
äºī
æł¸
åĨµ
Ġsever
raw
ajor
att
rs
IC
è§Ĩ
cle
Ġ11
Ġmaking
æŁ¥
for
lu
çĽ´
Ġenergy
Ġcho
åŁºæľ¬
åĬ³
Ġobject
è¦ģæ±Ĥ
è¥¿
ä½ľçĶ¨
åıª
Ġnext
ury
Ġcontrol
Ġareas
AS
éħį
åĪĴ
åĲį
ived
å¤ĩ
Ġcreate
ĠBy
ush
ä½ľä¸º
çľĭ
æĸ¹å¼ı
Ġeducation
ories
Ġbenef
orth
ger
Ġpost
Ġmeans
æĬ¥
Ġconn
å°ĳ
Ġphys
Ġtreat
Ġ30
set
Ġgovernment
éĩĩ
Ġsw
èĩ´
å¿µ
éĴ
Ġcal
Ġneeds
Ġwhy
ably
æ£
ĠNo
64
ended
ently
ances
son
ä»¥åıĬ
ĠâĢĺ
33
Ġsignific
ç©º
oney
ãĢĢ
çħ
ilities
ÂłÂł
Ġmeet
aster
åĪĽæĸ°
ç²¾
iter
resent
Ġgiven
Ġsuccess
æĭ¬
æīĭ
Ġcr
ohn
æĹı
è¨
Ġmove
Ġlim
âĢĿï¼Į
Ġstruct
Ġbased
è´¹
let
augh
ç§ĳåŃ¦
icle
Ġfriend
çŁ¥è¯Ĩ
Ġinvest
æŀģ
è®°
ĠOr
iver
ird
Ġwr
ä½ķ
're
Ġtext
æĬĬ
Ġseveral
AC
æĿĳ
ustom
He
ours
Ġbecome
Ġnon
ental
å¾·
Ġaddition
Ġgr
Ġmen
ä¸Ģç§į
Ġgive
ĠĠĠĠĠĠĠĠĠĠĠĠĠ
Ġmonth
Ġleft
Ġavailable
pect
ians
æĺ¾
Ġlanguage
æł¡
âĢ¦âĢ¦
lease
ç¨İ
Ġteam
rain
ruction
åŃĺåľ¨
crib
Ġdev
Ġimpact
Ġhig
uture
70
çĹħ
åı¯èĥ½
ĠAf
Ġexperience
28
________________
Ġuntil
è¨Ģ
è§ģ
çģ
What
Ġnear
Ġcourse
Ġpossible
Ġfree
ç»Ĩ
Ġparticular
ä¸ľ
Ġconsider
æ»
ither
Ġlow
Ġline
å¾Ī
Ġwar
æ²¡
ç§°
urs
Ġess
Ġyoung
ological
uck
Ġfunction
aching
ç»ĵæŀĦ
Ġens
eb
rad
ogn
26
ä½ĵç³»
ope
Ġstudent
æĸĻ
Ġ//
ĠMar
ole
ately
ç»Ń
Ġtimes
Ġaway
isc
Ġhouse
ED
ç»Ļ
ä»·åĢ¼
ording
idence
por
ending
ĠCent
Ġknowledge
Ġview
osed
aff
idd
Ġmajor
Ġclear
Ġfour
Ġcountry
ĠHowever
Ġmil
è¿°
Ã©
ground
Ġapplic
ument
ç½®
illion
Ġfocus
ane
Ġdiscuss
Ġ::
é¢Ħ
Ġkind
Ġbig
itor
ç»ľ
rap
Ġà¤
æ´»åĬ¨
å½¢æĪĲ
åĨħå®¹
Ġdiff
èİ
roll
åĶ
Ġgot
æ¸ħ
99
Ġfar
ides
åĮħæĭ¬
une
Ġconc
Ġimprove
Ġservices
ograph
aps
istance
'm
è®¾è®¡
Ġ%
Ġmult
Ġsure
Ġproblem
UM
ZE
ler
ĠĠĠĠĠĠĠĠĠĠĠĠĠĠĠĠĠ
çĽ¸åħ³
gether
Ġtogether
urther
Ġkey
eral
äººçļĦ
apt
Ġspecific
çª
cing
Ġparticip
Ġ25
Ġtre
As
Ġcharacter
uro
æµ·
Ġskills
ĠMe
Ġgen
Ġrespons
Ġey
Ġach
ids
ç§¯
ication
åĬ¿
å¾ģ
å¸ĥ
Ġx
Ġ)
ference
Ġaut
duct
Ġquestion
ĠThat
Ġlove
åĬ³åĬ¨
Pro
Ġ=>
Ġside
Ġknown
Ġpolic
éĻ¤
ROM
åºĶçĶ¨
Ġspace
Ġ->
Ġcell
è·µ
ĠInt
å¤±
Ġactivities
ç½ĳç»ľ
SIZE
osp
Ġelse
ĠAt
æ¶Ī
Ġindust
ĠBl
åŁ¹
ĠStud
Ġworking
Ġaccount
æłĩåĩĨ
wh
rag
æ°Ķ
ape
aper
vious
Ġtell
ribut
ows
è¯ķ
Ġperiod
Ġcertain
ĠCan
å¸¦
ured
åĬ©
,âĢĿ
åħ¶ä»ĸ
Ġpotential
Ġunderstanding
ĠUS
Ġrelations
af
Ġintern
Ġdays
Ġcir
abor
Ġfull
ä¸Ķ
enn
åĲĮæĹ¶
agn
Ġhaving
ĠGo
Ġearly
ead
ule
aken
Ġshort
Ġenough
ask
uation
ĠAmerican
Ġhy
Ġvol
ĠAfric
ç½ª
æ²¡æľī
Ġ100
ively
Ġdeterm
):
IS
åĪ¤
çĬ¶
AM
Ġpay
Ġcaus
äºĶ
uff
äº§ä¸ļ
Ġenc
Ġsignificant
Ġfuture
--|
dd
29
Ġdri
ĠĠĠĠĠĠĠĠĠĠĠĠĠĠ
è¿ĳ
side
å±Ģ
order
ift
ĠMan
ample
27
éĥ¨åĪĨ
çĥ
Ġcrit
éĢŁ
oms
Ġnatural
åħļ
urch
bo
.)
åģļ
ression
Ġage
ĠĠĠĠĠĠĠĠĠĠĠĠĠĠĠĠĠĠĠĠĠĠĠ
Ġrequire
ored
ique
å®ŀè·µ
æĪĸèĢħ
æĶ¿çŃĸ
å°±æĺ¯
åıĪ
orld
å®īåħ¨
aut
ators
Ġ@
oll
ault
rict
Ġcame
ilar
If
45
æıĲé«ĺ
åİĨåı²
Ġsing
å¹¿
wards
swer
ET
ump
ils
Ġdone
Ġflow
åĳ½
ä¹ĭéĹ´
icult
Ġarg
back
æĥħåĨµ
åįĩ
Ġbehav
Ġ,
Ġnecess
Ġmarket
EC
åĳĬ
åĽłæŃ¤
####
Ġcontent
aring
å§ĭ
Ġwomen
ä»ħ
ĊĠĠ
Ġstep
Ġalong
Ġabove
ION
æŁĲ
ots
Ġspecies
æ¬¾
Ġcond
ĠAss
face
Ġopportun
ysis
Ġvarious
Ġmind
Ġauthor
unt
Ġthing
è¿ĻäºĽ
bl
ĠState
Ġleast
umm
ĠSchool
artment
Ġwords
Ġmoney
lection
Ġstory
éĺ¶
æĤ
çĭ
Ġ24
çĽ®æłĩ
Ġamong
ĠFr
Ġemploy
æł¹æį®
å±ŀ
çķ¥
66
Ġsays
åħī
To
ÙĦ
Ġchall
iting
cul
Ġspecial
Ġfre
Ġreason
æıĲåĩº
æĶ¹éĿ©
Ġworks
ibility
Ġrecord
Ġquality
Ġpain
Ġorig
Ġcomplete
eter
åľŁ
ĠX
Ġdue
alf
ĠĠĠĠĠĠĠĠĠĠĠĠĠĠĠ
Ġcomput
onse
duc
åĸĦ
ained
BSIZE
Ġprofess
Ġpast
ĠCO
åĽŀ
ãģ
roduction
ç¢
ĠUniversity
lished
ĠJohn
plement
Ġtool
ipp
selves
Ġfund
Ġproblems
Ġsubject
Ġhistory
35
Ġtrue
çľŁ
ready
è´£ä»»
çħ§
ĠAm
obal
ĠCal
Ġrisk
90
Ġmembers
Ġpolit
fer
Ġthought
Ġdr
")
AP
Ġjob
åĢº
Ġsystems
Ġamount
Ġexist
æ£Ģ
Ġservice
Ġdise
ä¹Ī
è¯ī
ips
unction
Ġanim
Ġhold
clusion
Ġtalk
FROM
You
ttp
most
str
Ġsym
ĠApp
Ġstrong
éļ¾
igure
verage
Ġacross
roups
å®³
åĿĩ
serv
Ġupon
ables
cur
å¯¹äºİ
Ġfr
åĽ´
Ġerr
Ġaddress
yle
Ġlater
åĪĹ
Ġresults
ification
Section
ĠMay
ales
å·®
åĮĹ
åı·
áĥ
åĨį
Ġopt
hold
æĮī
åİ»
å»ºç«ĭ
75
è¶Ĭ
è¡ĮæĶ¿
è®¤ä¸º
æ¦Ĥ
ones
æī§
Ġrepresent
LL
iation
æĢĿæĥ³
play
é¡»
ä¿ĿæĬ¤
Ġheart
hing
æĪĲä¸º
ĠUnited
Ġconcept
Ġtot
OT
elt
ison
Ġresources
cont
Ġdidn
asing
ĠEnglish
ille
ising
Ġstrateg
éļı
br
ls
Ġbuilding
Type
ggest
æ¯ı
ĠWith
æĻº
Ġweek
olution
aces
Ġassess
Ġsound
Res
ext
âĢĿãĢĤ
ued
åı°
atures
Ġmanagement
ĠĠĠĠĠĠĠĠĠĠĠĠĠĠĠĠĠĠ
Ġpress
ĠĠĠĠĠĠĠĠĠĠĠĠĠĠĠĠĠĠĠĠĠĠĠĠĠĠĠĠĠĠĠĠĠĠĠĠĠĠĠĠĠĠĠĠĠĠĠĠĠĠĠĠĠĠĠĠĠĠĠĠĠĠĠĠ
Ġincrease
32
âĢ¢
ĠSome
Ġrole
Ġbegin
There
ĠCar
Ġalready
ä¸ĸçķĮ
sy
ief
è¿Ļç§į
ening
Ġtri
åĲĪåĲĮ
bt
ĠâĢĶ
Ġmakes
Ġquestions
ched
ffic
Ġplant
itle
Ġfield
Ġ50
Ġlevels
gress
me
ĠSu
ires
ĠDo
Ġâ
Ġparents
æĪ·
Ġever
ude
Ġreading
head
rect
Ġpercent
}{
ĠStates
gr
Ġann
though
aim
lex
Ġground
pri
ene
éĩĮ
color
www
Ġhigher
ref
Ġassoci
Ġprob
è¶³
Ġsize
åįĹ
Ġrelationship
Ġdifficult
Ġmot
ened
II
è´§
ä¿®
Ġtypes
äº§çĶŁ
Ġnet
rand
å¼Ĥ
Ġwind
che
ç«ł
Ġpub
åĨĽ
've
ung
äº§åĵģ
éļľ
ç¦»
Ġcompany
ober
è¯¾ç¨ĭ
Ar
import
Ġ&&
Ġla
ume
Ġtoday
Ġgame
å®ŀæĸ½
ĠInst
Ġlive
Ġtechnology
æĹ¶éĹ´
å®ļçļĦ
Ġant
å·±
Ġmodel
ients
Ġseen
Ġtarget
How
Ġindic
------------
ĠPr
Ġdescrib
ĠDes
Ġrequired
cher
Ä±
Ġstop
cript
èĳ
Ġsuggest
Ġbr
åĲ¦
Ġchanges
ml
ĠNational
Ġwalk
this
acy
Ġcustom
)*
åĽ½éĻħ
Ġdoing
Ġcomplex
èİ·
].
æĴ
ivity
Ġsent
Ġestab
Ġappear
ength
Ġwhole
action
na
Ġcheck
Ġevent
uild
reg
Ġstat
ister
Ġprevent
ĠAg
çĶŁæ´»
co
ilt
Ġessential
Ġways
ç¾¤
Ġcause
Ġgroups
ey
åĪ©çĶ¨
cer
ĠOne
æİ§åĪ¶
ĠIN
Ġ*/
åħħ
Ġcomb
éĺ²
100
è®©
ĠAct
èĤ¡
ĠEduc
å¤Ł
Ġsat
Ġtook
å¤ĦçĲĨ
mber
Ġrange
ĠCont
éĩĳèŀį
type
Ġdam
Ġonce
span
ING
Ġface
ari
Ġclose
pecially
vert
Ġwhether
Ġpriv
åı¤
Ġblood
Ġfurther
Ġdetail
ä¸ĵä¸ļ
Ġword
Ġwent
åıĳçĶŁ
ĠDep
Ġactually
For
é¦ĸ
Ġpersonal
ä¼Ĺ
urope
ourn
è¯·
iol
85
æĿĲ
æĭħ
fl
ĠEm
36
HE
çİ°ä»£
å¿«
Ġlikely
ä¿ĥ
Ġproducts
Ġissues
æķ°åŃĹ
åĩı
å¾Ģ
ney
:**
ä¸ĩ
Ġeither
æ¿
Ġinit
Ġshall
Ġphot
Cl
44
ights
istic
Ġgeneral
Ġsimilar
ä¸¥
Ġsoft
æĿ¡ä»¶
Ġimplement
ĠĠĠĠĠĠĠĠĠĠĠĠĠĠĠĠĠĠĠĠ
æľºæŀĦ
Ġreview
è®¡ç®Ĺ
icro
opy
iple
éĻį
é¢ĨåŁŁ
è§£åĨ³
ç»Ī
éŁ
AD
Ġsomeone
Ġneg
Ġdoc
atory
åĬŀ
Ġexperien
åĬŁèĥ½
ibr
å¿ħé¡»
aged
ai
Ġbi
ĠGu
essage
adem
èĩªå·±
return
Ġ40
æĬķèµĦ
åĳ¨
Ġdeath
Ġensure
æİ¢
part
cast
Ġtraining
è´Ł
æľºåĪ¶
åºĶå½ĵ
utes
Ġrather
Ġneeded
ç¬¬ä¸Ģ
lev
On
Ġconditions
38
Ġtaken
lected
ser
à²
ï¼Ł
ches
æĶ¿æ²»
illed
ĠAb
Ġyet
ĠHis
pose
çªģ
Ġeffort
oon
æ¿Ģ
Ġbit
ety
å®ŀéĻħ
éĤ£
ENT
æľīæķĪ
34
åħĭ
Ġoffic
æĢ§çļĦ
Ġnature
é¡¹çĽ®
Ġill
è´¨éĩı
æ¨¡å¼ı
ules
å¯Ł
æĸ¯
ttps
Ġcountries
Ġfail
Ġsens
Ġlesson
åĦ
Ġwriting
Ġquick
Ø§
Ġidea
çĶ±äºİ
åįİ
Com
rel
ma
oph
ĠSoc
é£İéĻ©
Ġabs
ND
65
æ°´å¹³
ems
æįŁ
uf
inter
arr
Ġ`
çİĭ
å§Ķ
çĪ
Ġce
go
ĠEurope
ners
Ġrad
Ġteachers
37
empt
Ġfall
Int
æİĴ
oor
æ¼
CO
Ġbelieve
Ġconsum
Ġvers
ĠQu
itation
ä¸įèĥ½
Ġdig
Ġsource
å²
irt
Ġmaterials
raft
Ġphysical
def
'll
Ġcannot
Ġprograms
irit
å¼ł
Ġtax
å½¢å¼ı
Ġbelow
Ġschools
NUM
é»
?"
éĥ¨éĹ¨
ĠÙ
earch
ĠComp
Ġfive
But
çĸĹ
Ġgrowth
Ġposition
ands
urb
è§Ĵ
Val
Ġmusic
ends
å¯Ĩ
ĠSystem
Ġprovided
Ġrepl
æ³ķéĻ¢
Ġhowever
éĩĬ
Ġstarted
ae
ocal
rences
Ġasked
è¿Ļä¸Ģ
39
åĮ»
ze
table
Ġdoesn
utions
ĠMy
Ġrecogn
Ġbreak
Ġinflu
Ġ21
å¦Ĥæŀľ
Ġcut
åħ´
Ġid
å¸ģ
èīº
ä¼łç»Ł
Ġcirc
Ġprinc
Name
Ġespecially
Ġimm
Ġoccur
Ġsex
ç¼ĸ
åĪĿ
è¶ħ
aves
IL
çĭ¬
Ġprim
ĠĠĠĠĠĠĠĠĠĠĠĠĠĠĠĠĠĠĠĠĠ
Ġcity
Ġnorm
ĠWill
Ġetc
ĠCount
Ġconduct
And
Ġprotect
Ġproduction
Ġmor
idth
å®¢
Ġmom
ç®Ģ
åįķä½į
å¹²
äººåĳĺ
Ġport
Ġpractice
Ġmillion
Ġtotal
reen
Ġlooking
Ġcolor
Ġdom
èĥŀ
Ġusually
lying
å®ĺ
ä¸ĬçļĦ
çĲĥ
ãĢĤâĢĿ
iate
čĊĠĠĠ
ĠMed
izing
ä¹¡
Ġnecessary
rown
ĊĠĠĠĠ
ĠNe
lege
Ġscient
Ġsite
ĠÐ
room
Al
issions
aging
enc
alse
Ġcompet
ites
Ġsingle
ĠTra
ĠGe
é©¬
ĠFl
Ġmaintain
========
Ġroom
Ġpoints
Ġgetting
ĠSouth
ises
Ġconcern
æīĢæľī
Ġfamil
minist
can
Ġaction
UR
ores
oke
ĠMr
Ġanalysis
67
Ġnight
olic
joy
åľ°åĮº
ĠIntern
Ġpopulation
ĠPer
itted
alt
åıĳå±ķçļĦ
Ġsuper
Ġability
MP
anced
Ġalmost
èĩªçĦ¶
88
hood
Ġsense
Ġpred
esus
ĠÂ
æ°ĳæĹı
Pl
ç»¼
åİŁåĪĻ
ĠPe
Ġbir
><
Ġthemselves
å·¥ç¨ĭ
Ġliving
ht
Ġhours
Ġblack
éľĢæ±Ĥ
Ġbring
Ġachieve
reng
çĬ¯
Ġhalf
çľģ
Ġentire
Ġnational
[_
my
Ġ==
bject
è®¸
æķħ
åĩł
æ¢
../
overed
åĥ
etimes
Ġlay
æĻ¯
CH
yl
ĠHealth
DE
ĠSection
PY
Ġanswer
Ġclean
Ġtold
ç¨ĭåºı
Ġcoll
Ġprovides
Ġtaking
Ġanything
æķĻå¸Ī
éĺ¶æ®µ
Ġlarg
Ġlog
Ġbar
åıĺåĮĸ
Ġlower
Ġliter
çºª
Ġapproach
gen
æĻ®
Ġdeg
Ġrecomm
à¤¾
å±±
Ġscience
Ġsafe
ricult
Ġwa
ä¸»ä½ĵ
ĠNot
èĢģ
èµĦæľ¬
rec
ç»Ĩèĥŀ
è¡¥
When
isions
Ċĉĉĉ
ç¼º
aced
åħ·ä½ĵ
cell
æĪ¿
95
efore
omes
åĪĩ
åĩºçİ°
Ġchalleng
èĪ¬
key
ç»ĵåĲĪ
çº³
Ġri
ony
aining
ĠAfrica
hern
Ġpositive
eds
rc
Ġshare
istics
Ġaffect
ç¬¬äºĮ
çļĦåıĳå±ķ
erson
lement
();
Ġlo
Ġeconomic
Ġstaff
Ġeffects
Ġfriends
epend
iction
Ġregard
åŁ¹åħ»
ada
Ġaccept
Ġobserv
ĠDr
ç¨³
åı¦
ĠEducation
Un
Ġtemper
ĠEar
ception
Ġrelated
Ġpath
Ġut
uel
Ġste
Ġactivity
Ã¼
Ġtable
72
opic
cription
ottom
list
bar
yp
ĠPart
UT
vey
ç«ŀ
Ġtreatment
é¢Ŀ
åħ³äºİ
Ġlives
Ġdest
oring
ming
Ġ22
ĠĠĠĠĠĠĠĠĠĠĠĠĠĠĠĠĠĠĠĠĠĠĠĠĠĠĠ
ĠWorld
sl
è£ģ
ç»ĵæŀľ
umber
ç§»
ä»ĸä»¬
åĽ¢
Ġvalues
Ġcomes
04
åĪĳ
ĠCons
Ġbad
idered
æĵ
Ġreduce
off
Ġenjoy
ension
æī§è¡Į
Ġwhite
ournal
ä¸ĢäºĽ
anks
fig
æĭ©
ences
ĠTN
iam
Ġappropri
Ġeffective
55
69
å¿Ĺ
verse
iddle
etic
Ġheav
Ġmonths
ancial
Ġ28
Ġred
Ġperformance
ĠSte
èĥ½å¤Ł
Ġpie
Ġpolicy
Ġdisease
udd
plic
Ġrespect
Ġnothing
Ġemot
åģ¿
ä¸ĢèĪ¬
çļĦæĺ¯
ĠMin
At
Ġrate
mb
èį¯
date
Ġconsidered
reet
Ġterms
åŁİå¸Ĥ
Ġsust
aving
CT
imum
argin
è¯Ħä»·
itch
Ġsimple
rr
Ġpict
çł´
Ġfire
ĠReg
Ġbur
Ġvari
ä»ĺ
Ġonline
çĻ½
leep
48
78
åħ±åĲĮ
Ġindustry
Ġengine
ĠJesus
Ġpack
æī¹
çĮ
ä¿ĥè¿Ľ
ĊĠĠĠĠĠĠĠĠĠĠĠĠĠĠĠĠĠĠĠ
Ġpaper
å¼Ģåıĳ
Ġbecame
td
ä¸įæĸŃ
acc
Ġfarm
ender
ĠServ
ached
Ġroad
åĤ
AB
Ġmatter
Ġdeveloped
Ġcreated
ĠJu
åıĮ
Ġtravel
Ġdeep
Ġevents
abit
è¡Ģ
ager
Ġindividuals
Ġcamp
inary
book
Ġrelig
atter
ply
ana
hel
ditional
Ġgir
Ġidentify
top
nam
}\
å¯Į
æ»¡
SE
Ġeyes
Ġbenefits
dom
ĠBo
sych
ÙĬ
elling
åĲ«
********
iment
By
div
Ġeval
Ġsociety
ĠAfter
py
éĵ¶
åĨľä¸ļ
oved
Ġvide
fully
Ġlab
Sh
Ġoutside
Ġcontact
æĦıä¹ī
Ġeffic
Ġwrite
lin
æł¸å¿ĥ
Ġ23
itution
ä¸įæĺ¯
umb
Ġbegan
Ġpolitical
ĠPar
æľīåħ³
åģ¥
åħ¸
è¿ŀ
Ġstreng
stance
rug
Ġstructure
Ġmass
Ġprobably
éĢīæĭ©
èĲ½
Ġparts
test
atives
è¾ĵ
Ġcontinue
ĠDevelop
ĊĊĠĠĠĠĠĠĠ
Ġnut
Ġevidence
ç»ıèĲ¥
ĠHer
###
Ġeasy
Ġdeal
mod
ned
ç§ĳæĬĢ
ç»¼åĲĪ
ä¸¾
ĠNorth
Ġfront
05
NA
è½¦
Ġ26
ields
ports
based
Ġcover
RI
ç©ºéĹ´
su
Ġcompan
Ġavoid
åĽłç´ł
Ġer
Ġcompon
Ġplants
ç²¾ç¥ŀ
å¢ŀåĬł
èĳĹ
åĦ¿
Ġtowards
æī©
Ġhands
Ġcomputer
Ġaud
Ġfile
ctions
æĪĲæľ¬
Ġbuy
åĨĻ
åįł
Ġclaim
ç´¢
æħ
Ġincludes
Ġfactors
men
Ġcou
åĿļ
igation
98
åĲĪä½ľ
Ð¾
Ġencou
åł
sequ
çĽ´æİ¥
è¿Ŀ
çĻ¾
Ġcy
èĮĥåĽ´
ided
Ġwebs
Cont
åıĳçİ°
Ġwide
sa
Ġprevious
åľ°æĸ¹
ĠPres
Ġresponse
Ġ27
Ġrights
ĠYork
md
å£«
time
ĠMc
Ġteaching
ä¾¿
éĵ¾
light
Ġheld
Ġsett
31
å·²ç»ı
OL
Ġcontext
ivil
Ġitself
like
oles
load
ç»§
Ġminutes
Ġwon
fect
code
ags
apter
Ġglobal
Ġsix
Ġcorrect
è¾¹
aries
Ġexpect
Ġloss
åħ¬åħ±
Ġslow
è¿Ļä¸ª
Ġsaw
icles
ged
äºĪ
Ġfram
Ġcases
iles
éĶĢ
Ġwritten
Ġhelps
Ġfeed
Ġ</
So
ville
Ġmedia
Ġdecl
åİĭ
curity
IR
æ±ī
æĶ¯æĮģ
Ġissue
De
ä¸ĢæŃ¥
Ġcred
ĠDepartment
where
ĊĠĠĠĠĠĠĠĠĠ
å¤§çļĦ
68
Ġstudies
Ġsepar
rought
reme
è½½
Get
çĶŁæĢģ
å¾®
ector
å±ħ
Ġhot
è¡¨çİ°
lt
æį¢
47
ĠOct
åĪ©çĽĬ
ĠGl
Ġago
Ġaccording
Ġmother
Ġthird
Ġlonger
Ġattention
Ġbehind
æĺİç¡®
ees
comp
Ġmeaning
Ġagree
ster
Ġhimself
fort
åħ¨éĿ¢
Ġmeasure
Ġdog
Ġdou
ä»£è¡¨
åħį
},
æŃ¢
49
Ġund
Ġ35
ä»Ĭ
æĮ¥
Ġchem
åĥı
*,
aches
åħŃ
ensive
çī¹å¾ģ
è¿ĩç¨ĭä¸Ń
éģĹ
unch
Ġstay
ç¬¬ä¸ī
amb
Ġarticle
èħ
aily
chan
Ġimportance
ä¸ªäºº
æİ¨åĬ¨
æľĿ
Ġfav
Ġtrying
String
Ġprogress
ä»Ģ
Ġbal
ĠGerm
Ġlooked
Ġuses
ervation
umn
Ġver
oper
opt
å½ķ
ĠCommun
ä¿Ŀéļľ
come
Ġcoun
Ġinvolved
å·¥ä¸ļ
ĠWar
æīĵ
Ċĉĉĉĉ
.;
Im
Ġregular
Ġfelt
ĠAc
æ²»çĲĨ
Ġviol
æ¦Ĥå¿µ
åıĤä¸İ
ä¼°
ĠWhy
Ġdesigned
Ġhistor
ĠChild
itting
Ġeveryone
Ġideas
ĠAug
Ġsurface
AG
UN
ĠOF
ĠRep
Ġoffer
Ġthinking
mon
but
ges
Ġful
å¢ŀéķ¿
osing
Ġaverage
Ġattack
ribution
Ġprior
Ġassociated
EL
fo
Ġeverything
".
æĹ¶ä»£
ĠAust
Ġstress
åĽłä¸º
Ġprivate
rast
ux
âĳ
Ġprep
Ġstates
Ġbackground
Ġshows
Ġincreased
åĮĸçļĦ
ĠAmerica
class
uk
ä¸´
Ġsun
èµĦäº§
yd
å¦
ĠPlan
ino
Ġappl
ERT
Ġfish
ĠChristian
ribute
Ġconnect
ĠJune
å¦Ĥä½ķ
Ġ32
just
ĠBrit
ival
Ġpattern
ç¾İåĽ½
orks
Ġfather
ession
Ġclimate
SS
èĭ±
Ġpage
ä»ĭ
77
bon
Se
è¯»
Ġlink
æĿĤ
å¤§åŃ¦
æĿĥåĪ©
hib
ctor
Ġexpress
data
Ġadult
ĠSm
è®Ń
ç«ŀäºī
ĠEl
ï¼ĮâĢľ
ĠCor
Ġfrequ
çĶ»
Ġpurpose
])
æĪĺçķ¥
ç¡®å®ļ
å°Ķ
formation
Ġgas
Ġquite
ĠVal
Ġ(_
Ġmethods
åº·
æĬĹ
acity
Ġsaf
amples
cil
mit
bor
Ġappropriate
bed
Ġthroughout
'd
></
EM
Ġgreen
oice
Ġcode
Ġaware
Ġ29
Ġdefin
Ġ/*
çīĪ
ĠHigh
éĶ®
Ġspeak
å®ŀéªĮ
cret
No
æĦıè¯Ĩ
å¯¼èĩ´
æİ¨è¿Ľ
ĠThen
Ġwanted
å¤®
Ġsustain
ops
airs
Ġdraw
æĸ°çļĦ
Ġanaly
éŁ³
oud
Ġsum
ĠWest
ç«¯
03
Ġbooks
è£ħ
pper
Ġang
Ġcondition
ĠJan
alls
Ġproperty
trans
ĠProgram
Ġbase
ii
ĠProject
éĢĲ
Ġbuilt
Ġbehavior
Ġtakes
Ġvisit
aid
Ġconsist
åĬłå¼º
89
ha
ĠYour
ç§¯æŀģ
Sc
Set
Ġdocument
oly
æĹ¢
Ġfeatures
ä¸Ńå¿ĥ
ĠEd
è¿ľ
||
itiz
ixed
å¼Ģå§ĭ
Ġinside
erve
åĭ
ä¹Ĳ
åį±
ç¬¦
rew
Ġcommunities
EP
Ġinsp
istry
Ġseems
rage
Ġrev
ä¹Łæĺ¯
æĳ
Ðµ
Ġlack
äººæīį
Ġec
ipment
ulations
ĠCity
Ġfoot
Ġsil
ceed
ham
Ġincluded
Ġmedical
lands
Qu
ç¨ĭåº¦
left
Ġfinancial
ederal
Topic
Ġinstead
æĺ¯åĲ¦
Ġreported
Ġsimply
è¿Ľä¸ĢæŃ¥
Ġlate
æĹ¶æľŁ
Ġwatch
Ġculture
Ġmax
Ġcompanies
Ġmach
}.
æĵį
Ġstandard
æ±Ł
čĊĠ
Ġtown
Ġmodern
Ġsoon
Ġenvironmental
Ġexerc
ä»Ģä¹Ī
Ġborn
æĻºèĥ½
åħ¶ä¸Ń
çĿ£
itary
Ġbeaut
å¥³
uge
ties
ashing
ĠResearch
Ġsafety
æĤ£
Ġexc
Ġbasic
Ġmember
Ġpret
";
Ġsources
Ġcells
Ð°
Ġ60
Ġunique
éĺŁ
Ġpopular
US
ä»İèĢĮ
ĠÃ
Ġearth
het
æı¡
kind
æ¶ī
ĠJuly
ĠMon
æŁĵ
ĠUnder
Ġdiv
Ġdemon
å¤´
Ġincreasing
icon
Ġtools
arket
lear
Ġarch
æĮģç»Ń
çļĦéĩįè¦ģ
)+
äº«
Ġimmed
Ġ$(
Ġson
è¯Ŀ
oes
äººç±»
å¡
ĠCounty
Ġimage
é£Ł
Ġwond
see
ç¤¾ä¼ļä¸»ä¹ī
å¾ĹåĪ°
çĲĨè§£
ura
åºŃ
Ġexpected
97
åŃ¦ç§ĳ
è®¼
Ġdifference
Ġsqu
Ġgoals
html
ĠSept
box
oe
Ġnumbers
ç»Łä¸Ģ
Ġadditional
æİª
Ġsoftware
è´§å¸ģ
åĢŁ
esson
Ġsoil
ĠChar
Ġpropos
iples
Ġweight
anger
Ġforest
ĠUse
Ġgreater
è®¤è¯Ĩ
Ġcross
Data
Ġinstall
è§ĦèĮĥ
Ġsuff
ĠTechn
èī¯
lam
asons
)=
åĲĦç§į
æ½
|----------------
irm
åĮºåŁŁ
ĠScience
ĠSub
astic
Ġsearch
åĨ³å®ļ
Ġcollect
Ġpoor
Â·
ĠWhile
Ġspirit
Ġbrain
ĠTr
ipl
åŁºäºİ
pped
uments
åĽº
Ġprojects
Ġsection
eters
Ġge
IV
Ġattempt
ĠJew
Ġrelative
æ¶Īè´¹
otal
æ¯Ķè¾ĥ
ĠOther
mm
iforn
All
ĠAre
Ġseries
ĠBar
Ġtherefore
ä½Ĩæĺ¯
Ġmoment
Ġopportunities
è¯īè®¼
Ġfeet
èİ·å¾Ĺ
éĢĤçĶ¨
attle
Ġdecision
Ġwood
hens
96
quest
Ġregion
Ġaspect
oat
item
Object
orage
Ġfru
ä»į
å°½
bol
rie
ä¸ºäºĨ
Ġpurch
ĠGener
haps
è´Ń
Ġcentury
ĠRead
Ġleaders
ĠAcc
æĶ¶åħ¥
isf
ĠHar
Ġquickly
Ġrequest
Ind
rial
Ġfa
Ġcultural
ä¾µ
Ġjo
Ġapplication
Ġintrodu
ĠMarch
Ġstri
ius
74
function
ĠØ§
Ġprint
çĬ¯ç½ª
å¤ª
éĵ¶è¡Į
DD
cks
è¡¡
En
Ġdisplay
water
Ġheat
aul
å®ĮåĸĦ
inks
ĠCour
iff
ä¹ĭéĹ´çļĦ
Ġhref
iques
imately
Ġemerg
ache
iency
åı¸æ³ķ
Ġoriginal
apan
ĠChina
å½Ĵ
standing
Ġprofessional
word
ech
estern
ĠApr
ĠGra
æĿĲæĸĻ
Id
ĠArt
ĠPark
è®¡åĪĴ
Ġsleep
Ġoil
ĠUs
Ġblock
ims
Ġallows
ĠTrans
Ġisn
----------------------------------------------------------------
Ġreceived
åľŁåľ°
Ġpressure
åħ³éĶ®
çŁ³
Ġvariety
éĴĪ
Ġnews
Ġnetwork
å¨
ĠJe
CC
clude
('
---|---|
Ġfinal
çĽ®åīį
Ġinn
ĠFin
æīĢä»¥
Ġsituation
adding
ä½ı
Ġthreat
Ġprec
urg
arily
Ġcoming
éĩĩçĶ¨
itute
Ġtransport
Ġveh
Ġsometimes
Ġstyle
åıĳæĮ¥
used
Ġshown
itude
å°Ħ
æŀĹ
size
aught
Ġuser
ama
Ġjud
ĠWater
âĢĶâĢĶ
Ġsn
Ġbelie
ifornia
Ġhealthy
çī¹çĤ¹
GO
æľºåħ³
Ġparticularly
icip
Ġcreating
ped
Ġgave
ript
46
Ġsecurity
ese
87
Äģ
Ġmiss
ibrary
Ġcontract
æıĲåįĩ
çĶ³
ĠTw
çĽ®çļĦ
43
è´¸
Ġmultiple
amer
Ġdetermine
ĠHist
Ġobtain
important
cial
Ġplanning
86
ĠTest
åĤ¨
èģĮä¸ļ
tr
wise
Ġsy
Ġfamilies
Ġyourself
ï¼ļâĢľ
Le
åį«
hemat
è§£éĩĬ
itte
Ġcontain
ogle
ï¼īï¼Į
Ġskin
Ġdiet
Ġbed
ecause
ĠIndia
Ġgoal
çĶŁçī©
osition
Ġcommunication
åħħåĪĨ
Ġproduce
ä¸¤ä¸ª
Ġopportunity
uary
Ġdrug
æĺ¯æĮĩ
åĨľæĿĳ
å·ŀ
Ġwebsite
è¿Ļæł·
Ġelectric
Ġresear
ellow
Ġleave
ufact
ummary
Ġtas
ä¸Ńå¤®
lation
Ġhttp
Ġrespond
../../
ĠLear
Ġhor
ĠRel
Ġserious
æ¨¡åŀĭ
ĠMod
Ġeat
Ġhon
Ġrout
rench
Ġones
Ġwrong
Ġreceive
ĠRet
æļ
Ġvideo
atur
Ġaltern
Ġcritical
encies
MA
pid
ÙĨ
ä»¤
Ġwoman
chers
Ġlost
Ġexact
02
ä¸įä»ħ
Ġdark
gar
å¯¹è±¡
Ġeducational
çīĩ
Col
pm
ĠST
åŃ¦æł¡
Ġlength
èµ°
Distance
Ġarri
Ġapply
Ġextra
Ġrecent
Ġoffice
ÂłĊ
Ġhar
äººä»¬
æ¹
Ġwild
do
Ġadminist
Ġknew
Ġtou
åħ¨çĲĥ
Ġsort
Ġsold
ternal
vest
æĮīçħ§
inated
Ġtrack
Ġple
è¯į
mp
Ġsteps
ĠKing
æĿ¥çļĦ
Value
ĠStudents
ĠTO
ĠDevelopment
Ġhost
Ġharm
rim
Ġenh
Ġforce
Ġexplore
Ġstring
anch
equ
aly
Ġnegative
ament
Ġinteract
éļıçĿĢ
asc
param
ĠSch
ĠJust
0000
Ø±
ĠAND
å¹³åı°
è¿ĲåĬ¨
vention
eed
List
ĠMus
ancy
è®²
Ġcounty
ĠDist
Ġadded
09
Ġequipment
body
Ġhope
Ġdaily
ara
ï¼İ
ä»½
Ġemail
Ġsal
Or
éĢłæĪĲ
à¥į
ulum
Ġ2010
èĥĮ
Ġremember
Ġagricult
è§ī
Ġmeeting
eks
Ġfalse
Ġorganization
Ġbrought
å¼Ģå±ķ
Ġanimals
izations
itable
Ġchallenges
With
Mod
Ġemissions
æ¼Ķ
hedul
äº¤æĺĵ
Ġnormal
ĊĊĊ
irection
Ġlearned
çĮ®
Ġwaste
Ġsubst
place
å¾Ħ
Ġmental
åħ¨åĽ½
ĠCalifornia
mar
Ġled
ĠCenter
Ġseason
èĨ
çļĦä¸Ģ
ĠDis
Ġbroad
çĥŃ
Ġveget
Ġfem
IG
Ġproced
èĻĳ
è¾¾åĪ°
è®¨
79
84
Ġden
Ġ2011
ography
eal
reek
é¼
èīºæľ¯
è§ĦåĪĴ
Ġstandards
æ³¢
63
Ġap
åºĵ
ging
Ġdate
IP
ĠPre
Ġproviding
ademic
Ġmention
Ġdecisions
des
Ġforms
Err
Ġhttps
Ġ;
Ġanyone
ä»»åĬ¡
èĻ½
Ġcancer
Ad
Ġmechan
Ġ45
gl
sm
ounds
éĩįçĤ¹
äº¬
Ġpractices
Ġnil
Ġsurv
Ġtree
âĢ¦âĢ¦âĢ¦âĢ¦
Ġpick
Ġqual
Des
Ġter
Ġchoose
ĠNow
illing
Ġflu
ellig
Ġspread
undred
Ġlif
ba
è§Ħæ¨¡
Ġdrink
One
Fl
åİ¿
Ġperfect
ira
yond
ä¼¤
Ġdoor
Ġversion
Ġheard
Ġcosts
IM
ĠMore
ĠEast
safe
ridge
æĵįä½ľ
file
Ġdeveloping
ĠOff
Ġ2012
Ġcru
æ¡Īä»¶
Ġdemand
ä¸ĸçºª
rite
Ġtheory
ĠFirst
Ġir
Ġforward
Ġactive
ATION
Ġrunning
ĠChurch
ronic
ĠEnvironment
æĹ©
Ġdirectly
Ġturned
path
Ġstrength
Ġbox
é¥
Ġdamage
ä½ĵçİ°
ĠApril
ĠRed
Ġtemperature
Ġfat
ui
ptoms
åħ«
App
ÑĤ
ĠTHE
Ġ36
Ġinternational
Ġlimited
42
Ġpoll
æ¬§
Ġcommunic
Ġitems
æ´¾
########
73
Ġinterp
ĠChe
group
Ġimag
Ġeasily
ĠEarth
ãĢĭï¼Į
çĨ
ought
Ph
åĬ±
osis
urance
ĠPublic
Ġkids
Ġexperiences
Ġindepend
ĠOctober
åºķ
width
å¼ĢæĶ¾
down
df
izes
?âĢĿ
with
Ġmicro
Ġcommand
UES
ä»¥ä¸ĭ
çĶµåŃĲ
Ġcompl
Ġgenerally
Ġcapt
ĠAustral
ĠSeptember
Ð¸
resp
Ġwin
Ġcat
Ġreve
imal
Ġreflect
Ġconcent
ĠLord
čĊč
æŀ¶
èĩªçĶ±
58
Ġbehavi
æİĪ
Ġworth
Ġtrade
ĠAugust
Ġprimary
Ġwat
Ġguid
ĠĠĠĠĠĠĠĠĠĠĠĠĠĠĠĠĠĠĠĠĠĠĠĠĠĠĠĠĠĠĠĠĠĠĠĠĠĠĠĠĠĠĠĠĠĠĠĠĠĠĠĠĠĠĠĠ
OC
resh
const
nes
Ġexamples
ĠInter
Ġmovement
åĪĽéĢł
ĠØ§ÙĦ
Ġwasn
ford
tes
Ġcarry
ball
Ġlocation
bit
ĠDon
Ġelements
çĽ¸å¯¹
Ġoverall
Ġfair
vere
è¿½
vis
ris
dis
Ġchurch
Ġ:=
Ġprocesses
äºĭå®ŀ
Ġsupply
æİªæĸ½
æľīçļĦ
Ġconstruction
Ġneigh
ding
èĢħçļĦ
Ġrules
è¯ģæį®
Ġfast
ĠĠĠĠĠĠĠĠĠĠĠĠĠĠĠĠĠĠĠĠĠĠ
Ġgames
ĠSpec
ULL
ĠDav
Ġlegal
èģļ
Ġmonitor
ä¸Ģå®ļ
Ġ>=
Ġhear
Ġprice
que
Ġrefer
å¾ħ
Ġcalcul
æĸ¹æ¡Ī
Ġstrategies
year
inate
Ġhabit
å®ĮæĪĲ
æŀĦæĪĲ
Ġbirth
Lesson
Ġtraditional
Ġload
59
è¯Ħä¼°
Ġrequires
ĠIndian
no
ä¸ļåĬ¡
ä»·æł¼
omen
åĲ¸
å½ĵäºĭ
ĠClass
atform
odes
Ġ80
Ġnone
æ¸¸
Ġestablish
!"
aur
Ġcenter
Ġten
ĠCur
Ġwhose
ä¸įåĲĮçļĦ
Add
Ġassessment
Ġdead
),(
ĠPut
Ġpretty
è´¢äº§
mission
Ġdigital
Ġreach
amed
Ġconvers
igned
åĪ»
Ã¡
Ġsaying
ades
iful
unk
çļĦåŁºæľ¬
Ġder
................................................................
Ġwarm
Ġanc
ĠFeb
äººåı£
åıĬåħ¶
Ġpromot
Ġbeginning
ä¼¼
Ġ||
Ġboard
Ġtitle
Ġworked
Ġpatients
Ġcitiz
Ġsus
56
Ġswe
Ġborder
Ġseek
åĲĪçĲĨ
ĠSw
Ġcard
ä¾ĭå¦Ĥ
igr
Ġinput
Ġstore
http
INS
Ġprotection
Ġexec
Ġfilm
å®Ĺ
è¡Įä¸ļ
çŃĳ
è¯Ĺ
Ġsem
Ġpsych
Ġgoes
Ġmount
Ġcompared
çĽĳçĿ£
oken
sub
Ġfight
è°ĥæķ´
ĠSan
ĠRiver
rue
ĠCanada
ashington
83
Ġmessage
Ġextreme
Ġinj
pan
Ġplaces
ĠCoun
Ġ31
Table
ĠMost
PS
Ġ2015
ĠHere
eria
ĠFrom
æ±ĩ
uous
Ġefforts
Ġtechniques
Ġinvolves
Ġadvant
Ġaccom
ĠPresident
41
Ġoptions
cles
è¾ĳ
æī¿æĭħ
ocks
Ġpublished
é¾
Ġparty
Ġallowed
ovember
UL
ittee
Ġpicture
met
rehens
71
ĠWilliam
äºļ
ĠMany
ç½ļ
Ġcontribut
Ġdemonstr
ondon
iar
ç¢³
è®¢
èĭ¥
Ġgrowing
ĠPract
Ġhundred
Ġplans
!!
before
ç¨³å®ļ
Ġuseful
Ġcaused
ĠSee
Ġchemical
ä¹īåĬ¡
ĠSim
Ġmanufact
riculum
Ġstru
ĠWork
Is
cember
æ²³
($
Ġofficial
æĢ§åĴĮ
Ġstatus
Ġ01
æĮĩå¯¼
æĬ¥åĳĬ
Ġmap
idents
Ġpartners
Ġresponsible
Ġapplications
ero
Ġstra
76
Ġ///
Ġexcept
from
lier
Ġthous
Ġmiddle
Ġrelev
è¯Ńè¨Ģ
Ġexisting
Ġemb
Ġ2020
CE
ocol
New
abilities
Ġestablished
æľĽ
Ġtrees
çļĦéĹ®é¢ĺ
Ġsuccessful
ĠAssoci
ä½Ļ
Par
ĠSk
Ġinteresting
Ġtrust
Ġbab
Ġlocated
rick
ava
æĭī
åİŁåĽł
value
çļĦåŁºç¡Ģ
åĪĨéħį
Ġpan
å®¤
éķĩ
Ġcapital
å£°
çĭ¬ç«ĭ
reed
Ġsolution
Ġlarger
OP
Ġstage
çĽ¸äºĴ
æĲ
Ġsec
éĶĻ
Ġdied
åĿĹ
Ġsites
Ġlines
ĠJapan
atab
DA
Ġbeyond
uration
ç»ĥ
Ġbreat
rab
uman
ç»ıéªĮ
è¿ĲçĶ¨
çŁŃ
ĠMat
point
Ġmouth
äººæ°ĳæ³ķéĻ¢
My
Ġcateg
rief
mitted
Ġenter
FF
åĪ¶å®ļ
éĥ½æĺ¯
Ġchoice
Ġreasons
Ġcomfort
result
çī©è´¨
more
ses
ĠYear
Ġdry
Ġeth
Ġevalu
Ġactions
Ġleading
ãĤ
åĪ¶éĢł
zz
ĠII
------|
Ġpul
ying
çī¹åĪ«
çķĻ
estion
ĠHouse
Ġpup
state
èĢĮä¸Ķ
éĩįå¤§
Ġgiving
Ġhyd
Ġgives
pen
èĢĥèĻĳ
ca
Ġmis
Ġautom
Ġcoord
urt
Ġselect
éĿĴ
Ġnation
ĠFrench
è´·
Ġestim
aughter
pite
çı
Ġfollowed
ĠInternational
ç£
ustr
Ġmagn
Ġhous
Ġscale
Ġmeasures
TER
Ġbasis
åºĶè¯¥
æİĮ
Ġfear
Ġinfluence
Ġdetails
Ġcopy
Ġgradu
Ġbrother
åĩ»
Ġfeeling
çļĦå½±åĵį
è®¾å¤ĩ
ĠOur
Ġmoved
Ġgovern
Ġthus
rupt
ula
Ġsymptoms
äºĳ
Ġalone
overy
Ġdim
Ġrequirements
enty
Ġsea
Ġfit
change
Ġcontinued
ulate
Ġpark
08
57
iding
ĠLake
osure
Ġadapt
è¿Ļæĺ¯
Ġhappen
Ĺı
Ġ2000
abled
ï¼īãĢĤ
Ġweeks
åĢĻ
Ġcompletely
æŀĦå»º
è¶ĭ
Ġacqu
çİ°å®ŀ
Ġproduced
Ġdefined
Ġcivil
ä¹°
Ġparam
Ġmedic
term
ĠSocial
å¼ºè°ĥ
Ġcook
ĠGet
ä¸ĥ
fa
è´¢æĶ¿
61
å±ŀäºİ
Ġcomment
Ġrecommend
enge
ä¿Ŀè¯ģ
åłĤ
Ġtour
ä½ĵåĪ¶
Ġscen
è½¯
Ġintegr
åľ°ä½į
èģĶç½ĳ
iately
Ġlimit
SC
life
Ð½
Ġhair
She
Ġweb
ä¸Ńåįİ
Ġ...
Ġfavor
Ġconstant
Ġcapacity
ev
Ġspeed
èĩªå·±çļĦ
That
ĠManagement
ĠOf
From
ä¹ĭä¸Ģ
æ¤
çĶļ
åĨ²
ĠBritish
Ġalthough
Ġmoving
Ġbenefit
irus
ĠVAL
inct
ĠDem
Ġvoice
ĠData
Ġrates
Ġnote
Ġfaith
abel
Ġsong
åĽ°
ferences
range
Ġdro
500
oul
Ġquant
Ġeconomy
Ġphone
Ã¢
Ġdie
Ġmut
Ġcorn
Ġbank
ĠMich
ĠEnd
çļĦçłĶç©¶
53
Ġremain
æīĺ
52
Ġhighly
Ġsurpr
54
éī
93
Ġbul
æīĭæ®µ
oo
Ġready
force
Ġtend
æĺł
Ġrock
éģ¿
Be
è¿Ľåħ¥
Ġ34
Ġsatisf
TH
ĠNet
Ġmag
Ġcool
Ġprote
atus
éī´
ica
å¾ª
OS
Ġ2013
Ġsend
åŃ¦çĶŁçļĦ
Ġplease
Ġdepend
Ġstream
æ³Ľ
orge
éĩıçļĦ
åª
ĠPol
know
Ġhop
æŃ¦
ĠDef
æŃ»
itect
ĠNovember
INSERT
Ġopin
Ġgets
Ġpredict
ĠLet
Ġ!=
Ġ2008
62
Ġmer
Ġtruth
Not
outhern
udget
Ġmo
ç»¿
ĠBook
asure
isation
field
rition
ÂłÂłÂłÂł
Ġequal
Ġcollection
å¤įæĿĤ
Ġconcepts
ulated
Ġplaced
ĠRom
82
Ġaw
Ġpeace
Ġassist
è§ĦåĪĻ
æķĪçİĩ
èĻļ
ĠNULL
ĠOver
æĸ¹åĲĳ
ĠDay
Ġcollabor
ĠPy
ĠIntroduction
ologies
æĺŁ
eline
uality
ä¾Ŀæį®
olute
å¥½çļĦ
exp
unc
Ġ2017
Ġoption
ework
åĿļæĮģ
å©
è´¸æĺĵ
Ġerror
Ġrelationships
Ġdeb
åķĨåĵģ
ĠRuss
last
å¤«
Ġsetting
oming
ĠLondon
flow
ä¼ļè®¡
Ġunit
ĠProf
iber
Ġcomponents
SD
æķ£
Ġdescribed
åıĸå¾Ĺ
ffect
swers
çĹĩ
Ġyouth
oration
Ġinstruction
Ġgraph
Ġcold
ructure
Ġcauses
ait
var
ĠRem
IB
string
è°ĥæŁ¥
npy
Ġ2009
ĠCentral
Ġidentified
Ġdegree
fra
ĠEuropean
comes
çī¹èī²
èĽ
Ġmission
Ġnames
Ġ90
Ġperspect
Ġapplied
Ġstories
åģĩ
èı
aling
çİ°è±¡
See
ĠWashington
ypes
ç§ģ
Ġpiece
Ġvisual
ĠOut
Ġ×
ĠDirect
Ġmilitary
Ġfing
ĠBlack
Ġusers
ç»ĦæĪĲ
Ġvict
ibly
æ¸©
othing
error
iance
hest
å»¶
Ġchanged
Ġcurrently
åģ¥åº·
Ġfully
content
Ġ70
gal
xy
èµĦéĩĳ
æĭŁ
Instance
Ġscientific
Ġformer
comm
ä¸¥éĩį
Ġsurround
ĠJanuary
ĠDecember
Ġelement
æĪĲæŀľ
Ġdecre
Ġmatch
Ġinterview
èĭı
Ġball
æ²»çĸĹ
éĿł
Ġinstance
bb
Ġprop
Ùħ
åıªæľī
ATE
Of
Ġ2014
éĻįä½İ
éĺ³
å½ĵäºĭäºº
Ġep
ĠVALUES
æķ´ä½ĵ
Ġ2018
Ġeye
Ġpolicies
riage
house
çļĦäºº
ä¼ĺåĬ¿
urban
Ġmiles
Ġmorning
Ġbound
ĊĊĊĊ
Ġimmediately
build
Ġ2016
ĠEven
Ġplaying
Ġanimal
à¤°
åįıè®®
åį°
æĺ¯åľ¨
care
iling
DS
ken
ĠAnt
Ġnearly
ĠKh
Ġworkers
________________________________
ping
iring
obile
ĠPhil
Ñģ
Ġincome
94
MS
](
Ġwife
çĬ¶æĢģ
ĠService
èĥ½æºĲ
Ġvirt
index
Ġcarbon
ancing
Ġsummer
well
CP
èģĶç³»
ĠNOT
acters
Ġclassroom
Ġcand
Text
Ġtask
Ġcollege
åıĹåĪ°
Ġpassed
Ġdirection
éĻĲåĪ¶
å¿ĥçĲĨ
Ġdevices
é¦ĸåħĪ
ĠMary
Ġblue
ĠFore
indows
ny
ran
ä¹Ŀ
ij
çĶ³è¯·
odies
amily
è½»
Ġreligious
ÅŁ
lor
road
Ġgrade
ynam
éĴĪå¯¹
Ġheight
pport
Ġcentral
ĠAir
Ġhousehold
active
å¸Ŀ
Ġrelevant
gn
wood
Ġsav
that
åĩıå°ĳ
åĽ½åĨħ
rame
ruary
phas
ĠPeople
81
ç´§
Ġkept
Ġfine
Ġmill
Ġlaws
ĠAng
æĢĿç»´
åĶ®
ded
ams
åį´
Ġvill
æĴŃ
IF
ä¿ĿéĻ©
ocr
äº¿
ĠPat
Ġparticipants
ares
Ġweather
Ġattract
ä¸°
:"
HO
amin
äºĨè§£
inese
å»ºçŃĳ
Ġpresented
Ġachie
example
lim
ä»»ä½ķ
ĠIS
safely
Ġdevice
input
ĠMiss
Ġacademic
mov
conn
Ġsitu
ato
ocation
rep
${
gy
åĪĨä¸º
ç±³
è¯¯
rapy
CL
iers
Ġsolid
å¸®
Error
Ġcro
Ġcredit
position
Ġinstru
Ġslight
Ġchance
èµĶ
Ġcele
ests
ĠStr
rote
Ġmyself
Ġbeautiful
reate
Ġteach
åķĨä¸ļ
Ġstrategy
ĠName
å°ģ
uit
ĠStreet
lib
Ġrele
ĠBen
ĠWell
Ġpowerful
ester
Gl
net
ç»Ŀ
ĠĠĠĠĠĠĠĠĠĠĠĠĠĠĠĠĠĠĠĠĠĠĠĠĠĠ
ä¸įåı¯
ections
Ġvia
Ġinstruct
èĦĳ
Ġobjects
ï¬
ĊĠĠĠĠĠĠĠĠĠĠĠĠĠĠĠĠĠĠĠĠĠĠĠ
ĠUN
Ġclasses
ĠGeneral
Ġdream
Ġexercise
ä»¥ä¸Ĭ
ĠLa
é²
Figure
ĠLaw
éĹ®é¢ĺçļĦ
åĽŃ
fficient
Ġtoward
aled
iable
Ġorigin
nav
Ġexplain
Ġwonder
ä¸Ģæĸ¹éĿ¢
ĠOh
èĩªèº«
print
ube
la
Ġtests
åĲ¯
ico
Ġgrand
gu
ĠJames
Ġorganizations
Ġrecently
*.
é¢ĳ
06
Ġlat
Ġult
ĠMrs
çĻ»
Ġleaves
Ġ2006
éĩĩåıĸ
PA
åįĬ
Ġoperations
âĢĺ
ĠSur
Ġsave
éķ¿æľŁ
][_
Ġgain
Ġconnection
core
æ¸Ĳ
ĠChildren
iled
aign
æ¥
æĶ¹åıĺ
Ġnumer
Ġassum
Ġconducted
éĩįè¦ģçļĦ
board
åįļ
Ġhappened
Ġfields
çĶ¨äºİ
Why
Ġplatform
inner
Ġresource
Ġserve
Ġdiscussion
ç¬¦åĲĪ
Ġrepe
æľĢé«ĺ
å§Ķåĳĺ
craft
ç«ĭæ³ķ
Ġresearchers
Ġmess
ALL
Ġconflic
ĠCollege
ala
rack
æĹłæ³ķ
Ġcry
è¡¨ç¤º
Ġspring
çłģ
Ġinnov
ĠCouncil
æ°ĳäºĭ
')
Ġconstruct
07
arden
åĨħéĥ¨
92
ĊĊĠĠĠĠĠĠĠĠĠĠĠ
ç±»åŀĭ
æ±¡
Ġperhaps
Ġdifferences
Ġmemory
è¿Ĳè¡Į
Ġgirl
oses
aint
Ġmid
config
Ġrob
Ġapprec
Ġign
ĠDisc
Ġshape
iy
Ġtried
log
Ġpet
ĠVol
å±¥
Ġbecomes
æĽ²
ns
roy
Ġcontains
ç»©
æĦıè§ģ
Ġlik
Ġvalid
Ġdistance
Ġnative
ãĢĲ
Ġbalance
è¦ģç´ł
Ġguide
çĸ«
Ġefficient
Key
Ġlabor
Ġcustomers
Ġproperties
include
ĠYes
Ġdecided
Ġconsequ
Ġtransfer
estic
èŀįåĲĪ
ĠEach
åħ³æ³¨
ĠAnn
ä»²
Ġmodels
Ġmarried
Ġrich
ä½ĵçļĦ
Ġcock
Ã¶
Ġfigure
ç¬Ķ
Ġpatient
Ġfeature
åĢºåĬ¡
Ġcommerc
å¢ŀå¼º
æĥħåĨµä¸ĭ
Ġstatement
Ġadjust
rael
ĠCong
Ġprinciples
ãĢĳ
æĺİæĺ¾
KE
elines
Ġtesting
å®Įåħ¨
Ġmathemat
isms
Ġstrugg
FA
æİ¢ç´¢
Ġcharacters
Ġflex
After
å®£
æķ°åŃ¦
ĠAfrican
ĠKe
ĠId
Ġeffectively
éģĵå¾·
Ġsmaller
Ġsequ
iny
Ġ2019
Ġcovered
bottom
ĠMor
éĢģ
åĶĲ
tenance
Ġoccup
https
æĽ´å¤ļ
Ġtalking
Ġsustainable
Ġtim
ä½ł
Ġtouch
æİĮæı¡
bal
å®Ī
ensity
Ġwet
Ġbeg
è®¾æĸ½
çº¢
Ġoffers
atabase
ĠConst
CS
Ġmargin
è·Ŀ
Ġ2007
bin
Ġhuge
91
heduler
.'
Ġdrive
è®¤å®ļ
ÑĢ
pack
ĠEngland
ç½Ĺ
call
Ġwhom
ĠThom
Ġpromote
Ġiniti
(),
ç¯
Ġimages
Ġtrou
åĬĽçļĦ
èĻ½çĦ¶
Ġ2003
Ġletter
51
Ġvot
Ġunless
Ġbelief
Ġaspects
Ġfruit
zing
Ġrule
Ġdanger
çī©çļĦ
è°ĵ
hy
Ġspent
nic
Ġeight
éħ¸
omet
RA
Ġ\(
æĽ´åĬł
Ġstarting
Ġolder
urning
ç«¥
Ġast
ĠEv
çĽĳç®¡
olf
Ġcompleted
éĿ©åĳ½
æ³¨æĦı
çĽ¾
useum
ĠDesign
They
è®¸å¤ļ
Ġcouple
Ġhour
åıįæĺł
ĠPaul
ĊĊĠĠĠĠĠ
Ġfuel
Ġord
ario
othes
scheduler
æĤ£èĢħ
Ġcore
Ġincor
ĠAlso
èµĦæĸĻ
Ġnorth
Ġstock
Ġsouth
Ġpow
Ġlooks
Ġoutput
Ġcitizens
Comp
Ġexactly
atever
æĿŁ
æīįèĥ½
Ġtrain
Ġrare
State
TS
ĠChinese
Ġinstit
Ġaim
ald
ĠĠĠĠĠĠĠĠĠĠĠĠĠĠĠĠĠĠĠĠĠĠĠĠĠĠĠĠĠĠĠ
ĠUnion
Ġshowed
Ġhappy
Us
Ġbrand
æ¤į
ressed
ä¹¡æĿĳ
ifying
arrow
çŁĽ
Ġremains
================
Ġclearly
Ġearlier
Ġcompar
æĸĩä»¶
Form
éĢĶ
Ġtopic
Ġmajority
check
wide
åºĶçļĦ
Ġapprox
Introduction
ios
Ġsurvey
ĠLearning
æľĢç»Ī
tered
lock
èĪª
Te
Ġwalking
Ġfig
è¡¨è¾¾
çĶļèĩ³
Ġhosp
ĠSam
usiness
ĠPutnam
Me
æĶ¯ä»ĺ
ãĥ
è¯¸
Ġfederal
Ġesc
é©¬åħĭ
Ġinitial
çĪ±
Ġpen
Ġbuildings
åĨ³çŃĸ
Ġinterested
rb
rees
Ġtransform
æĿİ
rical
atis
Ġforeign
ĠĠĠĠĠĠĠĠĠĠĠĠĠĠĠĠĠĠĠĠĠĠĠĠĠ
Ġdiagn
å¹´çļĦ
isher
ä¾Ŀæ³ķ
Sp
éĢļå¸¸
Ġcoast
æ¶īåıĬ
Ġfinally
icense
Ġinvestig
ĠSince
Ġshared
ĠFebruary
çŁĽçĽ¾
Go
aker
Now
Ġwants
web
ĠGovernment
çĶ¨æĪ·
å°±ä¸ļ
çģµ
Ġencourag
é»Ħ
SION
local
å·¥åħ·
ç«Ļ
è¯´æĺİ
itter
Ġtypically
bre
ta
ĠInstitute
åįĥ
ias
Ġfresh
Ġintent
å®¶åºŃ
æľªæĿ¥
å¨ģ
Ste
é¡º
æķĪæŀľ
Ġeasier
Ġsch
Ġstuff
ĠLin
Ġactual
Ġfloor
æ»¡è¶³
çĺ
PP
Ġplayers
ĠEvery
è¯ģæĺİ
æĸĩæĺİ
fil
Ġwrote
Ġintellig
VER
å°ļ
Ġbusinesses
Ġround
ilit
ails
Ġtrend
ĠDavid
ingu
Ġannual
Ġroll
Ġcharacteristics
,.
Ġfunctions
Ġrat
çŃ¾
è·¨
stream
å®ĥä»¬
Ġdistribution
sup
ĠRober
åŁºåĽł
known
è´«
å¼ķå¯¼
Ġpatterns
ĠJournal
Ġinterpret
æ¯į
ĠCommission
Ġmovie
Ġmachine
Ġbottom
ĠUK
ä½ľåĩº
ç§Ł
ĠInc
uable
leg
ollow
Ġcontroll
arter
band
ida
Ġhistorical
ç¦ı
Ġcomprehens
Ġprepar
gment
%)
margin
ĠPri
éĢĢ
ĠReport
Â°
gener
Ġpupils
Ġcommercial
è§Ħå¾ĭ
ĠAlthough
Ġpractical
ĠMal
Ġclos
Ġur
ĠAtt
Ġpush
Ġinvolve
èĨľ
æĮĩåĩº
Ġexpand
acing
Ġcharg
å®ĭ
ĠAny
çī©çĲĨ
åĵ²
æĿĥçļĦ
èĽĭ
Ġcareer
Ġ33
é©¬åħĭæĢĿ
åĪĨç±»
adow
èĬ±
Ġcop
ipe
ĠBecause
åĨľæ°ĳ
çļĦä¸»è¦ģ
Ġmaster
Ġoperation
Ð¾Ð
Ġmanage
hand
çĲĨå¿µ
å®¢è§Ĥ
ĠBoard
Ġrain
Ġobvious
å¼±
ĠQue
âĢĿ.
æ¶²
Ġreality
Ġ48
Ġpresence
Ġemphas
æİ¥åıĹ
è¿ĺæĺ¯
Ġsugar
Ġonto
2020
space
ĠIsrael
Ġsample
Ġwall
Ġsolar
ĠSol
ĠLand
Ġremove
å°¤
Ġdefault
cean
rows
æ¯Ĵ
Ġplayed
æĢ§è´¨
Ġgold
Ġblog
Path
Source
Ġsell
ĠBr
Ab
Ġserved
MM
ç¿
ĠProt
å¹¿æ³Ľ
Ġencourage
Def
TE
ĠEngine
link
Ġutil
éĿŀå¸¸
çŃĶ
ĊĠĠĠĠĠĠĠĠĠĠĠĠĠĠĠĠĠĠĠĠĠĠĠĠĠĠĠĠĠĠĠĠ
sect
ĠBuild
~~
åīĤ
font
èĴ
semb
ously
Ġchallenge
OW
idden
}}
åľ¨äºİ
é¢Ĩå¯¼
,'
.*
mas
åĪ¸
Ġcouldn
Ġhighest
Ġassert
ç§°ä¸º
Ġvolunt
Ġcharge
Ùİ
Ġbra
Ġnotice
Ġsin
ĠDuring
ASA
MB
æĮĩæłĩ
Read
Ġstorage
Ġcurriculum
æĽ¾
æĸ¹éĿ¢çļĦ
rate
udden
ĠGroup
ç¤¼
Ġvision
ql
Ġnamed
æ®Ĭ
ado
æĢ¥
åįĸ
ibus
Ġregarding
ĠPal
Ġsac
ĠMo
Ġpolice
Ġaccur
hips
ĠOffice
Ġpray
Ġexcell
Ġfacilities
Ġdra
what
Ġwish
ĠSet
dir
Ġeating
ĠWhite
%;
åĪĨå¸ĥ
Ġmaybe
Ġreports
ĠAssociation
++
venue
2017
Ġrace
çĨŁ
ä¼ĺåĮĸ
Ġemployees
Ġprepared
éĢ»
Ġglass
Ø¯
ä¼ģä¸ļçļĦ
è§ĤçĤ¹
ĠÎ
Ġcarried
ĠOnce
mosp
æıı
ĠJack
pre
$(
Ġrelease
aa
å·®å¼Ĥ
Ġsan
Ġkn
lick
gra
æ´²
Ġriver
æ³ķçļĦ
ç¥ŀç»ı
ota
åĪ©äºİ
Ġice
Ġlived
çº·
åģı
à³
ĠBas
Ġconv
Ġscreen
DP
iveness
IA
Ġ([
Ġrecords
button
omb
ä»¥æĿ¥
Ġattend
count
Ġded
Ġobl
éļĲ
äº²
æĪĲç«ĭ
Ġ?
æĺ¯ä¸Ģä¸ª
Ġpric
Ġadults
ĠProv
Ġstraight
---
ĠGr
Ġexpression
å¿ħè¦ģ
Ġcatch
Ġbudget
Ġreached
([
ponse
cons
çģ«
å½ĵåīį
ĠNumber
Ġaffected
Ġlargest
èµĶåģ¿
Ġpaid
Ġtechnical
ĠGerman
Comm
Ġgirls
ä»²è£ģ
åĮĸåŃ¦
iences
fered
Ġhit
Ġdoctor
ĠPost
Ġheavy
Ġinformed
van
ĠÂł
éĻĦ
å®ļä¹ī
Ġfactor
æ½ľ
ABLE
å±¥è¡Į
Ġarm
sk
Ġrapid
ĠSer
ãĢģâĢľ
Ø¨
æĹ¥æľ¬
den
äºĴèģĶç½ĳ
ael
å§Ķåĳĺä¼ļ
iki
{\
ĠCON
orthern
Ġroot
db
Ġmotiv
Ġcrucial
éĢ»è¾ĳ
Part
ĠGreen
Ġgeneration
iant
ĠHome
åĪĨåĪ«
Ġunf
Ġboy
Ġnotes
Ġexpert
omy
Ġcreation
Some
ĠInformation
Ġseven
æĶ»
Ġsand
Ġstructures
ĠHistory
Ġreact
Ġemotional
ĠPort
Ġfloat
amm
Ġarchitect
Plant
Market
å·¨
child
ĠSociety
Ġmentioned
Ġindex
Ġuint
Ġcommit
uries
Ġthoughts
ĠIsland
Ġhappens
ç¼©
----------|
Do
ç¥¨
Ġmist
å¹´ä»£
ossary
ä¹ĭåĲİ
Ġ2005
Ġresponsibility
Ġabsolute
å®ŀè¡Į
åıįåºĶ
ĠOrgan
level
Ġpresident
ributed
ĠTechnology
é¡¾
Ġfoods
Conclusion
xn
Ã§
Ġobserved
ESS
æł¹æľ¬
Ġcampaign
Ġbaby
Ġcelebr
ĠMet
ĠUp
ĠStand
Ġseemed
src
Ġformat
éĢĤåºĶ
ĠOb
åŃ¦çļĦ
****************
ste
ĠCommunity
Ġmeant
Ġspot
being
à¥ĩ
æŃ£ç¡®
äº¡
å·´
mes
ĠBro
Ġoccas
Ġconsult
Ġnor
Ġnav
Ġaudience
Ġdistrict
Ġoffered
Ġhom
Ġconclusion
ĠTheir
å½¢æĢģ
respond
çľ¼
äº¤éĢļ
anda
enses
Ġtasks
ersion
æ·±åħ¥
-----|
åįıè°ĥ
arian
ĠFound
ĠLou
Ġking
ç³»ç»ŁçļĦ
éĵģ
Ġauto
Ġprofession
TL
Ġped
Ġreference
STR
parent
Out
unct
ĠRev
Ġcourt
Ġwinter
ä¹ı
Ġconsumption
works
Ġcast
å»ºè®®
Ġpull
anging
Ġshop
home
æĺ¯ä¸Ģç§į
\(
Ġdiseases
DC
Ġtal
ĠReview
Ġimplementation
å©ļ
æī¾
åĳĪ
coh
æķ´ä¸ª
ago
æ³ķè§Ħ
è®¡ç®Ĺæľº
Ġdoll
ĠAv
Ġinstitutions
Ġinvestment
Ġsymbol
Ġnice
Ġweak
pty
ĠIslam
oday
éģĩ
Ġurban
Ġship
èĽĭçĻ½
Ġsolutions
ĠGood
SP
Ġimproved
åªĴ
å¸®åĬ©
---------|
ä¸įå¾Ĺ
Ġfiles
ĠRepublic
ĠĠĠĠĠĠĠĠĠĠĠĠĠĠĠĠĠĠĠĠĠĠĠĠĠĠĠĠ
Ġhumans
å·¦
Ġphil
Ġremov
çī¹æ®Ĭ
poses
ipped
Ġseparate
''
ga
ĠInte
Su
Ġhelped
éĤ£ä¹Ī
Ġcircum
å¹¶ä¸Ķ
ĠDec
Ġ58
eared
Ġspend
ç»¿èī²
ĠHel
ĠDel
Ġdu
æ²¹
éģį
åħļçļĦ
Ġcertainly
ipal
è§Ĵåº¦
Å«
doc
ĠMem
ä¹İ
æ´ĭ
Ġnuc
ĠRec
Ġfemale
Ġcamer
map
Ġoutcomes
Ġq
Ġtaught
rogen
ĠGreat
ĠAdd
Ġreturned
Ġsevere
éĩįè§Ĩ
Ġproposed
Ġing
ECT
ĠDistrict
ĠSen
().
border
osystem
ords
Stud
umer
èĦ±
çĶ°
Ġconnected
åħµ
porary
Ġcustomer
Ġassistance
Class
Ġmanner
ifically
Ġcert
ourney
Ġjobs
ditionally
ĠPress
iced
related
raz
gs
Ġdaughter
Index
sec
Ġinterests
Ġdescribe
ĠGeorge
æľŁéĹ´
çĸĳ
ustain
Ġselected
ĠString
čĊĠĠĠĠĠĠĠ
ĠMex
ĠFood
ĠRoad
"><
ĠPM
.âĢĶ
Ġsector
Ġimpacts
Ġenhance
Ġsales
align
æĸĹ
block
éĽĨä¸Ń
mt
Ġremoved
æıĲä¾ĽäºĨ
Sub
Ġbacter
Ġru
Ġprefer
Ġrise
Ġegg
Ġ75
orial
Up
ĠAp
abet
Ġskill
æįŁå®³
apping
èĹı
oom
ç»´æĬ¤
Ġmilk
ĠRE
Ġreduced
Ġgrass
requ
Ġ($
è¾©
Ġvaluable
Ġstar
annel
rd
Ġgone
Ġotherwise
ä¿ĿæĮģ
Ġgrant
ĠIII
raction
äºĭä»¶
çļĦç¤¾ä¼ļ
irgin
Ġappears
Ġforces
using
osoph
pping
rastructure
èĢĮè¨Ģ
èģĶåĲĪ
urity
Ġalternative
Ġliterature
èĢĮæĺ¯
CON
Ġpoly
nel
ĠList
UB
uty
2018
AA
Ġmix
ĠAustralia
çļĦå¤§
ulner
Ġscientists
ï½
ĠDet
Ġsupported
Ġchanging
Ġcontribute
Ġkill
åĮĹäº¬
Ġmetal
atin
çĽĸ
ishing
ç³»åĪĹ
Ġreplace
ĠTotal
çºł
Ġscore
Ġfreed
Ġexperienced
otic
While
è§Ħå®ļçļĦ
arn
Ġadvantage
åĬłå¿«
Ġcomments
Ġraise
ĠMain
ague
These
ooth
åį·
ixt
orrow
é«ĺæł¡
Ġbelong
ushed
å±Ĥæ¬¡
GR
da
alysis
åĪ¤æĸŃ
æķ°éĩı
Ġawareness
usion
ĠJer
âħ
Ġnovel
è°Ī
Ġflat
Ġfinding
Ġincreases
Ø©
è´Łè´£
æĿ¥è¯´
ÃŃ
Ġancient
)ï¼Į
ĠCommittee
Ġsounds
ĠPhys
Ġinternal
Ġcounter
height
ç´¯
ĠExpl
Ġhyp
ĠHol
Ġwindow
Time
åī§
Ġminor
Ġ),
çļĦè§Ħå®ļ
Ġlib
âĢĿ,
Ġ2002
Ġsexual
çļĦæĸ°
Ġsecret
300
ĠBel
åºĬ
AME
åĦ¿ç«¥
çĵ
ãĢĤï¼Ī
ĠJean
èĥĮæĻ¯
apers
Ġbecoming
ä¸°å¯Į
Ġwouldn
Ġpurposes
é¼ĵ
çĸ¾
Ġannoun
ÙĪ
éĺ»
Ġwait
æī©å¤§
Ġaren
æ°§
æĦ¿
olved
Ġanx
tical
ĠUnderstanding
EX
Ġ37
olicy
ĠBi
ĠWhe
ĠEnvironmental
ka
éĢı
å¥¹
ĠInternet
800
Ġtransl
Ġsituations
ç®Ģåįķ
Ġmit
å¼ķèµ·
ĠGoogle
Ġauthority
oto
ĠAmericans
èįī
VID
Ġanti
Ġgoods
roduct
åıĮæĸ¹
dbo
iments
à¤¤
äº¤æµģ
Acc
åĪĨåŃĲ
Ġatmosp
Ġcreative
åĮ»çĸĹ
Ġsnow
ĠRich
Ġstation
Ġconsc
``
FL
ĠBay
ĠElect
soft
Ġcooper
Ġbatter
Ġplayer
ensions
BC
mat
Ġbillion
Ġemp
ä¼łæĴŃ
uing
");
å¹¶ä¸į
ĠServices
ARG
Ġvehicle
åĳ³
Ġsigns
PC
Ġdetermined
pa
].[
è½¯ä»¶
idate
Ġagricultural
æ··
Ġvalley
Ġvolume
Ġmonitoring
.**
itness
è¿ģ
ä¸Ģå®ļçļĦ
len
abs
ĠArch
è¯·æ±Ĥ
Ġwilling
Ġsignificantly
Ġrefers
ç¢į
æ¯ıä¸ª
Ġillustr
ora
ä¸Ĭè¿°
Ġconcerns
ĠCare
ĠEth
è¯¾åłĤ
Ġdivid
ĠEnergy
åĢºæĿĥ
Man
ensus
InstanceID
rm
æ¶µ
èµ·æĿ¥
ĠArab
ossible
ãĢĮ
Ġspeech
Ġhus
å®½
ĠFOR
åİŁçĲĨ
å¾Īå¤ļ
Ed
Ġdescription
å¥Ĺ
Let
Ġwww
Ġshowing
ailed
Ġowners
Ġreducing
è¶ĭåĬ¿
**:
iated
ML
Ġassign
åħ¬å¹³
ä¸Ģèĩ´
Ġdouble
ĠMark
Ġleaving
Ġlegis
Ġdiscussed
ä¿¡åı·
Ġmm
Ġ38
Ġclin
oyal
Ġmarriage
ĠTime
esh
Ġpersons
Ġtechnologies
anged
è¡¨æĺİ
Ġshift
Ġbelieved
ãĢį
æłĳ
ander
Ġexperiment
ĠDan
ĠCH
Ġargument
Ġimpl
éĻĪ
è§Ĥå¿µ
Ġcolumn
SA
eer
gov
Ġshap
Ġjoint
Ġ39
Ġsudden
Ġband
background
-------|
æĬµ
Ġprotected
Ġwel
ĠMart
Ġwhatever
Ġmostly
icks
ä¸īä¸ª
æŃ¤å¤ĸ
è®¤çŁ¥
Ġapproximately
æĸĩåŃ¦
Ġadvanced
Ġthrow
agram
Ġopinion
oster
Ġdisapp
Ġhelping
Ġviolence
ĠCourt
oma
Ġcomponent
Ġmaximum
Size
pub
ĠThomas
ï¼ģ
igration
çĽŁ
åĶ¯
ç¹
Ġopened
Ġfuck
Ġfunding
ĠSmith
Ġslightly
igen
èµĭ
åĲ¬
Ġpp
å½ĵæĹ¶
Ġunits
çĦ¶èĢĮ
ĠGen
erved
çĩ
Ġliqu
è¶ħè¿ĩ
rend
ormal
Ġexposure
xl
porate
\+
Ġfollows
Ġindependent
æ²¿
Trans
alle
ademy
\(^
._
Ġelif
Ġslowly
åĵ²åŃ¦
Ġcities
Ġreleased
ä¾ĽåºĶ
EST
Ġfocused
Ġinsurance
Ġrenew
ship
Ġguess
Ġ42
æĮ¯
Ġcalls
PE
Ġperspective
itage
osen
Ġrub
çİ°ä»£åĮĸ
Ġclosed
Em
Ġlibrary
kit
esp
Ġnutri
è®¨è®º
çĻ»è®°
Ġvirus
Ġspect
ĠSy
ä¸Ģæĺ¯
Ġraised
Ġnull
ç¡¬
Ġinvent
going
rt
Ġbodies
Ġappoint
ĠJewish
lete
ĠTable
ç¤¾åĮº
Ġspl
äººå·¥
éĢļä¿¡
Ġbrief
Ġfell
å¾Ģå¾Ģ
æĬĢèĥ½
Ġidentity
èĦī
za
è§Ĥå¯Ł
æ±¡æŁĵ
Ġupd
ORD
Ġallowing
Ġteams
ĠCarol
2019
utive
ĠTeacher
Ġrisks
PT
Ġmale
anguages
lo
Ġexhib
Ġextremely
inding
Ġ64
which
Ġbehaviour
section
ä¸ºä¸»
)(
hi
max
éĢŁåº¦
Ġ2004
ĠWhere
Ġcollected
Ġdynam
ĠExt
ĠCongress
Ġnoted
perty
æĪĲåĬŁ
onents
Ġhomes
ĠExper
ĠDE
ä½ľåĵģ
Over
tra
ographic
ĠCompany
ocket
ĠCode
ĠHuman
Ġkeeping
Ġhol
ä¾§
ĠWho
Ġrecommended
Ġbott
orders
2021
2016
Ġpages
Ġdb
Ġrot
riday
ĠTherefore
ç»ıè¿ĩ
à¤¿
èĩªä¸»
ros
åı³
ĠMicro
ameter
åĵª
Ġseeing
stract
Ġconfig
Ag
éª¨
Ġresistance
çİ¯èĬĤ
Ġpieces
èĩªæĪĳ
ibilities
Ġjourney
ĠVis
è®Ńç»ĥ
æĿ¥æºĲ
æĹ§
abric
Ġrow
ĠAccording
btn
Ġfirm
phys
Ġintended
åĲİçļĦ
Ġoccurs
Ġrelatively
Ġvacc
ĠFather
Ġeventually
erscript
Ġrural
ogen
uke
ä¸»å¼ł
Ġdrop
Ġ2021
æľ¬è´¨
Ġconservation
Ġprotein
ðĿ
äº¦
è´¯
Ġadvance
ĠTwo
['
--------|
æľ¬èº«
Ġformed
ĠExamples
Ġburn
å°Ĭ
Ġunivers
ĠSecond
åŃ¦æľ¯
ç¼ĵ
å¤Ħäºİ
Ġproperly
scape
çŃĸçķ¥
ĠSom
Ġcorrespond
Ġsusp
ĠOR
ĠConference
ĠFrance
Ass
Ġwaters
ãĢĤâĢľ
éģµ
Ġevolution
empl
hetic
Ġthousands
cal
Ġstim
çŁ¿
å¹³è¡¡
Ġexcellent
antic
Ġintroduced
Ġsrc
Ġdeliver
superscript
OD
Ġmaintenance
Ġminimum
Ġcourses
onent
aste
scroll
Ġhandle
Ġadvice
ĠTV
æ£Ģæµĭ
ya
ä½¿å¾Ĺ
æįŁå¤±
å°¤åħ¶
Ġteeth
åĩºçīĪ
textsuperscript
ĠMake
ĠAP
æĿ¿
ĠNews
mark
image
ç»Łè®¡
è½¬åıĺ
-------------|
Ġindustrial
Ġengineering
ART
Ġ("
Ġkilled
ç¯ĩ
ä¸ĭçļĦ
Ġdiscipl
ä¸¤ç§į
padding
Ġcolon
sey
Ġschem
çĽ¸åĲĮ
Ġbreast
ç¾¤ä¼Ĺ
(&
Ġiron
çŃ¹
è¡ĮåĬ¨
Ġfindings
æĻ®éģį
è´µ
Ġstorm
ĠMac
Ġshot
anges
åħ±äº«
åĬĽéĩı
Ġwire
Ġprocedures
æŃĮ
arp
æľ«
ĠLife
Ġ65
Ġfif
åĪ°äºĨ
itud
Ġaccounts
Ġemotions
{}
ç¼ºä¹ı
ĠRobert
Ġsumm
abul
ĠFranc
%ï¼Į
ĠPRO
Ġchapter
Ġ55
æĪĲåĳĺ
Here
ĠSelf
Inst
Ġstreet
Ġacid
DF
essel
Ġinteg
Ġspiritual
ront
æµģåĬ¨
çĶŁåĳ½
Ġelectricity
åŃ¦èĢħ
Ġcontrast
å®ı
atically
Ġholds
ĠUsing
Ġsufficient
çľŁæŃ£
Ġradio
Ġgun
aked
Can
ĠBusiness
Ġentry
çĶ²
ĠâĢ¦
Ġdestroy
Ġjournal
ä¼ļè®®
Ġdistinct
Ġcycle
Ġdefinition
Ġpollution
edia
å¸Į
Ġreligion
ĠCapt
Info
Ġmarketing
how
åĩ½
rift
ptions
Ġpurchase
Ġvulner
2015
ç®Ĺæ³ķ
bi
Ġsports
Ġthick
ĠIF
cohol
Ġlose
è¥¿æĸ¹
ĠSund
Ġdoct
Ġefficiency
æĿĥçĽĬ
è®¾ç½®
ITY
Ġfeedback
é¸
rian
$$
Ġlayer
çļĦæĸ¹å¼ı
Ġreduction
éħįç½®
è¯Ĭ
æľĢå¤§
AND
akers
itely
ĠWeb
ĠBank
ĠLike
ĠAssess
source
dule
contain
ycl
Ġgender
Ġknows
ĠSec
æıĲåĩºäºĨ
ç£ģ
EO
och
rix
æľĢåĲİ
Ġconflict
vate
icial
Ġitem
Ġanswers
Ġplanet
Ġengage
å±ħæ°ĳ
éĢĲæ¸Ĳ
Ġshut
())
azing
Ġbond
ĠWestern
è½¬ç§»
Ġwealth
é«ĺçŃī
è¶£
åĪĳäºĭ
Ġaccompl
Ġleads
Ġtopics
ishes
eding
ĠPath
éģ¿åħį
cd
çļĦåħ³ç³»
ĠBet
args
ĠFoundation
å¹´æĿ¥
)/
ĠEconom
Ġdepth
Ġinternet
Ġjump
æ¯Ķå¦Ĥ
çªģåĩº
æĬĺ
ĠCap
å¹ħ
Ġjustice
Ġfamiliar
Our
IST
Ġwidth
å¤ļç§į
ivery
ä¼¦
à¥Ģ
Ġstick
Ġclub
Ġherself
Ġlearners
çľŁå®ŀ
eper
ĠTH
æĽ¿
èµĸ
Ġfont
Ġfilled
ä¸įè¶³
Ġsets
ĠGermany
info
Ġsoul
ĠEqu
axter
Ġpadding
uthors
æĸĩçĮ®
Reg
pop
ĠForm
ĠUSA
Don
uses
":
åŃĶ
åĽ½æ°ĳ
itutional
ifier
äºĮæĺ¯
Ġcircuit
Ġ]
ĠSun
iform
ĠSpace
ĠFe
æĺ¾ç¤º
ç¹ģ
Spec
åĲĪæ³ķ
éĢĲæŃ¥
å³
Ġwear
æĮĳ
æĥħå½¢
ĠÙĪ
æľīåĪ©äºİ
Ġclim
å¼ºåĮĸ
Ġecosystem
Ġbirds
400
åĲĽ
Ġcombination
ortunately
ĠHen
Ġrand
enced
tw
Ġexchange
Ġlessons
Config
Ġadop
page
čĊĠĠĠĠĠĠĠĠĠĠĠ
Ġvary
spec
Ġ).
æĭĵ
åĿı
Ġsuitable
èĸ
Ġsuppl
Ġ2001
Ġexplained
èıĮ
spect
Ġ44
Ġprison
Ġweap
Ġsmart
Ġnumerous
ĠKnow
2000
å¤§éĩı
Item
å±ĤéĿ¢
ĠDirector
PL
look
ĠThus
è¿Ľç¨ĭ
ç¦ģ
ini
ĠDO
Ġswitch
rieved
Ġinfrastructure
inating
Ġflood
ky
Ġmole
ĠMil
conds
ç»§ç»Ń
lines
éº
Ġmort
Ġagencies
wip
ç»į
åĢ¾
Ġcontinues
Ġimproving
estions
Ġdiscovered
å¿«éĢŁ
uted
ums
Ġparticipate
Ġjoin
Ġdiversity
user
angle
Ġvit
Ġexplan
Ġlegs
Ġsecure
Ġloved
Ġsubjects
Ġafford
CM
ĠLanguage
Ġarrange
rig
ĠĠĠĠĠĠĠĠĠĠĠĠĠĠĠĠĠĠĠĠĠĠĠĠĠĠĠĠĠĠĠĠĠĠĠĠĠ
äº§æĿĥ
Ġextent
emet
æĿ¥çľĭ
ĠChristianity
Ġsides
Ġtreated
stances
ĉĉĉĉ
Ġperformed
Ġagency
Ġfeelings
Ġpercentage
Ġguy
æĢ»ä½ĵ
Ġrecorded
ï¬ģ
Ġhearing
ools
Ġfreedom
%,
inder
Ġ41
Ġagreed
Request
Mr
ĠID
éĻĨ
Att
']
Ġlock
amps
berg
æľ¬æĸĩ
coming
Ġsweet
amental
Ġsynt
Ġstated
ffee
åĬ¨åĬĽ
åľ°çĲĨ
èĤ¡ä¸ľ
onym
CA
æ¯Ķä¾ĭ
Ġsed
Ġarms
åĬ³åĬ¨èĢħ
Ġtherapy
ç¬¬åĽĽ
cm
æĬ½
Ġtechnique
icated
ĠSal
ĠForest
ifer
Ġoperating
Ġparties
ync
olve
Ġparticipation
ĠControl
Ġhusband
Ġtiss
ĠDiv
Ġtruly
lay
resents
)ãĢĤ
Ġresidents
âĢĿãĢģâĢľ
åĽ½æľī
å¹¼
emetery
\)
Ġforg
NE
ĠPower
Ġtraffic
END
Ġviews
ãĢģãĢĬ
cknow
Ġthr
Ġalg
åŃ¦éĻ¢
åħ°
Pack
èŃ
ĠCath
Ġpartner
ĠJose
Ġtransition
Ġvoid
Ġmeat
Ġmanaged
ĠAdv
Ġdetailed
ĠTur
ĠNA
Array
host
pace
æ°ı
æĭ¥
Ġsolve
Ġserver
default
Ġconcerned
å®ª
é«ĺåº¦
ĠVict
ĠMount
ĠBaxter
Ġupper
åĮħåĲ«
Ġengaged
ĠBur
æģ¶
CR
Ġok
ä¹ħ
æķĳ
SH
äºĭä¸ļ
è¿Ľè¡ĮäºĨ
Ġresulting
Ġholding
Ġfailure
ĠSustain
File
Ġenem
Ġdepending
Ġneighbor
dered
åħ·å¤ĩ
Ġrid
Ġvehicles
Ġprices
Ġmath
Ġexcess
è°±
Ġgod
Ġpulled
åı¥
æľīéĻĲ
free
phone
Ġtrig
Ġregions
åĿĢ
Ġnutrition
ĠSat
Ġfamous
Ġfacilit
Ġbill
ä¸»åĬ¨
Ġedge
çĬ¶åĨµ
Ġapparent
ĠExp
çĺ¤
Ġprem
ialog
Ġfunds
Ġaid
ĠRob
Ġseed
Ġframework
ĠDi
ĠNASA
Ġelim
çļĦæĸ¹æ³ķ
start
inking
æīĢè°ĵ
ognitive
Ġmotion
çļĦä½ľçĶ¨
ĠMass
Ġspeaking
éŃ
Ġdoubt
ĠProfess
Ġgarden
ĠCamp
Ġscript
å¹³åĿĩ
Ġconver
ĠSing
æĬĳ
èĤ¿
INT
å¤Ħç½ļ
Ġimprovement
Ġpal
è¿ĺæľī
Ġleadership
Ġdespite
inn
riting
é½
Ġgather
ĠAN
Ġju
éĽ¶
è½¬åĮĸ
å®¡æŁ¥
ĠIdent
you
Ġlabel
Ġwatching
sembly
osa
ĠTex
éĽĨä½ĵ
ä½ľèĢħ
Ġregist
åĴĮç¤¾ä¼ļ
åĩĨç¡®
è½¬åŀĭ
ulf
Ġcris
ç»§æī¿
ãĢĤãĢĬ
2022
2012
Ġframe
ä¸ĭéĻį
onday
Ġ95
ĠWood
æĬķåħ¥
Rec
åıĬæĹ¶
Ġvariables
Ġton
Ġsession
é¢Ħæµĭ
Ġsen
Ġ46
ç»ıæµİåıĳå±ķ
Ġ47
Ġformal
Ġamb
Gui
iverse
Yes
Ġsamples
è®¿
Ġpregn
éĺ¿
Ġleader
Ġtells
Ġfailed
Ġevaluation
ĠBoth
Ġourselves
'.
Ġplastic
Ġtransportation
jo
Ġchart
Ġclick
Ġemergency
Ġdrinking
Ġscene
èĲ½å®ŀ
Ġprepare
Ġphen
Ġgram
ĠSpirit
è¿Ŀæ³ķ
ults
è¾ħ
é©±
Ġclient
OM
Ġshoot
æµĭè¯ķ
ĠAD
æ¯ķ
Ġstanding
Ġnarr
bert
rot
Ġdiss
Ġtrib
à¤¯
eah
Ġ43
Per
Ġtox
Ġsharing
Ġkm
ðĿĳ
è´¡
Ġasking
Ġreaders
Ġdecide
Ġrestaur
idential
Thrift
ORT
æ¹ĸ
ĠSl
Ġhabitat
itors
Ġdrugs
ĠStrateg
æĶ¹åĸĦ
Ġfrequently
anish
ĠWil
ĠHave
éĿ¢ä¸´
plications
arant
ç½²
Ġpun
æ±ł
Ġgreatest
Ġlisted
Ġ1999
Ġsubstant
edy
Ġarray
Ġdesire
éļ¾ä»¥
pat
ĠEX
aph
Response
Ã¤
Ġyrs
Ġtea
èĩªåĬ¨
Ġsupporting
600
Ġquiet
åħ¨éĥ¨
å®¡è®¡
arios
ä¸´åºĬ
Ġcommonly
Ġpreviously
Answer
ashion
CD
ĠVer
mdl
åģľ
ita
Ġobjectives
Ġrepresents
ĠFrank
é»ĳ
ellect
Ġtrip
Ġdram
Ġalt
Ġvessel
å¤§æķ°æį®
Ġunc
åŁºéĩĳ
æĭĽ
Ġchoices
ouble
Ġworse
Ġkiss
Ġobtained
crete
Ġprocessing
åŁ¹è®Ń
å´
Ġtight
Ġoptim
ĠPet
begin
Ġindicate
((
Inter
)).
greg
Context
Ġclaims
frac
ria
Ġadding
Ġhelpful
çº¦å®ļ
Model
itz
ĠMill
Ġorg
Ġagreement
Ġestimated
åħ¬æ°ĳ
Oh
));
astern
essions
Ġillness
uls
Ġ150
è§¦
æ¡Īä¾ĭ
Ġneighb
hop
Ġexternal
ĠSuper
Mar
icit
Ġplays
Fe
ĠAut
version
æ¡Ĩ
Ġaccepted
View
Ġphase
Ġsuggests
Ġrandom
yer
ĠCreek
ĠReal
Ġadministration
win
rier
èª
orter
Ġoccurred
Ġlanguages
osite
Ġresponses
Ġfold
Ġwest
verty
Ġunto
ĠPrinc
AGE
çİ°åľ¨
2010
ĠAR
åĽ½çļĦ
Ġcausing
ĠSpecial
Ġpoverty
Ġsupposed
Ġabsor
Ġfill
ĠPop
Ġsignal
ĠAcademy
Ġlinks
ç´łè´¨
çĪ¶
Ġvent
aks
Ġthank
long
rich
Ġpictures
çļĦè¡Įä¸º
Ġforced
Ġvote
Ġkid
çĥĪ
SO
Ġmobile
åĨĮ
ĠĠĠĠĠĠĠĠĠĠĠĠĠĠĠĠĠĠĠĠĠĠĠĠĠĠĠĠĠĠ
kg
Node
Ġ56
é£ŀ
ĠAdminist
ĠChem
ĠVirgin
ĠBer
ĠReading
Ġapart
Ġconfidence
ä¸ªä½ĵ
ä½įç½®
Step
ĠBir
çıŃ
irty
ĠPlease
ĠØ§ÙĦØ
atal
Ġspecifically
Ġyellow
Ġregularly
xb
uster
Bl
æľ¨
Ġlatest
å¯»
Ġorganic
ä»ĭç»į
Ġbow
Ġfert
Ġdriving
Ġfarmers
Rem
west
åħ±åĴĮ
ĠConclusion
å¿ħçĦ¶
thon
Ġarticles
chen
ï¼īãĢģ
æ£ĢæŁ¥
ĠAgricult
é¼ĵåĬ±
Log
func
omin
ä¸ĵå®¶
2013
ĠLouis
rip
Ġdepartment
dy
ifications
Ġinstrument
Ġgar
select
ĠVe
Ġfilter
æĢ§èĥ½
Ġ72
ĠNon
åºŁ
Ġcars
éĴ±
Pr
message
Ġ);
Ġfaster
asm
Ġstood
éĶĢåĶ®
çļĩ
åĬª
Ġchain
Ġcontinuous
under
ĠPlay
fill
ifies
çĦ¶åĲİ
2014
acific
ĠStudy
ĠCheck
ĠRoman
ady
vertical
isters
enth
Ġtwenty
Exception
Ġapproaches
Ġhospital
account
Map
ĠLong
ĠLook
Ġperman
Ġdatabase
cluding
éľ²
çĸ¾çĹħ
');
ĠNor
Ġfinished
é¾Ļ
Ġintelligence
Conn
åĩ½æķ°
ĠIll
æ¶¦
Ġcriteria
First
æĿĥåĬĽ
QU
after
Ġyes
Ġselection
ĠCourse
gypt
amil
ĠColor
Ġtips
Ġcarefully
ĠMethod
Ġconsequences
omic
Ġfavorite
webkit
ĠEngineering
Ġ................................................................
Ġgenerate
åıĤèĢĥ
orith
Ġmur
Ġenable
èĵ
adian
Ġdiscover
Ġaccurate
abulary
she
itative
Ġbright
static
hedule
ĠTitle
æĢĿèĢĥ
ĠCharles
Ġdogs
Ġnuclear
xc
ĠFund
Ġturns
ĠHill
ä»İäºĭ
ĠImport
Ġkit
Ġ52
header
MENT
summary
Ġahead
çļ®
ĠClub
Ġmixed
ä¹Łæľī
End
tings
ĠSon
ocabulary
Ġlisten
Ġmanufacture
Ġsquare
Ġarrived
cs
Ã³
first
Ġstret
ä¿Ĺ
aud
ugg
Ġphoto
Ġconcentr
/*
Ġstatic
Ġappeared
Ġdomain
style
Ġachievement
rax
Ġinfection
Ġportion
Well
Ġproport
2011
Ġvariable
pdf
yles
Ġabuse
äºĨä¸Ģ
Ġsuggested
aming
å¤ļæķ°
âĢĿâĢľ
çĶ¨äºº
Ġstopped
DIR
Ġwalls
ĠCreat
iah
ĠTor
æĥ¯
Ġsmooth
Ġcompetition
ĠJews
AY
Ġcash
ĠMont
è¢«åĳĬ
Ġmotor
})
ĨĴ
ä»ª
Ġ49
åı¯æĮģç»Ń
ĠLead
Ġfundamental
Ġcircumstances
ĠJud
æĺ¥
è¯ķéªĮ
ĠPeter
Ġdebt
åĲĦä¸ª
Ġpure
olar
åĳĺå·¥
åıªæĺ¯
èŀįèµĦ
ingly
ĠJac
lements
Ne
stood
clusive
focus
Ġdetect
Ġbattle
Ġconsistent
cular
Ġlots
çī¹åĪ«æĺ¯
èĢĹ
aren
æĪĺäºī
Ġhyper
Co
ĠOld
Ġexposed
Ġmel
å¸¦æĿ¥
api
Ġsight
æ±½
ĠBible
éĿĻ
ç¤¾ä¼ļçļĦ
æŃ£å¸¸
åŃĺåĤ¨
Ġdocuments
Ġaward
åħ¼
Ġmere
åħ¬ä¼Ĺ
è®°å½ķ
Ġflowers
car
ĠHall
ĠIts
é«ĺçļĦ
ĠParent
Your
Ġfle
Ġ53
friend
illa
Ġrxn
Ġmathematics
uzz
iciency
æłĩå¿Ĺ
ĠĠĠĠĠĠĠĠĠĠĠĠĠĠĠĠĠĠĠĠĠĠĠĠĠĠĠĠĠ
Ġsitting
Ġanxiety
Ġrent
Ġfort
());
ĠPractice
weight
æ³¨éĩį
then
oding
Ġagriculture
Ġcomprehensive
lwip
hered
ä¾Ľç»Ļ
Ġalcohol
abil
ĠNatural
éĺħ
Ġconversation
)]
Ġsick
ĠIndust
Ġbegins
Ġrail
è¯ĨåĪ«
ĠCurrent
ĠDev
Ġstarts
Ġhousing
':
ror
ä¹ĭåīį
Ġcamera
rome
ĠJapanese
ĠAlex
æ°ĳä¸»
Ġmeasured
Ġphilosoph
card
raint
ĠBrown
ç²®
inte
Ġphr
Ġlocations
xf
oted
istan
ears
æ¢°
itis
Ġdepends
Ġelectrical
Ġcomfortable
Gener
Ġmine
izer
Ġimpossible
Ġment
ourse
éŁ³ä¹Ĳ
Ġcloser
hav
ĠMax
ipping
ä¸¥æł¼
){
Ġrelax
åĨħçļĦ
Ġbacteria
Ġli
è¿«
Ġideal
bra
Ġax
Ġdiverse
Ġatmosphere
ena
ĠOpen
ç³ĸ
ç»ıæµİåŃ¦
share
æ³ķå®ļ
éĻ·
Ġcolle
Ġopening
Ġpil
Tra
ĠObject
prove
æĮĳæĪĺ
oose
Ġisland
ĠLog
ĠKore
ieties
å¾ªçİ¯
Ġfix
æĢİ
è¦Ĩ
Ġtargets
å¯¹å¤ĸ
Ġinteraction
Ġadministr
è¯¢
ĠCOVID
Ġwalked
Ġentirely
å±ĭ
åıĳå¸ĥ
ĠSil
åīįæıĲ
Ġvillage
Ġreform
Ġoffering
Ġcombined
Ġprocedure
abetes
ĠJo
agers
ĠChapter
çī¹å®ļ
Ġdecades
é¦Ĩ
Ġwaiting
post
aning
ç²Ĵ
SW
Ñĥ
ĠSouthern
å¹³çŃī
Ġfoundation
true
Ġtail
æľºåĻ¨
Ġsupports
Ġregional
æĶ¶çĽĬ
æĻ®éĢļ
Ġcommunicate
Ġpopulations
Ġ51
ĠMexico
Ġstake
inst
ĠFurther
System
ĠOk
åī¯
ĠAnother
ĠAsia
Ġgenerated
world
ĠTom
ĠDNA
å·¥ä½ľçļĦ
åį±æľº
Ġblow
cel
___
Ġcrow
Ġcrop
ĠSar
Ġisol
Ġmedium
################
Ġrough
Ġ2022
Ġboys
åĽ¢éĺŁ
Ġsurrounding
Test
gest
ĠçļĦ
è´¹çĶ¨
éĻ¤äºĨ
æħ¢
ç¡®ä¿Ŀ
ä¿¡çĶ¨
è®¾ç«ĭ
Ġletters
çļĦåŁºç¡Ģä¸Ĭ
Ġhur
emic
ä¹±
åį¡
rene
åŁİä¹¡
holders
éĢĶå¾Ħ
ĠFamily
Ġ1998
ommod
åŁİéķĩ
Ġgrace
æķĪåºĶ
Ġbroken
Ġmodule
azon
etime
åįıåĲĮ
Ġappearance
zen
Ġinsect
ĠRetrieved
Ġwidely
fall
Ġkinds
Ġconscious
Ġmode
å¤ļæł·
Ġimmigr
Ġguidelines
Americ
ĠBig
è¯ĳ
ĠSupport
åį«çĶŁ
101
ansion
lication
Ġreader
Ġ+=
base
rum
wiki
Point
Ġtong
BS
case
Ġacknow
æĹħ
éĹ»
ĠĠĠĠĠĠĠĠĠĠĠĠĠĠĠĠĠĠĠĠĠĠĠĠĠĠĠĠĠĠĠĠĠ
BU
Box
ĠResources
aturday
ä¸Ńå°ı
Ġindeed
å¤ļä¸ª
Ġelectronic
Ġhaz
ĠKey
Ġmulti
real
ads
Ġrul
ogy
ç§¦
Rel
Ġ${
Ġsecondary
Ġsignificance
Ġmountain
Ġexpensive
åħ¸åŀĭ
asy
ĠCult
Ġextract
target
Ð»
Ġreaction
Ġchosen
å½»
ä»ĸäºº
Ġsigned
Ġhealthcare
Ġ1990
However
foot
Ġflight
è¶ĬæĿ¥
è®ºæĸĩ
Ġemployment
Ġtaste
äº§çĶŁçļĦ
éĢĴ
è´¥
Ġachieved
iler
Ġscores
iodiversity
oretical
å®Įæķ´
label
Ġwitness
ĠType
Ġneck
Ġque
æ°ĳéĹ´
ĠTexas
>,
Ġminim
ĠSpanish
æľīæľº
prot
Ġadvert
Ġbear
æııè¿°
Ġshel
ĠVictor
Ġdistributed
è¶ĬæĿ¥è¶Ĭ
teen
ployment
ĠOnly
Ġimplemented
ĠChange
Ġprogramme
Ġguard
ĠAS
ç§ĳçłĶ
æīĢå¾Ĺ
Ġadvoc
ĠHand
âĢ¦âĢ¦âĢ¦âĢ¦âĢ¦âĢ¦âĢ¦âĢ¦
AST
xygen
ĠPsych
ç§©
cluded
èŃ¦
åĬªåĬĽ
GE
Ġdisp
è½®
Main
Ġforth
ĠMel
Ġprogramming
åĳ¨æľŁ
Ġsensitive
ras
ĠBill
èİ·åıĸ
orida
Ġran
é¡µ
Ġregulations
Ġmedicine
More
Ġpair
å®¹æĺĵ
ĠCarolina
ĠCivil
ĠMichael
aturally
ĠValley
åı¤ä»£
è´·æ¬¾
Ġliquid
May
rooms
çļĦä¸Ģä¸ª
æĺ¯ä¸Ģ
Ġmoist
.</
Dep
Ġpump
Ġanalyze
John
war
çļĦæ³ķå¾ĭ
Ġforget
oves
Ġevaluate
çºłçº·
Rd
king
Ġremaining
Ġ54
ocratic
Ġdangerous
Ġuns
UD
Ġnarrow
ceived
Ġrank
Ġputting
Ġamounts
Ġlinked
Color
çº¯
Ġvisible
Ġclosely
"]
ï¼ĮãĢĬ
Ġnations
antly
ç¨İæĶ¶
å°¼
çĻĮ
æķ´åĲĪ
igital
Ġcoffee
"></
Ġburied
Ġcorner
pact
ĠWild
Ġvital
æ³ķæ²»
Ġendif
æĢ»ç»ĵ
æĺ¾èĳĹ
Ġparameters
istant
Ġfn
è´¦
Ġfacts
æĴĳ
math
aters
Ġtow
à¤¨
Ap
Ġliv
ĠIr
ĠJoseph
roph
ett
ĠPoint
ferent
äººå·¥æĻºèĥ½
Ġstone
Ġexperts
å²ģ
Ġprofessionals
PR
åĪĺ
æ·±åº¦
Ġcommitted
oking
Ġzero
ĠGlobal
Ġfro
icians
éĩİ
Ġacres
Ġbought
ampl
Ġauthors
Ġdress
æ°¸
ĠThrough
Ġreferred
ĠMag
scale
Ġfixed
IES
ua
Ġcalc
Ġfrag
åĩºçļĦ
Pre
awn
asp
ĠFederal
Ġadequ
Ġobser
eder
Ġnurs
Ġinjury
ĠMa
ĠEst
Ġsettings
umes
Ġbath
Ġhaven
Ġ500
Ġeast
ĠPolicy
Ġdomestic
client
Act
ona
Ġ300
ĠConn
æķĻèĤ²çļĦ
ĠRef
Field
Ġsister
uesday
Ġreb
ULT
ĠCle
åħģ
Ġminute
lers
Ġexpressed
endar
Ġterror
Ġtypical
è¿½æ±Ĥ
oz
Ġfacility
Ġcrops
æĺ¯å¯¹
ĠSunday
iat
Ġmissing
ette
Windows
icious
ĠSpe
Ġguidance
Ġban
ĠTown
imary
åĽ½å®¶çļĦ
Ġgenetic
Ġvirtual
ĠNov
éĩįæĸ°
Ġdepos
--------------|
lets
osh
Ġmainly
ĠDiscuss
Ġmanager
å¤ĸéĥ¨
Ġdelivery
æħ§
Ġmal
ĠSuch
Ġsuc
å®ŀä½ĵ
à¤ķ
äºĮåįģ
åı¶
ĠWal
Ġremained
ups
çļĦæķ°æį®
Ġseconds
Ġusage
ĠHead
Ġflag
valid
ursday
è´´
Ġadoles
åĮºåĪ«
ĠDoes
iner
ocial
Ġowner
Ġcrisis
ç§©åºı
æĬĬæı¡
inity
Ġnode
çĶ¨äººåįķä½į
ĠComput
Ġearn
æĶ¯æĴĳ
Ġprinciple
Glossary
ĠSign
Ġexistence
icient
bf
iture
Ġbag
ç»ĺ
Child
vation
Ġensuring
VE
orough
Ġkne
Ġrestrict
Ġsequence
length
Ùĩ
Ġcup
Ġknowing
æļ´
Tw
ĠNone
Ġ66
Ġcrim
Ġprimarily
Ġsyn
å®¢æĪ·
Ġfrequency
Ġintellect
Ġspaces
Ġbreath
æĥł
Ġsentence
];
rive
Ġends
INE
Event
Ġ57
Any
ĠInstead
linux
Ser
ĠAuthor
eless
åİĤ
ĠGuide
ĠSecurity
FT
!âĢĿ
KS
nb
èģĮèĥ½
Ġessay
å®ľ
ĠMer
ĠPot
Ġofficials
Ġestate
äºīè®®
Che
Ġrein
acebook
Ġpool
å±Ĭ
Ġnoise
è°Ĳ
Ġsurg
æ·±åĮĸ
Ġrecognized
cf
ä¸Ĭæµ·
Ġthanks
ĠVirginia
Ġsad
ĠSand
å¤ı
ĠFriday
elled
åĨĽäºĭ
è¿ŀæİ¥
Ġterrit
va
Ġsport
ĠFun
claim
unicip
ĠNO
Ġacts
FOR
æĬĢæľ¯çļĦ
äº¤æį¢
Ġguys
RdX
olars
ruit
ersonal
ĠAssessment
ĠAdditionally
Ġbrown
è´¢åĬ¡
afety
åĪº
çŃīæĸ¹éĿ¢
ĊĠĠĠĠĠĠĠĠĠĠĠĠĠĠĠĠĠĠĠĠĠĠĠĠĠĠĠ
çļĦåĨħå®¹
Ġintroduction
Ġocean
Ġcolors
éļľç¢į
dRdX
ĠMad
ĠLee
Ġspending
Ġtwice
Serv
ician
script
Ġextended
Ġpackage
Ġharvest
Types
ERS
ĠConf
while
Ġrecognize
Ġhonest
LO
Ġunderstood
åĺ
Ġworry
Ġmeetings
å«
ĊĠĠĠĠĠĠ
ĠMarket
Ġraw
Ġplanned
Ġmoral
Ġcaught
ä¸ĢçĽ´
Ġadopt
è½¨
Ġ85
æ¿ĢåĬ±
agon
plete
æµģç¨ĭ
ĠCommon
BO
Ġ99
Met
ĠBuilding
IO
roke
Ġalign
çĤİ
Ġmuscle
Ġcategory
ĠGold
çĦ¦
Ġarguments
icate
æĹ¶åĢĻ
é©¬åħĭæĢĿä¸»ä¹ī
ĠCemetery
-----------|
Ġflav
kins
Ġregul
æ£Ģå¯Ł
ĠGO
ĠON
Ġindicated
ä»įçĦ¶
ä¼´
ĠRights
Ġ59
Ġsatell
Ġcum
ĠLo
Ġbless
Ġhighlight
Ġlistening
åĬ³åĬ¨åĲĪåĲĮ
Ġphotos
æ¥ļ
ä¸Ģæĸ¹
Ġinstructions
Fin
Ðº
Ġvast
æķĻæĿĲ
åĲĦç±»
Ġvac
à¤Ĥ
Ġdirector
é¾Ħ
DO
grad
å¼ĥ
Ġdisabilities
dep
ĠLicense
yr
ednes
Ġperiods
Ġchallenging
Ġvs
racy
ĠInf
Ġpossibly
ĠPenn
Ġtele
ĠStart
Ġheaven
Ġjudge
ĠEgypt
""
orry
ĠAccess
Ġintervention
Ġrepresented
Ġrecycl
åı¦ä¸Ģæĸ¹éĿ¢
pes
Ġundert
itudes
Ġscre
Ġowned
èĭ±åĽ½
ä¾µæĿĥ
thlet
Most
åĬ¡éĻ¢
PO
rics
Ġconcentration
Ġinh
Ġwriter
ifest
Ġabund
è¿ĽæŃ¥
Ġbird
Ġhab
å½©
çĶ±æŃ¤
Ġreject
iration
Ġsubs
æĥħæĦŁ
HT
Ġdownload
Ġcapable
ĠAM
ä¸Ģæł·
çĽ¸åħ³çļĦ
Ġfinger
Ġingred
ĠHenry
Call
Ä±n
rey
çļĦèĥ½åĬĽ
ç¬¬åįģ
opyright
Ġcards
Ġtut
ĠThose
anta
TR
icago
ventions
Ġcultiv
çļĦè¿ĩç¨ĭ
Ġphotograph
ĠHistor
ĠObama
å®ıè§Ĥ
Ġdance
ĠWrite
åĲĮæł·
Ġaccommod
Ġrelation
inations
xe
ä¸Ģæ¬¡
Ġagent
Ġmaintaining
ere
js
Ġsalt
riers
ĠEffect
åĬ¨æĢģ
Ġamazing
ç¼ĺ
æ¡Ĩæŀ¶
èį¯çī©
ç»©æķĪ
pet
ĠPacific
abeth
Ġtemperatures
åŃ£
Ġconsists
2008
è£Ĥ
Ġprincipal
Ġappreciate
Ġphenomen
Am
Ġclothes
Ġfeels
gba
making
Ġgro
Ġbeauty
Ġapproved
Ġ1996
äºĪä»¥
Build
inet
Ġol
oral
ĠWhich
éĺ¶çº§
Ġadopted
æķı
åĬŀæ³ķ
ĠTim
æŃ£åľ¨
Ġperm
Ġdepart
Ġtrends
race
æģ¢
Ġconsidering
ĠFunction
Ġrepeated
IE
ç»ıæµİçļĦ
Ġrealize
Ġcreates
tle
Ġchief
ç§Ģ
Ġevening
Ġcomputers
Cur
Ġbanks
Ġnob
è¯¦
Ġcontaining
éĺĲ
Ġequival
onymous
eers
cribe
erves
ĠImGui
Ġgovernments
hent
ARY
aned
çĽ¸æ¯Ķ
Ġrevolution
void
Ġmoon
ĠMuseum
Ġappeal
neg
åįģåĪĨ
å®ŀè·µä¸Ń
Ġerrors
Ġincreasingly
ĠRussian
åī²
éĿŀæ³ķ
Ġdegrees
>>
Ġpip
ĠRad
åº¦çļĦ
Ġbutton
ç¥ĸ
Ġforests
Ġthin
åĽ½åĬ¡éĻ¢
éªĹ
Ġobjective
åĳĪçİ°
TY
Ġyield
Ġ63
ĠSustainable
æĬ¼
isk
ĠEN
ĠArea
æ¬§æ´²
bing
çļĦåİĨåı²
ĠEr
çĩĥ
endif
å®ļä½į
","
Ġopposite
Back
Ġille
sem
sell
Ġ(*
ä¼ĺåħĪ
å²Ĺ
Ġluck
aws
rance
iot
tion
Ġtherm
organ
çĽ¸å½ĵ
ymbol
çģ¾
Ġdefinitely
é½Ĳ
ussy
Ġnetworks
Ġconnections
Ġtrouble
pass
æĹłè®º
Another
