{
  "Ġec": 4470,
  "pa": 7497,
  "Ġmis": 5604,
  "INSERT": 5811,
  "ĠDesign": 6475,
  "Ġ13": 2227,
  "ographic": 7761,
  "49": 4199,
  "Ġhow": 868,
  "ĠThese": 2169,
  "--|": 2799,
  "war": 9368,
  "âĢ¦âĢ¦âĢ¦âĢ¦âĢ¦âĢ¦âĢ¦âĢ¦": 9322,
  "Ġbroad": 5050,
  "Ġhim": 1098,
  "Ġ48": 6744,
  "æĪĲæľ¬": 4055,
  "Ġagency": 8242,
  "Ġ*": 856,
  "ĠĠĠĠĠĠĠĠĠĠĠĠĠĠĠĠĠĠĠĠĠĠĠĠĠĠĠĠĠĠĠ": 6513,
  "Ġchosen": 9269,
  "Ġregarding": 6837,
  "Ġanti": 7456,
  "Ġeventually": 7815,
  "éĢļ": 1007,
  "bra": 9078,
  "æĻ": 1279,
  "Ġl": 319,
  "Ġforce": 4968,
  "iful": 5351,
  "asm": 8778,
  "Ġ56": 8708,
  "åĽº": 4637,
  "å¾·": 2520,
  "çł": 967,
  "ute": 1542,
  "axter": 8110,
  "Ġbrief": 7711,
  "Ġdec": 1464,
  "è´£ä»»": 2972,
  "ittee": 5441,
  "æŃĮ": 7928,
  "Ġproper": 2178,
  "rent": 893,
  "Ġreached": 6929,
  "Ġresear": 4879,
  "Ġfig": 6549,
  "Ġevents": 3935,
  "Ġ2009": 5905,
  "Ġfall": 3467,
  "emet": 8234,
  "åı¸": 1680,
  "ORT": 8537,
  "Ġregional": 9142,
  "è¿ĽæŃ¥": 9807,
  "æĶ¯ä»ĺ": 6557,
  "ah": 1509,
  "æĢ": 497,
  "Ġcombination": 8149,
  "ãĢĤãĢĬ": 8458,
  "ĠCenter": 5045,
  "Ġmade": 1449,
  "ĠAir": 6075,
  "ces": 787,
  "Ġthoughts": 7016,
  "lu": 2406,
  "éĴ±": 8773,
  "Ġfactors": 4063,
  "æ¸¸": 5325,
  "Ġ2002": 7402,
  "ĸ": 247,
  "ï¼Ł": 3398,
  "Ġit": 381,
  "Ġsuff": 4610,
  "æĦıä¹ī": 3982,
  "ä½ĵ": 709,
  "thlet": 9797,
  "Ġexisting": 5500,
  "Ġhousehold": 6076,
  "Ġy": 351,
  "son": 2463,
  "!âĢĿ": 9615,
  "Ġrunning": 5151,
  "ĠS": 330,
  "ĠPath": 8066,
  "band": 6682,
  "èĢĮä¸Ķ": 5596,
  "Ġshape": 6306,
  "Ġengaged": 8350,
  "ard": 535,
  "Ġ2014": 5980,
  "Ġhope": 4999,
  "b": 68,
  "vate": 8043,
  "Ġinternal": 7387,
  "unc": 5861,
  "çĽŁ": 7629,
  "Ġalmost": 3651,
  "å®¤": 5528,
  "ĠClub": 8874,
  "æĢĿèĢĥ": 8857,
  "Ġplays": 8647,
  "å¾ĹåĪ°": 4573,
  "ï¼ĮâĢľ": 4352,
  "Ġat": 459,
  "ances": 2462,
  "aging": 3608,
  "éĹ®é¢ĺçļĦ": 6197,
  "ail": 796,
  "åİĨ": 2186,
  "èĽĭçĻ½": 7145,
  "ednes": 9770,
  "Ġquick": 3435,
  "xf": 9050,
  "ttps": 3428,
  "æį¢": 4171,
  "Ġparameters": 9412,
  "è¯¾ç¨ĭ": 3184,
  "ĠSeptember": 5220,
  "éĢ»": 6868,
  "Ġquality": 2934,
  "Ġconnected": 7219,
  "ĠDO": 8190,
  "å¯»": 8734,
  "Ġth": 307,
  "Ġemployment": 9280,
  "king": 9375,
  "Ġelectronic": 9247,
  "fully": 3977,
  "Ġincluded": 4478,
  "Ġeduc": 1681,
  "çļĦè¿ĩç¨ĭ": 9839,
  "Sp": 6581,
  "æĸĩä»¶": 6530,
  "ĠRev": 7105,
  "èĩªå·±çļĦ": 5720,
  "è§ĦåĪĻ": 5843,
  "Ġ;": 5086,
  "Ġcaus": 2792,
  "xl": 7652,
  "åĵį": 2042,
  "Ġpract": 1859,
  "çĶļ": 5727,
  "ç§©åºı": 9556,
  "Ġopportun": 2889,
  "Ġproducts": 3321,
  "ä»İèĢĮ": 4536,
  "'m": 2658,
  "Ġtight": 8609,
  "æ³ķéĻ¢": 3518,
  "ĠAust": 4290,
  "Ġgovernment": 2447,
  "Ġrecognized": 9635,
  "time": 4094,
  "force": 5774,
  "Ġcoffee": 9401,
  "Ġcomprehensive": 9014,
  "Ġrun": 2106,
  "icago": 9836,
  "Ġlabor": 6331,
  "ys": 915,
  "åĲĪæ³ķ": 8135,
  "Ġbox": 5160,
  "Mr": 8257,
  "Ġdestroy": 7978,
  "Ġbelow": 3494,
  "Ġalt": 8594,
  "ç½ĳ": 1697,
  "IES": 9456,
  "aste": 7875,
  "Ġonline": 3901,
  "ape": 2738,
  "Ġill": 3422,
  "iately": 5705,
  "ä¹Łæĺ¯": 4465,
  "Ġsets": 8105,
  "VE": 9576,
  "Ġin": 291,
  "Ġopt": 3039,
  "76": 5491,
  "ne": 974,
  "åħħ": 3264,
  "ades": 5350,
  "Comm": 6942,
  "Ĳ": 241,
  "azon": 9204,
  "åı¶": 9537,
  "Ġforests": 9951,
  "çļ": 308,
  "see": 4571,
  "usion": 7370,
  "Ġfailure": 8362,
  "Ġacid": 7953,
  "Ġhealthy": 4808,
  "ä½İ": 2308,
  "ime": 692,
  "Ġ24": 2910,
  "vere": 5264,
  "Ġtold": 3703,
  "rift": 7993,
  "Ġsoftware": 4592,
  "UB": 7318,
  "Ġmole": 8197,
  "Ġtools": 4552,
  "ĠCap": 8082,
  "èĲ": 1613,
  "å®ī": 1818,
  "----------|": 7020,
  "Ġagricultural": 7501,
  "èĨ": 5047,
  "Ġabove": 2880,
  "ä¸»å¼ł": 7820,
  "abilities": 5506,
  "old": 964,
  "aur": 5328,
  "Ġlibrary": 7686,
  "æİ¢ç´¢": 6374,
  "ĠProfess": 8417,
  "æĬĬæı¡": 9557,
  "Ġlevels": 3125,
  "Ġsupported": 7329,
  "Ġdef": 1392,
  "ago": 7129,
  "Ġauthors": 9448,
  "Ġbacteria": 9074,
  "Ġregulations": 9345,
  "ĠLa": 6193,
  "Ġremember": 5012,
  "ou": 287,
  "Ġthird": 4179,
  "Ġpip": 9946,
  "ĠKey": 9249,
  "Ġlat": 6224,
  "aim": 3145,
  "FA": 6373,
  "ivers": 1548,
  "etic": 3855,
  "ength": 3237,
  "å®¹æĺĵ": 9349,
  "ponse": 6931,
  "ual": 677,
  "uses": 8119,
  "Ġaren": 7427,
  "äºĪä»¥": 9885,
  "Ġcompared": 5395,
  "STR": 7101,
  "åĳĺå·¥": 8947,
  "ining": 1829,
  "Ġalign": 9720,
  "Ġimm": 3549,
  "åĬ¿": 2695,
  "Ġpass": 1951,
  "Ġadopt": 9706,
  "Ġmust": 1698,
  "å©": 5866,
  "Ġ///": 5492,
  "ĠØ§ÙĦ": 5251,
  "èģĶç½ĳ": 5704,
  "çº¢": 6410,
  "å®¹": 1939,
  "ĠIII": 7297,
  "ura": 4575,
  "æ¸©": 5940,
  "oll": 2839,
  "ĠAmericans": 7453,
  "isation": 5828,
  "empl": 7857,
  "ates": 957,
  "å°±": 1176,
  "åħ¸": 3996,
  "Ġconcepts": 5835,
  "Ġconcept": 3062,
  "cher": 3211,
  "Ġsan": 6884,
  "ub": 681,
  "ĠScience": 4621,
  "ĠCol": 2285,
  "ĠCH": 7584,
  "IM": 5130,
  "Ġcapt": 5218,
  "Info": 7989,
  "Ġdynam": 7748,
  "Ġcontact": 3981,
  "Ġ5": 770,
  "ĠOffice": 6844,
  "ĠCoun": 5412,
  "ø": 183,
  "pose": 3405,
  "Ġfunds": 8398,
  "Ġstrong": 3009,
  "up": 1230,
  "Ġtemper": 3787,
  "Your": 8992,
  "but": 4275,
  "oz": 9501,
  "8": 26,
  "go": 3460,
  "Ġaw": 5840,
  "DF": 7954,
  "åĽ½çļĦ": 8678,
  "Ġlikely": 3319,
  "cil": 4372,
  "Can": 7973,
  "ÙĪ": 7423,
  "çĤ": 1155,
  "é£Ł": 4569,
  "äº²": 6915,
  "ĠBritish": 5729,
  "Ġpartners": 5486,
  "Ġapp": 725,
  "Ġparticipate": 8215,
  "ä¸Ĭ": 786,
  "Ġobtain": 4836,
  "const": 5245,
  "ĠAss": 2887,
  "orith": 8843,
  "astic": 4623,
  "æĢ§": 672,
  "ither": 2568,
  "Ġinte": 1507,
  "74": 4706,
  "Ġpicture": 5442,
  "Ġlength": 4929,
  "Ġtour": 5698,
  "Ġland": 1804,
  "éģµ": 7855,
  "Ġresearchers": 6269,
  "Ġcr": 2484,
  "ĠNational": 3221,
  "iot": 9984,
  "Ġlegal": 5288,
  "stood": 8954,
  "çĶµåŃĲ": 5215,
  "ä¹ĭéĹ´çļĦ": 4725,
  "çĶ»": 4355,
  "Ġdiscipl": 7904,
  "æĹłæ³ķ": 6276,
  "ä¸īä¸ª": 7607,
  "Ġanswer": 3701,
  "Ġaut": 2701,
  "Ġnations": 9394,
  "éĩĮ": 3150,
  "script": 9683,
  "Ġscene": 8500,
  "Ġcase": 2277,
  "æıĲä¾Ľ": 2389,
  "å°Ķ": 4360,
  "Ġcru": 5140,
  "Ġbroken": 9202,
  "etimes": 3692,
  "eth": 1004,
  "å¸Į": 7986,
  "Ġstreet": 7952,
  "ew": 739,
  "Ġalthough": 5730,
  "åıĳå¸ĥ": 9114,
  ";": 29,
  "ĠDo": 3130,
  "Ġphenomen": 9875,
  "åį±æľº": 9162,
  "mb": 3878,
  "Ġrecommend": 5694,
  "ĠWrite": 9845,
  "ä¸ľ": 2565,
  "ĠJac": 8951,
  "åĲĪä½ľ": 4069,
  "Ġdanger": 6450,
  "Ġfeel": 1784,
  "è´¨éĩı": 3423,
  "åİ»": 3042,
  "from": 5494,
  "Ġengage": 8048,
  "riting": 8434,
  "ĠChinese": 6509,
  "Ġbreat": 5552,
  "äºĭä¸ļ": 8358,
  "ĠWhat": 1734,
  "éĴĪå¯¹": 6071,
  "cript": 3214,
  "æİ§": 2213,
  "åľ¨": 495,
  "su": 4037,
  "è§ĦåĪĴ": 5068,
  "åĢºæĿĥ": 7528,
  "icks": 7606,
  "Ġprevent": 3247,
  "ĠE": 443,
  "Ġarray": 8560,
  "Ġlog": 3712,
  "Ġsin": 6815,
  "çĲĨè®º": 2371,
  "ä¸į": 563,
  "Ġflow": 2856,
  "Ġlo": 3770,
  "gan": 1223,
  "Ġo": 271,
  "åı£": 2328,
  "ĠMer": 9621,
  "riculum": 5471,
  "è´£": 2068,
  "olic": 3638,
  "ady": 8795,
  "Ġmonitoring": 7505,
  "Ġsouth": 6495,
  "Ġago": 4176,
  "èĲ¥": 2336,
  "Ġpregn": 8484,
  "Ġcontinue": 4010,
  "ç¡": 1011,
  "II": 3164,
  "çĿ£": 4513,
  "iol": 3309,
  "åģ¥åº·": 5948,
  "Ġbreak": 3535,
  "Ġforg": 8309,
  "ĠY": 822,
  "ĠBy": 2428,
  "Is": 5474,
  "æ£ĢæŁ¥": 8750,
  "è§Ħ": 996,
  "åŁİå¸Ĥ": 3884,
  "æĮĩåĩº": 6708,
  "****": 2234,
  "aughter": 5614,
  "ĠSpe": 9511,
  "åľŁ": 2939,
  "ĠPar": 3993,
  "umer": 7216,
  "ç¢": 2956,
  "ĠT": 324,
  "Ġslow": 4126,
  "æıĲåĩº": 2929,
  "Ġrealize": 9907,
  "äººæīį": 4469,
  "Ġgroups": 3256,
  "ment": 390,
  "ç»¿èī²": 7177,
  "Ġclassroom": 6041,
  "Ġdefinitely": 9991,
  "ROM": 2713,
  "gin": 2049,
  "åłĤ": 5697,
  "ince": 1649,
  "amp": 1965,
  "Ġleader": 8486,
  "real": 9251,
  "Out": 7103,
  "åĥ": 3691,
  "æĹ¥": 1765,
  "åľ°": 788,
  "HO": 6115,
  "ĠDiscuss": 9526,
  "å§Ķåĳĺä¼ļ": 6971,
  "â": 161,
  "ä»·åĢ¼": 2603,
  "Ġspecifically": 8726,
  "ä¸Ģæĺ¯": 7695,
  "2018": 7320,
  "Ü": 155,
  "Ġple": 4954,
  "è¥": 2378,
  "Ġ75": 7271,
  "Ġ)": 2699,
  "scroll": 7876,
  "ĠAlso": 6491,
  "è¿Ľè¡ĮäºĨ": 8359,
  "å¼Ģ": 1190,
  "25": 1802,
  "ãĢĤï¼Ī": 7412,
  "Ġkit": 8867,
  "Ġwhere": 1116,
  "æĿ¥æºĲ": 7801,
  "f": 72,
  "onday": 8463,
  "ĠNatural": 9020,
  "lim": 6123,
  "ĠAssoci": 5512,
  "Ġvol": 2779,
  "Ġcontribut": 5450,
  "Ġweek": 3084,
  "åĮħåĲ«": 8349,
  "å¥¹": 7442,
  "Ġfloat": 7003,
  "åĶ®": 6098,
  "Ġhospital": 8802,
  "Ġintroduced": 7866,
  "å¹¼": 8306,
  "Ġcred": 4152,
  "çĩĥ": 9969,
  "stances": 8239,
  "atabase": 6412,
  "Ġstar": 7290,
  "hel": 3947,
  "åĽ½å®¶çļĦ": 9516,
  "pid": 4911,
  "><": 3665,
  "åĳ": 835,
  "Ġvoice": 5737,
  "Ġhusband": 8296,
  "Ġmedium": 9170,
  "Ġgar": 8764,
  "å®ĥ": 2014,
  "Y": 59,
  "k": 77,
  "éĻ©": 2324,
  "net": 6176,
  "istan": 9052,
  "ĠOR": 7849,
  "æįŁå®³": 7277,
  "\"": 4,
  "í": 172,
  "çª": 2677,
  "å¾®": 4165,
  "å¹ħ": 8083,
  "Ġarch": 4555,
  "Ġapplication": 4701,
  "æ¥ļ": 9751,
  "Pr": 8774,
  "é¢ĨåŁŁ": 3352,
  "ta": 6611,
  "Ġsample": 6754,
  "Ġconflict": 8042,
  "èĦĳ": 6183,
  "åĨĮ": 8704,
  "pro": 1914,
  "Ġimpacts": 7255,
  "çĲĨå¿µ": 6734,
  "ĠCemetery": 9730,
  "201": 1495,
  "30": 1588,
  "Ġmine": 9060,
  "ios": 6540,
  "åĿĢ": 8384,
  "am": 359,
  "è´Łè´£": 7379,
  "Ġway": 1277,
  "æĽ´å¤ļ": 6397,
  "åĪ°äºĨ": 7934,
  "osition": 4865,
  "Ġprocesses": 5271,
  "ferences": 5745,
  "Ġsituations": 7446,
  "çİ°": 783,
  "Ġcro": 6148,
  "Ġsession": 8471,
  "!\"": 5327,
  "fter": 1061,
  "ense": 1812,
  "cular": 8960,
  "action": 3239,
  "Ġchart": 8496,
  "èµĦæĸĻ": 6492,
  "Ġaccount": 2733,
  "Ġman": 688,
  "ĠFore": 6055,
  "Ġincluding": 1897,
  "çĹ": 1828,
  "Ġconfig": 7790,
  "čĊĠ": 4503,
  "ĊĠĠĠĠĠ": 1361,
  "Ġrestrict": 9579,
  "ĠCommission": 6669,
  "ressed": 6520,
  "Ġlik": 6320,
  "ç³": 828,
  "SA": 7590,
  "em": 421,
  "ĠRights": 9741,
  "ABLE": 6959,
  "uthors": 8112,
  "è°ĥæķ´": 5400,
  "ĠIf": 1440,
  "Ġarg": 2860,
  "Ġbrought": 5019,
  "Ġexpected": 4577,
  "Ġconsists": 9870,
  "ĠPart": 3805,
  "Ġorganization": 5018,
  "Ġseemed": 7051,
  "2016": 7774,
  "Ġdetermine": 4834,
  "Ġiron": 7914,
  "åľ¨äºİ": 6800,
  "è®¤å®ļ": 6424,
  "UES": 5213,
  "Ġchoose": 5108,
  "Ġjournal": 7979,
  "Ġconsum": 3474,
  "çī©": 1018,
  "head": 3137,
  "çĮ®": 5035,
  "Ġits": 965,
  "ĠEvery": 6633,
  "Ġhomes": 7755,
  "æľī": 519,
  "å®Įæķ´": 9290,
  "æĮ¯": 7676,
  "Ġ=": 561,
  "éĩĳ": 1492,
  "èĩªæĪĳ": 7796,
  "Ġcode": 4383,
  "Ġmess": 6270,
  "V": 56,
  "éľ²": 8810,
  "atal": 8725,
  "æ³¨": 2362,
  "Ġreact": 7000,
  "low": 794,
  "èħ": 4218,
  "è¶Ĭ": 3045,
  "ĠSo": 2299,
  "Ġsil": 4475,
  "Ġagain": 1446,
  "åĽ½": 547,
  "Ġ40": 3374,
  "ĠMich": 5758,
  "Ġphil": 7159,
  "Ġtea": 8569,
  "Ġnut": 4013,
  "çĽĳç®¡": 6468,
  "Å«": 7187,
  "(\"": 2276,
  "Ġmod": 1364,
  "Ġrent": 9005,
  "æ·±": 2385,
  "ãĢĲ": 6324,
  "Ġearth": 4538,
  "æĸ¹å¼ı": 2432,
  "Ġestate": 9624,
  "Ġinstrument": 8763,
  "ä¼´": 9740,
  "Ġdiverse": 9080,
  "éĹ¨": 2218,
  "åĨ": 527,
  "acy": 3224,
  "Ġgroup": 2176,
  "though": 3144,
  "ult": 592,
  "Ġfamous": 8387,
  "Ġ2022": 9173,
  "å½»": 9270,
  "ellect": 8591,
  "type": 3280,
  "åĨĻ": 4057,
  "riend": 2050,
  "ĠMicro": 7785,
  "Ġrecycl": 9788,
  "Ġmaybe": 6857,
  "éĢģ": 6392,
  "Ġfram": 4132,
  "åĪĻ": 1496,
  "åĬŁ": 2333,
  "æĶ¿æ²»": 3400,
  "æ¸ħ": 2646,
  ",\"": 2006,
  "æ¶¦": 8820,
  "IV": 4642,
  "èĢĮæĺ¯": 7313,
  "Ġsuppl": 8168,
  "ious": 977,
  "uthor": 2270,
  "agn": 2766,
  "Ġfeet": 4661,
  "ĠWest": 4410,
  "çĻ»": 6227,
  "Ġaccom": 5427,
  "æİ¨åĬ¨": 4223,
  "cl": 597,
  "ches": 3399,
  "Ġseparate": 7164,
  "åį±": 4455,
  "height": 7389,
  "Ġenh": 4967,
  "line": 1729,
  "98": 4068,
  "Ġexp": 1101,
  "å°ĳ": 2442,
  "è®¾ç«ĭ": 9185,
  "ut": 332,
  "56": 5371,
  "rt": 7701,
  "akes": 1716,
  "äººæ°ĳæ³ķéĻ¢": 5561,
  "ĠForm": 8116,
  "After": 6377,
  "Ġanim": 2998,
  "Ġworked": 5367,
  "Ġfunding": 7634,
  "ı": 240,
  "Ġexplan": 8221,
  "Ġsuggest": 3216,
  "å·²": 2062,
  "Ã³": 8886,
  "Ġrates": 5739,
  "very": 734,
  "è¿Ļæĺ¯": 5664,
  "çģ«": 6933,
  "Ġharvest": 9686,
  "éķĩ": 5529,
  "aturally": 9353,
  "Ġrelevant": 6079,
  "èµĦæºĲ": 2377,
  "ãĢģãĢĬ": 8315,
  "åī": 1021,
  "å§Ķåĳĺ": 6266,
  "äººå·¥æĻºèĥ½": 9430,
  "div": 3968,
  "ä": 163,
  "off": 3835,
  "Ġaccur": 6842,
  "ĠAgricult": 8751,
  "Ġide": 1928,
  "Ġgo": 623,
  "ĠApr": 4742,
  "æĿŁ": 6503,
  "CON": 7314,
  "å¹¿": 2849,
  "Ġ//": 2592,
  "è¿Ľä¸ĢæŃ¥": 4491,
  "å¤«": 5874,
  "åħ·": 1313,
  "uff": 2794,
  "ĠPal": 6838,
  "ister": 3246,
  "ç¦ģ": 8188,
  "Ġoffic": 3418,
  "ĠPresident": 5428,
  "Ġfalse": 5017,
  "Ġcurriculum": 6822,
  "Ġconc": 2652,
  "Ġemerg": 4729,
  "ç´§": 6091,
  "Ġ`": 3455,
  "):": 2786,
  "ç½": 889,
  "Node": 8707,
  "å½±åĵį": 2202,
  "Ġfigure": 6351,
  "Ġon": 357,
  "ĠWorld": 3818,
  "ry": 653,
  "over": 2249,
  "å®ļä½į": 9971,
  "Ġupon": 3018,
  "Ġcomm": 805,
  "çŁ¥": 1481,
  "Ġsigns": 7494,
  "Ġmovement": 5249,
  "âĢ": 313,
  "89": 4434,
  "Ġcolor": 3583,
  "ĠWork": 5473,
  "erscript": 7816,
  "section": 7739,
  "åĲĪçĲĨ": 5375,
  "åĽ¢": 3825,
  "Ġkind": 2632,
  "Ġshowed": 6515,
  "Ġpresident": 7034,
  "åĪ¶": 762,
  "é£": 1654,
  "TH": 5783,
  "Ġwouldn": 7418,
  "å¤´": 4549,
  "ĠIsrael": 6753,
  "ruit": 9661,
  "vernment": 1960,
  "Ġreader": 9227,
  "ÑĤ": 5172,
  "0": 18,
  "Ġeye": 5988,
  "ivity": 3233,
  "come": 4242,
  "valid": 9546,
  "èĤ¡ä¸ľ": 8274,
  "na": 3240,
  "ipment": 4471,
  "Ġille": 9975,
  "Ġidentify": 3950,
  "åĨľ": 1723,
  "Ġsuc": 9533,
  "èª": 8663,
  "iments": 7461,
  "Ùĩ": 9582,
  "By": 3967,
  "Ġrepeated": 9904,
  "ark": 905,
  "Color": 9388,
  "Ġfinally": 6585,
  "Ĉ": 199,
  "illion": 2626,
  "Step": 8719,
  "ĠEach": 6341,
  "ġ": 224,
  "Ġeffectively": 6383,
  "Ġobtained": 8604,
  "Ġrec": 927,
  "Ġreason": 2928,
  "...": 1589,
  "åģĩ": 5920,
  "ĠExpl": 7391,
  "èĩªèº«": 6209,
  "Ġmort": 8203,
  "These": 7355,
  "Ġresulting": 8360,
  "abor": 2761,
  "ination": 2226,
  "ç»Ħç»ĩ": 2306,
  "âĢ¦âĢ¦âĢ¦âĢ¦": 5103,
  "çĺ¤": 8395,
  "ogn": 2586,
  "ĠFamily": 9196,
  "Ġspot": 7061,
  "yer": 8657,
  "dd": 2800,
  "Ġcelebr": 7047,
  "ovember": 5439,
  "ik": 1728,
  "é¼ĵ": 7420,
  "align": 7258,
  "ä¼": 465,
  "Ġcitiz": 5369,
  "Ġ/": 1621,
  "Ġbear": 9304,
  "66": 2918,
  "Ġhop": 5805,
  "ĠHenry": 9824,
  "Ä±n": 9826,
  "more": 5575,
  "è¾": 810,
  "æ¶µ": 7533,
  "ĠThose": 9833,
  "Ġsal": 5005,
  "®": 109,
  "å¤ļæł·": 9216,
  "he": 262,
  "Ġ<": 1117,
  "èĢ": 523,
  "13": 1740,
  "Ġrelated": 3790,
  "yst": 918,
  "ê": 169,
  "Ġaim": 6511,
  "Ġsite": 3603,
  "é¢": 722,
  "Ġbelie": 4806,
  "EL": 4285,
  "Ġmembers": 2979,
  "Ġanything": 3708,
  "ï¼ĮãĢĬ": 9393,
  "ass": 608,
  "Ġ1990": 9274,
  "Ġ64": 7736,
  "Ġant": 3198,
  "Ġinsurance": 7671,
  "ä»": 356,
  "Ġrecent": 4935,
  "ivil": 4106,
  "Ġproport": 8904,
  "å·±": 3199,
  "cur": 3020,
  "Ġcry": 6277,
  "Ġorg": 8628,
  "Ġfully": 5949,
  "è°ĥæŁ¥": 5903,
  "åĬª": 8782,
  "arrow": 6523,
  "å·¥ç¨ĭ": 3667,
  "Ġut": 3792,
  "æĢ§è´¨": 6766,
  "anged": 7575,
  "Ġbased": 2492,
  "Ĺı": 5666,
  "Ġwhatever": 7604,
  "Ġhistor": 4261,
  "Ġvirt": 6031,
  "Ġreferred": 9452,
  "ĠMil": 8198,
  "Ġanalysis": 3635,
  "59": 5310,
  "Ġcommunication": 4866,
  "Ġconversation": 9022,
  "hip": 1291,
  "Ġchurch": 5269,
  "Ġrelease": 6881,
  "éĹ®é¢ĺ": 1482,
  "ĠChrist": 2084,
  "æ£Ģ": 2991,
  "Main": 9333,
  "izes": 5208,
  "ĠLear": 4890,
  "Ġdid": 1285,
  "agon": 9710,
  "Ġlarg": 3711,
  "Ġ85": 9708,
  "ä¼ļ": 715,
  "èĳ": 3215,
  "ously": 6795,
  "().": 7211,
  "ĠSelf": 7950,
  "CA": 8276,
  "ä¼°": 4258,
  "Ġfinancial": 4484,
  "ç»ıæµİ": 1225,
  "ĠIslam": 7140,
  "Ġexpress": 4345,
  "leep": 3903,
  "porary": 7221,
  "---|": 2239,
  "MS": 6025,
  "pecially": 3288,
  "Ġgovern": 5641,
  "by": 2264,
  "ith": 373,
  "ĠCouncil": 6282,
  "ä½Ĩæĺ¯": 4657,
  "AN": 1964,
  "Ġty": 1280,
  "kit": 7687,
  "Ġcircum": 7171,
  "ĠPrinc": 8673,
  "Ġknowing": 9584,
  "Ġmotiv": 6978,
  "hern": 3758,
  "ä»ª": 8933,
  "Ġfriend": 2498,
  "ĊĠĠĠĠĠĠĠĠĠĠĠ": 1300,
  "Ġflav": 9732,
  "ĠGovernment": 6597,
  "ĠBer": 8713,
  "Us": 6517,
  "åŃ¦çĶŁ": 1661,
  "éĢŁåº¦": 7744,
  "çİ": 559,
  "Ġsports": 8000,
  "ards": 2061,
  "ãĢĳ": 6364,
  "Ġmethod": 2350,
  "åħ³æ³¨": 6342,
  "erc": 2342,
  "ä»į": 4677,
  "Up": 7273,
  "och": 8039,
  "Ġtried": 6308,
  "åĳĺ": 1639,
  "ä»¥": 590,
  "Ġadvice": 7878,
  "ç¡®å®ļ": 4359,
  "long": 8694,
  "Ġshare": 3762,
  "çľ": 1217,
  "Ġrid": 8370,
  "tes": 5254,
  "Che": 9626,
  "uild": 3243,
  "Ġsad": 9640,
  "ona": 9482,
  "è¯¥": 2105,
  "gar": 4921,
  "Ġsuitable": 8166,
  "esh": 7572,
  "Ġver": 4236,
  "Ġcars": 8772,
  "çĭ¬": 3557,
  "Ġad": 626,
  "useum": 6474,
  "Ġregard": 3777,
  "()": 1522,
  "æķ´ä½ĵ": 5986,
  "Ġcolon": 7907,
  "çļĦåŁºæľ¬": 5353,
  "ptions": 7994,
  "Ġadapt": 5663,
  "åıĹ": 1774,
  "æĸ¹æ³ķ": 2204,
  "å¼ºè°ĥ": 5685,
  "Ġeval": 3969,
  "Ġclaims": 8619,
  "Ġwet": 6407,
  "ĠSy": 7694,
  "crib": 2542,
  "æĺ¯ä¸Ģ": 9361,
  "Ġterrit": 9647,
  "Ġnotice": 6814,
  "Ġclose": 3287,
  "æĶ¶åħ¥": 4690,
  "çĶ¨äººåįķä½į": 9560,
  "Al": 3606,
  "Ġsimply": 4490,
  "ial": 504,
  "Ġsk": 1439,
  "wise": 4845,
  "Ġte": 678,
  "api": 8972,
  "Ġfix": 9102,
  "ĠMuseum": 9934,
  "Ġequipment": 4997,
  "osoph": 7305,
  "----------------": 771,
  "].": 3231,
  "Ġdrop": 7821,
  "Ġdesign": 1700,
  "ert": 1034,
  "Ġusers": 5936,
  "Ġcomments": 7351,
  "essel": 7955,
  "ħ": 230,
  "aling": 5922,
  "é«ĺåº¦": 8344,
  "Ġmentioned": 7011,
  "åıĺåĮĸ": 3714,
  "Ġey": 2690,
  "Ġ23": 3987,
  "ä¿": 645,
  "å¡": 4566,
  "ĠBank": 8026,
  "ÑĢ": 6425,
  "å¿ĥ": 1413,
  "åį«": 4851,
  "çļĦä¸Ģä¸ª": 9360,
  "ĠVer": 8583,
  "D": 38,
  "ids": 2692,
  "face": 2888,
  "çŁ¿": 7862,
  "çİĩ": 1817,
  "lin": 3985,
  "Ġveget": 5052,
  "sych": 3961,
  "Ġhealthcare": 9273,
  "éĶ®": 4390,
  "ä¼ĺ": 2267,
  "ĠName": 6165,
  "Ġreality": 6743,
  "Ġattack": 4281,
  "Ġsave": 6236,
  "ĠPlay": 8786,
  "åī¯": 9154,
  "ä¸Ĭè¿°": 7521,
  "ĠVe": 8766,
  "äººç±»": 4565,
  "ĠBi": 7437,
  "ãĢĤâĢľ": 7854,
  "Ġcat": 5224,
  "Ġ{": 806,
  "ĠTr": 4632,
  "Ġrese": 1662,
  "item": 4673,
  "çĽ®æłĩ": 2911,
  "ams": 6100,
  "è¿Ŀæ³ķ": 8506,
  "Ġprep": 4297,
  "bar": 3803,
  "Ġways": 3253,
  "Ġfreed": 7343,
  "åıĤèĢĥ": 8842,
  "ä¿Ŀè¯ģ": 5696,
  "Ġfoods": 7038,
  "åħĭ": 3417,
  "Ġfeedback": 8012,
  "Ch": 2319,
  "**": 562,
  "ä»£è¡¨": 4195,
  "Ġprepared": 6867,
  "arent": 1599,
  "ugg": 8891,
  "ç®¡": 1121,
  "ames": 1988,
  "Ġknew": 4944,
  "éħ¸": 6457,
  "Ġdes": 923,
  "ournal": 3840,
  "åĮĹäº¬": 7333,
  "æ´»åĬ¨": 2638,
  "Ġreplace": 7339,
  "vation": 9574,
  "éĹ": 671,
  "Ġsweet": 8267,
  "èĦ±": 7217,
  "uted": 8213,
  "çİ°åľ¨": 8675,
  "Ser": 9608,
  "ive": 456,
  "æİ": 668,
  "äºĮåįģ": 9536,
  "ogen": 7818,
  "ieve": 1992,
  "Ġcock": 6349,
  "Ġopportunity": 4870,
  "................................................................": 5355,
  "Ġsingle": 3613,
  "rupt": 5643,
  "Ġpers": 1179,
  "æĢĿæĥ³": 3054,
  "Ġ1996": 9884,
  "çİ¯èĬĤ": 7794,
  "è¿ģ": 7508,
  "Add": 5334,
  "ĠBaxter": 8347,
  "Ġpredict": 5814,
  "ad": 362,
  "Ġpresented": 6120,
  "Ġcollege": 6045,
  "Ġzero": 9440,
  "inary": 3941,
  "è´¢": 2364,
  "iff": 4724,
  "eah": 8523,
  "æ¬§æ´²": 9965,
  "Ġ50": 3124,
  "Ġfing": 5934,
  "ä¾ĭå¦Ĥ": 5378,
  "ias": 6614,
  "éĢĤ": 2340,
  "Ġdisapp": 7617,
  "éĺ¿": 8485,
  "ĠTe": 1991,
  "ä¸ĭ": 1056,
  "æĶ»": 6996,
  "Ġclos": 6702,
  "Ġperspect": 5917,
  "Ġsection": 4639,
  "ĠAny": 6713,
  "Ġpersonal": 3304,
  "Ġinternational": 5175,
  "Ġgener": 1486,
  "H": 42,
  "ridge": 5134,
  "Topic": 4486,
  "ĠEth": 7524,
  "EST": 7669,
  "Ġwoman": 4914,
  "Ġargument": 7585,
  "æŃ": 665,
  "::": 932,
  "iat": 9506,
  "Ġpossible": 2561,
  "Ġact": 911,
  "ame": 611,
  "Ġ500": 9476,
  "75": 3044,
  "Ġassistance": 7223,
  "Ġrestaur": 8534,
  "ITY": 8011,
  "æ·±åº¦": 9437,
  "Ġrise": 7269,
  "ĠFor": 1618,
  "Ġtruth": 5820,
  "âĢĶâĢĶ": 4804,
  "System": 9152,
  "bal": 6404,
  "Ġsamples": 8482,
  ",": 14,
  "Ġresistance": 7793,
  "ycl": 8032,
  "ĠRuss": 5872,
  "ude": 3135,
  "éĽĨä¸Ń": 7261,
  "Ġdoes": 1380,
  "Ġ2019": 6388,
  "Ŀ": 254,
  "Ġgirls": 6943,
  "Ġcompar": 6529,
  "call": 6429,
  "è£ħ": 4414,
  "ä¿Ŀéļľ": 4241,
  "æĹł": 1526,
  "æ¨": 1518,
  "ä»»ä½ķ": 6124,
  "41": 5429,
  "æ´»": 1436,
  "ãĢĮ": 7537,
  "Ġconduct": 3565,
  "ĠDevelop": 4011,
  "rend": 7649,
  "Size": 7624,
  "Ġresources": 3067,
  "ĉĉ": 866,
  "Ġlarge": 2117,
  "test": 4007,
  "Ġquestions": 3118,
  "nav": 6204,
  "\",\"": 9972,
  "INS": 5383,
  "åŁºäºİ": 4634,
  "ouble": 8601,
  "ync": 8292,
  "onymous": 9921,
  "èµĭ": 7638,
  "åħ¬": 998,
  "Ġimpro": 1895,
  "xn": 7040,
  "åĻ¨": 2113,
  "ĠJews": 8925,
  "Ġturned": 5157,
  "ĠBas": 6899,
  "å¾Ĺ": 1238,
  "Ã¼": 3796,
  "ising": 3073,
  "æł": 582,
  "å®ŀä½ĵ": 9534,
  "ä¹¡": 3596,
  "Ġscen": 5700,
  "Ġreducing": 7552,
  "Ġme": 591,
  "ĠMethod": 8834,
  "ç¡®ä¿Ŀ": 9183,
  "rite": 5144,
  "åŁİ": 2136,
  "æ¯ķ": 8515,
  "ä¸Ķ": 2763,
  "Ġfif": 7933,
  "å°½": 4678,
  "Ġrecently": 6220,
  "ĠHealth": 3697,
  "ãĢĭ": 1133,
  "Ġtrib": 8521,
  "ĠChange": 9314,
  "Ġcame": 2842,
  "aw": 1191,
  "part": 3380,
  "Ġtarget": 3203,
  "çıŃ": 8721,
  "è®¾": 1027,
  "Ġcan": 490,
  "Ġsaying": 5349,
  "æĻ¯": 3694,
  "æĹ¶éĹ´": 3196,
  "åħ³éĶ®": 4761,
  "ĠMar": 2593,
  "ole": 2594,
  "Ġwithin": 1955,
  "Ġsurg": 9633,
  "Ġsugar": 6749,
  "åĪĨåŃĲ": 7465,
  "æ²¹": 7181,
  "ç»ıæµİåıĳå±ķ": 8475,
  "åĨħéĥ¨": 6288,
  "Ġseason": 5046,
  "é": 168,
  "Ð½": 5709,
  "porate": 7653,
  "*.": 6221,
  "ĠStrateg": 8543,
  "ç¾İåĽ½": 4326,
  "ĠFood": 7249,
  "IT": 2263,
  "position": 6150,
  "å·¨": 7008,
  "plic": 3868,
  "éĺĲ": 9919,
  "ĠUn": 1233,
  "è¡ĮåĬ¨": 7916,
  "Ġbehind": 4182,
  "Ġp": 281,
  "Ġcomes": 3827,
  "è´´": 9548,
  "ĠCarolina": 9350,
  "TER": 5625,
  "Ġform": 1421,
  "Ġdom": 3584,
  "é¼": 5066,
  "Ġpush": 6705,
  "åĸ": 2354,
  "ä¹": 436,
  "Ġthing": 2895,
  "iced": 7232,
  "$(": 6880,
  "Ġdevice": 6127,
  "Ġwind": 3172,
  "çļĦèĥ½åĬĽ": 9828,
  "çķ": 1204,
  "Ġencourage": 6779,
  "Ġ15": 1882,
  "ĠBro": 7068,
  "phys": 7808,
  "Ġreturn": 1777,
  "Ġeffective": 3849,
  "çĨŁ": 6864,
  "Ġcities": 7666,
  "Ġgenetic": 9517,
  "Ġtechn": 1582,
  "Ġproviding": 5078,
  "ence": 695,
  "eng": 1610,
  "Ġax": 9079,
  "(),": 6434,
  "æ¦Ĥå¿µ": 4256,
  "SIZE": 2723,
  "æ½": 4617,
  "N": 48,
  "Ġrelation": 9848,
  "isions": 3737,
  "å¾Ħ": 5039,
  "sembly": 8446,
  "ography": 5063,
  "Ġincreasingly": 9940,
  "ttp": 3004,
  "plement": 2960,
  "Ġblood": 3293,
  "ially": 2286,
  "ĠHowever": 2618,
  "Ġwatching": 8445,
  "afety": 9667,
  "ĠFrance": 7851,
  "itud": 7935,
  "åŃ¦æł¡": 4928,
  "ia": 691,
  "Ġ**": 2041,
  "è¦Ĩ": 9104,
  "Ġelif": 7663,
  "ĠRem": 5900,
  "Ġeducation": 2433,
  "ĠUK": 6673,
  "Ġrate": 3877,
  "phone": 8381,
  "uous": 5422,
  "Ġpurchase": 7995,
  "ĠOr": 2503,
  "éĤ": 2320,
  "°": 111,
  "93": 5769,
  "Ġ33": 6719,
  "Ġcreate": 2427,
  "çĲĥ": 3590,
  "Ġevery": 1260,
  "é«ĺçŃī": 8058,
  "Ġimp": 1053,
  "ĠTN": 3846,
  ")=": 4615,
  "AB": 3927,
  "äº¤æį¢": 9657,
  "ä¸ĢèĪ¬": 3873,
  "è®©": 3268,
  "çŁ¥è¯Ĩ": 2499,
  "ĠConclusion": 8744,
  "è§¦": 8639,
  "æīĺ": 5763,
  "ed": 285,
  "ang": 767,
  "ä¸»ä¹ī": 2123,
  "wn": 1077,
  ".**": 7506,
  "åĽŃ": 6198,
  "py": 3972,
  "æĳ": 4466,
  "reg": 3244,
  "Ġjob": 2986,
  "ĠKh": 6015,
  "ites": 3612,
  "ĠCreat": 8919,
  "Ġneeded": 3388,
  "åŃ¦ä¹ł": 2248,
  "Ġcl": 627,
  "800": 7444,
  "ce": 337,
  "Ġdepend": 5797,
  "pp": 431,
  "èĦī": 7716,
  "Ġmostly": 7605,
  "Ġ2": 403,
  "ä¸": 293,
  "uman": 5554,
  "Ġoil": 4750,
  "Ġfacts": 9416,
  "æīĵ": 4247,
  "2019": 7725,
  "2010": 8676,
  "rought": 4160,
  "Ġ49": 8934,
  "ä¸įå¾Ĺ": 7153,
  "Ġused": 1104,
  "ner": 1731,
  "æĸ¹æ¡Ī": 5299,
  "Ġrepresent": 3051,
  "aring": 2873,
  "ines": 1383,
  "sw": 1821,
  "Ġcop": 6724,
  "ĠGe": 3615,
  "Ġarticle": 4217,
  "æĹ¶": 772,
  "Ġlives": 3812,
  "cluding": 8809,
  "éª¨": 7792,
  "æĿĳ": 2513,
  "Ġcirc": 3545,
  "ĠCharles": 8858,
  "Ġtake": 1581,
  "tr": 4844,
  "MENT": 8870,
  "<|im_start|>": 1,
  "Ġparticipants": 6109,
  "MA": 4910,
  "uck": 2579,
  "|----------------": 4618,
  "ug": 1764,
  "Ġdon": 1516,
  "Ġforms": 5083,
  "åĬ³åĬ¨èĢħ": 8280,
  "ĠCl": 1860,
  "PE": 7678,
  "ĠSu": 3128,
  "Ġroll": 6649,
  "Ġinterest": 1947,
  "Sh": 3979,
  "ç¥¨": 7022,
  "comm": 5959,
  "åķĨåĵģ": 5871,
  "åĳ¨": 3376,
  "äºĮ": 1387,
  "Ġt": 260,
  "Ġbr": 3217,
  "iture": 9570,
  "æ²¿": 7657,
  "Ġkiss": 8603,
  "ĠComput": 9561,
  "ÅŁ": 6066,
  "IS": 2787,
  "ç¼©": 7019,
  "Ġopen": 2129,
  "Ġinteraction": 9107,
  "Ġimpact": 2544,
  "ç»Łä¸Ģ": 4589,
  "æĺİæĺ¾": 6365,
  "OW": 6797,
  "èĢħçļĦ": 5279,
  "Ġinn": 4775,
  "åĩºçļĦ": 9460,
  "Ġ]": 8127,
  "æİĪ": 5235,
  "ä»·æł¼": 5316,
  "çļĦæ³ķå¾ĭ": 9369,
  "à¤Ĥ": 9760,
  "æ³¨éĩį": 9010,
  "Ġkn": 6885,
  "ĠUnderstanding": 7433,
  "Ġcolle": 9089,
  "perty": 7752,
  "Ġstreng": 3998,
  "Ġactivity": 3795,
  "osa": 8447,
  "Ġdisabilities": 9766,
  "ience": 1224,
  "aked": 7972,
  "åħ±åĴĮ": 8743,
  "oming": 5876,
  "ĠLou": 7092,
  "ä¾ĽåºĶ": 7668,
  "Ġobserv": 3781,
  "ĠHis": 3404,
  "Ġ($": 7287,
  "ĠPol": 5803,
  "æł·": 2026,
  "Ġlink": 4339,
  "Ġaccept": 3780,
  "å°Ĩ": 1384,
  "Ġpath": 3791,
  "U": 55,
  "Ġphysical": 3485,
  "Ġcomplete": 2937,
  "Ġscre": 9793,
  "ref": 3154,
  "Ġsatisf": 5782,
  "åĮħ": 1796,
  "IE": 9905,
  "Ġtransport": 4788,
  "çļĦå¤§": 7324,
  "ī": 234,
  "èº«": 2268,
  "Ġchall": 2923,
  "\\(": 7118,
  "Ðº": 9755,
  "ē": 210,
  "--": 301,
  "Ġrenew": 7672,
  "orrow": 7359,
  "äºīè®®": 9625,
  "itative": 8852,
  "Ġsolve": 8339,
  "Ġdel": 2339,
  "43": 4830,
  "Ġuse": 928,
  "èĢĥ": 1913,
  "Ġprofessionals": 9434,
  "Ġlear": 1147,
  "æĸ¯": 3427,
  "Ġ!=": 5816,
  "çĶ²": 7976,
  "Ġsens": 3431,
  "Ġbur": 3898,
  "lement": 3768,
  "é¢Ħ": 2631,
  "cribe": 9923,
  "Ġensuring": 9575,
  "Ġdecided": 6336,
  "Ġ&&": 3187,
  "èĥĮ": 5011,
  "Ġtot": 3063,
  "resents": 8301,
  "åħį": 4196,
  "All": 4652,
  "acebook": 9628,
  "éģ¿åħį": 8067,
  "ç®Ģåįķ": 7447,
  "Ġtool": 2961,
  "iting": 2924,
  "ĠĠĠĠĠ": 685,
  "Ġir": 5147,
  "Ġcombined": 9120,
  "Ġvisible": 9390,
  "Ġ53": 8994,
  "éĢĶ": 6532,
  "ĠMart": 7603,
  "åĨľæ°ĳ": 6727,
  "Ġreduced": 7284,
  "ĠCor": 4353,
  "çī¹å¾ģ": 4210,
  "ĠSe": 1521,
  "ĠEx": 1678,
  "52": 5764,
  "äº¡": 7065,
  "Ġselect": 5608,
  "Ġobject": 2412,
  "Ġtook": 3274,
  "Ġspaces": 9595,
  "ĠGener": 4683,
  "Å": 132,
  "Ġbelieve": 3473,
  "Ġpure": 8945,
  "Ġeff": 1082,
  "Ġbel": 1713,
  "Ġdiscovered": 8211,
  "ä»»": 1546,
  "ä¼ļè®®": 7980,
  "pan": 5410,
  "æĿ¡ä»¶": 3342,
  "ĠPy": 5851,
  "Ġcash": 8927,
  "ĠUN": 6187,
  "Ġ#": 1685,
  "åıªæĺ¯": 8948,
  "ç»Ħ": 1372,
  "çĶ¨äºº": 8915,
  "æĬķ": 2369,
  "Ġessential": 3252,
  "éľ": 1243,
  "Ġcy": 4077,
  "mdl": 8584,
  "Ġsome": 816,
  "irect": 1595,
  "**:": 7554,
  "xe": 9850,
  "cf": 9636,
  "ĠAl": 1559,
  "%ï¼Į": 7944,
  "Ġapplied": 5918,
  "Ġped": 7099,
  "abric": 7803,
  "acc": 3920,
  "02": 4918,
  "æķĻèĤ²": 1570,
  "oves": 9371,
  "èī": 1375,
  "Ġreve": 5225,
  "textsuperscript": 7887,
  "ä¸ĸçķĮ": 3108,
  "Ġfuel": 6483,
  "ĠLouis": 8758,
  "Ġemotional": 7001,
  "Ġcharacteristics": 6650,
  "Ġhar": 4938,
  "iler": 9286,
  "ague": 7354,
  "Ġrest": 2053,
  "èĤ¡": 3270,
  "åĮ»": 3528,
  "è§Ħå®ļçļĦ": 7347,
  "verty": 8671,
  "ä¾": 774,
  "uc": 1219,
  "Ġrob": 6302,
  "Ġforth": 9334,
  "ä½ľåĩº": 6674,
  "æľŁ": 1214,
  "Ġbehavi": 5234,
  "rian": 8014,
  "lements": 8952,
  "ower": 1197,
  "AP": 2985,
  "cember": 5475,
  "Ġinformation": 1501,
  "åŃ¦çĶŁçļĦ": 5795,
  "Ġpromot": 5361,
  "çº§": 1938,
  "Ġmoment": 4658,
  "grad": 9764,
  "35": 2968,
  "pper": 4415,
  "ĠTwo": 7830,
  "19": 1015,
  "2012": 8460,
  "ision": 1967,
  "ĠCode": 7764,
  "rier": 8662,
  "ĠDi": 8403,
  "Ġever": 3134,
  "ç¤": 826,
  "ĠMc": 4095,
  "Ġslightly": 7636,
  "ide": 575,
  "Ġask": 2099,
  "Ġserv": 1363,
  "æĪĺ": 2031,
  "èī¯": 4612,
  "h": 74,
  "ooth": 7356,
  "éĿ©åĳ½": 6471,
  "Ġcharg": 6711,
  "åĮĸ": 686,
  "ues": 1346,
  "Ġfailed": 8488,
  "ĠÙ": 3500,
  "Ġsever": 2394,
  "Ġprovide": 2132,
  "Ġsign": 1418,
  "87": 4821,
  "å¾ªçİ¯": 9101,
  "ite": 755,
  "ĠArch": 7512,
  "Ġflood": 8195,
  "Ġmathemat": 6370,
  "Ġside": 2709,
  "ician": 9682,
  "Ġdif": 936,
  "ĠEl": 4351,
  "flow": 5878,
  "sem": 9976,
  "å®ĭ": 6712,
  "ief": 3110,
  "Ġstring": 4970,
  "Ġorganizations": 6219,
  "urope": 3306,
  "Ġmanage": 6732,
  "Ġformed": 7834,
  "ve": 318,
  "Ġfindings": 7917,
  "Ġlegis": 7563,
  "åĽ½åĨħ": 6085,
  "Ġsol": 1718,
  "aged": 3366,
  "è¢«": 1647,
  "æķħ": 3686,
  "Ġforget": 9370,
  "arm": 1462,
  "ixed": 4449,
  "ĠBible": 8975,
  "Ġchallenges": 5024,
  "Ġprote": 5787,
  "Ġsoc": 1431,
  "Ġres": 636,
  "Ġinvestig": 6587,
  "çĻ": 1827,
  "Ġnum": 1295,
  "Ġhigher": 3153,
  "ä¸ªäºº": 4222,
  "lands": 4480,
  "æķĻ": 869,
  "aily": 4219,
  "Ġremoved": 7263,
  "vent": 1415,
  "Ġvac": 9759,
  "å±Ģ": 2806,
  "ç»©": 6318,
  "v": 88,
  "Ġ150": 8638,
  "che": 3173,
  "Ġyes": 8826,
  "riers": 9857,
  "éĢļå¸¸": 6582,
  "Ġyou": 375,
  "Ġlevel": 1552,
  "ATE": 5978,
  "è±": 1912,
  "ç¹ģ": 8133,
  "éĻį": 3351,
  "ì": 171,
  "ç¾¤ä¼Ĺ": 7912,
  "ĠIr": 9424,
  "ĠSecurity": 9613,
  "Ġeffort": 3407,
  "Ġreference": 7100,
  "Ġcarefully": 8833,
  "Ġleg": 2261,
  "é¡": 1107,
  ":\"": 6114,
  "ided": 4079,
  "ä¼ĺåĮĸ": 6865,
  "æķĪåºĶ": 9201,
  "ram": 830,
  "Ġliqu": 7647,
  "Ġdra": 6848,
  "%;": 6855,
  "ĠManagement": 5722,
  "Ġview": 2610,
  "ĊĠ": 638,
  "ased": 1178,
  "å¾Ģ": 3325,
  "R": 52,
  "Ġadjust": 6360,
  "Ġ(_": 4365,
  "âĢĿãĢģâĢľ": 8304,
  "ä»£": 1051,
  "Ġcreated": 3930,
  "ĠAD": 8514,
  "azing": 8053,
  "ĠFund": 8862,
  "æĥħå½¢": 8140,
  "ĠReal": 8659,
  "${": 6137,
  "iy": 6307,
  "Em": 7685,
  "Ġfavor": 5715,
  "Ġbasis": 5626,
  "å®Ī": 6405,
  "ine": 553,
  "anguage": 2107,
  "Ġinteg": 7956,
  "ĠTechn": 4611,
  "Ġtypical": 9499,
  "ĠAssessment": 9663,
  "è½¬": 1758,
  "Ġcum": 9744,
  "Ġbeing": 1353,
  "çĦ": 1332,
  "Ġchoices": 8600,
  "ags": 4116,
  "Ġtargets": 9105,
  "th": 414,
  "istry": 4461,
  "03": 4412,
  "Ġwrit": 1847,
  "ners": 3462,
  "verse": 3853,
  "200": 1899,
  "ĠĠĠĠĠĠĠĠĠĠĠĠĠĠĠĠĠĠĠĠĠĠĠĠĠĠĠ": 3817,
  "iding": 5660,
  "Ġan": 393,
  "play": 3055,
  "à¥ĩ": 7063,
  "åĳ½": 2857,
  "ison": 3066,
  "åħ³äºİ": 3811,
  "ĠSection": 3699,
  "Ġj": 634,
  "ĠPeople": 6089,
  "ĠOctober": 5202,
  "ary": 657,
  "G": 41,
  "to": 1739,
  "lor": 6067,
  "-----|": 7088,
  "è®ºæĸĩ": 9279,
  "essions": 8635,
  "è´¢æĶ¿": 5690,
  "Ġminim": 9299,
  "çĻ½": 3902,
  "ena": 9082,
  "Ġperman": 8807,
  "ç»©æķĪ": 9864,
  "Sub": 7265,
  "æĴĳ": 9417,
  "idate": 7500,
  "irection": 5033,
  "Ġcomp": 630,
  "ua": 9457,
  "èĥ½åĬĽ": 2089,
  "Ġdim": 5649,
  "$": 6,
  "ĠStart": 9779,
  "ides": 2649,
  "nic": 6455,
  "åĭ": 4453,
  "Ġsand": 6997,
  "ĠUs": 4751,
  "Ġsides": 8237,
  "çĽ®": 1236,
  "ĠĠĠĠĠĠĠĠĠĠĠĠĠĠĠĠĠĠĠĠĠĠĠĠĠĠĠĠĠĠĠĠĠ": 9239,
  "Ċĉ": 1701,
  "Error": 6147,
  "ãĥ": 6558,
  "Ġclear": 2615,
  "rax": 8900,
  "ividual": 1999,
  "ĠQ": 1809,
  "Ġdegree": 5908,
  "itive": 1968,
  "Ġluck": 9981,
  "INT": 8426,
  "Ġneg": 3358,
  "èĢħ": 925,
  "éļľç¢į": 9675,
  "SP": 7148,
  "Ġadequ": 9465,
  "Ĭ": 235,
  "Ġcamera": 9036,
  "æĵįä½ľ": 5135,
  "Ġstret": 8888,
  "ç©ºéĹ´": 4036,
  "ç¨³å®ļ": 5463,
  "iven": 1930,
  "import": 3186,
  "Ġnational": 3680,
  "iah": 8920,
  "å®ŀçİ°": 2240,
  "ector": 4166,
  "è´Ł": 3383,
  "Ġchildren": 1367,
  "Ġowned": 9794,
  "ster": 4188,
  "ĠSch": 4980,
  "Ġse": 483,
  "å¯Į": 3954,
  "Ġcoord": 5606,
  "aching": 2581,
  "Introduction": 6539,
  "atur": 4906,
  "ters": 1755,
  "Ġtw": 993,
  "Ġpub": 3175,
  "ĠOver": 5847,
  "ĠResources": 9242,
  "ach": 674,
  "anch": 4971,
  "itch": 3891,
  "build": 6000,
  "ately": 2595,
  "ãĢģâĢľ": 6965,
  "«": 107,
  "Ġend": 1169,
  "ption": 1617,
  "Ġtrends": 9899,
  "Ġincreases": 7377,
  "ĠTor": 8921,
  "Ġinterview": 5968,
  "with": 5210,
  "ĠWe": 1199,
  "NE": 8310,
  "Ġshap": 7593,
  "Ġmilitary": 5933,
  "Ġdepos": 9521,
  "Ġburied": 9403,
  "Event": 9603,
  "scape": 7844,
  "our": 521,
  "åªĴ": 7150,
  "Ġimplement": 3343,
  "ĠIndust": 9025,
  "ĠPot": 9622,
  "respond": 7080,
  "è·µ": 2718,
  "å¼ł": 3491,
  "è½¬åĮĸ": 8440,
  "(&": 7913,
  "ä¿ĿéĻ©": 6105,
  "Ġemp": 7485,
  "Ġpupils": 6696,
  "Ġhappy": 6516,
  "æ³": 518,
  "æ±ī": 4147,
  "æ½ľ": 6958,
  "Ġregions": 8383,
  "oma": 7621,
  "éĢı": 7441,
  "iodiversity": 9288,
  "æľº": 999,
  "æ±Ł": 4502,
  "ĠState": 2898,
  "Ġhalf": 3677,
  "Ġhus": 7539,
  "Ġi": 1934,
  "Ġstuff": 6625,
  "ĠFOR": 7541,
  "?âĢĿ": 5209,
  "Ġrather": 3387,
  "Ġinit": 3331,
  "Ġstorage": 6821,
  "aken": 2772,
  "æĻ®": 3720,
  "ok": 616,
  "ria": 8621,
  "Ġport": 3577,
  "istant": 9413,
  "è¿Ľè¡Į": 1438,
  "ĠâĢ¢": 1952,
  "Ġstru": 5472,
  "Ġoperation": 6730,
  "äº¬": 5098,
  "ç¨ĭåº¦": 4482,
  "On": 3391,
  "Cl": 3334,
  "ness": 1354,
  "Ġanx": 7431,
  "Ġ@": 2838,
  "ĠAlex": 9039,
  "ĠStreet": 6168,
  "Go": 6592,
  "\")": 2984,
  "outhern": 5822,
  "Ġopened": 7632,
  "ç¯": 6435,
  "çĶ°": 7218,
  "ledge": 2229,
  "åħģ": 9493,
  "Ġwife": 6027,
  "éĺ¶": 2907,
  "ä¿¡": 1186,
  "ç¬¬äºĮ": 3765,
  "Ġendif": 9409,
  "prot": 9302,
  "Ġresponses": 8668,
  "ware": 2058,
  "çĽ¸åħ³": 2668,
  "Ġexposure": 7651,
  "Ġyear": 873,
  "Ġcompetition": 8924,
  "use": 2351,
  "os": 458,
  "ney": 3326,
  "bt": 3115,
  "-------------|": 7896,
  "ull": 1435,
  "l": 78,
  "Ġreleased": 7667,
  "ĠDuring": 6816,
  "ç¬¬": 1134,
  "Ph": 5194,
  "ĠRad": 9947,
  "ener": 1075,
  "è±¡": 2046,
  "çī": 646,
  "çº³": 3753,
  "Ġfeels": 9878,
  "äººæ°ĳ": 2231,
  "Ġexposed": 8969,
  "AGE": 8674,
  "\"\"": 9783,
  "æĹı": 2486,
  "bing": 9966,
  "ä¸ĸ": 1891,
  "car": 8987,
  "Ġoccurred": 8665,
  "æł¸": 2392,
  "%)": 6689,
  "åĨľæĿĳ": 4874,
  "ç¼ĵ": 7841,
  "Ġdem": 2030,
  "æĪĲæŀľ": 5965,
  "ĠMexico": 9148,
  "æĪ¿": 3743,
  "rial": 4696,
  "Ġlooking": 3582,
  "æķ£": 5885,
  "Ġarchitect": 7005,
  "è¿ĩç¨ĭä¸Ń": 4211,
  "Ġprevious": 4085,
  "ĠAcademy": 8687,
  "ager": 3938,
  "é¢Ĩ": 2056,
  "That": 5721,
  "Ġhair": 5710,
  "ç²": 1767,
  "sh": 1635,
  "åĬ": 394,
  "å°ı": 1629,
  "St": 1340,
  "çĦ¶åĲİ": 8789,
  "è®°å½ķ": 8985,
  "ell": 571,
  "Ġtakes": 4429,
  "Ġadult": 4347,
  "ĠGu": 3369,
  "erson": 3767,
  "åıªæľī": 5977,
  "ain": 462,
  "Ġdecisions": 5081,
  "è¦": 613,
  "Ġwanted": 4399,
  "ĠAfter": 3971,
  "Ġupd": 7720,
  "Ġlinked": 9387,
  "ux": 4295,
  "ĠĠĠĠĠĠĠĠĠĠĠĠĠĠĠĠĠĠĠĠĠĠĠĠĠĠĠĠĠ": 9002,
  "Ġpossibly": 9776,
  "å°Ħ": 4796,
  "Ġminutes": 4112,
  "Ġcancer": 5090,
  "gress": 3126,
  "Ġincrease": 3099,
  "åĤ¨": 4842,
  "Ġlead": 1669,
  "ä½¿": 1206,
  "Ġneighbor": 8367,
  "artment": 2902,
  "æİ§åĪ¶": 3261,
  "ç©º": 2468,
  "Ġfound": 1604,
  "åĩĨç¡®": 8453,
  "after": 8825,
  "at": 270,
  "ĠAustral": 5219,
  "ib": 625,
  "ĠSl": 8539,
  "ç¼ĺ": 9861,
  "Ġmark": 1945,
  "ound": 851,
  "Ġdetect": 8957,
  "being": 7062,
  "Á": 128,
  "åºľ": 2073,
  "å§Ķ": 3457,
  "Ġstrength": 5159,
  "Comp": 6500,
  "Ġ||": 5364,
  "æīį": 2379,
  "Ġbelief": 6445,
  "âĢĿ,": 7401,
  "Ġbillion": 7484,
  "79": 5059,
  "Ġneed": 909,
  "ĠØ§ÙĦØ": 8724,
  "Ġ300": 9483,
  "pos": 1815,
  "ä¹ĭ": 885,
  "Ġplants": 4043,
  "è®¾è®¡": 2659,
  "èµ·": 1709,
  "omb": 6908,
  "rad": 2585,
  "Ġpolicies": 5989,
  "äºĴèģĶç½ĳ": 6969,
  "èİ·åıĸ": 9341,
  "æĬ¥": 2440,
  "ãĢģ": 387,
  "Ġrecognize": 9691,
  "Ġthose": 1404,
  "ĠEconom": 8075,
  "uring": 1181,
  "lect": 913,
  "rix": 8040,
  "æĽ²": 6314,
  "enses": 7084,
  "ĠMor": 6391,
  "Ġimpossible": 9062,
  "ol": 328,
  "ĠSec": 8035,
  "Ġredu": 1993,
  "è´§å¸ģ": 4593,
  "Ġprison": 8174,
  "ä½ľèĢħ": 8450,
  "Ġste": 3794,
  "rec": 3733,
  "Ġdr": 2983,
  "Ġnet": 3169,
  "ograph": 2655,
  "ypes": 5926,
  "Some": 6993,
  "urning": 6464,
  "åĪĽ": 1479,
  "Ġcollection": 5833,
  "Ġapplications": 5488,
  "Ġarticles": 8747,
  "Ġacademic": 6130,
  "aning": 9131,
  "Ġgreater": 4604,
  "Ġpressure": 4760,
  "Ġlanguages": 8666,
  "',": 1675,
  "Ġsound": 3088,
  "Ġprocedures": 7927,
  "Ġreceive": 4902,
  "ç½ļ": 5449,
  "in": 263,
  "F": 40,
  "ĠØ§": 4708,
  "Ġdistributed": 9308,
  "Ġhighest": 6807,
  "è§Ħå¾ĭ": 6698,
  "ĠHow": 1426,
  "éĹ»": 9238,
  "æĤ": 2908,
  "sm": 5095,
  "å¼Ģå§ĭ": 4450,
  "Ġoccur": 3550,
  "»": 122,
  "æıĲåĩºäºĨ": 8036,
  "Ġok": 8354,
  "man": 1836,
  "ocratic": 9378,
  "lam": 4613,
  "ade": 1162,
  "Ġoperations": 6233,
  "Ġfree": 2562,
  "While": 7346,
  "åĵģ": 1490,
  "ÙĨ": 4912,
  "||": 4447,
  "ðĿ": 7826,
  "mon": 4274,
  "Ġ100": 2783,
  "Ġsteps": 4957,
  "+": 13,
  "ç½Ĺ": 6428,
  "lick": 6886,
  "Ġevidence": 4014,
  "æĢİ": 9103,
  "æ²": 853,
  "ĠFrench": 5611,
  "ĠHen": 8151,
  "spect": 8172,
  "å±ŀäºİ": 5692,
  "çļĦ": 309,
  "Ġadvanced": 7612,
  "05": 4027,
  "Ġtrue": 2969,
  "Ġprojects": 4638,
  "åħ¶": 837,
  "è°±": 8375,
  "aturday": 9243,
  "),(": 5337,
  "ya": 7881,
  "Ġworry": 9696,
  "erv": 808,
  "Ġlatest": 8733,
  "onym": 8275,
  "æĽ¿": 8100,
  "Ġbeginning": 5362,
  "Ġamazing": 9860,
  "ĠChurch": 5152,
  "æĬµ": 7600,
  "PO": 9800,
  "Ġissues": 3322,
  "Ġdiv": 4547,
  "ata": 980,
  "ities": 870,
  "Ġdiffe": 1129,
  "çĽ®åīį": 4774,
  "Ġtail": 9139,
  "erved": 7645,
  "éľĢ": 1396,
  "è®Ń": 4349,
  "iver": 2504,
  "ç§": 555,
  "çĶ³è¯·": 6061,
  "ead": 2770,
  "ĠJapan": 5546,
  "ĳ": 242,
  "Ġbeyond": 5549,
  "Now": 6594,
  "åĽŀ": 2953,
  "ipp": 2962,
  "Ġjump": 8078,
  "ĠMat": 5558,
  "Ġiniti": 6433,
  "ini": 8189,
  "irm": 4619,
  "Ġactually": 3301,
  "Ġtwo": 1138,
  "è´¦": 9415,
  "2": 20,
  "ç§į": 1020,
  "à²": 3397,
  "ipe": 6725,
  "2011": 8905,
  "reet": 3882,
  "Ġscore": 7342,
  "ĠRe": 1003,
  "an": 284,
  "è½¯ä»¶": 7499,
  "---|---|": 4772,
  "Ġnil": 5100,
  "31": 4102,
  "ros": 7783,
  "vers": 942,
  "èĤ²": 1315,
  "æĸĩæĺİ": 6635,
  "Ġsustainable": 6399,
  "ç´¯": 7390,
  "ports": 4032,
  "ķ": 246,
  "ĠCheck": 8793,
  "eral": 2673,
  "icense": 6586,
  "Ġcoll": 3705,
  "Ġsmaller": 6385,
  "adow": 6722,
  "Ġtiss": 8297,
  "ä¸Ń": 508,
  "éļı": 3075,
  "åİĭ": 4144,
  "box": 4586,
  "Ġspecial": 2926,
  "Ġerrors": 9939,
  "ä¸įæĺ¯": 3989,
  "Ġlocation": 5257,
  "ĠFather": 7814,
  "åħ¸åŀĭ": 9262,
  "d": 70,
  "Ð°": 4530,
  "å°±æĺ¯": 2832,
  "Ġfl": 1142,
  "is": 278,
  "Ġcore": 6489,
  "Ġrules": 5280,
  "ĠĠĠĠĠĠĠĠĠĠĠĠĠĠĠĠĠĠĠĠĠĠĠĠĠĠĠĠĠĠĠĠĠĠĠĠĠ": 8231,
  "æĺ¯ä¸Ģä¸ª": 6918,
  "Ġinformed": 6952,
  "Ġlast": 2048,
  "Ġcold": 5895,
  "å»ºçŃĳ": 6119,
  "Ġworse": 8602,
  "èģĮèĥ½": 9618,
  "ages": 1473,
  "Ċĉĉĉ": 3738,
  "ave": 1512,
  "Ġbeaut": 4515,
  "à¤": 937,
  "æĺ¾èĳĹ": 9411,
  "oot": 2225,
  "code": 4115,
  "ĠBel": 7407,
  "Ġpublic": 1773,
  "and": 432,
  "izing": 3595,
  "ajor": 2396,
  "Ġmur": 8844,
  "oney": 2469,
  "AC": 2512,
  "ç´¢": 4060,
  "ĠEnglish": 3071,
  "Ġ[": 1019,
  "oral": 9889,
  "Ġcall": 1442,
  "Ġing": 7207,
  "éº": 8202,
  "Ġvis": 1732,
  "Ġraise": 7352,
  "Ġtype": 2173,
  "èŀ": 1990,
  "frac": 8620,
  "ç¿": 6776,
  "åĪ¶åº¦": 2161,
  "lev": 3390,
  "rib": 1035,
  "ä¸ĥ": 5688,
  "Ġdone": 2855,
  "per": 551,
  "è½®": 9332,
  "çī¹èī²": 5912,
  "can": 3629,
  "Ġconcentration": 9802,
  "Ġexpert": 6990,
  "äº¤æĺĵ": 5030,
  "B": 36,
  "æŀĦ": 1208,
  "Ġpict": 3894,
  "Ġeverything": 4287,
  "ĠCong": 6362,
  "å°¤åħ¶": 7884,
  "âĢĺ": 6234,
  "ĠBet": 8070,
  "æľĢå¤§": 8021,
  "ĠSpirit": 8505,
  "swer": 2851,
  "clude": 4770,
  "Ġetc": 3563,
  "ĠBe": 2332,
  "91": 6420,
  "tical": 7432,
  "els": 2071,
  "çŁĽ": 6524,
  "Ġkilled": 7901,
  "Ġcand": 6042,
  "ĠOther": 4649,
  "ä¸Ńå¿ĥ": 4444,
  "ep": 707,
  "raz": 7234,
  "idden": 6798,
  "æĿĥçĽĬ": 8009,
  "çĸ¾çĹħ": 8811,
  "Ġappeared": 8896,
  "abetes": 9122,
  "çŁĽçĽ¾": 6591,
  "Ġthick": 8001,
  "ĠEng": 1935,
  "idered": 3832,
  "ĠReview": 7122,
  "è¨": 2487,
  "ULL": 5286,
  "ural": 1250,
  "Ġflat": 7375,
  "Ġyield": 9958,
  "ç§»": 3823,
  "rogen": 7200,
  "æĿĥåĪ©": 4342,
  "}}": 6799,
  "ĠCar": 3106,
  "Ġlearning": 1985,
  "undred": 5114,
  "Ab": 6773,
  "çĺ": 6630,
  "bers": 1800,
  "éĵ¾": 4098,
  "ior": 2037,
  "-----------|": 9731,
  "onents": 7754,
  "reate": 6161,
  "éĽ¶": 8439,
  "çļĦæĸ¹æ³ķ": 8406,
  "Ġstaff": 3772,
  "oice": 4382,
  "æĪĺçķ¥": 4358,
  "ĠNews": 7891,
  "Ġbenef": 2435,
  "rate": 6825,
  "ĠâĢĶ": 3116,
  "iar": 5453,
  "Ġreligion": 7987,
  "éĩĩåıĸ": 6230,
  "çĥ": 2813,
  "cing": 2678,
  "Ġprofession": 7097,
  "mer": 1084,
  "Ġdead": 5336,
  "ality": 1532,
  "{\\": 6973,
  "åħ·æľī": 2139,
  "Ġapprox": 6538,
  "class": 4304,
  "ical": 546,
  "Ġtrust": 5517,
  "Ġfrag": 9459,
  "ĠDevelopment": 4963,
  "Ġpattern": 4325,
  "Ġstand": 1885,
  "ession": 4329,
  "Ø¯": 6870,
  "Ġcomplex": 3229,
  "ç¾İ": 1973,
  "Ġju": 8438,
  "Ġdescrib": 3208,
  "ä¸Ģæ¬¡": 9851,
  "ä¸įåı¯": 6179,
  "éĿ¢ä¸´": 8549,
  "iable": 6202,
  "Ġworks": 2931,
  "i": 75,
  "Ġpartner": 8324,
  "include": 6334,
  "æĮīçħ§": 4951,
  "Ġmid": 6300,
  "My": 5562,
  "åı¯æĮģç»Ń": 8935,
  "Ġconsult": 7070,
  "(": 10,
  "ax": 1213,
  "å¹³è¡¡": 7863,
  "ĠDirect": 5932,
  "å®¡": 2303,
  "Ġforeign": 6575,
  "idth": 3570,
  "Ġ................................................................": 8840,
  "ĠJust": 4981,
  "Ġfit": 5653,
  "ä¸»åĬ¨": 8390,
  "ÿ": 190,
  "able": 598,
  "éĢ": 536,
  "'re": 2508,
  "Ġsituation": 4778,
  "rig": 8230,
  "Ġdoor": 5126,
  "ĠMark": 7561,
  "cons": 6932,
  "åĪĺ": 9436,
  "Ġdogs": 8859,
  "Class": 7224,
  "Ġeffic": 3983,
  "å±ĭ": 9113,
  "Ġpos": 1877,
  "my": 3682,
  "ocks": 5434,
  "ä¸ŃçļĦ": 2214,
  "å¼Ģå±ķ": 5020,
  "ë": 170,
  "çĶŁæ´»": 3249,
  "Ġexec": 5385,
  "17": 1642,
  "åĲĪ": 801,
  "æľ¬è´¨": 7823,
  "Ġacknow": 9236,
  "Ġmission": 5914,
  "other": 1338,
  "Ġallowing": 7722,
  "åı°": 3093,
  "ĠSp": 2092,
  "IF": 6104,
  "Ġmeasure": 4192,
  "ï¼īï¼Į": 4857,
  "al": 280,
  "æµĭ": 2175,
  "elt": 3065,
  "Ġdetail": 3295,
  "ç±»": 1402,
  "ĊĊĠĠĠ": 1447,
  "åĪĿ": 3553,
  "ĠĠĠĠĠĠĠĠĠĠĠ": 1704,
  "å¾": 552,
  "Ġcommunicate": 9145,
  "Ġprior": 4283,
  "Ġsong": 5743,
  "çĽ´": 2407,
  "åı": 343,
  "ĠAnt": 6013,
  "Ġ(*": 9978,
  "ãĢĤâĢĿ": 3591,
  "ĠThen": 4398,
  "ĠIn": 647,
  "çľ¼": 7081,
  "unicip": 9652,
  "Ġnumber": 1712,
  "åĪĨ": 717,
  "formation": 4361,
  "ĠJose": 8325,
  "Ġlisted": 8556,
  "NA": 4028,
  "į": 238,
  "æ£": 2457,
  "Ġdiet": 4859,
  "ç¬¦åĲĪ": 6263,
  "Ġrequ": 1333,
  "ĠServ": 3923,
  "æ°´å¹³": 3449,
  "éĩįè¦ģçļĦ": 6251,
  "DE": 3698,
  "Ġvehicles": 8371,
  "ict": 1256,
  "åıĳå±ķ": 976,
  "07": 6286,
  "Ġteam": 2538,
  "Ġauto": 7096,
  "dule": 8030,
  "Ġpurposes": 7419,
  "cluded": 9327,
  "çĨ": 5192,
  "db": 6977,
  "Ġmovie": 6670,
  "Ġtem": 2372,
  "Ġappearance": 9207,
  "Ġcompletely": 5672,
  "ĠJud": 8939,
  "57": 5659,
  "ä¸´åºĬ": 8577,
  "èŀįåĲĪ": 6340,
  "ĠCal": 2976,
  "å§": 1596,
  "aterial": 1868,
  "éĢŁ": 2815,
  "PA": 6231,
  "ources": 1814,
  "Ġinvolved": 4244,
  "ĠApp": 3008,
  "Ġkept": 6092,
  "Ġmaking": 2403,
  "Ġability": 3648,
  "å¼Ĥ": 3171,
  "Ġapproximately": 7610,
  "èĻļ": 5845,
  "ĠGeorge": 7241,
  "éĺ²": 3266,
  "aks": 8692,
  "è¯ģæĺİ": 6634,
  "çĲĨ": 628,
  "500": 5748,
  "oken": 5397,
  "Ġsurpr": 5766,
  "åĬ¨åĬĽ": 8272,
  "Ġcomput": 2944,
  "ĠInt": 2719,
  "ĠLike": 8027,
  "ob": 887,
  "el": 364,
  "Ġavoid": 4039,
  "Ġtasks": 7085,
  "Int": 3468,
  "éģ": 1050,
  "itudes": 9792,
  "Ġvent": 8691,
  "la": 6212,
  "____": 757,
  "è§ī": 5014,
  "Ġchanges": 3219,
  "ning": 838,
  "ĠĠĠĠĠĠĠĠĠĠĠĠĠĠĠĠĠĠĠ": 2177,
  "å¿ħé¡»": 3365,
  "ä¸¤": 1880,
  "Ġkm": 8528,
  "'ve": 3177,
  "Ġmoney": 2904,
  "çģµ": 6600,
  "Ġmilk": 7282,
  "Ġstatus": 5480,
  "Ġvehicle": 7492,
  "éĺ³": 5982,
  "Ġresource": 6260,
  "ç©¶": 1241,
  "ig": 347,
  "Ġunc": 8597,
  "color": 3151,
  "ruary": 6087,
  "å·²ç»ı": 4103,
  "Ġboys": 9174,
  "Ġsus": 5370,
  "Ġed": 1259,
  "ĠJesus": 3909,
  "ï¼ļâĢľ": 4849,
  "Ġmeans": 2439,
  "bert": 8518,
  "Ġfront": 4026,
  "æĮ": 745,
  "oration": 5892,
  "Ġalternative": 7311,
  "ems": 3450,
  "Ġmore": 684,
  "alse": 3610,
  "Ġphot": 3333,
  "æľ¬èº«": 7833,
  "Ġfelt": 4252,
  "ections": 6180,
  "å¤§éĩı": 8180,
  "ĠSub": 4622,
  "ĠSund": 8006,
  "ction": 654,
  "ara": 5001,
  "Ġ1999": 8557,
  "Ġsites": 5544,
  "Ġhapp": 1942,
  "SS": 4331,
  "è½¬åıĺ": 7895,
  "Ġonce": 3282,
  "Ġacts": 9654,
  "Ġfirm": 7807,
  "èīº": 3543,
  "Ġhistory": 2967,
  "semb": 6794,
  "æľ¨": 8732,
  "Ġwaiting": 9129,
  "Ġserved": 6774,
  "Ġinitial": 6563,
  "å·¥ä½ľ": 1841,
  "ool": 776,
  "Ġhard": 2243,
  "reat": 797,
  "Ġmulti": 9250,
  "æĥ¯": 8922,
  "Ġpred": 3656,
  "Ġcoast": 6583,
  "ĠStudents": 4961,
  "ç¬¦": 4456,
  "g": 73,
  "Ġnature": 3420,
  "iss": 994,
  "yn": 2307,
  "å°": 526,
  "Ġsupports": 9141,
  "iled": 6244,
  "Ġright": 1358,
  "ct": 311,
  "Ġout": 673,
  "];": 9599,
  "åŃ¦æľ¯": 7840,
  "è§Ħå®ļ": 1919,
  "Ġowners": 7551,
  "Ġfilm": 5386,
  "Ġstrateg": 3074,
  "Ġnorth": 6493,
  "Ġve": 2187,
  "ĠMex": 7248,
  "ql": 6830,
  "é£ŀ": 8709,
  "Ġexistence": 9567,
  "Ġconducted": 6250,
  "å±ŀ": 2916,
  "èĲ½": 4005,
  "æ¯į": 6668,
  "ory": 803,
  "Ġcent": 1710,
  "Ġsupport": 1534,
  "nd": 276,
  "va": 9648,
  "äºļ": 5447,
  "ver": 360,
  "åĬłå¿«": 7350,
  "ffic": 3120,
  "Ġalone": 5647,
  "Ġvs": 9773,
  "nam": 3952,
  "eder": 9467,
  "idd": 2613,
  "Con": 2256,
  "Ġmaintaining": 9853,
  "Ġwas": 448,
  "Ġhyp": 7392,
  "ç½ĳç»ľ": 2722,
  "Ġban": 9513,
  "Ġf": 286,
  "Ġcomputers": 9913,
  "iddle": 3854,
  "Ġwait": 7425,
  "raction": 7298,
  "è®¤è¯Ĩ": 4605,
  "Ă": 193,
  "æĢ¥": 6834,
  "Ġequival": 9920,
  "ĠSim": 5469,
  "Ġgre": 2156,
  "new": 2224,
  "ĠCommun": 4240,
  "ç¨ĭ": 884,
  "ales": 3033,
  "Ġraised": 7696,
  "Ġ32": 4321,
  "ĠBay": 7475,
  "yd": 4309,
  "Ġknows": 8034,
  "é¢Ŀ": 3810,
  "Ġ+=": 9228,
  "Ne": 8953,
  "wh": 2735,
  "åŃ¦èĢħ": 7962,
  "ĠMel": 9335,
  "600": 8572,
  "ĠI": 327,
  "å¤Ħäºİ": 7842,
  "Ġsee": 1221,
  "Ġtax": 3492,
  "Ġexerc": 4508,
  "Ġaverage": 4280,
  "çĪ¶": 8690,
  "Ġsevere": 7204,
  "ĠQu": 3476,
  "ĠMax": 9068,
  "âĢ¦âĢ¦": 2535,
  "Ġdescribe": 7240,
  "~": 96,
  "Ġturn": 2363,
  "CH": 3695,
  "Ġprivate": 4293,
  "ä¿¡æģ¯": 1883,
  "éĿŀ": 2005,
  "ĠOnce": 6875,
  "ç»Łè®¡": 7894,
  "è¯ģ": 1489,
  "æĦıè¯Ĩ": 4395,
  "ip": 580,
  "ĠEast": 5132,
  "åħ¥": 1272,
  "åı¯èĥ½": 2549,
  "é©": 2282,
  "Ġfood": 1849,
  "olars": 9660,
  "Ġpool": 9629,
  "Ġconscious": 9214,
  "èĵ": 8846,
  "æĮ¥": 4203,
  "µ": 116,
  "Ġarguments": 9726,
  "Ġsister": 9488,
  "Ġabsolute": 7029,
  "por": 2606,
  "Ġsustain": 4401,
  "æĮī": 3041,
  "Ġgarden": 8418,
  "age": 528,
  "Ġhur": 9188,
  "Ġenough": 2774,
  "no": 5314,
  "Ġlot": 2367,
  "Ġcommunity": 2242,
  "vis": 5266,
  "ting": 1386,
  "ateg": 1845,
  "ator": 1922,
  "Ġcircumstances": 8938,
  "itect": 5809,
  "åı²": 1904,
  "æł¹æį®": 2915,
  "æīĢè°ĵ": 8409,
  "Ã¶": 6350,
  "Č": 203,
  "ĊĠĠĠĠĠĠĠĠĠĠĠĠĠĠĠĠĠĠĠĠĠĠĠ": 6186,
  "ĠFranc": 7943,
  "à": 159,
  "åĪ«": 2023,
  "Ġfollow": 1393,
  "Ġlocations": 9049,
  "target": 9266,
  "ä¹ĭéĹ´": 2858,
  "ĠInst": 3193,
  "ä¸ī": 1283,
  "Ġmix": 7322,
  "éģį": 7182,
  "Ġris": 2209,
  "ure": 444,
  "Ġperiod": 2745,
  "estic": 6339,
  "çĦ¦": 9725,
  "ĠValley": 9354,
  "Ġspl": 7708,
  "æ´¾": 5182,
  "kins": 9733,
  "DA": 5548,
  "water": 4718,
  "pdf": 8907,
  "UM": 2664,
  "``": 7473,
  "pping": 7306,
  "ĠPer": 3643,
  "ĠPop": 8685,
  "Ġ8": 1024,
  "ç®¡çĲĨ": 1520,
  "è¥¿": 2414,
  "ĠPutnam": 6555,
  "ake": 660,
  "itz": 8626,
  "Ġ,": 2865,
  "ĠJan": 4418,
  "æģ¯": 1682,
  "gy": 6138,
  "ä¾¿": 4097,
  "Ġcard": 5377,
  "');": 8812,
  "Ġpulled": 8377,
  "Instance": 5956,
  "ĠAM": 9819,
  "Ġleading": 5582,
  "Ġsaw": 4128,
  "éĢĴ": 9283,
  "prove": 9094,
  "çģ¾": 9990,
  "Ġdefined": 5678,
  "Ġcoun": 4243,
  "è¢": 1550,
  "ort": 454,
  "ually": 1437,
  "ergy": 1976,
  "life": 5708,
  "é¦": 2382,
  "æĸĩ": 888,
  "Ġfields": 6255,
  "Ġsleep": 4749,
  "ç»§": 4111,
  "ustom": 2514,
  "Ġleaving": 7562,
  "å¯Ł": 3426,
  "æħ": 4061,
  "Ġblue": 6054,
  "çħ": 2471,
  "è¿Ĳ": 1730,
  "Ġtrees": 5509,
  "48": 3904,
  "ĠHer": 4016,
  "Ĩ": 231,
  "Ġprefer": 7268,
  "Ġwidth": 8088,
  "è¦ģç´ł": 6326,
  "ĠçļĦ": 9179,
  "Ġadv": 1936,
  "Ġshop": 7115,
  "body": 4998,
  "List": 4989,
  "Ġparticular": 2564,
  "Ġinh": 9803,
  "raft": 3484,
  "Ġass": 988,
  "Ġanyone": 5087,
  "Ġcaused": 5465,
  "Ġmessage": 5407,
  "Ġmut": 5755,
  "Ġwithout": 1916,
  "Ġtut": 9832,
  "æ¬¡": 1884,
  ".": 16,
  "________": 1302,
  "æµģ": 1651,
  "stract": 7789,
  "è¡¨ç¤º": 6278,
  "Ġfacilities": 6847,
  "è¡Įä¸º": 2085,
  "Ġconnections": 9995,
  "å±¥": 6312,
  "ĠExt": 7749,
  "å®ŀéĻħ": 3412,
  "Ġprocess": 1423,
  "post": 9130,
  "Ġ_": 2104,
  "ĠTHE": 5173,
  "æĪĲä¸º": 3060,
  "Ġeat": 4896,
  "--------": 464,
  "Ġrelative": 4645,
  "Ġvalue": 2315,
  "ç´łè´¨": 8689,
  "Ġcomb": 3265,
  "éĩı": 1064,
  "Ġdebt": 8943,
  "Ġsigned": 9272,
  "Ġopinion": 7615,
  "å®¶åºŃ": 6617,
  "çļĦéĹ®é¢ĺ": 5510,
  "ring": 1158,
  "Ġ199": 2102,
  "ĠAd": 1759,
  "Ġopp": 1959,
  "åĲĦä¸ª": 8944,
  "69": 3851,
  "Ġcheck": 3241,
  "De": 4150,
  "Fin": 9754,
  "ortun": 2283,
  "Ġinj": 5409,
  "Ģ": 225,
  "çļĦå½±åĵį": 5637,
  "çī¹çĤ¹": 4809,
  "çĪ±": 6564,
  "ication": 2694,
  "ederal": 4485,
  "ç»ĵ": 1170,
  "PY": 3700,
  "quest": 4669,
  "æİ¨": 1778,
  "web": 6596,
  "Ġten": 5330,
  "èĪª": 6546,
  "Ġclean": 3702,
  "ree": 800,
  "ote": 2153,
  "ç«ł": 3174,
  "ĠCommittee": 7384,
  "è¦ģ": 620,
  "ulation": 1962,
  "ú": 185,
  "Ġcomfortable": 9058,
  "race": 9900,
  "è¯¢": 9109,
  "Ġ2005": 7027,
  "ĊĠĠĠĠĠĠĠ": 852,
  "Ġimproved": 7149,
  "ĠLook": 8806,
  "('": 4771,
  "om": 315,
  "ãĤ": 5583,
  "Ġstudies": 4158,
  "ille": 3072,
  "Ġachievement": 8899,
  "ributed": 7035,
  "empt": 3466,
  "udden": 6826,
  "Ġindepend": 5201,
  "èĩ³": 2302,
  "ĠCity": 4473,
  "å±¥è¡Į": 6960,
  "Ú": 153,
  "Ġ:": 2038,
  "çĥĪ": 8701,
  "Ġprotein": 7825,
  "Ġdespite": 8432,
  "Ġunit": 5880,
  "ĠMiss": 6129,
  "ZE": 2665,
  "Object": 4674,
  "rb": 6569,
  "T": 54,
  "izer": 9061,
  "ued": 3092,
  "Ġrequires": 5312,
  "éĿ": 662,
  "ologies": 5853,
  "ä¾Ľç»Ļ": 9017,
  "ĠEngine": 6782,
  "Ġfather": 4328,
  "å¹²": 3575,
  "mp": 4956,
  "Ġbless": 9746,
  "Ġfuck": 7633,
  "itter": 6608,
  "Ġput": 2236,
  "Ġstone": 9431,
  "Ġvirtual": 9518,
  "Ġfeatures": 4443,
  "Sc": 4438,
  "éģĵ": 1769,
  "åĿļæĮģ": 5865,
  "atory": 3360,
  "cess": 973,
  "aren": 8964,
  "åĪĩ": 3747,
  "Ġwire": 7926,
  "ä¸Ńå°ı": 9244,
  "Ġflowers": 8986,
  "ù": 184,
  "InstanceID": 7531,
  "ĠAugust": 5238,
  "bre": 6610,
  "ĠBlack": 5935,
  "Ġprop": 5975,
  "LL": 3052,
  "top": 3951,
  "Ġlooked": 4232,
  "rol": 1702,
  "ĠIt": 814,
  "Ġstop": 3213,
  "Ġthrough": 1046,
  "ĠDecember": 5963,
  "client": 9480,
  "Dep": 9364,
  "Ġoff": 983,
  "å¤ĦçĲĨ": 3275,
  "Types": 9687,
  "ĊĠĠĠĠĠĠĠĠĠ": 4155,
  "Ġfilter": 8767,
  "Ġkey": 2672,
  "Ġindividuals": 3939,
  "Ġmeasured": 9041,
  "ĠWild": 9406,
  "äº«": 4559,
  "ĠOh": 6208,
  "è¶ĬæĿ¥è¶Ĭ": 9309,
  "pact": 9405,
  "Ġto": 294,
  "less": 1933,
  "Ġcateg": 5563,
  "ira": 5123,
  "Tw": 9586,
  "Ġprimary": 5239,
  "Ġol": 9888,
  "ĠTo": 2292,
  "osh": 9524,
  "fl": 3313,
  "Ġassessment": 5335,
  "Ġfaster": 8777,
  "çĽ¸å½ĵ": 9988,
  "Me": 6556,
  "ails": 6644,
  "Ġaffected": 6936,
  "File": 8364,
  "ss": 1097,
  "å¸¸": 1741,
  "Ġframework": 8402,
  "Ġeconomic": 3771,
  "ç¤¾": 1006,
  "Ġdata": 1451,
  "Ġrub": 7682,
  "xy": 5953,
  "Ġwrong": 4901,
  "im": 334,
  "Ġcontribute": 7331,
  "éģĵå¾·": 6384,
  "Ġtend": 5775,
  "Ġexplained": 8170,
  "Ġcor": 1861,
  "Ġvote": 8699,
  "ç»¿": 5825,
  "Ġsurround": 5961,
  "Ġdeath": 3377,
  "augh": 2495,
  "è¿ĲåĬ¨": 4986,
  "Ġabsor": 8683,
  "Ġprinciple": 9564,
  "err": 1830,
  "ood": 792,
  "81": 6090,
  "count": 6911,
  "Ġdoubt": 8416,
  "og": 540,
  "ange": 1080,
  "based": 4033,
  "ures": 1405,
  ",âĢĿ": 2751,
  "Ġknow": 882,
  "Ġdistinct": 7981,
  "indows": 6056,
  "ortunately": 8150,
  "pl": 530,
  "selves": 2963,
  "amin": 6116,
  "trans": 4421,
  "Ġimmed": 4560,
  "è½¬ç§»": 8056,
  "Ġbound": 5997,
  "Ġ2003": 6440,
  "Ġassist": 5842,
  "ä¸»è¦ģ": 1905,
  "Ġexactly": 6501,
  "éĩİ": 9444,
  "ç§ģ": 5927,
  "([": 6930,
  "olf": 6469,
  "é«ĺ": 921,
  "wards": 2850,
  "Ġemergency": 8498,
  "ab": 404,
  "äº¤æµģ": 7463,
  "çªģ": 3406,
  "Ġfunction": 2580,
  "ing": 282,
  "ĠPress": 7231,
  "æıĲä¾ĽäºĨ": 7264,
  "ran": 6058,
  "ricult": 3727,
  "AR": 1471,
  "æ°ı": 8337,
  "Ġoffers": 6411,
  "å¯¹": 621,
  "Ġillustr": 7519,
  "Ġproject": 1736,
  "ä¸ĢçĽ´": 9705,
  "ĠTexas": 9297,
  "ath": 954,
  "Ġquiet": 8573,
  "Ġfish": 4315,
  "ctions": 4054,
  "col": 1944,
  "ices": 1265,
  "Ġfull": 2762,
  "Ġmm": 7566,
  "ä¸¤ä¸ª": 4869,
  "å³": 8137,
  "....": 467,
  "If": 2844,
  "Ġparents": 3132,
  "Ġsounds": 7385,
  "ĠCounty": 4567,
  "Ġinclud": 1010,
  "ĠSer": 6964,
  "è¶ĬæĿ¥": 9278,
  "ĠP": 378,
  "æĦ": 903,
  "çľģ": 3678,
  "èĸ": 8167,
  "þ": 189,
  "åĢ¼": 1688,
  "Ġprobably": 4003,
  "èĪ¬": 3750,
  "Ġoffice": 4936,
  "æĿĥåĬĽ": 8823,
  "Ġhappened": 6254,
  "Ġproblem": 2663,
  "igration": 7628,
  "çī©çĲĨ": 6714,
  "æİ¨è¿Ľ": 4397,
  "çĶ±æŃ¤": 9811,
  "meric": 1672,
  "88": 3653,
  "Ġen": 572,
  "è¡¨æĺİ": 7576,
  "With": 5025,
  "åŁŁ": 1900,
  "rich": 8695,
  "Ġabs": 3446,
  "Ġdevelopment": 1834,
  "åı¸æ³ķ": 4732,
  "ĠUnder": 4546,
  "Ġformer": 5958,
  "Ġwr": 2506,
  "è¡Ģ": 3937,
  "teen": 9310,
  "id": 329,
  "un": 451,
  "{": 93,
  "ro": 302,
  "Ġcross": 4606,
  "è¯Ħ": 2080,
  "ĠPenn": 9777,
  "Ġtopics": 8063,
  "Ġviol": 4255,
  "Ġprogram": 1467,
  "Ġaid": 8399,
  "çī¹æ®Ĭ": 7161,
  "Ġ90": 5916,
  "Ġwomen": 2875,
  "Ġtim": 6400,
  "ational": 1038,
  "å¤§çļĦ": 4156,
  "¼": 123,
  "vest": 4950,
  "rences": 3524,
  "Ġtext": 2509,
  "ourney": 7228,
  "Answer": 8580,
  "Ġ44": 8173,
  "Ġenjoy": 3836,
  "Ġder": 5354,
  "Ġnetwork": 4766,
  "Ġ201": 1078,
  "Ġdecl": 4143,
  "bi": 7999,
  "Ġfrom": 488,
  "Ġsociety": 3970,
  "Market": 7007,
  "ork": 1255,
  "ĠAsia": 9156,
  "itness": 7507,
  "Ġdetails": 5631,
  "Ġburn": 7836,
  "è¯¸": 6559,
  "å¦": 4310,
  "ishes": 8064,
  "è§ģ": 2556,
  "96": 4668,
  "å¸®": 6146,
  "Ġ14": 2181,
  "ns": 6315,
  "Spec": 8134,
  "SO": 8702,
  "ill": 410,
  "itutional": 8123,
  "igure": 3011,
  "O": 49,
  "cont": 3068,
  "rr": 3893,
  "ç»Ī": 3354,
  "Ġstraight": 6922,
  "abel": 5742,
  "Ġyet": 3403,
  "Ġhis": 652,
  "çĶŁåĳ½": 7960,
  "éĩįè¦ģ": 1970,
  "Ġinstruct": 6182,
  "Ġrat": 6653,
  "ĠChar": 4597,
  "åħ±äº«": 7924,
  "jo": 8495,
  "éĩįæĸ°": 9520,
  "ims": 4753,
  "uth": 1565,
  "æ»¡è¶³": 6629,
  "Ğ": 221,
  "####": 2871,
  "Ġpark": 5657,
  "60": 2200,
  "34": 3416,
  "Ġdiscuss": 2629,
  "obal": 2975,
  "Ġbir": 3664,
  "Ġcele": 6155,
  "§": 103,
  "roy": 6316,
  "ifier": 8124,
  "28": 2552,
  "ĠRober": 6660,
  "ĠSet": 6851,
  "èĤ¿": 8425,
  "ĠImGui": 9925,
  "Ġwater": 1287,
  "ĠLin": 6626,
  "Ġsame": 1528,
  "Ġpaid": 6939,
  "éĵ¶è¡Į": 4712,
  "Ġheat": 4719,
  "Ġknowledge": 2609,
  "ĠAv": 7133,
  "Ġprint": 4709,
  "Ġdifference": 4581,
  "Ġinform": 1284,
  "åıĬ": 1065,
  "6": 24,
  "ĠTrans": 4755,
  "é¥": 5161,
  "åĽ": 419,
  "foot": 9276,
  "Ġpolitical": 3992,
  "eared": 7175,
  "ship": 7673,
  "ĠĠĠĠĠĠĠĠĠĠĠĠĠĠĠĠĠĠĠĠĠĠĠĠĠ": 6576,
  "Ġcal": 2453,
  "Ġsize": 3158,
  "æľĢç»Ī": 6543,
  "Ġwhile": 1597,
  "AS": 2421,
  "Ġseven": 6995,
  "çĬ¶": 2789,
  "Ġcentury": 4686,
  "Ġfact": 1585,
  "Ġlove": 2705,
  "éĥ": 791,
  "Ex": 2329,
  "ę": 216,
  "ĠIll": 8819,
  "\\)": 8308,
  "ĠCont": 3278,
  "core": 6241,
  "ld": 427,
  "å¯¹è±¡": 4922,
  "oad": 1994,
  "ĠEngland": 6427,
  "icate": 9727,
  "è¿½": 5265,
  "ums": 8214,
  "ĠAf": 2550,
  "Ġcert": 7227,
  "ĠOk": 9153,
  "Ġposition": 3507,
  "map": 7196,
  "å®³": 3015,
  "Ġhappen": 5665,
  "edy": 8559,
  "ĠTur": 8332,
  "amb": 4216,
  "oles": 4109,
  "éĵ": 1838,
  "Ġclearly": 6527,
  "åĲĮæĹ¶": 2765,
  "åľ°çĲĨ": 8273,
  "Ġhit": 6948,
  "set": 2446,
  "hold": 3040,
  "arn": 7348,
  "åŁ¹è®Ń": 8607,
  "Ġpercentage": 8244,
  "Ġenvironment": 2141,
  "rehens": 5444,
  "Ġadministration": 8660,
  "æ±¡æŁĵ": 7719,
  "å¹³åı°": 4985,
  "Ġweak": 7138,
  "Ġfeelings": 8243,
  "Ġinc": 2118,
  "uries": 7015,
  "Ġk": 566,
  "opy": 3349,
  "Ġmodule": 9203,
  "Ġreported": 4489,
  "åį´": 6101,
  "æī": 539,
  "ern": 1601,
  "Ġal": 400,
  "æľĢé«ĺ": 6265,
  "Ġengine": 3908,
  "gener": 6695,
  "Ġproposed": 7206,
  "irty": 8722,
  "èĭı": 5969,
  "ä½ĵç³»": 2588,
  "ĭ": 236,
  "çĲ": 600,
  "å°¼": 9397,
  "Ġgain": 6239,
  "Ġcreation": 6992,
  "ĠMem": 7189,
  "Ġpart": 759,
  "ĠĠĠĠĠĠĠĠĠĠĠĠ": 2344,
  "ä¾ĭ": 2025,
  "Ġentirely": 9112,
  "ful": 1071,
  "Ġim": 567,
  "èĻ½": 5089,
  "Ġ99": 9715,
  "çŁ": 1041,
  "ĠĠĠĠĠĠĠĠĠĠĠĠĠĠĠĠĠĠĠĠĠĠĠĠĠĠ": 6178,
  "åĪĽæĸ°": 2476,
  "Ġperform": 2203,
  "\":": 8120,
  "****************": 7057,
  "ulate": 5656,
  "ç¡®": 1506,
  "å½±": 1915,
  "ç¹": 7631,
  "è¿Ļä¸ª": 4127,
  "men": 4064,
  "æ»": 2567,
  "Ġsitting": 9003,
  "}\\": 3953,
  "Ġcarbon": 6033,
  "Ġast": 6466,
  "Ġefforts": 5423,
  "coh": 7127,
  "Ì": 139,
  "ç¥ĸ": 9950,
  "ĠSam": 6553,
  "ift": 2808,
  "Ġtyp": 2165,
  "Ġpick": 5104,
  "lex": 3146,
  "Ġheaven": 9780,
  "è¢«åĳĬ": 8929,
  "Ġservices": 2654,
  "apter": 4117,
  "Ġotherwise": 7294,
  "ch": 342,
  "gram": 1234,
  "Well": 8903,
  "ó": 178,
  "Ġfocused": 7670,
  "side": 2805,
  "Ġ54": 9377,
  "Ġtown": 4504,
  "éĻ·": 9088,
  "Ġreflect": 5227,
  "day": 1561,
  "Ġplanned": 9702,
  "igital": 9400,
  "æĸ°çļĦ": 4405,
  "uk": 4305,
  "æł¡": 2534,
  "Ġnone": 5324,
  "ack": 615,
  "ris": 5267,
  "ç¾¤": 3254,
  "çī¹åĪ«": 5590,
  "Ġwealth": 8057,
  "oom": 7280,
  "éĶ": 1725,
  "ĠGen": 7644,
  "ique": 2828,
  "Ġsoil": 4596,
  "Ġphoto": 8892,
  "è¯ķéªĮ": 8941,
  "Ġnoted": 7751,
  "æŀĦå»º": 5673,
  "å½©": 9810,
  "Ġchief": 9910,
  "Ġpolic": 2711,
  "11": 1406,
  "ference": 2700,
  "ND": 3447,
  "Ġaround": 1719,
  "Do": 7021,
  "They": 6476,
  "Ġbehaviour": 7738,
  "ump": 2853,
  "æĬķåħ¥": 8466,
  "return": 3373,
  "spec": 8162,
  "ĠCare": 7523,
  "Ġwrite": 3984,
  "FF": 5567,
  "ALL": 6271,
  "OP": 5536,
  "è®¨è®º": 7690,
  "An": 2180,
  "Ġcausing": 8679,
  "Ġear": 1448,
  "S": 53,
  "æĭĵ": 8164,
  "èīºæľ¯": 5067,
  "ale": 1493,
  "fra": 5909,
  "Ġrelax": 9072,
  "ĠST": 4927,
  "Ġocean": 9673,
  "Ġlessons": 8156,
  "Ġnuc": 7192,
  "Ġinteresting": 5516,
  "¨": 104,
  "Ġspeaking": 8414,
  "ondon": 5452,
  "2021": 7773,
  "Ġmotor": 8930,
  "https": 6396,
  "ours": 2516,
  "éĿĴ": 5609,
  "ke": 425,
  "back": 2861,
  "çĽ": 524,
  "Ġbeautiful": 6160,
  "E": 39,
  "Ġpop": 1896,
  "dir": 6852,
  "Ġpri": 1953,
  "rance": 9983,
  "IC": 2399,
  "Ġsays": 2919,
  "ĠStand": 7050,
  "ä¼ł": 1584,
  "Ġgeneral": 3338,
  "å¤įæĿĤ": 5834,
  "å¼Ģåıĳ": 3916,
  "Ġexpl": 1562,
  "j": 76,
  "ventions": 9837,
  "83": 5406,
  "ĠEd": 4445,
  "ism": 1573,
  "æī¾": 7125,
  "rew": 4457,
  "ĠEm": 3314,
  "Ġhy": 2778,
  "ĠPeter": 8942,
  "ĠJune": 4319,
  "crete": 8605,
  "Yes": 8481,
  "Â": 129,
  "Ġsac": 6839,
  "etime": 9205,
  "Ġcountry": 2617,
  "itary": 4514,
  "Ġ2004": 7745,
  "Ġjo": 4700,
  "Ġdisplay": 4717,
  "åºŁ": 8771,
  "--------------------------------": 1715,
  "One": 5119,
  "ĊĠĠ": 2877,
  "ors": 813,
  "ĠRet": 4903,
  "ĠRiver": 5402,
  "åĪ¤": 2788,
  "Ġnearly": 6014,
  "Ġteacher": 2251,
  "Ġmass": 4002,
  "ĩ": 232,
  "Tra": 9092,
  "Ġnurs": 9468,
  "Ġsupposed": 8682,
  "Ġrele": 6170,
  "ael": 6970,
  "ĠThat": 2704,
  "Ġfast": 5282,
  "Ġconnection": 6240,
  "ly": 326,
  "lection": 2905,
  "çļĦæĸ¹å¼ı": 8017,
  "Ġbas": 2059,
  "Ġplanet": 8047,
  "èĩ": 718,
  "gba": 9879,
  "é½": 8435,
  "Ġowner": 9554,
  "ples": 1974,
  "iod": 2215,
  "Ġapproved": 9883,
  "Ġparticip": 2679,
  "Ġdoct": 8007,
  "arg": 1345,
  "ĠExamples": 7835,
  "ĠPower": 8311,
  "ients": 3201,
  "sell": 9977,
  "Ġunder": 883,
  "ä»²è£ģ": 6944,
  "Ġpen": 6565,
  "çĮ": 3912,
  "Ġsummer": 6035,
  "Te": 6547,
  "Ġ|": 321,
  "Ġrank": 9384,
  "re": 265,
  "Ġplatform": 6258,
  "ay": 366,
  "æĻ®éģį": 7918,
  "Ġbag": 9571,
  "chan": 4220,
  "èĽ": 5913,
  "ä¿ĥ": 3320,
  "Ġreport": 1898,
  "éļ¾": 3010,
  "å¼": 509,
  "Ġgame": 3191,
  "hips": 6843,
  "ĠPat": 6108,
  "cy": 1146,
  "Ġobl": 6913,
  "Ġprincipal": 9873,
  "æ°ĳæĹı": 3659,
  "ä¹Ĳ": 4454,
  "TS": 6508,
  "Ġwindow": 7394,
  "Ġmaterials": 3483,
  "ĠBrit": 4323,
  "ace": 700,
  "è¿Ľåħ¥": 5780,
  "Ġ18": 1316,
  "Ġang": 4416,
  "ĠMichael": 9352,
  "UL": 5440,
  "m": 79,
  "è¿Ļç§į": 3111,
  "Ġdouble": 7560,
  "62": 5818,
  "èģĮ": 2210,
  "ĠGo": 2768,
  "Ġachie": 6121,
  "CL": 6143,
  "ä»İ": 1152,
  "Ġrich": 6347,
  "åŃĺ": 1579,
  "Ġord": 6484,
  "æķ´åĲĪ": 9399,
  "();": 3769,
  "Ġhome": 1855,
  "äº§": 779,
  "Ġnear": 2559,
  "DIR": 8917,
  "Ġ95": 8464,
  "Val": 3511,
  "ves": 1625,
  "ĠHere": 5418,
  "Ġpric": 6919,
  "ĠVirginia": 9639,
  "/*": 8894,
  ".âĢĿ": 1733,
  "][_": 6238,
  "down": 5206,
  "éĺ»": 7424,
  "å©ļ": 7124,
  "Ġaware": 4384,
  "ĠAfric": 2780,
  "æĢ»": 2052,
  "Ġpaper": 3915,
  "Ġprem": 8396,
  "Ġinf": 1444,
  "ĠAND": 4984,
  "amily": 6063,
  "è¿ĻäºĽ": 2896,
  "55": 3850,
  "Ġclub": 8094,
  "åįı": 2357,
  "åĮ»çĸĹ": 7468,
  "Ġof": 289,
  "åĳ³": 7493,
  "Ġevolution": 7856,
  "Ġconservation": 7824,
  "ą": 196,
  "ç»ĵæŀľ": 3821,
  "è´¥": 9284,
  "lege": 3601,
  "Ġbrother": 5634,
  "sub": 5398,
  "Ġ.": 1001,
  "name": 2338,
  "de": 1261,
  "ĠDavid": 6646,
  "Ġliv": 9423,
  "ç¨ĭåºı": 3704,
  "making": 9880,
  "rene": 9192,
  "ong": 644,
  "çĪ": 3458,
  "ç¤¾åĮº": 7707,
  "Ġanswers": 8046,
  "çĦ¶èĢĮ": 7643,
  "16": 1616,
  "ently": 2461,
  "utes": 3386,
  "Ġtips": 8832,
  "Ġclothes": 9877,
  "ha": 4435,
  "Ġcomment": 5693,
  "ĠEX": 8564,
  "weight": 9009,
  "ĠObama": 9842,
  "åįıåĲĮ": 9206,
  "åŃĶ": 8121,
  "../": 3689,
  "Ġimplementation": 7123,
  "Ġonly": 1049,
  "Ġwood": 4666,
  "Ġcloser": 9066,
  "../../": 4889,
  "Ġtopic": 6533,
  "share": 9086,
  "Ġschool": 1177,
  "ĠJ": 545,
  "Ġexpression": 6925,
  "åĸĦ": 2947,
  "ced": 1079,
  "Ġhot": 4168,
  "ĠChina": 4735,
  "ç¼ĸ": 3552,
  "Ġselection": 8827,
  "arr": 3454,
  "Ġasked": 3525,
  "ret": 1850,
  "word": 4739,
  "è¿ĩç¨ĭ": 2016,
  "Ġstudents": 1289,
  "Ġcomprehens": 6686,
  "Ġdetermined": 7496,
  "åģľ": 8585,
  "Ġthan": 872,
  "éĢĲ": 4426,
  "çĸ¾": 7421,
  "Ġscientists": 7326,
  "Ġdriving": 8739,
  "ru": 594,
  "Ġauthority": 7451,
  "ĠMass": 8413,
  "çĬ¶åĨµ": 8392,
  "Ą": 195,
  "year": 5301,
  "ģ": 226,
  "æī§è¡Į": 3838,
  "Ġsupp": 1106,
  "dition": 1894,
  "è¿ĳ": 2804,
  "@": 34,
  "ĊĠĠĠĠĠĠ": 9699,
  "Ġpar": 2109,
  "ider": 1805,
  "åģı": 6897,
  "ened": 3163,
  "!": 3,
  "Ġg": 325,
  "çĸ«": 6328,
  "irus": 5733,
  "Ġh": 304,
  "Ġextract": 9265,
  "result": 5573,
  "ĠUS": 2755,
  "åħ°": 8320,
  "ired": 1746,
  "Ste": 6620,
  "Ġment": 9063,
  "Ġattempt": 4643,
  "äººä»¬": 4939,
  "inte": 9047,
  "åŃ¦": 525,
  "uge": 4517,
  "æĿ": 487,
  "ream": 2258,
  "åħ¶ä¸Ń": 4512,
  "gra": 6887,
  "çĶŁæĢģ": 4164,
  "oint": 2098,
  "Ġengineering": 7898,
  "rect": 3138,
  "ward": 1350,
  "Ġmeet": 2474,
  "mt": 7262,
  "ç§ĳæĬĢ": 4022,
  ")": 11,
  "Ġefficiency": 8008,
  "par": 1742,
  "æ³ķå®ļ": 9087,
  "Ġvolume": 7504,
  "Ġappropriate": 4375,
  "while": 9690,
  "çļĦåħ³ç³»": 8069,
  "Ġextent": 8233,
  "ç»ı": 780,
  "www": 3152,
  "Ġsignificantly": 7515,
  "ico": 6215,
  "icians": 9443,
  "Ñģ": 6022,
  "ustain": 7244,
  "Ðµ": 4467,
  "ç«ŀäºī": 4350,
  "Ġhandle": 7877,
  "å¤®": 4400,
  "ingu": 6647,
  "ĠProject": 4425,
  "çŁŃ": 5557,
  "çĬ¯ç½ª": 4710,
  "Ġpan": 5527,
  "æĺł": 5776,
  "čĊĠĠĠ": 3593,
  "log": 6309,
  "æĶ¶": 1679,
  "hemat": 4852,
  "Ġ2013": 5793,
  "Ļ": 250,
  "Ġparticularly": 4812,
  "å²Ĺ": 9980,
  "Ġu": 353,
  "ust": 515,
  "éĩį": 908,
  "Ġinput": 5380,
  "éĹ®": 1341,
  "ĠFrom": 5420,
  "å®¶": 992,
  "č": 204,
  "Ġsuper": 3647,
  "Ġled": 5044,
  "ocol": 5504,
  "String": 4227,
  "ĠHel": 7178,
  "ceed": 4476,
  "ĠTV": 7879,
  "Ġevaluation": 8489,
  "Ġmil": 2619,
  "Ġwild": 4941,
  "Ġsitu": 6133,
  "We": 2323,
  "âĢĿ.": 6741,
  "e": 71,
  "Ġdecades": 9127,
  "ç¡¬": 7698,
  "Ġmet": 2024,
  ")(": 7741,
  "çŃĸ": 1901,
  "td": 3918,
  "åº¦çļĦ": 9948,
  "Ġthink": 1425,
  "æ²»çĸĹ": 5971,
  "cean": 6762,
  "Ġstates": 4298,
  "VER": 6639,
  "ront": 7958,
  "Ġ==": 3683,
  "Ġ6": 902,
  "ĠCarol": 7724,
  "èĲ½å®ŀ": 8501,
  "ĠAp": 7274,
  "Ġbro": 2373,
  "ai": 3367,
  "Ġstrategies": 5300,
  "ossary": 7025,
  "Ġplant": 3121,
  "Ġthough": 1611,
  "ĠDistrict": 7209,
  "Ġsuccess": 2481,
  "Ġdeb": 5870,
  "ak": 579,
  "Ġtrack": 4953,
  "ç§Ģ": 9911,
  "ĠWood": 8465,
  "åĬ³": 2411,
  "ĠSmith": 7635,
  "Of": 5979,
  "Ġbenefit": 5732,
  "éĩ": 505,
  "Ġalcohol": 9018,
  "ifer": 8289,
  "Ġpercent": 3139,
  "éĽ": 1374,
  "Ġpieces": 7795,
  "Ġmor": 3569,
  "ä½Ļ": 5513,
  "ĠRussian": 9941,
  "å®Ĺ": 5387,
  "è": 167,
  "ĠU": 619,
  "Ġproble": 1687,
  "åĬĽçļĦ": 6438,
  "arge": 1638,
  "Ġfacilit": 8388,
  "get": 944,
  "Ġdepending": 8366,
  "do": 4942,
  "Ġnecessary": 3597,
  "eper": 8098,
  "Ġstim": 7861,
  "æŃ£å¸¸": 8978,
  "Ġmatter": 3928,
  "æĴ": 3232,
  "Ġimport": 1304,
  "âĢĶ": 1154,
  "éĩįå¤§": 5597,
  "èģĶåĲĪ": 7309,
  "åģļ": 2822,
  "inn": 8433,
  "Ġfour": 2616,
  "æģ": 1307,
  "qu": 441,
  "'.": 8492,
  "èİ·å¾Ĺ": 4662,
  "Ġwin": 5223,
  "izations": 5022,
  "Ġsetting": 5875,
  "Ġrepl": 3517,
  "span": 3283,
  "ĠNow": 5109,
  "Ġideas": 4265,
  "50": 1322,
  "Ġeasy": 4018,
  "Ġdrug": 4872,
  "unk": 5352,
  "Ġseconds": 9542,
  "Ġgl": 1674,
  "Ġamounts": 9386,
  "anger": 4601,
  "that": 6083,
  "ĠTom": 9159,
  "ç²®": 9046,
  "å¾ª": 5791,
  "Ġgoes": 5393,
  "DP": 6902,
  "tle": 9909,
  "view": 1660,
  "ready": 2971,
  "Ġbeen": 855,
  "Ġdivid": 7526,
  "ï¼ī": 986,
  "Ġfamiliar": 8085,
  "Ġpictures": 8696,
  "P": 50,
  "Ġmaintain": 3618,
  "è®¡ç®Ĺ": 3347,
  "èĥ": 578,
  "ĠSunday": 9505,
  "ptoms": 5169,
  "ç»ĩ": 2233,
  "oyal": 7569,
  "................................": 2146,
  "Ġlocated": 5519,
  "é»": 3497,
  "Ġeither": 3329,
  "ĠUniversity": 2957,
  "Ġspiritual": 7957,
  "æľĢåĲİ": 8041,
  "Pro": 2707,
  "2017": 6862,
  ">>": 9945,
  "ĠDisc": 6305,
  "Ġfam": 1504,
  "aff": 2612,
  "åĲ": 395,
  "æĬĢèĥ½": 7714,
  "Ġshot": 7922,
  "ç§Ł": 6675,
  "64": 2459,
  "Ġvia": 6181,
  "GE": 9330,
  "asons": 4614,
  "åĢ¾": 8207,
  "ä»įçĦ¶": 9739,
  "ployment": 9311,
  "source": 8029,
  "éĥ¨åĪĨ": 2812,
  "ĠWhile": 4629,
  "Def": 6780,
  "ĠGerman": 6941,
  "ration": 2009,
  "Ġgrowth": 3506,
  "Ġnation": 5610,
  "Ġresearch": 2103,
  "Ġbatter": 7479,
  "asp": 9463,
  "æĪĲåĳĺ": 7948,
  "Ġassess": 3087,
  "ä¸ļåĬ¡": 5315,
  "å¢": 987,
  "Ġscores": 9287,
  "Ġtherapy": 8281,
  "BSIZE": 2949,
  "ient": 1109,
  "Ġgrace": 9200,
  "Ġunderstood": 9694,
  "Ġsentence": 9598,
  "Key": 6330,
  "å½ĵ": 1157,
  "Ġsuggested": 8911,
  "Fl": 5120,
  "åģ¿": 3872,
  "Ġcustom": 3225,
  "è´¨": 1273,
  "abul": 7942,
  "Ġautom": 5605,
  "ĠInc": 6676,
  "Ġvariable": 8906,
  "äºĴ": 2380,
  "Ġattention": 4181,
  "ife": 1128,
  "Ġnarr": 8517,
  "Ġgreen": 4381,
  "roll": 2643,
  "å¤į": 2217,
  "è¿ŀæİ¥": 9646,
  "Ġanc": 5357,
  "ĠAdv": 8330,
  "Ġculture": 4495,
  "ï¬": 6185,
  "AA": 7321,
  "æĭī": 5522,
  "æ¶Ī": 2727,
  "åĪĽéĢł": 5250,
  "mes": 7067,
  "Ġlay": 3693,
  "çĶŁ": 614,
  "vel": 635,
  "Ġgro": 9881,
  "40": 1925,
  "Ġscient": 3602,
  "Rem": 8741,
  "vious": 2740,
  "ä¹ı": 7108,
  "To": 2921,
  "Ġgraph": 5894,
  "Ġfive": 3503,
  "isters": 8797,
  "è¿½æ±Ĥ": 9500,
  "æĿĥ": 1040,
  "å®ľ": 9620,
  "aches": 4207,
  "ĠPres": 4087,
  "ĠLong": 8805,
  "Ġactiv": 1756,
  "ups": 9540,
  "Ġscreen": 6901,
  "ann": 2355,
  "ms": 1237,
  "EX": 7434,
  "})": 8931,
  "Ġlaw": 2275,
  "çł´": 3895,
  "Ġstat": 3245,
  "22": 1620,
  "Ġunless": 6444,
  "Ġe": 314,
  "12": 1253,
  "linux": 9607,
  "Ġlib": 7400,
  "cast": 3381,
  "The": 610,
  "rees": 6570,
  "è®": 434,
  "Ġseen": 3202,
  "Ġmixed": 8875,
  "ormal": 7650,
  "Ġbu": 1103,
  "ĠFirst": 5146,
  "iples": 4599,
  "ire": 736,
  "Type": 3079,
  "Ġheavy": 6951,
  "Ġgu": 1488,
  "Ġstandards": 5069,
  "Ö": 149,
  "æĿ¥": 919,
  "Ġenter": 5566,
  "ight": 511,
  "arter": 6681,
  "Ġpull": 7113,
  "ĠConn": 9484,
  "72": 3798,
  "ĠInd": 1721,
  "ĠAP": 7889,
  "itiz": 4448,
  "ĠFin": 4776,
  "Oh": 8632,
  "CC": 4769,
  "Ġnutri": 7689,
  "Ġaspects": 6446,
  "Ġconstruct": 6285,
  "çĶ³": 4827,
  "Ġcult": 2185,
  "xb": 8729,
  "åĢ": 952,
  "åħ´": 3540,
  "çīĩ": 4924,
  "Ġident": 2004,
  "ached": 3924,
  "Ġthis": 503,
  "Ġhand": 1454,
  "è¯": 440,
  "Ġpractices": 5099,
  "mas": 6804,
  "rd": 7292,
  "Ġword": 3297,
  "åıĹåĪ°": 6046,
  "èģĶç³»": 6038,
  "ç´": 1270,
  "ğ": 222,
  "¿": 126,
  "Ġaccording": 4177,
  "Ġcomponent": 7622,
  "ä¸°å¯Į": 7417,
  "estion": 5592,
  "let": 2494,
  "Ġopin": 5812,
  "è®¡åĪĴ": 4748,
  "åĩºçīĪ": 7886,
  "ublic": 1325,
  "å¤ļ": 1031,
  "Ġanaly": 4406,
  "ough": 861,
  "ä¿Ĺ": 8889,
  "rain": 2539,
  "Err": 5084,
  "Ġleaves": 6228,
  "æĬ¥åĳĬ": 5483,
  "´": 115,
  "ĠKing": 4958,
  "æ¸Ĳ": 6242,
  "Í": 140,
  "Ġis": 336,
  "Ġpassed": 6047,
  "æµģç¨ĭ": 9712,
  "Ĺ": 248,
  "Ġsick": 9024,
  "å®½": 7540,
  "Ġcalc": 9458,
  "********": 3965,
  "Ġmult": 2661,
  "å¾ģ": 2696,
  "è´¸æĺĵ": 5867,
  "ins": 1428,
  "Ġ2011": 5062,
  "Ġbeauty": 9882,
  "Ġstress": 4291,
  "uality": 5856,
  "è§Ĵåº¦": 7186,
  "¦": 102,
  "å¹¶ä¸į": 7489,
  "Ġnegative": 4974,
  "ĠKnow": 8178,
  "éĺ": 1063,
  "Ġcol": 1028,
  "oy": 1114,
  "ä¸Ģå®ļ": 5291,
  "Ġchanging": 7330,
  "ization": 1948,
  "Ġ2018": 5987,
  "Æ": 133,
  "Ġspecific": 2676,
  "own": 997,
  "å±±": 3724,
  "ĠSustainable": 9960,
  "ĠĠĠĠĠĠĠĠĠĠĠĠĠĠĠĠĠĠĠĠĠĠĠ": 2825,
  "ees": 4184,
  "igation": 4067,
  "br": 3076,
  "Ġcases": 4133,
  "Ġrain": 6737,
  "AM": 2790,
  "æ°§": 7428,
  "Ġmeetings": 9697,
  "il": 312,
  "Ġfamily": 2188,
  "___": 9165,
  "Ġexperien": 3362,
  "Ġincre": 1555,
  "Ġarrange": 8229,
  "->": 2195,
  "oted": 9051,
  "ÉĻ": 2358,
  "ĠStudy": 8792,
  "Ġagreed": 8255,
  "if": 371,
  "For": 3302,
  "Ġfail": 3430,
  "å¯¼": 1480,
  "å¸ĥ": 2697,
  "09": 4996,
  "Ġrad": 3463,
  "åį³": 2143,
  "EO": 8038,
  "Ġrout": 4898,
  "åķĨ": 1737,
  "×": 150,
  "Ġfa": 4697,
  "èĦ": 2269,
  "Ġmanufacture": 8882,
  "Ġmajority": 6534,
  "oh": 1694,
  "res": 479,
  "è£": 2010,
  "åľ°æĸ¹": 4086,
  "åįĬ": 6232,
  "ose": 714,
  "rition": 5830,
  "st": 316,
  "å®£": 6378,
  "`": 66,
  "Ġsen": 8473,
  "åįİ": 3439,
  "Lesson": 5307,
  "ators": 2837,
  "Ġgeneration": 6983,
  "SI": 1744,
  "åħ«": 5170,
  "Ġmom": 3572,
  "æľīæľº": 9301,
  "Par": 5514,
  "Ġdisease": 3866,
  "ĠAlthough": 6699,
  "åĲĳ": 1420,
  "å®ĥä»¬": 6657,
  "Ġremains": 6525,
  "Ġseek": 5374,
  "Test": 9177,
  "w": 89,
  "Ġ41": 8254,
  "Ġbirds": 8146,
  "Ġtra": 881,
  "ĠJoseph": 9425,
  "Ġrow": 7804,
  "RdX": 9659,
  "Ġbig": 2633,
  "Ġcapacity": 5717,
  "abs": 7511,
  "æĹ©": 5155,
  "ancy": 4991,
  "åĲĮæł·": 9846,
  "Ġintent": 6616,
  "ification": 3030,
  "Ġpeace": 5841,
  "swers": 5889,
  "è´«": 6663,
  "Ġrapid": 6963,
  "éĺŁ": 4533,
  "aps": 2656,
  "Ġlight": 2220,
  "Ġ/*": 4387,
  "ushed": 7362,
  "æ±Ĥ": 1331,
  "ty": 1070,
  "aws": 9982,
  "åĨħ": 1059,
  "æĦŁ": 2297,
  "ott": 2255,
  "Why": 6257,
  "æļ´": 9585,
  "Ġchoice": 5570,
  "ç¼ºä¹ı": 7939,
  "æŀĲ": 2193,
  "åħ±": 1445,
  "åĪ©çĽĬ": 4174,
  "opic": 3799,
  "Ġtime": 832,
  "Ġtrou": 6437,
  "p": 82,
  "ĠDoes": 9551,
  "æ¯Ķä¾ĭ": 8277,
  "ument": 2624,
  "Ġcommitted": 9438,
  "duct": 2702,
  "zz": 5585,
  "ç¦»": 3181,
  "org": 2309,
  "Ġimportant": 1636,
  "Ġcalls": 7677,
  "See": 5924,
  "Ġconsist": 4432,
  "J": 44,
  "Ġparties": 8291,
  "èİ·": 3230,
  "è´": 549,
  "eria": 5419,
  "abled": 5668,
  "ĠCh": 784,
  "å¾Īå¤ļ": 7543,
  "ĠAdminist": 8710,
  "Ġavailable": 2529,
  "Ġfarm": 3921,
  "Ġrough": 9172,
  "Ġexc": 4523,
  "Ġcomputer": 4051,
  "Ġhighly": 5765,
  "istics": 3763,
  "nes": 5246,
  "åŁ": 648,
  "Ġstorm": 7920,
  "Ġespecially": 3548,
  "related": 7233,
  "åĬ¡éĻ¢": 9799,
  "Ġbetween": 1314,
  "Ġextended": 9684,
  "å®īåħ¨": 2835,
  "Ġund": 4200,
  "Ġsav": 6082,
  "101": 9224,
  "ç¯ĩ": 7902,
  "Ġfor": 350,
  "ĠAccording": 7805,
  "04": 3828,
  "icle": 2497,
  "åĪ©äºİ": 6893,
  "error": 5942,
  "ĠYou": 1511,
  "EM": 4380,
  "è¿ŀ": 3997,
  "Ġindex": 7012,
  "Ġcompet": 3611,
  "Ġemotions": 7937,
  "Ġpolicy": 3865,
  "ĠAdd": 7202,
  "otal": 4647,
  "åĵ²åŃ¦": 7665,
  "æ¡Ĩ": 8651,
  "Ġadults": 6920,
  "Ġeating": 6853,
  "abit": 3936,
  "ING": 3284,
  "æĥł": 9597,
  "omy": 6991,
  "ä¹Ī": 2994,
  "Ġimprovement": 8428,
  "js": 9855,
  "Or": 5006,
  "à¤¿": 7781,
  "Ġvulner": 7996,
  "Ġvalley": 7503,
  "å®¢è§Ĥ": 6735,
  "èĬĤ": 2148,
  "ĠFun": 9650,
  "ember": 2316,
  "ç¢į": 7517,
  "Ġearly": 2769,
  "QU": 8824,
  "åħµ": 7220,
  "['": 7831,
  "Þ": 157,
  "ENT": 3414,
  "è¿Ļä¸Ģ": 3526,
  "ĠExp": 8394,
  "æ³ķè§Ħ": 7130,
  "Ġallows": 4754,
  "Ġadded": 4995,
  "ations": 650,
  "ĠProv": 6921,
  "ises": 3624,
  "cent": 1545,
  "Ġdocuments": 8980,
  "æķĻåŃ¦": 2284,
  "atform": 5321,
  "Ġindic": 3205,
  "éĿ¢": 979,
  "iel": 1349,
  "KS": 9616,
  "åĲĽ": 8148,
  "Ġfert": 8738,
  "ĠMr": 3634,
  "istic": 3337,
  "li": 2151,
  "Ġsubs": 9814,
  "Ġtru": 2246,
  "Ġinterp": 5185,
  "éľĢè¦ģ": 2091,
  "æ¯": 1033,
  "Ġshown": 4794,
  "Ġship": 7144,
  "Ġexam": 1394,
  "you": 8443,
  "Ġoutput": 6498,
  "Ap": 9422,
  "æıĲé«ĺ": 2846,
  "ays": 842,
  "åħ¨åĽ½": 5041,
  "ped": 4815,
  "Ġnot": 480,
  "Ē": 209,
  "Ġ%": 2660,
  "ag": 550,
  "></": 4379,
  "åİŁ": 1410,
  "Õ": 148,
  "ands": 3508,
  "Ġtowards": 4048,
  ")]": 9023,
  "åºĵ": 5073,
  "orld": 2834,
  "Ġshowing": 7549,
  "ä½": 384,
  "åıĮæĸ¹": 7459,
  "Ġexamples": 5247,
  "Ġ'": 968,
  "Ġcreat": 2294,
  "ĠOnly": 9312,
  "äºĭå®ŀ": 5272,
  "Ġoffering": 9119,
  "æĸ°": 920,
  "ĠEngineering": 8839,
  "å¿«": 3318,
  "as": 303,
  "Ġbott": 7771,
  "Ġmar": 2312,
  "ä¼Ĺ": 3305,
  "ex": 1175,
  "åıĮ": 3932,
  "Part": 6981,
  "Ġproperties": 6333,
  "Ġstructure": 4001,
  "è®®": 2088,
  "Ġwebs": 4080,
  "asy": 9263,
  "æĿ¥è¯´": 7380,
  "Ġer": 4041,
  "uls": 8637,
  "acity": 4369,
  "Ġvariety": 4763,
  "éĽĨ": 1911,
  "åįıè®®": 6006,
  "Ġcamer": 7195,
  "--------------|": 9522,
  "æł¸å¿ĥ": 3986,
  "äºİ": 690,
  "enty": 5651,
  "elf": 1743,
  "ween": 1258,
  "Ġthinking": 4273,
  "éĿŀæ³ķ": 9943,
  "åĨµ": 2393,
  "Ġclosed": 7684,
  "èº": 2212,
  "sequ": 4073,
  "Ġmonitor": 5290,
  "Ġinter": 1239,
  "ess": 402,
  "çĽĬ": 1987,
  "Ġwhy": 2455,
  "Ġabout": 732,
  "er": 268,
  "Ġhimself": 4189,
  "Ġloss": 4124,
  "av": 702,
  "£": 99,
  "ĠIsland": 7017,
  "ions": 533,
  "ĠTotal": 7340,
  "Ġmon": 1568,
  "Ġremained": 9539,
  "è½½": 4162,
  "Ġslight": 6152,
  "clud": 879,
  "gen": 3719,
  "èŃ¦": 9328,
  "Ġser": 1862,
  "ä¼ĺåĬ¿": 5993,
  "Ġbre": 2166,
  "è´¹çĶ¨": 9180,
  "ish": 821,
  "ffee": 8271,
  "Ġ01": 5481,
  "umb": 3990,
  "Ġthings": 1910,
  "Ġrul": 9253,
  "èĩªä¸»": 7782,
  "Ġpopular": 4534,
  "Ġpublished": 5435,
  "Ġpoverty": 8681,
  "Ġmist": 7023,
  "à¥Ģ": 8092,
  "Ġconsumption": 7109,
  "ular": 1165,
  "Ġelectricity": 7961,
  "éĻĲåĪ¶": 6049,
  "ily": 1196,
  "Ġwhat": 886,
  "æī©": 4049,
  "Inst": 7951,
  "Ġdays": 2759,
  "Ġsem": 5391,
  "ĠGra": 4743,
  "ĠCommon": 9713,
  "åħ·å¤ĩ": 8369,
  "Ġobserved": 7042,
  "Ġnothing": 3870,
  "Ġintegr": 5702,
  "é©±": 8509,
  "ĠIF": 8002,
  "Ġfem": 5053,
  "Ġeconom": 2352,
  "Ġviolence": 7619,
  "æģ¢": 9901,
  "84": 5060,
  "soft": 7477,
  "åĨį": 3038,
  "Ġvery": 1323,
  "ck": 857,
  "Ġri": 3754,
  "ĠNew": 1677,
  "Section": 3031,
  "Ġisland": 9097,
  "Ġcoming": 4785,
  "æµ·": 2685,
  "################": 9171,
  "ĠWeb": 8025,
  "idential": 8535,
  "Inter": 8615,
  "ggest": 3080,
  "iv": 473,
  "åİĤ": 9611,
  "ä¸Ģå®ļçļĦ": 7509,
  "Ġvariables": 8469,
  "Ġblock": 4752,
  "ĠWar": 4246,
  "Ġover": 860,
  "ĠUp": 7049,
  "Ġev": 777,
  "Ġpie": 3864,
  "æŀģ": 2501,
  "¯": 110,
  "Ġ>": 2289,
  "ä¹ł": 1745,
  "aries": 4122,
  "iter": 2478,
  "Ġextremely": 7734,
  "ĠNon": 8770,
  "Ġproduced": 5677,
  "Ġoper": 2154,
  "åĮĸçļĦ": 4302,
  "ION": 2881,
  "çļ®": 8873,
  "Ġjud": 4802,
  "ified": 2011,
  "ĠCult": 9264,
  "And": 3566,
  "Ġoption": 5863,
  "Ġmoving": 5731,
  "æĿĲ": 3311,
  "çĬ¯": 3676,
  "æĬĹ": 4368,
  "ools": 8250,
  "Ġvary": 8161,
  "Ġphr": 9048,
  "ject": 795,
  "æĦıè§ģ": 6319,
  "Ġpropos": 4598,
  "Ġwa": 3728,
  "Ġawareness": 7369,
  "Ġsnow": 7469,
  "Ġtalking": 6398,
  "Ġalso": 812,
  "ĠPublic": 5198,
  "åıįæĺł": 6480,
  "ĠLand": 6758,
  "en": 272,
  "Ġoccas": 7069,
  "Ġassociated": 4284,
  "](": 6026,
  ")).": 8616,
  "rack": 6275,
  "95": 3744,
  "é¦ĸ": 3303,
  "ä¹±": 9190,
  "äº¤": 1633,
  "Ġtrig": 8382,
  "Ġbright": 8853,
  "Ġtox": 8526,
  "0000": 4982,
  "æıĲåįĩ": 4826,
  "She": 5711,
  "min": 1986,
  "iques": 4727,
  "Ġapply": 4933,
  "Ġthus": 5642,
  "Ġprov": 1008,
  "çİ°ä»£åĮĸ": 7683,
  "åıĤä¸İ": 4257,
  "account": 8803,
  "ä½Ĩ": 1560,
  "Be": 5779,
  "itude": 4795,
  "Ġmany": 1185,
  "è®¡": 1126,
  "Ġdirection": 6048,
  "Ġmethods": 4366,
  "iber": 5882,
  "Ġpositive": 3759,
  "ä½ľ": 704,
  "ource": 1691,
  "alk": 1566,
  "æĪĺäºī": 8965,
  "ĠChe": 5186,
  "Ġimag": 5188,
  "Ġband": 7597,
  "Ġshift": 7577,
  "è¯Ħä¼°": 5311,
  "Ġread": 1301,
  "åįķ": 1766,
  "dy": 8761,
  "Ġemployees": 6866,
  "åĽ°": 5744,
  "Ġapplic": 2623,
  "Ġmain": 1658,
  "Ġlow": 2569,
  "olution": 3085,
  "hent": 9927,
  "ä¹¦": 2163,
  "ashing": 4519,
  "Ġra": 1016,
  "lication": 9226,
  "åĨĽäºĭ": 9645,
  "Ġloc": 1365,
  "bs": 1927,
  "Ġaccurate": 8849,
  "Ġchar": 1886,
  "unct": 7104,
  "Ġtouch": 6402,
  "isf": 4691,
  "ĠJe": 4768,
  "uss": 1598,
  "mar": 5043,
  "Ġunto": 8672,
  "éļ¾ä»¥": 8562,
  "ç»ıéªĮ": 5555,
  "Ġare": 398,
  "Ġconflic": 6272,
  "å¹": 500,
  "!!": 5461,
  "ĠCle": 9492,
  "ĠDem": 5736,
  "Ġrisk": 2977,
  "den": 6968,
  "ORD": 7721,
  "Ġpromote": 6432,
  "Ġbul": 5770,
  "Ġinsp": 4460,
  "unction": 2997,
  "Ġothers": 2341,
  "Ġinflu": 3536,
  "æĹłè®º": 9998,
  "Ġint": 649,
  "Ġclosely": 9391,
  "Gui": 8479,
  "æŃ¤å¤ĸ": 7608,
  "Ġremove": 6759,
  "erves": 9924,
  "Ġgenerate": 8841,
  "ĝ": 220,
  "Ġremov": 7160,
  "atus": 5788,
  "Ġstep": 2878,
  "åĤ": 3926,
  "ibr": 3364,
  "Ġabund": 9806,
  "é¾Ļ": 8815,
  "æ¯ı": 3081,
  "Ġunique": 4532,
  "Ġcommonly": 8578,
  "any": 1523,
  "Ġfill": 8684,
  "Ġhon": 4897,
  "])": 4357,
  "Ġlinks": 8688,
  "ĠJewish": 7704,
  "Ġplay": 1500,
  "rue": 5403,
  "éĢĶå¾Ħ": 9195,
  "Ġ\"": 554,
  "Ġname": 1874,
  "olog": 970,
  "')": 6284,
  "t": 86,
  "çº¯": 9389,
  "Ġless": 1499,
  "æīĢå¾Ĺ": 9319,
  "ww": 1696,
  "rum": 9230,
  "Ġhere": 1906,
  "fil": 6636,
  "ĠMo": 6840,
  "Ġspect": 7693,
  "ý": 188,
  "Ġmicro": 5211,
  "ited": 1391,
  "r": 84,
  "äº§çĶŁ": 3168,
  "åı¦": 3784,
  "78": 3905,
  "ĠGod": 1779,
  "Ġstill": 1752,
  "çĤ¹": 1299,
  "########": 5183,
  "Ġ!": 2111,
  "Ġtask": 6044,
  "ĠTeacher": 7727,
  "Ġparticipation": 8294,
  "rans": 2304,
  "~~": 6790,
  "Ġspirit": 4630,
  "ĠMost": 5415,
  "åĽł": 1074,
  "osp": 2724,
  "åĬŀæ³ķ": 9894,
  "ĠHave": 8548,
  "ĠYork": 4091,
  "åĬŀ": 3361,
  "ç»Ĩ": 2563,
  "rastructure": 7307,
  "Ġcho": 2409,
  "ma": 3442,
  "oding": 9012,
  "ander": 7581,
  "èĢĥèĻĳ": 5602,
  "Ġadop": 8158,
  "iny": 6387,
  "local": 6604,
  "åŁ¹": 2730,
  "à¥į": 5008,
  "ĠBill": 9340,
  "Ġn": 320,
  "anging": 7114,
  "å½ĵåīį": 6934,
  "èĨľ": 6707,
  "Ġinjury": 9469,
  "Ġguard": 9316,
  "Ġbehavior": 4428,
  "ask": 2775,
  "Ġcar": 1443,
  "Ġlesson": 3432,
  "Ġletter": 6441,
  "èĢĮè¨Ģ": 7308,
  "çĦ¶": 1427,
  "enth": 8798,
  "Ġcollected": 7747,
  "mosp": 6876,
  "è¯Ħä»·": 3890,
  "Ġbuilding": 3078,
  "ord": 731,
  "Ġhelp": 1189,
  "éĹ´": 1112,
  "Ġbalance": 6325,
  "........": 683,
  "Ġskills": 2686,
  "æĸĩåŃ¦": 7611,
  "Ġinst": 1193,
  "ĠOne": 3260,
  "çĭ¬ç«ĭ": 5532,
  "App": 5171,
  "é¢ĳ": 6222,
  "Ġlim": 2489,
  "Ġthous": 5496,
  "éŃ": 8415,
  "MM": 6775,
  "ĠÂ": 3658,
  "Ġdiseases": 7119,
  "Ġeasily": 5189,
  "Ê": 137,
  "åİ¿": 5121,
  "æľª": 2293,
  "ility": 1057,
  "ĠUnion": 6514,
  "äºĶ": 2793,
  "Ġself": 2221,
  "é»Ħ": 6602,
  "çĶ¨äºİ": 6256,
  "ĠCommunity": 7059,
  "You": 3003,
  "å¸Ĥåľº": 2012,
  "Ġseeing": 7788,
  "éļĲ": 6914,
  "ystem": 971,
  "Ġmodels": 6345,
  "aint": 6299,
  "ULT": 9491,
  "à³": 6898,
  "agers": 9124,
  "Ġintroduction": 9672,
  "ç»ĥ": 5551,
  "Ġsquare": 8883,
  "ĠJack": 6878,
  "å®Į": 1995,
  "Ġsales": 7257,
  "ĠLife": 7931,
  "åĩıå°ĳ": 6084,
  "åĥı": 4205,
  "ĠEnvironmental": 7439,
  "mov": 6131,
  "36": 3315,
  "Ġhref": 4726,
  "äºĭ": 1048,
  "Ġthanks": 9638,
  "Ġdeal": 4019,
  "lished": 2958,
  "ĠSoc": 3444,
  "Ġinvolve": 6706,
  "ĠIntroduction": 5852,
  "ä¸ĭçļĦ": 7903,
  "Ġrein": 9627,
  "å¿Ĺ": 3852,
  "Z": 60,
  ");": 972,
  "ï¼Ī": 1002,
  "ï¬ģ": 8248,
  "Res": 3089,
  "Ġrefer": 5296,
  "te": 558,
  "Ġsch": 6624,
  "ä¸¥éĩį": 5960,
  "ech": 4740,
  "|": 94,
  "æ¨¡å¼ı": 3424,
  "ä¸Ģç§į": 2524,
  "Ġsource": 3480,
  "Ġshort": 2773,
  "ĠB": 401,
  "đ": 208,
  "Ġestab": 3235,
  "raph": 2094,
  "çºłçº·": 9373,
  "page": 8159,
  "éĻ": 631,
  "æķ°": 877,
  "Ġproperty": 4420,
  "fall": 9212,
  "we": 894,
  "è¿Ľç¨ĭ": 8187,
  "ery": 2017,
  "Ġpp": 7640,
  "Ġnice": 7137,
  "Ġwill": 577,
  "ĠPre": 5077,
  "ff": 543,
  "ka": 7440,
  "ults": 8507,
  "Ġmanagement": 3095,
  "cm": 8283,
  "åĨľä¸ļ": 3974,
  "ĨĴ": 8932,
  "ways": 1869,
  "Ġsimilar": 3339,
  "Ġgradu": 5633,
  "##": 1066,
  "BU": 9240,
  "ĠProt": 6777,
  "conds": 8199,
  "éĢļè¿ĩ": 1699,
  "Ġsort": 4947,
  "Ń": 258,
  "ĠLord": 5229,
  "ords": 7214,
  "Ġregion": 4670,
  "åıįåºĶ": 7031,
  "çĽ¸äºĴ": 5538,
  "ora": 7520,
  "Ġdark": 4920,
  "èĥĮæĻ¯": 7414,
  "ustr": 5620,
  "97": 4578,
  "ĠChapter": 9125,
  "çħ§": 2973,
  "Ġyellow": 8727,
  "Ġsubst": 5037,
  "Ġgiving": 5598,
  "ĠMon": 4544,
  "ä¿®": 3166,
  "æį": 836,
  "Ġupper": 8348,
  "Ġext": 1535,
  "ä¿¡çĶ¨": 9184,
  "Ġfurther": 3294,
  "å®¡æŁ¥": 8441,
  "Ġsum": 4409,
  "4": 22,
  "tw": 8154,
  "mark": 7892,
  "ĠAre": 4653,
  "imum": 3888,
  "Ġenable": 8845,
  "Ġseveral": 2511,
  "ç¦ı": 6685,
  "å¸": 595,
  "éĢīæĭ©": 4004,
  "Ġdog": 4193,
  "aud": 8890,
  "Ġsupply": 5273,
  "Ġthin": 9952,
  "tered": 6544,
  "é¡¹": 1857,
  "amm": 7004,
  "Ġinv": 1135,
  "Ġand": 292,
  "ĠGreat": 7201,
  "hi": 7742,
  "Ġcooper": 7478,
  "ä¸ĢäºĽ": 3841,
  "Ġhappens": 7018,
  "ç»´æĬ¤": 7281,
  "Ġemb": 5501,
  "osystem": 7213,
  "Ġroad": 3925,
  "Ĝ": 219,
  "ä¼¦": 8091,
  "æĴŃ": 6103,
  "è®¢": 5455,
  "Ġbecome": 2517,
  "Ġprob": 3156,
  "æĭħ": 3312,
  "æĺ¾ç¤º": 8132,
  "å®ª": 8343,
  "ASA": 6817,
  "æĹ¶ä»£": 4289,
  "ä¸ª": 740,
  ".âĢĶ": 7253,
  "app": 1931,
  "å¹¿æ³Ľ": 6778,
  "ä¿ĥè¿Ľ": 3913,
  "Ġatmosphere": 9081,
  "du": 587,
  "Ġdecide": 8533,
  "çĶ¨": 622,
  "Ġrelationships": 5869,
  "ĠCom": 1218,
  "cles": 5431,
  "ĠCO": 2952,
  "ä¹ĭåīį": 9035,
  "29": 2801,
  "æĦı": 1211,
  "ĠNOT": 6039,
  "Ġvalid": 6321,
  "Ł": 256,
  "åĪĨéħį": 5526,
  "ĠHigh": 4389,
  "è¿Ļæł·": 4877,
  "int": 752,
  "÷": 182,
  "åı·": 3036,
  "åı¤": 3292,
  "ges": 4276,
  "Ġguidelines": 9218,
  "ese": 4820,
  "Ġprotect": 3567,
  "Đ": 207,
  "Ġwere": 720,
  "ç¤¾ä¼ļä¸»ä¹ī": 4572,
  "ĠAnn": 6343,
  "Ġ2007": 6417,
  "hetic": 7858,
  "ui": 5168,
  "Ġminor": 7397,
  "Ġha": 461,
  "Ġbasic": 4524,
  "èį¯": 3879,
  "Ġnull": 7697,
  "æĥħåĨµ": 2862,
  "06": 6223,
  "Am": 9876,
  "s": 85,
  "è¿ĺæľī": 8430,
  "çĸĹ": 3505,
  "icip": 4813,
  "rict": 2841,
  "Ġinstit": 6510,
  "mit": 4373,
  "Ġcrit": 2814,
  "ĠWil": 8547,
  "isc": 2599,
  "ĠMount": 8346,
  "Ġsa": 847,
  "uf": 3452,
  "oms": 2816,
  "è¿«": 9076,
  "Ġahead": 8872,
  "Ġmake": 1137,
  "ater": 689,
  "Ġfruit": 6447,
  "orter": 8664,
  "å»¶": 5945,
  "è¯»": 4338,
  "ĠUsing": 7967,
  "Ġensure": 3378,
  "ple": 840,
  "Ġexist": 2990,
  "Ġ12": 1748,
  "Ġcertainly": 7184,
  "æĦ¿": 7429,
  "Ġsignificance": 9259,
  "ilities": 2472,
  "ph": 878,
  "requ": 7286,
  "Ġideal": 9077,
  "Ġcre": 1414,
  "è¡¥": 3735,
  "éĥ¨éĹ¨": 3499,
  "æ·±åĮĸ": 9634,
  "ĠMain": 7353,
  "Build": 9886,
  "ĠDay": 5849,
  "ESS": 7043,
  "form": 746,
  "Ġmatch": 5967,
  "å®ıè§Ĥ": 9843,
  "çĽ¸": 1009,
  "VID": 7455,
  "å¼º": 1401,
  "äºĨè§£": 6117,
  "ĠCath": 8323,
  "Ġget": 960,
  "Ġrecord": 2933,
  "è¡¨è¾¾": 6550,
  "åģ¥": 3995,
  "é»ĳ": 8590,
  "ribution": 4282,
  "Ġanxiety": 9004,
  "Ġaction": 3630,
  "æ²»": 1370,
  "At": 3876,
  "ĠEducation": 3785,
  "Ġhabitat": 8540,
  "ĠEnergy": 7527,
  "æĢ§åĴĮ": 5479,
  "éĢ»è¾ĳ": 6980,
  "ĠSun": 8128,
  "åĩł": 3687,
  "æĬĢæľ¯": 1524,
  "\",": 1619,
  "Ġbacter": 7266,
  "èī²": 2321,
  "Ġter": 5107,
  "èĭ±": 4332,
  "ĠRoad": 7250,
  "ĠWestern": 8055,
  "lier": 5495,
  "Ġcommerc": 6356,
  "è¾©": 7288,
  "Conn": 8817,
  "Ġtruly": 8299,
  "ively": 2784,
  "Ġstrategy": 6164,
  "Ġmaximum": 7623,
  "ĠEN": 9963,
  "áĥ": 3037,
  "Ġgetting": 3622,
  "Ġhelps": 4137,
  "urg": 4783,
  "ĠIts": 8989,
  "Ġq": 7198,
  "Ġstarts": 9031,
  "Ġnav": 7072,
  "å¤ª": 4711,
  "oose": 9096,
  "ä¸įæĸŃ": 3919,
  "ä½įç½®": 8718,
  "ĠĠĠĠĠĠĠĠĠĠĠĠĠĠĠĠĠĠĠĠĠĠĠĠĠĠĠĠĠĠĠĠĠĠĠĠĠĠĠĠĠĠĠĠĠĠĠĠĠĠĠĠĠĠĠĠĠĠĠĠĠĠĠĠ": 3098,
  "Ġmale": 7730,
  "ä»ĭ": 4334,
  "acher": 1835,
  "ul": 369,
  "çİ¯": 1643,
  "åĽ¾": 2063,
  "æħ§": 9530,
  "het": 4539,
  "Ġnext": 2417,
  "Ð»": 9267,
  "çļĦæĸ°": 7404,
  "ĠGroup": 6827,
  "OM": 8511,
  "iences": 6946,
  "è§Ħæ¨¡": 5117,
  "ĠĠĠĠĠĠĠĠĠĠĠĠĠĠĠĠĠĠĠĠĠĠĠĠ": 1278,
  "Name": 3547,
  "ä»Ĭ": 4202,
  "è£Ĥ": 9872,
  "Ġmove": 2488,
  "Ġâ": 3131,
  "red": 534,
  "ç®Ģ": 3573,
  "Ġpurpose": 4356,
  "ç»Ŀ": 6177,
  "Ġmouth": 5560,
  "Ġgreatest": 8555,
  "Ġskill": 7276,
  "Ġindustrial": 7897,
  "éĩĩ": 2448,
  "rie": 4680,
  "Ġstore": 5381,
  "Ġdiscover": 8848,
  "Ġben": 2100,
  "º": 121,
  "Ġmargin": 6415,
  ").": 712,
  "æīĢæľī": 3626,
  "ots": 2883,
  "ouse": 1603,
  "Ġgrand": 6216,
  "ava": 5521,
  "å": 164,
  "èĩªçĦ¶": 3652,
  "venue": 6861,
  "Ag": 7791,
  "May": 9358,
  "Ġmal": 9531,
  "ĠMac": 7921,
  "Ġtong": 9233,
  "Ġpurch": 4682,
  "ĠCreek": 8658,
  "Ġmot": 3162,
  "çĽ¾": 6473,
  "æĺ¯å¯¹": 9504,
  "âĢĿãĢĤ": 3091,
  "Ġpump": 9365,
  "å®ĮæĪĲ": 5304,
  "ä¹Ł": 1089,
  "alle": 7659,
  "ĥ": 228,
  "Ġval": 1220,
  "ĠâĢ": 730,
  "anks": 3842,
  "ä¸Ģä¸ª": 1494,
  "Ġtrying": 4226,
  "iet": 1262,
  "è½¨": 9707,
  "lay": 8300,
  "æ¨¡åŀĭ": 4894,
  "ther": 573,
  "Ġdidn": 3069,
  "è½¯": 5701,
  "æľºåĪ¶": 3384,
  "ò": 177,
  "æĿ¥çļĦ": 4959,
  "Ġhighlight": 9747,
  "ening": 3112,
  "2008": 9871,
  "Ġre": 317,
  "è¯Ńè¨Ģ": 5499,
  "Ġnorm": 3561,
  "ents": 676,
  "icles": 4129,
  "éĥ½æĺ¯": 5569,
  "PL": 8184,
  "?\"": 3498,
  "åª": 5802,
  "Ġsight": 8973,
  "å£«": 4093,
  "Ġbecoming": 7416,
  "æĸĹ": 7259,
  "æĽ´åĬł": 6461,
  "åıĸ": 1810,
  "Ġb": 283,
  "table": 3530,
  "Ġdiff": 2641,
  "oring": 3814,
  "Ġincome": 6023,
  "Ġseem": 2327,
  "uing": 7487,
  "Ġdeep": 3934,
  "Ġking": 7093,
  "agram": 7614,
  "Ġgot": 2645,
  "å¸ģ": 3542,
  "æ±¡": 6292,
  "Ġmother": 4178,
  "ĠAuthor": 9609,
  "èĹı": 7279,
  "ashington": 5405,
  "Ġteeth": 7885,
  "ãĢĢ": 2470,
  "èµ": 641,
  "åĳĪ": 7126,
  "hest": 5944,
  "oking": 9439,
  "éĿĻ": 8976,
  "Ġmaster": 6729,
  "ĠHome": 6985,
  "åĪ¶éĢł": 5584,
  "ĠDec": 7173,
  "ĠTime": 7571,
  "ç«": 817,
  "Ġsecret": 7405,
  "Ġemploy": 2914,
  "ĠEv": 6467,
  "ies": 455,
  "phas": 6088,
  "othing": 5941,
  "Ġfr": 3022,
  "è§Ĥå¯Ł": 7718,
  "Ġ&": 975,
  "Ġsm": 1205,
  "Ġcontinues": 8208,
  "ĠPaul": 6481,
  "ĠC": 344,
  "é¾Ħ": 9762,
  "Ĥ": 227,
  "Ġdepartment": 8760,
  "Ġforces": 7303,
  "focus": 8956,
  "çİ°ä»£": 3317,
  "Ġown": 1366,
  "ĠDav": 5287,
  "Ġcontrol": 2419,
  "Ġeven": 1329,
  "Ġanalyze": 9366,
  "æī¹": 3911,
  "æİĮæı¡": 6403,
  "Ġwon": 4113,
  "æĤ£": 4522,
  "Ġsumm": 7941,
  "åĦ": 3433,
  "åĪĳäºĭ": 8060,
  "è·": 1160,
  "Ġreg": 1127,
  "y": 91,
  "é¡¹çĽ®": 3421,
  "ĠMa": 9470,
  "æĺ¯ä¸Ģç§į": 7117,
  "Ġthey": 596,
  "Ġ51": 9147,
  "());": 9007,
  "Ġbudget": 6928,
  "reme": 4161,
  "Ġadoles": 9549,
  "Ġfinding": 7376,
  "è´·æ¬¾": 9356,
  "Ġ1": 363,
  "åį·": 7357,
  "AL": 1670,
  "å¦Ĥä½ķ": 4320,
  "æķĳ": 8356,
  "ĠSpec": 5285,
  "è´§": 3165,
  "ç¥": 1686,
  "å¤ļä¸ª": 9246,
  "Att": 8260,
  "ĠMin": 3875,
  "ĠSal": 8287,
  "Ġhave": 506,
  "Ġenhance": 7256,
  "Ġup": 716,
  "ĠPRO": 7945,
  "Ġgender": 8033,
  "ought": 5193,
  "Plant": 7006,
  "Ġbehav": 2864,
  "æĥħæĦŁ": 9815,
  "ç¬Ķ": 6352,
  "åĪ¤æĸŃ": 7367,
  "ky": 8196,
  "\";": 4527,
  "Ġalways": 2346,
  "When": 3736,
  "Ġcity": 3560,
  "read": 1529,
  "ä»ĭç»į": 8736,
  "ĠRom": 5838,
  "check": 6535,
  "conom": 1926,
  "Ġrespons": 2689,
  "Ġ36": 5174,
  "ival": 4324,
  "ER": 1148,
  "acters": 6040,
  "ice": 659,
  "hedul": 5029,
  "Ġce": 3459,
  "Ġmaterial": 2124,
  "ĠHuman": 7765,
  "ium": 2208,
  "ĠPl": 1879,
  "iling": 6010,
  "ird": 2505,
  "rooms": 9359,
  "æŁĲ": 2882,
  "ă": 194,
  "ken": 6012,
  "label": 9291,
  "Ġvari": 3899,
  "Ġcitizens": 6499,
  "first": 8887,
  "OC": 5243,
  "Ġnatural": 2817,
  "æŃ£": 1477,
  "çĽĳ": 2376,
  "Ġrep": 1558,
  "Ġfew": 1950,
  "ĠDNA": 9160,
  "oun": 1793,
  "è¯Ĭ": 8020,
  "ĠJew": 4644,
  "æ²¡": 2573,
  "Ġfight": 5399,
  "us": 416,
  "Ġla": 3188,
  "è¯¾åłĤ": 7525,
  "Ġsharing": 8527,
  "ä¸´": 4306,
  "è·Ŀ": 6416,
  "ĠOrgan": 7032,
  "Ď": 205,
  "Ġbi": 3368,
  "ĠBoth": 8490,
  "ĠSar": 9168,
  "ler": 2666,
  "Ġsometimes": 4790,
  "ç»¼": 3661,
  "ĠComp": 3502,
  "Ġcultiv": 9838,
  "ome": 538,
  "Col": 4925,
  "Ġwhole": 3238,
  "Ġapproaches": 8801,
  "Ġnon": 2518,
  "æĢ»ä½ĵ": 8246,
  "æ°ĳä¸»": 9040,
  "overy": 5648,
  "Ġbest": 2021,
  "Ġmeeting": 5015,
  "greg": 8617,
  "Ġlegs": 8222,
  "åºŃ": 4576,
  "Ġprovides": 3706,
  "style": 8898,
  "Ġby": 474,
  "æīĭæ®µ": 5771,
  "ĠLondon": 5877,
  "è¿Ŀ": 4075,
  "åİŁçĲĨ": 7542,
  "Man": 7529,
  "è°": 1036,
  "Ġpopulations": 9146,
  "ĠOn": 2301,
  "æ¢°": 9054,
  "Conclusion": 7039,
  "Ġtrans": 1269,
  "Ġmeasures": 5624,
  "æĬ½": 8284,
  "ç¥ŀç»ı": 6891,
  "æĪĲç«ĭ": 6916,
  "Ġcorrect": 4120,
  "Request": 8256,
  "ĠHistor": 9841,
  "ä¸įåĲĮçļĦ": 5333,
  "Th": 1290,
  "Ġphase": 8654,
  "ĠLanguage": 8228,
  "ception": 3789,
  "bor": 4374,
  "å»º": 982,
  "ç§°": 2574,
  "Ġconver": 8422,
  "ause": 947,
  "Ġref": 1634,
  "ĠTim": 9895,
  "Ġcovered": 6389,
  "orough": 9577,
  "ii": 4424,
  "ĠAcc": 4689,
  "hens": 4667,
  "åŁºæľ¬": 2410,
  "ried": 2281,
  "ĠChristianity": 8236,
  "Ġarri": 4932,
  "ove": 864,
  "itt": 1167,
  "Ġscience": 3725,
  "å½¢æĢģ": 7079,
  "åĩºçİ°": 3748,
  "Ġhom": 7076,
  "æĲ": 5539,
  "//": 1029,
  "ĠWell": 6172,
  "Ġorder": 2335,
  "æ´": 1026,
  "Ġsub": 1166,
  "æĪĳ": 1108,
  "................": 1125,
  "çŃĸçķ¥": 7845,
  "io": 1377,
  "Ġunf": 6987,
  "çĻ¾": 4076,
  "Ġtop": 2164,
  "=": 31,
  "olar": 8946,
  "%": 7,
  "reek": 5065,
  "æł¹": 2082,
  "Ġmoral": 9703,
  "Ġhistorical": 6684,
  "ivery": 8090,
  "Source": 6770,
  "Ġthat": 358,
  "åĬ¨": 768,
  "ocial": 9553,
  "Ġprogramme": 9315,
  "æĢģ": 1753,
  "Ġtraining": 3382,
  "äº¿": 6107,
  "ĠMarch": 4703,
  "uation": 2776,
  "Ġusing": 1607,
  "Ġcontin": 1833,
  "'": 9,
  "fo": 4286,
  "çŃīæĸ¹éĿ¢": 9669,
  "Ä": 131,
  "Ġdirector": 9761,
  "Ġerr": 3024,
  "ĠThis": 910,
  "Ġdoing": 3228,
  "©": 105,
  "SE": 3956,
  "W": 57,
  "Ġagent": 9852,
  "ĠNone": 9587,
  "Ġblack": 3671,
  "åįļ": 6253,
  "Ġtow": 9420,
  "åĽłç´ł": 4040,
  "ĠThey": 1465,
  "æĬĢæľ¯çļĦ": 9656,
  "Ġmov": 2158,
  "Ġcontinued": 5655,
  "å¿ħ": 1961,
  "haps": 4684,
  "var": 5899,
  "Ġtesting": 6368,
  "CE": 5503,
  "ç¡Ģ": 2081,
  "čĊč": 5230,
  "æĥ³": 2043,
  "ush": 2429,
  "Ò": 145,
  "Thrift": 8536,
  "ĠLaw": 6196,
  "ribute": 4317,
  "æĿĥçļĦ": 6716,
  "08": 5658,
  "Ġsuccessful": 5511,
  "èĩ´": 2450,
  "ulner": 7325,
  "ĠSociety": 7010,
  "Ġ=>": 2708,
  "Ġterms": 3883,
  "ution": 1286,
  "xygen": 9324,
  "Ġlong": 1344,
  "ank": 1648,
  "Ġsend": 5794,
  "webkit": 8838,
  "é£İéĻ©": 3445,
  "ically": 1563,
  "uster": 8730,
  "äº§ä¸ļ": 2795,
  "ion": 295,
  "Ġexpand": 6709,
  "è®¤çŁ¥": 7609,
  "é©¬åħĭ": 6562,
  "äºĽ": 1587,
  "Ġisol": 9169,
  "plete": 9711,
  "æĮģ": 1605,
  "Ġthe": 267,
  "æľīçļĦ": 5275,
  "ling": 2145,
  "ĠMore": 5131,
  "ceived": 9383,
  "ores": 3632,
  "Ġdown": 1433,
  "Ġpr": 1203,
  "å¤§": 679,
  "Ġsh": 494,
  "Ġadditional": 4590,
  "ä¸Ńå¤®": 4885,
  "Ġsec": 5540,
  "ĠDe": 1541,
  "Ġdis": 696,
  "Ġstandard": 4501,
  "Ġnovel": 7373,
  "ç»ĦæĪĲ": 5937,
  "Ġpage": 4333,
  "oph": 3443,
  "ox": 1650,
  "Ġorig": 2936,
  "how": 7991,
  "å¸¦æĿ¥": 8971,
  "Ġqual": 5105,
  "Ġgive": 2525,
  "Ġplastic": 8493,
  "ç»ľ": 2635,
  "Ġfollowing": 2179,
  "ivid": 1724,
  "ĠExper": 7756,
  "åĿĹ": 5543,
  "atural": 2290,
  "ile": 760,
  "åĲİ": 1095,
  "Ġsym": 3007,
  "Ġleft": 2528,
  "ieties": 9100,
  "Ġsaf": 4370,
  "oss": 1122,
  "ĠCalifornia": 5042,
  "Ġcalled": 2334,
  "Ġwaters": 7853,
  "uzz": 8999,
  "Ġhol": 7767,
  "Ġrelev": 5498,
  "igh": 453,
  "Ġspace": 2715,
  "ĠIndian": 5313,
  "ogy": 9254,
  "----": 348,
  "çĹĩ": 5890,
  "è®¾å¤ĩ": 5638,
  "ĊĠĠĠ": 548,
  "åħ¬å¹³": 7558,
  "igr": 5379,
  "ding": 5278,
  "ains": 2137,
  "ognitive": 8410,
  "ĠKore": 9099,
  "Ġproduction": 3568,
  "inding": 7735,
  "ĠConf": 9689,
  "rep": 6136,
  "Ġcapital": 5530,
  "ç»ıæµİçļĦ": 9906,
  "Ġtemperature": 5166,
  "Ġtr": 978,
  "ĠSouthern": 9135,
  "å¤ĩ": 2426,
  "Ġthem": 764,
  "å½¢å¼ı": 3493,
  "Ġillness": 8636,
  "å»ºè®¾": 2140,
  "è®º": 1235,
  "æľºæŀĦ": 3345,
  "ĠAN": 8437,
  "From": 5724,
  "çī©çļĦ": 6451,
  "åİŁåĽł": 5523,
  "pack": 6426,
  "ules": 3425,
  "æ´ĭ": 7191,
  "imately": 4728,
  "ĠDon": 5259,
  "Ġsources": 4528,
  "Ġexample": 1958,
  "ĠTitle": 8856,
  "opyright": 9830,
  "ĠRetrieved": 9210,
  "åĢº": 2987,
  "Ġtalk": 3001,
  "Ġitems": 5181,
  "çļĩ": 8781,
  "Ġinvestment": 7135,
  "Ġfederal": 6560,
  "rote": 6158,
  "ĠAg": 3248,
  "ĠService": 6029,
  "Ġarea": 2054,
  "Ġfamil": 3627,
  "æ³ķæ²»": 9408,
  "ĠTO": 4962,
  "Ġstage": 5537,
  "Ġexper": 1324,
  "Ġfirst": 1120,
  "yl": 3696,
  "Ġplayed": 6765,
  "====": 2032,
  "ä¼¼": 5363,
  "Ġrange": 3277,
  "ĠIdent": 8442,
  "Ġextra": 4934,
  "éĩĬ": 3520,
  "Ġwat": 5240,
  "¤": 100,
  "ĠBar": 4655,
  "start": 8407,
  "apt": 2675,
  "esus": 3657,
  "cohol": 8003,
  "Ġthousands": 7859,
  "æĬ": 586,
  "å®ŀè·µ": 2829,
  "bed": 4376,
  "aa": 6882,
  "é½Ĳ": 9992,
  "æįŁ": 3451,
  "ferent": 9429,
  "Ġ(\"": 7900,
  "change": 5654,
  "Ġclient": 8510,
  "Ġancient": 7382,
  "æľį": 1785,
  "lets": 9523,
  "Ġreaders": 8532,
  "X": 58,
  "Ġallow": 1864,
  "æ®": 1622,
  "case": 9235,
  "ł": 257,
  "Ġpoor": 4627,
  "æĪĲ": 698,
  "Ġimplemented": 9313,
  "add": 2300,
  "Ġcustomers": 6332,
  "æŃ¢": 4198,
  "Ġidentity": 7715,
  "imate": 1907,
  "åŃĲ": 1351,
  "annel": 7291,
  "Ġocc": 1977,
  "Ġinfrastructure": 8193,
  "åĢĻ": 5671,
  "Ġnumbers": 4588,
  "des": 5082,
  "ollow": 6679,
  "Ġselected": 7245,
  "2000": 8179,
  "çŃ¾": 6654,
  "aught": 4799,
  "å¥Ĺ": 7546,
  "Ġwarm": 5356,
  "ðĿĳ": 8529,
  "ç¬¬ä¸Ģ": 3389,
  "ÂłÂłÂłÂł": 5831,
  "Field": 9487,
  "è¶ĭåĬ¿": 7553,
  "ä½į": 1395,
  "ç»ĵåĲĪ": 3752,
  "Ġsoon": 4506,
  "View": 8653,
  "çĩ": 7646,
  "æĽ´": 1450,
  "ĠProgram": 4422,
  "Ġliterature": 7312,
  "Ġfavorite": 8837,
  "]": 63,
  "Ġ1998": 9197,
  "arios": 8576,
  "Ġpal": 8429,
  "Ġhigh": 1339,
  "ype": 2216,
  "Ġvaluable": 7289,
  "åĬ³åĬ¨": 2706,
  "Ġlearned": 5034,
  "known": 6662,
  "Ġgram": 8504,
  "ERT": 4314,
  "size": 4798,
  "åĪĨæŀĲ": 2365,
  "å¥½çļĦ": 5859,
  "Ġcontains": 6317,
  "çİ°å®ŀ": 5676,
  "Ġimages": 6436,
  ":": 28,
  "67": 3636,
  "000": 1144,
  "ĠPractice": 9008,
  "Ñĥ": 9134,
  "Ġdepends": 9056,
  "Ġhours": 3670,
  "Ġfun": 1583,
  "è´¯": 7828,
  "Ġpreviously": 8579,
  "100": 3267,
  "Ġstock": 6494,
  "Ġstay": 4214,
  "Ġfar": 2648,
  "Ġpresence": 6745,
  "road": 6068,
  "Ġdou": 4194,
  "Ġtoday": 3190,
  "ĠPolicy": 9478,
  "Ġinclude": 2115,
  "Rel": 9256,
  "Ã¡": 5348,
  "Rec": 8467,
  "Ġcond": 2886,
  "Cont": 4081,
  "ula": 5644,
  "æķĪ": 1348,
  "Ġgr": 2522,
  "è·¨": 6655,
  "Ġnarrow": 9382,
  "ore": 429,
  "Ġconclusion": 7077,
  "åĺ": 9695,
  "Ġcards": 9831,
  "Call": 9825,
  "Ġmember": 4525,
  "icro": 3348,
  "\");": 7488,
  "åħ³ç³»": 2022,
  "Ġextreme": 5408,
  "Ġentire": 3679,
  "Ġonto": 6750,
  "¬": 108,
  "è¯ģæį®": 5281,
  "ST": 1867,
  "è§": 513,
  "Ġstake": 9149,
  "It": 1924,
  "Ġworth": 5236,
  "Ġslowly": 7664,
  "rim": 4966,
  "ċ": 202,
  "berg": 8264,
  "ä¹¡æĿĳ": 6521,
  "IB": 5901,
  "å°¤": 6760,
  "ä¸įè¶³": 8104,
  "00": 415,
  "Ġmill": 6094,
  "Ġhelping": 7618,
  "++": 6860,
  "Ġputting": 9385,
  "ä¾§": 7768,
  "abeth": 9867,
  "è¯·": 3308,
  "å¤ĸ": 1292,
  "éī": 5768,
  "ĠNumber": 6935,
  "aign": 6245,
  "Ġcarry": 5255,
  "Ġmo": 5824,
  "which": 7737,
  "ç½²": 8552,
  "Ġedge": 8391,
  "åįģåĪĨ": 9937,
  "è½¦": 4029,
  "Ġlooks": 6497,
  "Ġwonder": 6206,
  "çİĭ": 3456,
  "Ġeffects": 3773,
  "Re": 1893,
  "Mod": 5026,
  "ĠNULL": 5846,
  "ä¼łç»Ł": 3544,
  "ä¸Ģæĸ¹éĿ¢": 6207,
  "å¯¹äºİ": 3021,
  "fect": 4114,
  "æºĲ": 1457,
  "mber": 3276,
  "Ġsettings": 9472,
  "Ġdig": 3479,
  "stand": 1309,
  "Ġbusinesses": 6641,
  "åĻ": 1980,
  "çĽ¸åħ³çļĦ": 9821,
  "ross": 1839,
  "ĠSocial": 5684,
  "Ġdecision": 4665,
  "padding": 7906,
  "oper": 4237,
  "rief": 5564,
  "Ġtogether": 2670,
  "iration": 9813,
  "Ġbring": 3673,
  "Ġduring": 1667,
  "çķ¥": 2917,
  "using": 7304,
  "æŃ¦": 5806,
  "Ġhab": 9809,
  "èŀįèµĦ": 8949,
  "hes": 1257,
  "essage": 3370,
  "Ġresponsible": 5487,
  "ç«¯": 4411,
  "æ²¡æľī": 2782,
  "atever": 6502,
  "Ġhe": 407,
  "Ġhttp": 4887,
  "ĠCurrent": 9029,
  "ount": 721,
  "ĠPlan": 4311,
  "dbo": 7460,
  "åıį": 1852,
  "irit": 3490,
  "Ġchange": 2069,
  "ras": 9339,
  "Ġdev": 2543,
  "æī¿": 2388,
  "ruct": 1321,
  "ç¼º": 3739,
  "Ġplaced": 5837,
  "agement": 2033,
  "eding": 8065,
  "åįģ": 1763,
  "Ġdrink": 5118,
  "af": 2757,
  "èİ": 2642,
  "çĶ": 388,
  "load": 4110,
  "art": 482,
  "Ġguys": 9658,
  "Ġclass": 1184,
  "rics": 9801,
  "anced": 3650,
  "æµģåĬ¨": 7959,
  "åī§": 7396,
  "æĺĵ": 2254,
  "çī¹åĪ«æĺ¯": 8962,
  "ĠZ": 2152,
  "Ġtheory": 5145,
  "å·¥ä¸ļ": 4245,
  "Ġour": 849,
  "éĥ¨": 1054,
  "image": 7893,
  "58": 5233,
  "eter": 2938,
  "Ġsp": 751,
  "éģĩ": 7142,
  "æĶ¯": 1937,
  "Ġwatch": 4494,
  "å£": 2272,
  "C": 37,
  "è¿ĩ": 867,
  "Ġcopy": 5632,
  "eline": 5855,
  "ĠLee": 9678,
  "å¢ŀå¼º": 6357,
  "active": 6077,
  "äºī": 2391,
  "ĠGerm": 4231,
  "urther": 2671,
  "èĩªåĬ¨": 8570,
  "Ġfrequ": 4354,
  "å¥": 1096,
  "Ġconcern": 3625,
  "^": 64,
  "Ġdam": 3281,
  "led": 1182,
  "å¦Ĥ": 1094,
  "Ġauthor": 2893,
  "Ġactivities": 2721,
  "çĶŁäº§": 2252,
  "Ġfont": 8102,
  "ĠData": 5738,
  "iety": 1918,
  "IP": 5076,
  "æ¶": 1411,
  "CR": 8353,
  "Ġorigin": 6203,
  "çī©è´¨": 5574,
  "Ġsqu": 4582,
  "ç»ĺ": 9572,
  "61": 5691,
  "å½": 603,
  "Ā": 191,
  "ĠInstead": 9606,
  "åĬ³åĬ¨åĲĪåĲĮ": 9749,
  "éĤ£": 3413,
  "ping": 6018,
  "Ġtests": 6213,
  "Ġsoft": 3341,
  "oly": 4441,
  "ares": 6110,
  "åŁİä¹¡": 9193,
  "èı": 5921,
  "åıĳçİ°": 4082,
  "åºĶçļĦ": 6537,
  "Ġsudden": 7596,
  "53": 5761,
  "ched": 3119,
  "ars": 1856,
  "ĠPr": 3207,
  "}": 95,
  "gu": 6217,
  "Ġappear": 3236,
  "Ġhas": 670,
  "èĩª": 945,
  "ensus": 7530,
  "ĠPut": 5338,
  "Ġboth": 1586,
  "header": 8869,
  "roduction": 2955,
  "ĠBoard": 6736,
  "å¢ŀ": 1614,
  "used": 4793,
  "superscript": 7869,
  "standing": 4737,
  "here": 2131,
  "ibly": 5939,
  "Ġrand": 8152,
  "ĠSept": 4585,
  "Ġestablished": 5507,
  "Ġ--": 2245,
  "Ġlaws": 6095,
  "Ġag": 820,
  "Ġofficial": 5478,
  "çĶļèĩ³": 6551,
  "Ġinstance": 5973,
  "ĠMal": 6701,
  "Ġviews": 8314,
  "Ġtaking": 3707,
  "Ġlots": 8961,
  "iki": 6972,
  "èĢĮ": 871,
  "ç«Ļ": 6606,
  "Ġpil": 9091,
  "State": 6507,
  "æķ°åŃĹ": 3323,
  "Ġincreased": 4301,
  "IO": 9718,
  "Ġaudience": 7073,
  "çģ": 2557,
  "Ġvict": 5938,
  "ana": 3946,
  "Ġhosp": 6552,
  "Ġamong": 2912,
  "Ġbottom": 6672,
  "ç«ĭ": 1240,
  "ined": 1600,
  "åŃ¦éĻ¢": 8319,
  "è¶ħè¿ĩ": 7648,
  "omic": 8836,
  "PS": 5416,
  "world": 9158,
  "Ġreally": 2150,
  "heduler": 6421,
  "Ġbrown": 9665,
  "Ġfresh": 6615,
  "pen": 5601,
  "Ġwent": 3298,
  "Ġrelationship": 3160,
  "ĠAll": 2345,
  "Ġapparent": 8393,
  "Ġspent": 6454,
  "Ġstruct": 2491,
  "elines": 6367,
  "ĠFebruary": 6590,
  "be": 1557,
  "ameter": 7786,
  "ĠH": 424,
  "lines": 8201,
  "Ġwalking": 6548,
  "Ġhttps": 5085,
  "rop": 2144,
  "ademic": 5079,
  ")ãĢĤ": 8302,
  "ç±»åŀĭ": 6291,
  "Ġdise": 2993,
  "å®": 368,
  "Ġassert": 6808,
  "ĠRes": 1863,
  "ala": 6274,
  "ersion": 7086,
  "Ġhuge": 6419,
  "æľŁéĹ´": 7242,
  "adian": 8847,
  "2013": 8757,
  "åıĳçĶŁ": 3299,
  "Ġvessel": 8595,
  "Ġinvolves": 5425,
  "ey": 3257,
  "çı": 5616,
  "ĠVictor": 9307,
  "è¨Ģ": 2555,
  "åĿı": 8165,
  "æķĻæĿĲ": 9757,
  "æķ´ä¸ª": 7128,
  "æĿ¿": 7890,
  "åĪ¸": 6805,
  "Ġneck": 9294,
  "å¾Ģå¾Ģ": 7713,
  "Ġtest": 1705,
  "Ġ47": 8476,
  "åĩı": 3324,
  "9": 27,
  "Ġacc": 953,
  "ression": 2823,
  "Ed": 7544,
  "Ġanal": 2047,
  "Ġsequence": 9580,
  "Ġexpensive": 9261,
  "ĠX": 2940,
  "Ġchalleng": 3749,
  "æĢ§èĥ½": 8768,
  "Ġlike": 850,
  "sy": 3109,
  "èĳĹ": 4046,
  "ç¨": 728,
  "sc": 1399,
  "endar": 9497,
  "è®¿": 8483,
  "Ġswitch": 8191,
  "ternal": 4949,
  "å¥³": 4516,
  "itely": 8024,
  "¹": 120,
  "ences": 3845,
  "çĻ»è®°": 7691,
  "vertical": 8796,
  "Ġprofess": 2950,
  "Ó": 146,
  "Ġparam": 5681,
  "ls": 3077,
  "Ġdemon": 4548,
  "Ġthemselves": 3666,
  "CM": 8227,
  "Ġleave": 4881,
  "lected": 3395,
  "Ġuser": 4800,
  "Ġprices": 8372,
  "ĠOld": 8968,
  "åº": 475,
  "Ġbed": 4860,
  "Wh": 1615,
  "Ġmiss": 4823,
  "æĻº": 3083,
  "èĩªçĶ±": 5232,
  "ï¼Į": 306,
  "acing": 6710,
  "èģ": 1090,
  "atic": 2077,
  "Ġset": 1276,
  "Ġflex": 6376,
  "ot": 333,
  "'d": 4378,
  "Ġquant": 5750,
  "anta": 9834,
  "çĽ´æİ¥": 4074,
  "Ġexperience": 2551,
  "ock": 1081,
  "Ġstra": 5490,
  "imes": 1571,
  "raint": 9044,
  "Ġjoint": 7594,
  "ifornia": 4807,
  "ĠGlobal": 9441,
  "pace": 8336,
  "æı¡": 4540,
  "ĠBl": 2729,
  "æĬĺ": 8081,
  "ll": 754,
  "Id": 4745,
  "çľŁæŃ£": 7969,
  "Ġspecies": 2884,
  "Ġthought": 2982,
  "Ġintended": 7809,
  "Ġrecommended": 7770,
  "Ġsl": 1843,
  "é¸": 8013,
  "Ġwhose": 5332,
  "ĠThus": 8186,
  "ç¬¬åĽĽ": 8282,
  "ï¼īãĢĤ": 5669,
  "Ġsom": 1666,
  "Ġexcell": 6846,
  "Ġconsidering": 9902,
  "mod": 4020,
  "Ġtechnologies": 7574,
  "èĥ½": 663,
  "SH": 8357,
  "Ind": 4695,
  "å®ı": 7964,
  "Ġno": 966,
  "Ġdistribution": 6658,
  "rodu": 1747,
  "There": 3105,
  "å·®å¼Ĥ": 6883,
  "Met": 9716,
  "çİ¯å¢ĥ": 2197,
  "éĶĢåĶ®": 8780,
  "Ġglobal": 4118,
  "âħ": 7372,
  "stance": 3999,
  "äºº": 512,
  "Ġresponsibility": 7028,
  "Ġspend": 7176,
  "äº¦": 7827,
  "ĠGr": 6924,
  "ise": 1069,
  "Ġbase": 4423,
  "Ġwaste": 5036,
  "èµĸ": 8101,
  "ç¤º": 2359,
  "Ġapart": 8715,
  "åıĳæĮ¥": 4792,
  "uments": 4636,
  "Ġliquid": 9357,
  "è¿": 386,
  "Ġmarketing": 7990,
  "EP": 4459,
  "ĠâĢľ": 874,
  "hem": 2160,
  "Ġ52": 8868,
  "airs": 4403,
  "åĬªåĬĽ": 9329,
  "Ġimmediately": 5999,
  "æľ": 352,
  "Ġmonth": 2527,
  "ably": 2456,
  "Ġhaving": 2767,
  "oday": 7141,
  "ľ": 253,
  "ĠSw": 5376,
  "ĠTw": 4828,
  "Ġwords": 2903,
  "oci": 2222,
  "Ġadvoc": 9320,
  "æ¯Ķå¦Ĥ": 8079,
  "ĠMill": 8627,
  "åĩº": 799,
  "Ġtransl": 7445,
  "Ġdry": 5578,
  "iving": 1984,
  "è£ģ": 3820,
  "Ġenvironmental": 4507,
  "Ġnow": 1466,
  "æıı": 6877,
  "Ġcontract": 4825,
  "ule": 2771,
  "åı¤ä»£": 9355,
  "æĹ¶åĢĻ": 9728,
  "illed": 3401,
  "èĬ±": 6723,
  "ĠAfrican": 6380,
  "ç¤¾ä¼ļçļĦ": 8977,
  "è¯´æĺİ": 6607,
  "date": 3880,
  "urban": 5994,
  "ĠĠĠĠĠĠĠĠĠĠĠĠĠ": 2526,
  "ĠFeb": 5358,
  "å¨": 4767,
  "ä»¥æĿ¥": 6909,
  "reed": 5533,
  "example": 6122,
  "åı³": 7784,
  "Ġequal": 5832,
  "Bl": 8731,
  "Ġindust": 2728,
  "æħ¢": 9182,
  "Ġsince": 2368,
  "ä¾Ŀæ³ķ": 6580,
  "ĵ": 244,
  "æ·": 1727,
  "Ġcertain": 2746,
  "Ġcharacters": 6375,
  "ĠKe": 6381,
  "Ġentry": 7975,
  "aper": 2739,
  "Ġge": 4641,
  "Ġmedical": 4479,
  "a": 67,
  "ĠCompany": 7762,
  "åĶĲ": 6393,
  "Ġshow": 1576,
  "ĠR": 442,
  "Ġhuman": 2114,
  "arket": 4553,
  "éħįç½®": 8019,
  "é«ĺçļĦ": 8990,
  "Ġdegrees": 9944,
  "Ġfire": 3896,
  "ita": 8586,
  "è¯¯": 6141,
  "ĠDirector": 8183,
  "ĠLearning": 6542,
  "dep": 9767,
  "Ġdepth": 8076,
  "Ġoverall": 5262,
  "åį°": 6007,
  "Ġelectrical": 9057,
  "SION": 6603,
  "roke": 9719,
  "ä¼¤": 5125,
  "rap": 2636,
  "âĢĿâĢľ": 8914,
  "Ġheld": 4100,
  "Ġplaying": 6003,
  "éĩıçļĦ": 5801,
  "Ġtechniques": 5424,
  "å±ķ": 839,
  "inate": 5302,
  "è¾ħ": 8508,
  "Ġbar": 3713,
  "-------|": 7599,
  "åºĶçĶ¨": 2714,
  "ATION": 5150,
  "Ġcourt": 7106,
  "Ġcompan": 4038,
  "ĠTheir": 7078,
  "Ġchild": 990,
  "Ġsay": 1801,
  "æ±ł": 8554,
  "Ġdeg": 3721,
  "Ġadministr": 9108,
  "Ġanimal": 6004,
  "å¹³": 1297,
  "pre": 6879,
  "comes": 5911,
  "Ġclasses": 6188,
  "åĶ": 2644,
  "Ġdocument": 4440,
  "Ġrandom": 8656,
  "æ¹": 4940,
  "btn": 7806,
  "ĠEn": 2189,
  "Ġremaining": 9376,
  "Ġ\\(": 6460,
  "ĠCollege": 6273,
  "END": 8313,
  "é¢Ħæµĭ": 8472,
  "æĻºèĥ½": 4511,
  "Ġsignal": 8686,
  "Ġagree": 4187,
  "çŁ³": 4762,
  "Ġplan": 1683,
  "éĵ¶": 3973,
  "æ°´": 1627,
  "Ġraw": 9701,
  "FL": 7474,
  "En": 4716,
  "å®ĮåĸĦ": 4721,
  "Ġdownload": 9817,
  "doc": 7188,
  "ĠAct": 3269,
  "But": 3504,
  "éĻ¤äºĨ": 9181,
  "Ġquickly": 4693,
  "ĠDr": 3782,
  "ĠPhys": 7386,
  "ra": 339,
  "Ġhead": 2078,
  "ĠRob": 8400,
  "åıĸå¾Ĺ": 5887,
  "åĬĽéĩı": 7925,
  "åĮħæĭ¬": 2650,
  "æĹħ": 9237,
  "Ġteachers": 3464,
  "ym": 1574,
  "è¾ĳ": 5432,
  "icient": 9568,
  "çłĶ": 1172,
  "Ġregul": 9734,
  "gov": 7592,
  "ĠBuilding": 9717,
  "alt": 3645,
  "æ¯ıä¸ª": 7518,
  "itution": 3988,
  "string": 5902,
  "ä¸¾": 4024,
  "atis": 6574,
  "Ġob": 1100,
  "Ġspread": 5113,
  "ãĢ": 310,
  "begin": 8612,
  "ç»Ł": 1087,
  "tenance": 6394,
  "¦Ĥ": 949,
  "Ġclin": 7568,
  "è´¸": 4831,
  "Ġpractical": 6700,
  "Ġschools": 3495,
  "user": 8218,
  "è®¾æĸ½": 6409,
  "Ġthreat": 4781,
  "ä»¥ä¸Ĭ": 6192,
  "ric": 798,
  "air": 1456,
  ")+": 4558,
  "æ¡Ī": 1749,
  "å¹´çļĦ": 6578,
  "value": 5524,
  "pm": 4926,
  "Ġdance": 9844,
  "ĠJohn": 2959,
  "/": 17,
  "æ³ķçļĦ": 6890,
  "ĠMan": 2809,
  "æ¤": 5726,
  "Ġplaces": 5411,
  "5": 23,
  "é²": 6194,
  "end": 486,
  "æĿĲæĸĻ": 4744,
  "èĻ½çĦ¶": 6439,
  "æĹ¥æľ¬": 6967,
  "ĠCOVID": 9110,
  "oid": 2112,
  "èĩªå·±": 3372,
  "ying": 5589,
  "ð": 175,
  "rs": 2398,
  "ash": 1517,
  "TR": 9835,
  "Ġpo": 1058,
  "ç§ĳçłĶ": 9318,
  "ĠGold": 9724,
  "Ġhour": 6479,
  "Ġgenerally": 5217,
  "rapy": 6142,
  "RO": 1655,
  "con": 726,
  "Ġaccompl": 8061,
  "Ġ2016": 6001,
  "Ġintern": 2758,
  "ç²¾": 2477,
  "Ë": 138,
  "Ġstory": 2906,
  "ears": 9053,
  "ĠBr": 6772,
  "Ġdevices": 6051,
  "çļĦåİĨåı²": 9967,
  "Ġtreatment": 3809,
  "Ġbird": 9808,
  "à¤¾": 3723,
  "Ġactive": 5149,
  "ĠApril": 5164,
  "ests": 6156,
  "Ġmention": 5080,
  "Ġmeaning": 4186,
  "ä¹ĭä¸Ģ": 5725,
  "sel": 1017,
  "ĠStud": 2731,
  "Ġcle": 1692,
  "Ġprocedure": 9121,
  "ĠĠĠĠĠĠĠĠĠĠĠĠĠĠĠĠ": 372,
  "uary": 4871,
  "Ġboy": 6988,
  "elled": 9644,
  "Ġheard": 5128,
  "Ġsufficient": 7968,
  "çľŁ": 2970,
  "math": 9418,
  "tion": 9985,
  "åĲİçļĦ": 7810,
  "å¤Ł": 3272,
  "Ġscript": 8420,
  "ĠÙĪ": 8141,
  "Ġtransportation": 8494,
  "itle": 3122,
  "Ġlarger": 5535,
  "2014": 8790,
  "Ġcomfort": 5572,
  "Ùİ": 6812,
  "ino": 4312,
  "Ġnuclear": 8860,
  "angle": 8219,
  "94": 6024,
  "Ġecosystem": 8145,
  "å°±ä¸ļ": 6599,
  "Ġorgan": 1771,
  "illa": 8996,
  "Ġexpect": 4123,
  "Ġperformed": 8241,
  "âĳ": 4296,
  "Ġcompon": 4042,
  "ĠM": 376,
  "Ġsmall": 1772,
  "irt": 3482,
  "ĠAtt": 6704,
  "Ġbodies": 7702,
  "Ġplanning": 4839,
  "orders": 7772,
  "ĠWho": 7769,
  "ĠSome": 3102,
  "acific": 8791,
  "John": 9367,
  "Ġheight": 6072,
  "Ġ28": 3859,
  "å¢ŀåĬł": 4045,
  "ĠFurther": 9151,
  "ö": 181,
  "UN": 4269,
  "æĪ": 452,
  "Ġesc": 6561,
  "Ġpadding": 8111,
  "å®Įåħ¨": 6369,
  "UD": 9381,
  "ditional": 3948,
  "Ġ2020": 5502,
  "ãĢĤ": 355,
  "ç¬¬ä¸ī": 4215,
  "se": 331,
  "éĺ¶çº§": 9891,
  "è¿Ľ": 793,
  "Ġro": 876,
  "Ġpoints": 3621,
  "ground": 2622,
  "Ġcollabor": 5850,
  "iversity": 1975,
  "ĠCan": 2747,
  "Ġguide": 6327,
  "ie": 557,
  "Figure": 6195,
  "est": 428,
  "Ġidentified": 5907,
  "Ġtherm": 9986,
  "wiki": 9231,
  "ation": 338,
  "Ġmiddle": 5497,
  "Ġ58": 7174,
  "ĠHall": 8988,
  "å®ŀ": 694,
  "åĲĦ": 1453,
  "ina": 2361,
  "æĺ": 406,
  "Ġmillion": 3579,
  "Ġes": 2314,
  "Ġcourse": 2560,
  "Ġcour": 1798,
  "Ġshows": 4300,
  "Ġaccess": 2353,
  "round": 969,
  "estions": 8210,
  "é¼ĵåĬ±": 8752,
  "Ġ00": 1929,
  "Ġfeeling": 5636,
  "ast": 601,
  "åŁİéķĩ": 9199,
  "åºĶ": 848,
  "vert": 3289,
  "Ġdistrict": 7074,
  "Î": 141,
  "åıĺ": 1337,
  "Ġbuilt": 4427,
  "Ġspe": 2096,
  "Ġresults": 3029,
  "Ġsubject": 2966,
  "Qu": 4481,
  "éķ¿": 1491,
  "ß": 158,
  "ĠVal": 4364,
  "alysis": 7366,
  "å¿ĥçĲĨ": 6050,
  "Ġkill": 7332,
  "åĲ¸": 5318,
  "æīĢä»¥": 4777,
  "Ġshall": 3332,
  "block": 7260,
  "aled": 6201,
  "rip": 8759,
  "Ġfacility": 9502,
  "osed": 2611,
  "Ġstr": 1510,
  "è´¹": 2493,
  "è¿ĲçĶ¨": 5556,
  "ĠDan": 7583,
  "Ġdeliver": 7868,
  "roup": 1515,
  "Ġimage": 4568,
  "ĠIS": 6125,
  "ä½ķ": 2507,
  "Ġconsequences": 8835,
  "ĠEurope": 3461,
  "dRdX": 9676,
  "Ġmarried": 6346,
  "Ġ27": 4089,
  "Ġ59": 9742,
  "å¤Ħ": 1646,
  "ensive": 4209,
  "åħ¼": 8982,
  "Ġourselves": 8491,
  "ç§¦": 9255,
  "Ġconditions": 3392,
  "No": 4394,
  "Ġrece": 2348,
  "æĺ¾": 2532,
  "ĠMany": 5448,
  "Ġtaken": 3394,
  "ructure": 5896,
  "Ġphilosoph": 9042,
  "gether": 2669,
  "ocation": 6135,
  "As": 2682,
  "ĠCount": 3564,
  "Ġult": 6225,
  "Ġoccup": 6395,
  "iam": 3847,
  "æ¿": 3330,
  "ĠWhere": 7746,
  "Ġhel": 1044,
  "Ġtrouble": 9996,
  "ables": 3019,
  "Ġstopped": 8916,
  "æŁ¥": 2404,
  "Ġmay": 943,
  "text": 1626,
  "Ġvill": 6102,
  "Ġtree": 5102,
  "ç¼": 1470,
  "abulary": 8850,
  "Ġlive": 3194,
  "Ġdecre": 5966,
  "Ġworld": 1432,
  "çºª": 3717,
  "urch": 2819,
  ":**": 3327,
  "âĢ¢": 3101,
  "onse": 2945,
  "Ġends": 9601,
  "Ġdifficult": 3161,
  "Ġindividual": 2138,
  "uit": 6167,
  "Ġconvers": 5345,
  "Ġformat": 7053,
  "Ġbefore": 1441,
  "enn": 2764,
  "Ġcut": 3539,
  "Ġearn": 9562,
  "Ġingred": 9823,
  "ď": 206,
  "Ġthr": 8317,
  "çĽĳçĿ£": 5396,
  "Ġid": 3541,
  "Ġeconomy": 5751,
  "ä¸Ĭæµ·": 9637,
  "ĠEduc": 3271,
  "Ġmaintenance": 7871,
  "aking": 1263,
  "Fe": 8648,
  "________________________________": 6017,
  "ray": 2155,
  "well": 6036,
  "================": 6526,
  "Ġnor": 7071,
  "éĢĲæ¸Ĳ": 8050,
  "Ġfort": 9006,
  "Ġholds": 7966,
  "Ġ4": 708,
  "Ġteaching": 4096,
  "Ġheav": 3856,
  "Ġlearn": 1787,
  "çŃĶ": 6786,
  "med": 2211,
  "çĬ": 1831,
  "Ġcrim": 9589,
  "###": 4017,
  "çķĮ": 1996,
  "ç§©": 9326,
  "ability": 1946,
  "Ġsensitive": 9338,
  "ä¹ĭåĲİ": 7026,
  "osite": 8667,
  "ĠMarket": 9700,
  "Ġrxn": 8997,
  "ä¸ŃåĽ½": 1398,
  "ond": 1110,
  "Ġsust": 3885,
  "Ġmus": 2271,
  "Ġthroughout": 4377,
  "æŃ¤": 1326,
  "å¤": 396,
  "Ġun": 748,
  "æŁĵ": 4545,
  "ĠD": 426,
  "åĴĮ": 489,
  "itors": 8541,
  "default": 8341,
  "Ġinterests": 7239,
  "yr": 9769,
  "ĠWhich": 9890,
  "of": 2223,
  "Ġvide": 3976,
  "yle": 3026,
  "ĠON": 9737,
  "å¨ģ": 6619,
  "Ġsomething": 2097,
  "Ġlife": 1460,
  "Ġprovid": 1631,
  "ada": 3779,
  "Ġold": 1923,
  "Ġalg": 8318,
  "----------------------------------------------------------------": 4757,
  "ĠBut": 1754,
  "((": 8614,
  "Ġtal": 7121,
  "Ġprocessing": 8606,
  "ube": 6211,
  "gr": 3142,
  "cri": 2074,
  "urity": 7310,
  "Ġagricult": 5013,
  "Ġstyle": 4791,
  "Ġannual": 6648,
  "Ġhist": 1998,
  "Ġsimple": 3892,
  "ĠJu": 3931,
  "att": 2397,
  "Ġcompleted": 6470,
  "Ġencou": 4071,
  "æľºåĻ¨": 9140,
  "å¯": 498,
  "ĠGO": 9736,
  "Ġmonths": 3857,
  "home": 7116,
  "é¦ĸåħĪ": 6052,
  "Ġmeant": 7060,
  "rc": 3761,
  "Ġinside": 4451,
  "æĬĳ": 8424,
  "åĿĩ": 3016,
  "ĠIntern": 3641,
  "ection": 1102,
  "Ġatt": 1124,
  "content": 5950,
  "Ġcatch": 6927,
  "args": 8071,
  "Ġapproach": 3718,
  "racy": 9774,
  "tain": 1956,
  "Ġthese": 985,
  "Ġelectric": 4878,
  "Ġdoc": 3359,
  "Ġwalk": 3222,
  "æ£Ģå¯Ł": 9735,
  "Ġpower": 1808,
  "Ġche": 1536,
  "Ġpollution": 7984,
  "1": 19,
  "ze": 3529,
  "Ġcriteria": 8821,
  "è¶": 1244,
  "Ġz": 2383,
  "ĠCur": 5331,
  "Ġden": 5061,
  "51": 6442,
  "Ġfe": 981,
  "FT": 9614,
  "çļĦåŁºç¡Ģ": 5525,
  "Ġeducational": 4923,
  "2020": 6751,
  "Ġserver": 8340,
  "Ġquest": 1706,
  "Ġradio": 7970,
  "æŀ": 629,
  "nb": 9617,
  "ilit": 6643,
  "ansion": 9225,
  "Ġseems": 4462,
  "know": 5804,
  "Ġjust": 1045,
  "Ġsett": 4101,
  "Ġlonger": 4180,
  "ĠSpanish": 9300,
  "Ġreform": 9118,
  "Ġeach": 1342,
  "ĠâĢĺ": 2465,
  "asure": 5827,
  "Im": 4250,
  "odes": 5322,
  "æŃ£åľ¨": 9896,
  "pat": 8563,
  "Ġbreath": 9596,
  "craft": 6267,
  "æĸŃ": 2149,
  "ĠGuide": 9612,
  "ren": 675,
  "Ġfuture": 2798,
  "û": 186,
  "ody": 1478,
  "Ġelect": 2075,
  "Ġnormal": 5031,
  "Ġabuse": 8909,
  "ĠId": 6382,
  "right": 2384,
  "Ġorganic": 8735,
  "Ġquestion": 2703,
  "ç§¯": 2693,
  "ç»ıæµİåŃ¦": 9085,
  "Ġbow": 8737,
  "Ė": 213,
  "self": 1369,
  "ãĢį": 7579,
  "ĠReading": 8714,
  "AND": 8022,
  "chers": 4915,
  "Ġdefin": 4386,
  "ĠV": 756,
  "èį¯çī©": 9863,
  "Our": 8086,
  "Ġvacc": 7813,
  "anges": 7923,
  "18": 1564,
  "Ġcreating": 4814,
  "fer": 2981,
  "Ġadvant": 5426,
  "Ġlet": 1858,
  "å·¥": 854,
  "Ġtoo": 1981,
  "æľīéĻĲ": 8379,
  "ä¸įåĲĮ": 2110,
  "èĭ±åĽ½": 9795,
  "term": 5683,
  "Ġreal": 1757,
  "éŁ³": 4407,
  "ĠAn": 1362,
  "çīĪ": 4388,
  "pet": 9865,
  "Ġstood": 8779,
  "çĽĸ": 7336,
  "le": 299,
  "æ²³": 5476,
  "enced": 8153,
  "æĥħåĨµä¸ĭ": 6358,
  ">": 32,
  "Ġoccurs": 7811,
  "ĠCapt": 7988,
  "Ġ*/": 3263,
  "Ġalong": 2879,
  "Ġmathematics": 8998,
  "Ġjustice": 8084,
  "ĊĊĊ": 5032,
  "</": 1378,
  "Ġbackground": 4299,
  "åº¦": 892,
  "Ġvalues": 3826,
  "Ġliving": 3668,
  "Ġthrow": 7613,
  "CO": 3472,
  "())": 8052,
  "æĺŁ": 5854,
  "olicy": 7436,
  "¥": 101,
  "Ġregular": 4251,
  "è¯ķ": 2744,
  "ç«¥": 6465,
  "åŀ": 1379,
  "åĮºåĪ«": 9550,
  "ä½ĵçİ°": 5163,
  "æŁ": 1267,
  "utions": 3532,
  "Ġvot": 6443,
  "åĮ": 499,
  "ĠĠĠĠĠĠĠĠĠĠ": 2066,
  "Ġtransfer": 6338,
  "ĠServices": 7490,
  "Ġ63": 9959,
  "Ġindicate": 8613,
  "ned": 4021,
  "gl": 5094,
  "Ġpatient": 6353,
  "Un": 3786,
  "å¤©": 2305,
  "ri": 420,
  "ç": 166,
  "ext": 3090,
  "è§£åĨ³": 3353,
  "arant": 8551,
  "èĥ½å¤Ł": 3863,
  "anc": 1637,
  "ĠForest": 8288,
  "éĺ¶æ®µ": 3710,
  "é¡¾": 7037,
  "Ġbab": 5518,
  "bl": 2897,
  "Ġcontain": 4855,
  "à¤¯": 8522,
  "Ġmajor": 2614,
  "æĶ¯æĮģ": 4148,
  "endif": 9970,
  "Mar": 8645,
  "Ġbaby": 7046,
  "ify": 1780,
  "Ġplease": 5796,
  "Ġweeks": 5670,
  "Ġ9": 1131,
  "KE": 6366,
  "Ġstri": 4704,
  "å¼ºåĮĸ": 8144,
  "Ġworkers": 6016,
  "65": 3448,
  "ury": 2418,
  "rom": 463,
  "å½ķ": 4239,
  "Ġchanged": 5946,
  "42": 5177,
  "ic": 297,
  "Ġdoll": 7132,
  "ĠControl": 8295,
  "39": 3527,
  "å¿µ": 2451,
  "ç©": 951,
  "aker": 6593,
  "ĠN": 460,
  "Ġaffect": 3764,
  "ger": 2437,
  "gh": 542,
  "\\+": 7654,
  "board": 6252,
  "amil": 8830,
  "Ġoffered": 7075,
  "Ġregularly": 8728,
  "èµ°": 4930,
  "Ġwar": 2572,
  "Ġkid": 8700,
  "Ġtwice": 9680,
  "ĠĠĠĠĠĠĠ": 544,
  "ĠSuch": 9532,
  "rm": 7532,
  "æŀ¶": 5231,
  "çº": 705,
  "hen": 1132,
  "Ġsmooth": 8923,
  "ä¾Ŀ": 2219,
  "px": 2162,
  "èĮĥ": 2034,
  "åħ±åĲĮ": 3906,
  "èĻĳ": 5056,
  "Ġload": 5309,
  "Ġtemperatures": 9868,
  "clusive": 8955,
  "æ°Ķ": 2737,
  "Ġde": 445,
  "n": 80,
  "Ġfin": 1645,
  "ä¼ģ": 1403,
  "äººå·¥": 7709,
  "pport": 6073,
  "åĩ½": 7992,
  "ds": 1389,
  "before": 5462,
  "Ġafford": 8226,
  "Ġgave": 4816,
  "Ġnotes": 6989,
  "ON": 1317,
  "osing": 4279,
  "ç»¼åĲĪ": 4023,
  "vention": 4987,
  "hed": 924,
  "å¼ķèµ·": 7449,
  "Ġrel": 995,
  "Ġmetal": 7334,
  "Ġharm": 4965,
  "ä¹Łæľī": 8876,
  "ä¼ģä¸ļçļĦ": 6871,
  "ĠĠĠĠĠĠĠĠĠ": 1591,
  "ĠW": 422,
  "Ġiss": 2002,
  "Ô": 147,
  "ä»¤": 4913,
  "ĠAm": 2974,
  "Ġstories": 5919,
  "Ġappropri": 3848,
  "éĽĨä½ĵ": 8449,
  "hand": 6733,
  "BO": 9714,
  "æĪĳåĽ½": 2296,
  "æĪĸ": 1119,
  "ĠĠĠĠ": 264,
  "cond": 1819,
  "I": 43,
  "âĢľ": 491,
  "ĠEar": 3788,
  "data": 4346,
  "éĥ½": 1659,
  "Ġdrive": 6423,
  "ç¤¾ä¼ļ": 1115,
  "éĻ¤": 2712,
  "isher": 6579,
  "Ġamb": 8478,
  "cc": 618,
  "ĠĠĠĠĠĠĠĠĠĠĠĠĠĠĠĠĠĠĠĠĠĠĠĠĠĠĠĠĠĠĠĠ": 741,
  "Ġrelatively": 7812,
  "met": 5443,
  "npy": 5904,
  "Q": 51,
  "Ġprovided": 3516,
  "Ġcareer": 6718,
  "Ä±": 3212,
  "Ġhaven": 9475,
  "Ġfollows": 7655,
  "Ġlargest": 6937,
  "Ġadvert": 9303,
  "Ġstud": 766,
  "åŃĺåĤ¨": 8979,
  "Ġenem": 8365,
  "Ġrepe": 6264,
  "Ġhaz": 9248,
  "æĿĤ": 4340,
  "her": 370,
  "Ġphen": 8503,
  "Ġwritten": 4136,
  "æĪĳä»¬": 2318,
  "ialog": 8397,
  "Ġdoesn": 3531,
  "Ġmental": 5040,
  "ender": 3922,
  "_": 65,
  "usiness": 6554,
  "çº¦": 2247,
  "ç¬": 959,
  "Ġwrote": 6637,
  "orn": 1540,
  "åĨħçļĦ": 9073,
  "ourse": 9064,
  ".*": 6803,
  "Ġtimes": 2597,
  "æĢ§çļĦ": 3419,
  "æī§": 3050,
  "ering": 1971,
  "Ġclimate": 4330,
  "ĠG": 476,
  "udd": 3867,
  "Ġuint": 7013,
  "..": 346,
  "lwip": 9015,
  "ional": 1768,
  "safe": 5133,
  "ley": 2347,
  "MB": 6818,
  "åĶ¯": 7630,
  "one": 658,
  "ysis": 2890,
  "ç¦": 2028,
  "Ġ>=": 5292,
  "Distance": 4931,
  "Des": 5106,
  "ė": 214,
  "å¿«éĢŁ": 8212,
  "ä¸°": 6113,
  "æ¤į": 6519,
  "å¹³çŃī": 9136,
  "inity": 9558,
  "icious": 9510,
  "æĥ": 946,
  "Ġyour": 599,
  "DO": 9763,
  "Ġprotected": 7601,
  "Ċ": 201,
  "ene": 3149,
  "Ġstructures": 6998,
  "claim": 9651,
  "ulum": 5009,
  "Ġfaith": 5741,
  "aving": 3886,
  "Ġmissing": 9507,
  "æĭŁ": 5955,
  "Ġ2000": 5667,
  "Ġdest": 3813,
  "Ad": 5091,
  "ç£ģ": 8037,
  "cd": 8068,
  "çĹħ": 2548,
  "Ġchang": 2126,
  "sey": 7908,
  "Ġ200": 1298,
  "Ġeth": 5579,
  "çĬ¶æĢģ": 6028,
  "Table": 5414,
  "å¾ħ": 5297,
  "éĻĪ": 7587,
  "Ġappreciate": 9874,
  "âĢĿ": 492,
  "\">": 1826,
  "±": 112,
  "aul": 4720,
  "Ð": 143,
  "ĠEst": 9471,
  "Ġsold": 4948,
  "åŁºéĩĳ": 8598,
  "Ġconsistent": 8959,
  "åĪ©": 1085,
  "Ġem": 926,
  "Ġintrodu": 4702,
  "ress": 742,
  "aters": 9419,
  "è¯´": 1717,
  "yond": 5124,
  "Ġassoci": 3155,
  "ĠRoman": 8794,
  "iciency": 9000,
  "Ġcrucial": 6979,
  "Â·": 4628,
  "éª": 1537,
  "work": 2167,
  "è¯īè®¼": 4660,
  "west": 8742,
  "astern": 8634,
  "ĠSouth": 3623,
  "Ġable": 2274,
  "urs": 2575,
  "Ġtry": 2313,
  "è½¬åŀĭ": 8454,
  "ton": 1640,
  "Ġ55": 7947,
  "Ġ11": 2402,
  "æļ": 4904,
  "Ġwel": 7602,
  "Ġstate": 1641,
  "æ£Ģæµĭ": 7880,
  "æķ": 469,
  "Ġsaid": 1226,
  "ĠBuild": 6789,
  "ĠRef": 9486,
  "arden": 6287,
  "Ġlistening": 9748,
  "åĪĹ": 3028,
  "åĲĮ": 811,
  "çĽ¸åĲĮ": 7910,
  "çļĦè¡Įä¸º": 8697,
  "OD": 7870,
  "Ġmodel": 3200,
  "Ġcolors": 9674,
  "Ġgod": 8376,
  "Ġsent": 3234,
  "ild": 632,
  "Ġagainst": 2259,
  "Ġplayers": 6632,
  "ä¸ĵå®¶": 8756,
  "ç«ĭæ³ķ": 6268,
  "abet": 7275,
  "pec": 844,
  "Ġknown": 2710,
  "Ġbuildings": 6566,
  "scheduler": 6487,
  "Ġmanufact": 5470,
  "Ġtransform": 6571,
  "Ġvillage": 9117,
  "Ġimmigr": 9217,
  "Ġwond": 4570,
  "ĠAdditionally": 9664,
  "Ġlif": 5115,
  "lers": 9495,
  "Ġhearing": 8249,
  "Ġface": 3285,
  "Ġdu": 7180,
  "*": 12,
  "Ġsim": 1472,
  "Ġind": 912,
  "ãĢĬ": 1130,
  "è¯Ń": 2250,
  "åĽ½åĬ¡éĻ¢": 9953,
  "inst": 9150,
  "çļĦåıĳå±ķ": 3766,
  "Ġinstructions": 9753,
  "Ġindependent": 7656,
  "Ġadopted": 9892,
  "lo": 7732,
  "Ġneighb": 8641,
  "Ġfloor": 6628,
  "ories": 2434,
  "Ġkinds": 9213,
  "è¯Ĩ": 1388,
  "æ··": 7502,
  "Ġenc": 2796,
  "atures": 3094,
  "äºĨ": 642,
  "Ġexternal": 8643,
  "ĠAmerican": 2777,
  "ä½ĵçļĦ": 6348,
  "Ġcur": 1459,
  "æĺ¯æĮĩ": 4873,
  "ĠSince": 6588,
  "æİĴ": 3469,
  "ĠPe": 3663,
  "Ġportion": 8902,
  "Trans": 7658,
  "Ġindustry": 3907,
  "åħ¨éĥ¨": 8574,
  "Âł": 581,
  "ĠCourt": 7620,
  "å»ºç«ĭ": 3043,
  "Response": 8566,
  "une": 2651,
  "ĠSustain": 8363,
  "çĶµ": 1508,
  "ipl": 4633,
  "ÂłÂł": 2473,
  "ses": 5576,
  "ä¾µæĿĥ": 9796,
  "rical": 6573,
  "Ġdiscussion": 6262,
  "ĠLet": 5815,
  "Ġeasier": 6623,
  "row": 916,
  "Ġnews": 4765,
  "æĸĩçĮ®": 8113,
  "rug": 4000,
  "æİ¥": 1673,
  "ŀ": 255,
  "Ġgoods": 7457,
  "Ġincreasing": 4550,
  "Ġ:=": 5270,
  "ald": 6512,
  "ny": 6057,
  "apping": 7278,
  "åıĤ": 2374,
  "ply": 3945,
  "Ġgoal": 4863,
  "Ġcompany": 3182,
  "orm": 617,
  "Ġperson": 1430,
  "Ġcompanies": 4497,
  "èŃ": 8322,
  "sect": 6788,
  "'s": 541,
  "iness": 1543,
  "Ġstarting": 6462,
  "Ġassign": 7557,
  "¢": 98,
  "éĢĤåºĶ": 7054,
  "ipped": 7163,
  "Ġbra": 6813,
  "Ġlabel": 8444,
  "å½¢": 1209,
  "åĵ": 930,
  "æĸ½": 1781,
  "ĠMad": 9677,
  "Ġcris": 8456,
  "Ġ2010": 5010,
  "ashion": 8581,
  "coming": 8266,
  "fficient": 6199,
  "Ġinstall": 4608,
  "å¤§æķ°æį®": 8596,
  "èıĮ": 8171,
  "gest": 9178,
  "void": 9932,
  "Ġappl": 4313,
  "ĠGoogle": 7450,
  "çī¹å®ļ": 9126,
  "ants": 1318,
  "Ġ×": 5931,
  "Ġunderstand": 1577,
  "asing": 3070,
  "Ġconn": 2441,
  "Ġchain": 8783,
  "estern": 4741,
  "Ġteach": 6162,
  "dis": 5268,
  "Map": 8804,
  "Ġmen": 2523,
  "ase": 729,
  "Ġdram": 8593,
  "Ġx": 2698,
  "æľ¬æĸĩ": 8265,
  "Ġhelpful": 8623,
  "Ġstatement": 6359,
  "),": 769,
  "Ġmachine": 6671,
  "ĠVAL": 5734,
  "eless": 9610,
  "å®ĺ": 3588,
  "range": 5746,
  "Ġkeep": 2172,
  "ĠĠĠĠĠĠĠĠĠĠĠĠĠĠĠĠĠĠĠĠĠĠĠĠĠĠĠĠĠĠĠĠĠĠĠĠĠĠĠĠĠĠĠĠĠĠĠĠĠĠĠĠĠĠĠĠ": 5242,
  "ĠSupport": 9222,
  "encies": 4909,
  "ĠSing": 8423,
  "Ġ17": 1966,
  "et": 322,
  "Ġcontinuous": 8784,
  "Ġdiagn": 6577,
  "Ġtell": 2741,
  "Ġminute": 9494,
  "bol": 4679,
  "ĠSt": 713,
  "ĠSol": 6757,
  "ĠID": 8258,
  "ĠRead": 4687,
  "comp": 4185,
  "ist": 417,
  "Ġsix": 4119,
  "rand": 3170,
  "¾": 125,
  "æľªæĿ¥": 6618,
  "uture": 2546,
  "ĠDist": 4994,
  "õ": 180,
  "Ġkeeping": 7766,
  "çĶ±äºİ": 3438,
  "Ġtotal": 3580,
  "åį¡": 9191,
  "arily": 4784,
  "Ġaltern": 4907,
  "Ġ2008": 5817,
  "Ġbattle": 8958,
  "Ġaward": 8981,
  "ĠOb": 7055,
  "Ġscientific": 5957,
  "Ġobjective": 9955,
  "static": 8854,
  "Ġsy": 4846,
  "Ġwriter": 9804,
  "Ġwebsite": 4876,
  "background": 7598,
  "str": 3006,
  "ĠĠĠĠĠĠĠĠĠĠĠĠĠĠĠĠĠĠĠĠĠĠĠĠĠĠĠĠĠĠ": 8705,
  "ota": 6892,
  "Ġolder": 6463,
  "Le": 4850,
  "SC": 5707,
  "Ġprogramming": 9336,
  "é©¬åħĭæĢĿä¸»ä¹ī": 9729,
  "âĢ¦": 1525,
  "ĠF": 449,
  "ĠBrown": 9045,
  "ent": 305,
  "ä¼ĺåħĪ": 9979,
  "åħ»": 2279,
  "osure": 5662,
  "Ġperfect": 5122,
  "Ġreaction": 9268,
  "åĨ³": 1602,
  ".,": 1068,
  "ĠOur": 5639,
  "Ġchapter": 7946,
  "Ġreturned": 7203,
  "viron": 1590,
  "Ġmarket": 2867,
  "Ġisn": 4756,
  "Ġspeed": 5719,
  "ĠĠĠĠĠĠĠĠĠĠĠĠĠĠ": 2803,
  "oat": 4672,
  "åºĶå½ĵ": 3385,
  "ï¼Ľ": 1320,
  "ike": 750,
  "Ġsoul": 8108,
  "Ġfamilies": 4847,
  "Ġvar": 1407,
  "Ġru": 7267,
  "èĢĹ": 8963,
  "Ġmeat": 8328,
  "æį®": 1042,
  "Ġ20": 1264,
  "åĽłæŃ¤": 2870,
  "?": 33,
  "åı¦ä¸Ģæĸ¹éĿ¢": 9789,
  "ential": 1553,
  "Ġ34": 5781,
  "ous": 640,
  "Ġlater": 3027,
  "Over": 7759,
  "ĠGreen": 6982,
  "field": 5829,
  "éĴ": 2452,
  "åĽ¢éĺŁ": 9175,
  "Ġexchange": 8155,
  "ible": 1163,
  "éģĹ": 4212,
  "åĪ»": 5347,
  "Ġshoot": 8512,
  "Ġmoon": 9933,
  "å½Ĵ": 4736,
  "Ġprom": 2387,
  "US": 4535,
  "Ġparent": 2280,
  "è§£éĩĬ": 4853,
  "put": 1762,
  "ÂłĊ": 4937,
  "tra": 7760,
  "neg": 9936,
  "ĠĠ": 259,
  ".)": 2821,
  "ç»§ç»Ń": 8200,
  "Ġrev": 4464,
  "æĪ·": 3133,
  "à¤°": 6005,
  "ě": 218,
  "ĊĊ": 735,
  "orry": 9784,
  "Ġlimit": 5706,
  "Ġimportance": 4221,
  "Ġconst": 1695,
  "å¹´æĿ¥": 8073,
  "ĠMus": 4990,
  "Ġsafety": 4521,
  "æĭ¥": 8338,
  "Text": 6043,
  "udget": 5823,
  "Ġton": 8470,
  "ocabulary": 8880,
  "cul": 2925,
  "Ø±": 4983,
  "ā": 192,
  "ĠRobert": 7940,
  "not": 1932,
  "ĠAt": 2726,
  "ĠImport": 8866,
  "éĻħ": 1844,
  "ists": 1653,
  "èĽĭ": 6717,
  "Ġconsequ": 6337,
  "Ġarrived": 8884,
  "ĠTest": 4841,
  "ven": 1538,
  ".</": 9363,
  "Ġconcerns": 7522,
  "Ġdb": 7776,
  "Ġtoward": 6200,
  "æľ«": 7930,
  "Com": 3440,
  "Ġc": 274,
  "Get": 4163,
  "ier": 1551,
  "çŃ¹": 7915,
  "raw": 2395,
  "Ġcompl": 5216,
  "ï¼ļ": 1086,
  "ating": 1047,
  "ission": 2122,
  "Ã©": 2621,
  "éĻĨ": 8259,
  "Ġmag": 5785,
  "DS": 6011,
  "or": 279,
  "Ġguidance": 9512,
  "resent": 2479,
  "Ġappears": 7302,
  "Point": 9232,
  "Act": 9481,
  "Ġadd": 1118,
  "å½ĵäºĭäºº": 5983,
  "atin": 7335,
  "Ġadvantage": 7349,
  "Ġreach": 5343,
  "Ġwilling": 7514,
  "Ġline": 2570,
  "Ġuseful": 5464,
  "urance": 5197,
  "æ¶īåıĬ": 6584,
  "ĠGermany": 8106,
  "ency": 2170,
  "à¤ķ": 9535,
  "è¶ĭ": 5674,
  "Ġens": 2583,
  "ick": 1073,
  "Ġbelieved": 7578,
  "ĠCent": 2608,
  "å½ĵæĹ¶": 7641,
  "Ġsynt": 8269,
  "Ġap": 5072,
  "éĴĪ": 4764,
  "ĊĠĠĠĠĠĠĠĠĠĠĠĠĠĠĠ": 1978,
  "Ġemissions": 5027,
  "eters": 4640,
  "Ġ37": 7435,
  "ô": 179,
  "Ġpartic": 1475,
  "Ġsing": 2848,
  "ron": 1917,
  "ĠAug": 4266,
  "Ġpotential": 2753,
  "Ġ3": 570,
  "Glossary": 9565,
  "book": 3942,
  "ĠEven": 6002,
  "Ġspec": 1092,
  "inking": 8408,
  "ten": 1275,
  "ECT": 7208,
  "parent": 7102,
  "ĠCentral": 5906,
  "Ġappeal": 9935,
  "æĶ¿": 890,
  "åĨ²": 5728,
  "Ġphotograph": 9840,
  "ĠPoint": 9428,
  "Ġwh": 392,
  "ĠWill": 3562,
  "ibility": 2932,
  "Ġ0": 723,
  "Ġmost": 1099,
  "TY": 9957,
  "Ġtransition": 8326,
  "Ġfocus": 2627,
  "èģļ": 5289,
  "ĠEnvironment": 5154,
  "ymbol": 9989,
  "ĠLo": 9745,
  "Ġ$": 727,
  "å£°": 5531,
  "ving": 1497,
  "85": 3310,
  "ments": 896,
  "Ġcup": 9583,
  "Ġcount": 1328,
  "Ġlocal": 2157,
  "ets": 1791,
  "Ć": 197,
  "ant": 450,
  "Ġmight": 1963,
  "Ġfinished": 8814,
  "ĠSign": 9566,
  "Ġcool": 5786,
  "½": 124,
  "åı¯": 753,
  "Ġmiles": 5995,
  "éĿł": 5972,
  "Ġdaughter": 7236,
  "Ġincludes": 4062,
  "Ġplayer": 7480,
  "ocr": 6106,
  "EN": 1632,
  "Ġstanding": 8516,
  "IST": 8087,
  "14": 1760,
  "æ¬¾": 2885,
  "Ġest": 1888,
  "ĠĠĠĠĠĠĠĠĠĠĠĠĠĠĠĠĠĠĠĠ": 3344,
  "Ġachieved": 9285,
  "ĠMag": 9453,
  "ä½¿çĶ¨": 2386,
  "âĢĵ": 1671,
  "abil": 9019,
  "resp": 5222,
  "Ġborder": 5373,
  "Ġpoll": 5178,
  "èµĦæľ¬": 3732,
  "æİ¢": 3379,
  "Ġwom": 2119,
  "what": 6849,
  "Ġcorrespond": 7847,
  "æº": 1335,
  "æĶ¹": 1544,
  "Ġteams": 7723,
  "ĠSan": 5401,
  "Ġvarious": 2891,
  "æĭ¬": 2482,
  "Child": 9573,
  "éļľ": 3180,
  "Context": 8618,
  "ĠTex": 8448,
  "å²": 3481,
  "İ": 239,
  "å§ĭ": 2874,
  "æĭĽ": 8599,
  "åħļçļĦ": 7183,
  "tern": 955,
  "ä¸º": 520,
  "cial": 4838,
  "apers": 7415,
  "ĠWhy": 4259,
  "Ã": 130,
  "Ġback": 1174,
  "ĠNet": 5784,
  "BS": 9234,
  "elling": 3963,
  "äº§çĶŁçļĦ": 9282,
  "Ġpet": 6310,
  "ilar": 2843,
  "ĠAS": 9317,
  "Ġground": 3147,
  "aut": 2836,
  "Ġlose": 8004,
  "ÙĬ": 3962,
  "ursday": 9547,
  "Ġforest": 4602,
  "ulf": 8455,
  "Ġdaily": 5000,
  "Ġeast": 9477,
  "Ġtherefore": 4656,
  "def": 3486,
  "Ġsurv": 5101,
  "26": 2587,
  "like": 4108,
  "Ġdamage": 5162,
  "çī¹": 1227,
  "rame": 6086,
  "Ġsuggests": 8655,
  "space": 6752,
  "Ġaud": 4052,
  "ize": 1183,
  "host": 8335,
  "Ġafter": 1356,
  "Ġexperienced": 7344,
  "ved": 1452,
  "olute": 5858,
  "è®°": 2502,
  "irst": 963,
  "ĠLog": 9098,
  "ries": 2040,
  "vey": 3807,
  "Ġcost": 2375,
  "ops": 4402,
  "ane": 2628,
  "Ġgets": 5813,
  "Ġthen": 1143,
  "Ġobvious": 6738,
  "Ġrecogn": 3534,
  "å·": 593,
  "\".": 4288,
  "Ġlost": 4916,
  "Ġcause": 3255,
  "å«": 9698,
  "Ġlook": 1296,
  "Ġfrequently": 8545,
  "ĠRec": 7193,
  "æĿİ": 6572,
  "Ġfle": 8993,
  "Ġchance": 6153,
  "otic": 7345,
  "Ġsmart": 8176,
  "print": 6210,
  "ĠBook": 5826,
  "Ġsense": 3655,
  "les": 1030,
  "Ġadding": 8622,
  "acter": 2045,
  "ä¸ĢæŃ¥": 4151,
  "ulations": 4472,
  "æ³ķ": 576,
  "æĪĸèĢħ": 2830,
  "rest": 1514,
  "uel": 3793,
  "Ġhor": 4891,
  "ts": 1310,
  "param": 4979,
  "Ġ).": 8163,
  "Ġoften": 2090,
  "å»": 900,
  "ĠPacific": 9866,
  "ius": 4705,
  "ä»·": 1360,
  "ĠThere": 1820,
  "version": 8650,
  "itions": 2018,
  "æīįèĥ½": 6504,
  "ï": 174,
  "æĸĻ": 2591,
  "é¢ĺ": 1202,
  "ĠWhen": 2360,
  "Ġsell": 6771,
  "ips": 2996,
  "ĠPro": 1145,
  "Ġstated": 8270,
  "ford": 5253,
  "¸": 119,
  "Ĕ": 211,
  "Ġ57": 9604,
  "Ġmeas": 2311,
  "outh": 1979,
  "ari": 3286,
  "Ġ70": 5951,
  "ological": 2578,
  "Ġpoly": 7315,
  "åĲĦç±»": 9758,
  "Û": 154,
  "ans": 605,
  "[": 61,
  "Ġjoin": 8216,
  "Ġwhether": 3290,
  "åīįæıĲ": 9116,
  "ellig": 5112,
  "ä¸ĬçļĦ": 3589,
  "yles": 8908,
  "Ġalready": 3107,
  "Ġded": 6912,
  "ham": 4477,
  "Ġreduce": 3834,
  "ĕ": 212,
  "çľŁå®ŀ": 8097,
  "ç»į": 8206,
  "é¾": 5436,
  "ather": 1359,
  "Ġinfluence": 5630,
  "Ġcamp": 3940,
  "for": 2405,
  "Ġcultural": 4698,
  "Ġprot": 1813,
  "åĨ³çŃĸ": 6567,
  "ected": 1665,
  "Ġflight": 9277,
  "ä»¥åıĬ": 2464,
  "Ġv": 447,
  "the": 1578,
  "Ġphys": 2443,
  "ĠBo": 3960,
  "æİĮ": 5628,
  "Ġwor": 537,
  "Ġfil": 2257,
  "width": 5204,
  "ĠNA": 8333,
  "ost": 569,
  "Äģ": 4822,
  "hop": 8642,
  "ived": 2425,
  "Ġrem": 1207,
  "ï¼": 300,
  "Ġacross": 3013,
  "åĬ¡": 1012,
  "Ġinvest": 2500,
  "Ġefficient": 6329,
  "Ġinternet": 8077,
  "çĤİ": 9721,
  "ĠÃ": 4537,
  ".\"": 1192,
  "TO": 2134,
  "Ġletters": 9186,
  "ople": 843,
  "è§Ĵ": 3510,
  "Ġprice": 5294,
  "ploy": 2206,
  "AY": 8926,
  "Ġsignific": 2467,
  "Ġestim": 5613,
  "Ġmarriage": 7570,
  "Ġ([": 6905,
  "Ġfav": 4225,
  "è®¤": 1373,
  "åĬł": 1188,
  "Ġhyd": 5599,
  "Ġinto": 865,
  "Ġweather": 6111,
  "âĢĻ": 477,
  "Ġreading": 3136,
  "cept": 1156,
  "Ġfru": 4676,
  "ĠJanuary": 5962,
  "summary": 8871,
  "Ġassum": 6249,
  "input": 6128,
  "awn": 9462,
  "Ġhousing": 9032,
  "Ġdiss": 8520,
  "æ³¨æĦı": 6472,
  "amples": 4371,
  "éĺħ": 9021,
  "ev": 5718,
  "Ġur": 6703,
  "å¼ķå¯¼": 6664,
  "Ġtrade": 5237,
  "bit": 5258,
  "åĽłä¸º": 4292,
  "roups": 3014,
  "tt": 1293,
  "ases": 1786,
  "ĠMy": 3533,
  "Ġbanks": 9915,
  "iring": 6019,
  "2015": 7997,
  "åĪ°": 935,
  "æłĩåĩĨ": 2734,
  "Ġmountain": 9260,
  "èĪ": 1887,
  "Ġ72": 8769,
  "Ġtypically": 6609,
  "INE": 9602,
  "oon": 3408,
  "Not": 5821,
  "Ġsocial": 2020,
  "çĽ¸å¯¹": 5261,
  "Ġeng": 1972,
  "Ġrural": 7817,
  "ä½ľçĶ¨": 2415,
  "ained": 2948,
  "PC": 7495,
  "ä¿Ŀ": 1150,
  "olve": 8293,
  "Ġexcept": 5493,
  "åħ¬æ°ĳ": 8631,
  "éĢłæĪĲ": 5007,
  "åħ³": 819,
  "Item": 8181,
  "åħī": 2920,
  "omes": 3746,
  "æł¼": 2015,
  "Pre": 9461,
  "ato": 6134,
  "åħĥ": 2065,
  "iner": 9552,
  "Ġsymbol": 7136,
  "ć": 198,
  "=\"": 1254,
  "Ġwe": 423,
  "Ġmin": 1502,
  "è®¨": 5058,
  "rel": 3441,
  "Ġpeople": 897,
  "ä»Ģ": 4229,
  "Ġarm": 6961,
  "Ġcalcul": 5298,
  "ynam": 6070,
  "ĠThom": 6431,
  "Ġessay": 9619,
  "å¾Ī": 2571,
  "Ġ46": 8474,
  "Ġfn": 9414,
  "Ġinvol": 2168,
  "æŀĦæĪĲ": 5305,
  "));": 8633,
  "Most": 9798,
  "Ġpoint": 1549,
  "Ġdeveloping": 5137,
  "åŁ¹åħ»": 3778,
  "Ġtable": 3797,
  "æĢĿç»´": 6097,
  "ĠBecause": 6726,
  "Ġconstruction": 5276,
  "ailed": 7550,
  "Ġcommercial": 6697,
  "å®ŀæĸ½": 3192,
  "è¿ľ": 4446,
  "Ġthank": 8693,
  "Ġrequirements": 5650,
  "anguages": 7731,
  "æłĩ": 1210,
  "uke": 7819,
  "ones": 3049,
  "---": 6923,
  "Pack": 8321,
  "å±ħæ°ĳ": 8049,
  "iance": 5943,
  "Ġfeature": 6354,
  "ãģ": 2954,
  "Ġpsych": 5392,
  "Ġmanaged": 8329,
  "åŃĹ": 2184,
  "Ġimprove": 2653,
  "æĢĿ": 1519,
  "çĶŁçī©": 4864,
  "Ġclaim": 4059,
  "é©¬": 3616,
  "How": 3204,
  "Ċĉĉ": 1505,
  "Ġcould": 1091,
  "HE": 3316,
  "AME": 7409,
  "ifically": 7226,
  "earch": 3501,
  "Ġpresent": 2001,
  "ä¸ĩ": 3328,
  "Ġgun": 7971,
  "\"]": 9392,
  "chn": 1303,
  "î": 173,
  "æķı": 9893,
  "Ġdepart": 9898,
  "Ġwhom": 6430,
  "Ġany": 862,
  "Ġexperts": 9432,
  "æŃ¥": 2007,
  "Ġmobile": 8703,
  "aned": 9929,
  "list": 3802,
  "Ġfat": 5167,
  "ï¼İ": 5002,
  "Ġtri": 3113,
  "27": 2811,
  "ç®Ĺ": 1941,
  "è¯·æ±Ĥ": 7513,
  "ĠVALUES": 5985,
  "Ġmultiple": 4832,
  "PP": 6631,
  "place": 5038,
  "ont": 1083,
  "åıª": 2416,
  "ear": 604,
  "ç´ł": 1873,
  "Ġidea": 3437,
  "Ġdesigned": 4260,
  "pe": 502,
  "ition": 738,
  "ĠStr": 6157,
  "Ġarms": 8279,
  "zen": 9208,
  "åĨĽ": 3176,
  "Ġdie": 5754,
  "Ù": 152,
  "è¯¦": 9917,
  "ĠYes": 6335,
  "Ġprodu": 1111,
  "æ²»çĲĨ": 4254,
  "edia": 7985,
  "Ġterm": 2135,
  "order": 2807,
  "Ġdate": 5075,
  "Ġ+": 1663,
  "æĸ¹éĿ¢çļĦ": 6824,
  "è®¡ç®Ĺæľº": 7131,
  "Ġhyper": 8966,
  "Ġlist": 2064,
  "''": 7165,
  "ĠReport": 6693,
  "Ġign": 6304,
  "inter": 3453,
  "æİª": 4591,
  "Ġbought": 9446,
  "ĠVirgin": 8712,
  "çļĦä¸Ģ": 5048,
  "pect": 2530,
  "Ġconcent": 5228,
  "è¶£": 8059,
  "ĠSat": 8386,
  "Ġyrs": 8568,
  "ĠĠĠĠĠĠ": 984,
  ")ï¼Į": 7383,
  "æĵ": 3833,
  "ĠAnd": 1580,
  "Ġnames": 5915,
  "æĺ¯åľ¨": 6008,
  "Ġhum": 1623,
  "æŃ£ç¡®": 7064,
  "æµ": 661,
  "Ġrecomm": 3722,
  "éķ": 1271,
  "åºķ": 5203,
  "ç»Ĩèĥŀ": 3734,
  "plications": 8550,
  "é«": 907,
  "ado": 6833,
  "orks": 4327,
  "è¦ģæ±Ĥ": 2413,
  "Ġperspective": 7679,
  "ĠMet": 7048,
  "cer": 3259,
  "ett": 9427,
  "iers": 6144,
  "Ġvolunt": 6810,
  "Ġinfection": 8901,
  "Ġappoint": 7703,
  "Ġgir": 3949,
  "æĭ": 914,
  "7": 25,
  "ĠAccess": 9785,
  "conn": 6132,
  "ĺ": 249,
  "ĠInternational": 5618,
  "ĠPark": 4747,
  "è¾ĵ": 4009,
  "ĠCourse": 8828,
  "å¸Ŀ": 6078,
  "riday": 7778,
  "Ġdep": 1630,
  "umes": 9473,
  "Ġtraffic": 8312,
  "hedule": 8855,
  "Ġvers": 3475,
  "pes": 9790,
  "Ġdesire": 8561,
  "Ġpack": 3910,
  "Ġpersons": 7573,
  "lic": 863,
  "åį«çĶŁ": 9223,
  "ĠEgypt": 9782,
  "Ġhonest": 9692,
  "Ġtitle": 5366,
  "ĠA": 340,
  "Ã¤": 8567,
  "è¯Ĺ": 5390,
  "Ġtrain": 6505,
  "cription": 3800,
  "Ġmechan": 5092,
  "ES": 1390,
  "Ġobser": 9466,
  "Ġ21": 3537,
  "Ġmel": 8970,
  "ĠWal": 9538,
  "ted": 1997,
  "Ġsat": 3273,
  "Ġrelig": 3943,
  "Ġdeveloped": 3929,
  "å¢ŀéķ¿": 4278,
  "uesday": 9489,
  "èĭ¥": 5456,
  "63": 5071,
  "æ¿Ģ": 3409,
  "å±Ĥ": 2194,
  "Ġfoundation": 9137,
  "åİ": 773,
  "antly": 9395,
  "Acc": 7464,
  "margin": 6690,
  "ä¸¥": 3340,
  "ossible": 7536,
  "rag": 2736,
  "length": 9581,
  "ĠQue": 6740,
  "åĽ´": 3023,
  "Ġerror": 5868,
  "Ġpretty": 5339,
  "Ġones": 4900,
  "ĠSom": 7846,
  "Ġequ": 1822,
  "Ġdomestic": 9479,
  "åĪĨå¸ĥ": 6856,
  "Se": 4337,
  "ĠFl": 3617,
  "Ġplans": 5460,
  "Ġ2021": 7822,
  "))": 2079,
  "éħ": 1572,
  "cel": 9164,
  "light": 4099,
  "ç¾": 1409,
  "*,": 4206,
  "itte": 4854,
  "RE": 2230,
  "ĠPract": 5458,
  "mission": 5341,
  "dom": 3959,
  "ç¨İæĶ¶": 9396,
  "Ġ26": 4030,
  "ĠMake": 7888,
  "ä¸¤ç§į": 7905,
  "Ġprotection": 5384,
  "Ġdigital": 5342,
  "ĠTH": 8099,
  "é£İ": 2278,
  "Ġmemory": 6295,
  "font": 6792,
  "æĺ¥": 8940,
  "Ġexplain": 6205,
  "ĠAc": 4253,
  "Ġemail": 5004,
  "Ġholding": 8361,
  "ester": 6174,
  "ĠRE": 7283,
  "Ġcome": 2190,
  "Ġpriv": 3291,
  "ĠThomas": 7626,
  "Ġprograms": 3489,
  "ette": 9508,
  "ĠWith": 3082,
  "Ġeveryone": 4264,
  "Ġgrass": 7285,
  "inc": 2093,
  "Ġmoved": 5640,
  "Ġmach": 4498,
  "çĿ": 1434,
  "ĠÂł": 6954,
  "ç¬¬åįģ": 9829,
  "Ġprepare": 8502,
  "ä»İäºĭ": 8865,
  "Ķ": 245,
  "çªģåĩº": 8080,
  "Ġprofessional": 4738,
  "opt": 4238,
  "æľīæķĪ": 3415,
  "æ¬": 1149,
  "Ġwhen": 831,
  "cell": 3742,
  "ef": 899,
  "ac": 413,
  "Here": 7949,
  "Ġperformance": 3861,
  "ĠMay": 3032,
  "ampl": 9447,
  "ĠStates": 3141,
  "åºı": 2317,
  "ĠAmeric": 1783,
  "Ġ::": 2630,
  "äººçļĦ": 2674,
  "ĠEqu": 8109,
  "Config": 8157,
  "ĠTechnology": 7036,
  "ĠØ": 2298,
  "ĠCON": 6974,
  "Ġsecurity": 4819,
  "Ġchemical": 5467,
  "clusion": 3000,
  "Ġmed": 1593,
  "However": 9275,
  "Ġhouse": 2600,
  "ĠUse": 4603,
  "Ġdescription": 7545,
  "ĠConference": 7850,
  "Ø§": 3436,
  "Gl": 6175,
  "holders": 9194,
  "ibrary": 4824,
  "Ġliter": 3716,
  "Ġdefault": 6761,
  "Ġreduction": 8018,
  "Ġsecondary": 9258,
  "Ġunits": 7642,
  "æİªæĸ½": 5274,
  "Ġcenter": 5329,
  "Ġgas": 4362,
  "æ°ĳ": 906,
  "Ġgenerated": 9157,
  "Ġconsc": 7472,
  "åŃ£": 9869,
  "ĠWhite": 6854,
  "._": 7662,
  "ohn": 2485,
  "ç«ŀ": 3808,
  "Ġnew": 931,
  "Ġundert": 9791,
  "Su": 7168,
  "ä¸Ģæł·": 9820,
  "ony": 3755,
  "lete": 7705,
  "ir": 367,
  "èµĦéĩĳ": 5954,
  "Ġindeed": 9245,
  "ä¸ĵä¸ļ": 3296,
  "sec": 7238,
  "Ġ${": 9257,
  "Ġcommit": 7014,
  "æįŁå¤±": 7883,
  "Ġbooks": 4413,
  "Ġtreat": 2444,
  "Ġclim": 8143,
  "Ġoptions": 5430,
  "Ġcounty": 4993,
  "è¯Ŀ": 4563,
  "out": 531,
  "Ġbus": 1738,
  "Ġplace": 1795,
  "Ġboard": 5365,
  "Ð¸": 5221,
  "åĿ": 1343,
  "åĳ¨æľŁ": 9337,
  "duc": 2946,
  "Ġsu": 470,
  "HT": 9816,
  "rem": 1865,
  "Ġfell": 7712,
  "lear": 4554,
  "ç³ĸ": 9084,
  "åĩ»": 5635,
  "ĠGood": 7147,
  "å·¥åħ·": 6605,
  "Set": 4439,
  "onent": 7874,
  "èµĶ": 6154,
  "åĪĨç±»": 6721,
  "Ġph": 1113,
  "Ġdescribed": 5886,
  "çłĶç©¶": 1336,
  "Ġshared": 6589,
  "Ġprec": 4782,
  "ĠLe": 2199,
  "Ġbad": 3831,
  "Ġguess": 7674,
  "å¿": 719,
  "Ġexact": 4917,
  "Ġcharacter": 2683,
  "Ġas": 377,
  "ĠChem": 8711,
  "roph": 9426,
  "Ġ(": 374,
  "CD": 8582,
  "15": 1652,
  "ç¢³": 5454,
  "ĠMod": 4895,
  "21": 2205,
  "ĠMont": 8928,
  "ĠSk": 5515,
  "èģĮä¸ļ": 4843,
  "ĠAmerica": 4303,
  "Ġfore": 2237,
  "Ġcir": 2760,
  "ET": 2852,
  "ĠSil": 9115,
  "Ġco": 1161,
  "minist": 3628,
  "ĠPlease": 8723,
  "äººåı£": 5359,
  "Ġfeed": 4138,
  "å¤§åŃ¦": 4341,
  "ĠDiv": 8298,
  "åĲĪåĲĮ": 3114,
  "Ġattract": 6112,
  "æķ°æį®": 1720,
  "Ġbet": 950,
  "Ġsystems": 2988,
  "ending": 2607,
  "ç±³": 6140,
  "Ġaccounts": 7936,
  "Ġsignificant": 2797,
  "æķĻèĤ²çļĦ": 9485,
  "under": 8785,
  "ished": 1921,
  "åĲ«": 3964,
  "most": 3005,
  "ĠCamp": 8419,
  "Ġbutton": 9949,
  "ecause": 4861,
  "åĪ©çĶ¨": 3258,
  "ĠFound": 7091,
  "ĠĠĠĠĠĠĠĠĠĠĠĠĠĠĠ": 2943,
  "ba": 5116,
  "äº§åĵģ": 3179,
  "çŃ": 656,
  "ally": 859,
  "Ġbetter": 2036,
  "æĸ¹åĲĳ": 5848,
  "å¹¶ä¸Ķ": 7172,
  "åŁºç¡Ģ": 2086,
  "uty": 7319,
  "Ġcom": 433,
  "æııè¿°": 9305,
  "åľ": 399,
  "Ġent": 1382,
  "ety": 3411,
  "DD": 4713,
  "æ°": 637,
  "pub": 7625,
  "Ġminimum": 7872,
  "ix": 1371,
  "ĊĠĠĠĠĠĠĠĠĠĠĠĠĠĠĠĠĠĠĠ": 3914,
  "Ġcell": 2717,
  "Ġrule": 6449,
  "åºĶè¯¥": 5627,
  "å»ºè®®": 7112,
  "Ġbo": 2108,
  "Ġcomponents": 5883,
  "issions": 3607,
  "è°ĵ": 6452,
  "left": 4483,
  "Ġleaders": 4688,
  "æī¿æĭħ": 5433,
  "othes": 6486,
  "FROM": 3002,
  "Ġbegan": 3991,
  "wide": 6536,
  "ctor": 4344,
  "æĤ£èĢħ": 6488,
  "Ġcare": 1775,
  "iforn": 4651,
  "ields": 4031,
  "More": 9347,
  "ĠFoundation": 8072,
  ".'": 6422,
  "serv": 3017,
  "-|": 1530,
  "ç±": 1245,
  "Ġvirus": 7692,
  "å®¡è®¡": 8575,
  "Ġguid": 5241,
  "Ġfactor": 6957,
  "urb": 3509,
  "01": 651,
  "ä¹ī": 1153,
  "Ġshel": 9306,
  "èµĶåģ¿": 6938,
  "ibus": 6836,
  "ART": 7899,
  "Ġdet": 1422,
  "Ġbit": 3410,
  "ĠInformation": 6994,
  "Ġmuscle": 9722,
  "iated": 7555,
  "æĽ¾": 6823,
  "cle": 2401,
  "æĹ¢": 4442,
  "Ã¢": 5753,
  "å°Ĭ": 7837,
  "ÙĦ": 2922,
  "iz": 574,
  "iew": 1159,
  "äº": 323,
  "ĠInstitute": 6612,
  "éªĮ": 1940,
  "ida": 6683,
  "·": 118,
  "ä¹Ŀ": 6059,
  "æĬĬ": 2510,
  "za": 7717,
  "à¥": 2330,
  "que": 5295,
  "leg": 6678,
  "Serv": 9681,
  "ared": 1711,
  "Ġstation": 7471,
  "Ġhous": 5622,
  "Ġbirth": 5306,
  "åĨħå®¹": 2640,
  "Ġobjects": 6184,
  "ç¨³": 3783,
  "Ġconnect": 4318,
  "Ġfre": 2927,
  "Ġ80": 5323,
  "ever": 1412,
  "è¡¨çİ°": 4169,
  "åħĪ": 2125,
  "Ġanimals": 5021,
  "igned": 5346,
  "Ġcontent": 2872,
  "è¿Ĳè¡Į": 6296,
  "Ġinsect": 9209,
  "ĠLead": 8936,
  "å®ŀéªĮ": 4392,
  "Ġhad": 785,
  "Ġdrinking": 8499,
  "going": 7700,
  "Ġeight": 6456,
  "Ġcampaign": 7045,
  "roduct": 7458,
  "å¹³åĿĩ": 8421,
  "Ġbelong": 7361,
  "Ġconsidered": 3881,
  "Ġmyself": 6159,
  "åħ¬åı¸": 2244,
  "oster": 7616,
  ")/": 8074,
  "Ġ25": 2680,
  "çļĦæĺ¯": 3874,
  "Ġconf": 1832,
  "åķ": 1628,
  "åį": 522,
  "ĠReg": 3897,
  "iate": 3592,
  "åĿļ": 4066,
  "ĠÐ": 3604,
  "uch": 1215,
  "åĳĪçİ°": 9956,
  "å¯Ĩ": 3514,
  "FOR": 9655,
  "ãĢĭï¼Į": 5191,
  "Ġsw": 2449,
  "Ġwish": 6850,
  "Ġbe": 335,
  "82": 5839,
  "Ġhundred": 5459,
  "---------|": 7152,
  "idence": 2605,
  "Ġdatabase": 8808,
  "imary": 9515,
  "æľĪ": 2287,
  "Ġsport": 9649,
  "Form": 6531,
  "NUM": 3496,
  "Back": 9974,
  "çºł": 7341,
  "37": 3465,
  "ID": 2076,
  "ga": 7166,
  "[_": 3681,
  "fill": 8787,
  "rench": 4899,
  "Ġbody": 2003,
  "Ġsurrounding": 9176,
  "çĽ®çļĦ": 4829,
  "Log": 8753,
  "eed": 4988,
  "å¤ļç§į": 8089,
  "hy": 6453,
  "ĊĊĠĠĠĠĠĠĠĠĠĠĠ": 6290,
  "ect": 418,
  "æŃ»": 5808,
  "Ġcondition": 4417,
  "Ġoperating": 8290,
  "ĠConst": 6413,
  "ĠIs": 1903,
  "Ġperiods": 9771,
  "mitted": 5565,
  "è¿ĺ": 1782,
  "Ġappro": 1531,
  "eer": 7591,
  "oved": 3975,
  "ç§¯æŀģ": 4437,
  "Ġsupporting": 8571,
  "ä»½": 5003,
  "':": 9033,
  "Ġtraditional": 5308,
  "itation": 3477,
  "________________": 2553,
  "ero": 5489,
  "Ġrace": 6863,
  "Americ": 9219,
  "eal": 5064,
  "Ġprim": 3558,
  "Ġmem": 1592,
  "è¶³": 3157,
  "Ġ30": 2445,
  "Ġhold": 2999,
  "èĻ": 2120,
  "Ġconcentr": 8893,
  "Ġnote": 5740,
  "Don": 8118,
  "Ġaccommod": 9847,
  "Data": 4607,
  "åĪĨåĪ«": 6986,
  "åĽ½æľī": 8305,
  "Ġatmosp": 7466,
  "bf": 9569,
  "ĠDE": 7757,
  "Ar": 3185,
  "Ġgrant": 7296,
  "'ll": 3487,
  "Ġpol": 1274,
  "rid": 2029,
  "Ġcarried": 6874,
  "bb": 5974,
  "LO": 9693,
  "Ġcook": 5686,
  "ä¹İ": 7190,
  "ML": 7556,
  "ging": 5074,
  "Ġfunctions": 6652,
  "è§ĦèĮĥ": 4609,
  "Ġasking": 8531,
  "æ¹ĸ": 8538,
  "cre": 1014,
  "åħ¨": 1005,
  "éļ": 1173,
  "å½¢æĪĲ": 2639,
  "å°ļ": 6640,
  "ä»ĸäºº": 9271,
  "Ġshut": 8051,
  "Ġsusp": 7848,
  "Ġstatic": 8895,
  "Ġlines": 5545,
  "Ġseed": 8401,
  "Ġproced": 5055,
  "ads": 9252,
  "æľ¯": 1187,
  "æĸ": 411,
  "æĶ": 529,
  "Ġcategory": 9723,
  "ament": 4975,
  "Ġ...": 5714,
  "Ġke": 1251,
  "Ġmanner": 7225,
  "lib": 6169,
  "ĠNov": 9519,
  "Ġnever": 2265,
  "99": 2647,
  "fore": 1151,
  "Ġdoctor": 6949,
  "ĠFrank": 8589,
  "ifies": 8788,
  "Ġlanguage": 2533,
  "ussy": 9993,
  "stream": 6656,
  "æ®µ": 2159,
  "æ´²": 6888,
  "ind": 609,
  "éļıçĿĢ": 4977,
  "op": 409,
  "inet": 9887,
  "orth": 2436,
  "resh": 5244,
  "ç§ĳåŃ¦": 2496,
  "è®¸": 3685,
  "Ø¨": 6966,
  "Ġexcellent": 7864,
  "æ¨¡": 1608,
  "Ġunt": 2128,
  "æ°¸": 9450,
  "ball": 5256,
  "æĶ¹åĸĦ": 8544,
  "ĠUnited": 3061,
  "ĠJo": 9123,
  "oor": 3470,
  "base": 9229,
  "arget": 2343,
  "é¡µ": 9344,
  "PT": 7729,
  "Ġpat": 1866,
  "ĠWh": 1052,
  "Ġyoung": 2577,
  "åīĤ": 6791,
  "lt": 4170,
  "point": 5559,
  "ä»ĺ": 3900,
  "ats": 2262,
  "æľįåĬ¡": 2051,
  "ç¥ŀ": 2381,
  "UT": 3806,
  "Ġsector": 7254,
  "oth": 1093,
  "çĸ": 1750,
  "ribut": 2742,
  "Ġav": 1644,
  "çŃĳ": 5389,
  "è§Ĩ": 2400,
  "ä¸ĸçºª": 5143,
  "ç»§æī¿": 8457,
  "Ġpost": 2438,
  "ĠâĢ¦": 7977,
  "åĦ¿ç«¥": 7410,
  "bject": 3684,
  "inks": 4722,
  "omen": 5317,
  "Ġresidents": 8303,
  "Ġmean": 2198,
  "Ñ": 144,
  "ript": 4817,
  "åºĬ": 7408,
  "orage": 4675,
  "Ġmode": 9215,
  ">,": 9298,
  "Ġblog": 6768,
  "Ġstrugg": 6372,
  "Ġsearch": 4624,
  "åħ¬ä¼Ĺ": 8984,
  "æĶ¿åºľ": 2235,
  "RA": 6459,
  "ĠElect": 7476,
  "pped": 4635,
  "pite": 5615,
  "Ġ7": 1032,
  "Ġfac": 2356,
  "als": 1123,
  "ä¸Ģæĸ¹": 9752,
  "Ġexperiences": 5200,
  "Ġwho": 749,
  "ancial": 3858,
  "æ": 165,
  "Ġgather": 8436,
  "ract": 1039,
  "Ġcreates": 9908,
  "Ġbl": 1023,
  "è§Ĥå¿µ": 7588,
  "button": 6907,
  "hood": 3654,
  "Ġwinter": 7107,
  "è¡Į": 624,
  "Ġet": 1954,
  "========": 3619,
  "ative": 1022,
  "ĠII": 5586,
  "ĠAs": 1417,
  "Ġmuch": 1416,
  "ç»": 380,
  "ives": 1376,
  "inder": 8253,
  "Model": 8625,
  "Ġcou": 4065,
  "Ġtaste": 9281,
  "Ġcannot": 3488,
  "èµĦäº§": 4308,
  "Ġgives": 5600,
  "åħ": 349,
  "Ġexcess": 8374,
  "rot": 8519,
  "æķ°åŃ¦": 6379,
  "æ·±åħ¥": 7087,
  "åĪ": 361,
  "icult": 2859,
  "åħ¶ä»ĸ": 2752,
  "ª": 106,
  "åĲ¯": 6214,
  "hib": 4343,
  "æµĭè¯ķ": 8513,
  "child": 7009,
  "èĮĥåĽ´": 4078,
  "ĠNASA": 8404,
  "ä»¥ä¸ĭ": 5214,
  "Ľ": 252,
  "ĠAustralia": 7323,
  "ires": 3129,
  "å¥½": 1969,
  "åĮº": 1305,
  "emic": 9189,
  "--------|": 7832,
  "Ġleast": 2899,
  "ummary": 4883,
  "iron": 1468,
  "gal": 5952,
  "ama": 4801,
  "æĺ¯åĲ¦": 4488,
  "Ġmoist": 9362,
  "33": 2466,
  "Ġdemonstr": 5451,
  "Ġintellig": 6638,
  "land": 1357,
  "Ġ31": 5413,
  "Ġavail": 2337,
  "Ġcurrently": 5947,
  "Ġhelped": 7169,
  "Ġnoise": 9631,
  "html": 4584,
  "rey": 9827,
  "ĠSen": 7210,
  "åĬ©": 2750,
  "Ø©": 7378,
  "ĠBen": 6171,
  "Ġstart": 1556,
  "³": 114,
  "Ġdistance": 6322,
  "ĠPet": 8611,
  "å¼ķ": 2142,
  "ĠFunction": 9903,
  "file": 5136,
  "ç½®": 2625,
  "ĠResearch": 4520,
  "Ę": 215,
  "Ġ65": 7932,
  "è·¯": 2241,
  "Ġemot": 3871,
  "hav": 9067,
  "Ġcouldn": 6806,
  "Ġacqu": 5675,
  "Ġsecond": 2331,
  "èĥ½æºĲ": 6030,
  "æľĢ": 1385,
  "Ġdi": 2027,
  "éĩĳèŀį": 3279,
  "Ġstarted": 3521,
  "ç®Ĺæ³ķ": 7998,
  "Ġcrisis": 9555,
  "ee": 1842,
  "åŀĭ": 1527,
  "Ġwear": 8138,
  "Ġque": 9295,
  "ç³»ç»Ł": 1788,
  "èĭ": 1949,
  "æĽ": 1136,
  "Ġbeh": 1871,
  "rough": 904,
  "Ġdirectly": 5156,
  "ĠPM": 7252,
  "ĠHist": 4835,
  "Ġestablish": 5326,
  "Ġful": 4277,
  "è°Ī": 7374,
  "idents": 5485,
  "rieved": 8192,
  "çľĭ": 2431,
  "aj": 1892,
  "ä¸Ńåįİ": 5713,
  "æķ°éĩı": 7368,
  "Ġa": 261,
  "icated": 8286,
  "Ġofficials": 9623,
  "aves": 3555,
  "ipping": 9069,
  "ĠMrs": 6226,
  "Ġsolid": 6145,
  "å¯¼èĩ´": 4396,
  "inations": 9849,
  "æľĿ": 4224,
  "åıĳå±ķçļĦ": 3646,
  "iment": 3966,
  "æĶ¾": 2207,
  "room": 3605,
  "ĠType": 9293,
  "oes": 4564,
  "éĢĤçĶ¨": 4663,
  "alth": 1105,
  "ronic": 5153,
  "aining": 3756,
  "è®¤ä¸º": 3047,
  "ĠHe": 934,
  "åĩ": 565,
  "Ġpun": 8553,
  "çĸĳ": 7243,
  "Ġnetworks": 9994,
  "IR": 4146,
  "Ġhowever": 3519,
  "\"></": 9402,
  "curity": 4145,
  "inct": 5735,
  "Ġtele": 9778,
  "çļĦéĩįè¦ģ": 4557,
  "ar": 288,
  "æĥħ": 1484,
  "2022": 8459,
  "Ġgirl": 6297,
  "ians": 2531,
  "æķ´": 1909,
  "Ġintervention": 9786,
  "Ġtrip": 8592,
  "Ġaddition": 2521,
  "æŀĹ": 4797,
  "ens": 781,
  "Ġweap": 8175,
  "enc": 3609,
  "End": 8877,
  "Ġdelivery": 9529,
  "igen": 7637,
  "åĬłå¼º": 4433,
  "anish": 8546,
  "eks": 5016,
  "Ġmy": 809,
  "Ġlisten": 8881,
  "unch": 4213,
  "ity": 437,
  "æ±ĩ": 5421,
  "friend": 8995,
  "ä¼ģä¸ļ": 1458,
  "ĠOct": 4173,
  "exp": 5860,
  "oses": 6298,
  "ĠSur": 6235,
  "çĭ": 2909,
  "icial": 8044,
  "ged": 4130,
  "ĠCon": 1676,
  "æķĪæŀľ": 6622,
  "ĠIndia": 4862,
  "ĠHouse": 5593,
  "Ġran": 9343,
  "Ġfemale": 7194,
  "ĠâĢĵ": 1229,
  "ĠDes": 3209,
  "Ġfixed": 9455,
  "gypt": 8829,
  "Ġ60": 4531,
  "Value": 4960,
  "Ġbegin": 3104,
  "Ġmakes": 3117,
  "Ġac": 1171,
  "AG": 4268,
  "Ġevent": 3242,
  "Ġfol": 1247,
  "ĠHol": 7393,
  "ĠDis": 5049,
  "ur": 345,
  "ĠHar": 4692,
  "ä¸įèĥ½": 3478,
  "æ¿ĢåĬ±": 9709,
  "Ġ29": 4385,
  "Ġcosts": 5129,
  "Ġdangerous": 9379,
  "Ġdo": 585,
  "SW": 9133,
  "Ġelements": 5260,
  "Ġprepar": 6687,
  "Ġbill": 8389,
  "Ġguy": 8245,
  "è¥¿æĸ¹": 8005,
  "urn": 901,
  "Ġmind": 2892,
  "ow": 341,
  "port": 664,
  "thing": 2201,
  "çļĦè§Ħå®ļ": 7399,
  "AD": 3356,
  "Ġfile": 4053,
  "clus": 2291,
  "Ġconsider": 2566,
  "Ġcurrent": 2253,
  "Ġm": 290,
  "Ġop": 1606,
  "ĉĉĉĉ": 8240,
  "Ġscale": 5623,
  "Ġdisp": 9331,
  "Ġmedia": 4142,
  "ils": 2854,
  "ĠPost": 6950,
  "Ġtechnical": 6940,
  "orge": 5800,
  "kind": 4541,
  "uable": 6677,
  "Ī": 233,
  "Ġmap": 5484,
  "rive": 9600,
  "alls": 4419,
  "ills": 1870,
  "mm": 4650,
  "åĩĨ": 1714,
  "Ġexhib": 7733,
  "ĠShe": 1816,
  "].[": 7498,
  "UR": 3631,
  "å®¢": 3571,
  "Ġcourses": 7873,
  "Ġinstitutions": 7134,
  "$$": 8015,
  "æ°ĳäºĭ": 6283,
  "Ġà¤": 2637,
  "ml": 3220,
  "Ġnight": 3637,
  "æľīåħ³": 3994,
  "Ġfinger": 9822,
  "Ġdifferent": 1347,
  "amps": 8263,
  "åĪ¶å®ļ": 5568,
  "ç³»ç»ŁçļĦ": 7094,
  "åıĪ": 2833,
  "group": 5187,
  "},": 4197,
  "key": 3751,
  "ĠVol": 6311,
  "10": 1043,
  "73": 5184,
  "Ġchallenging": 9772,
  "è§Ĥ": 1569,
  "Ġcrops": 9503,
  "Ġdeterm": 2785,
  "åİĨåı²": 2847,
  "åĬ¨æĢģ": 9859,
  "ud": 457,
  "Ġ39": 7595,
  "Ġquite": 4363,
  "åĴĮç¤¾ä¼ļ": 8452,
  "å´": 8608,
  "Ġrecords": 6906,
  "è¾¾åĪ°": 5057,
  "äºĮæĺ¯": 8125,
  "Ġservice": 2992,
  "asc": 4978,
  "nder": 790,
  "Ġmere": 8983,
  "çļĦåŁºç¡Ģä¸Ĭ": 9187,
  "bin": 6418,
  "Ġweb": 5712,
  "esp": 7688,
  "Ġch": 472,
  "Ġpast": 2951,
  "Ġcrow": 9166,
  "ä»ĸä»¬": 3824,
  "all": 517,
  "Ġfreedom": 8251,
  "ç»ĵæŀĦ": 2582,
  "ingly": 8950,
  "Ġcentral": 6074,
  "ĠSte": 3862,
  "epend": 3775,
  "Let": 7547,
  "æĬ¼": 9961,
  "ĠSystem": 3515,
  "Reg": 8114,
  "------------": 3206,
  "éĢļä¿¡": 7710,
  "ĠColor": 8831,
  "inating": 8194,
  "æĺ¯": 468,
  "çļĦä½ľçĶ¨": 8412,
  "overed": 3690,
  "ĠSm": 4348,
  "argin": 3889,
  "atab": 5547,
  "ĠNor": 8813,
  "Ġcover": 4034,
  "um": 439,
  "éĿŀå¸¸": 6785,
  "ç»ıè¿ĩ": 7780,
  "Ġdress": 9449,
  "éªĹ": 9954,
  "Ġpolit": 2980,
  "åįĹ": 3159,
  "Ġfundamental": 8937,
  "md": 4092,
  "Ġinnov": 6281,
  "Ġbath": 9474,
  "wip": 8205,
  "á": 160,
  "Ġlab": 3978,
  "so": 724,
  "Ġwork": 824,
  "\\(^": 7661,
  "åŁºåĽł": 6661,
  "åĽ½å®¶": 1609,
  "Ġqu": 763,
  "ervation": 4234,
  "ä¹ħ": 8355,
  "Ġcon": 385,
  "ä¿ĿæĮģ": 7295,
  "Ġgovernments": 9926,
  "Ġrespect": 3869,
  "Ġtou": 4945,
  "ĠTown": 9514,
  "èįī": 7454,
  "92": 6289,
  "æ³Ľ": 5799,
  "Ġunderstanding": 2754,
  "åħ¨çĲĥ": 4946,
  "In": 958,
  "æĸ¹éĿ¢": 1957,
  "],": 2072,
  "umber": 3822,
  "Ġprinc": 3546,
  "Ġso": 687,
  ",.": 6651,
  "Ġmotion": 8411,
  "Ġconstant": 5716,
  "86": 4840,
  "ample": 2810,
  "len": 7510,
  "ention": 2238,
  "å°ģ": 6166,
  "iple": 3350,
  "ĠAut": 8649,
  "Ġmit": 7448,
  "ĠAssess": 8028,
  "Ġparty": 5437,
  "åįķä½į": 3574,
  "ĠYear": 5577,
  "å®ļ": 682,
  ".;": 4249,
  "çļĦåĨħå®¹": 9671,
  "çļĦç¤¾ä¼ļ": 7300,
  "ļ": 251,
  "message": 8775,
  "}.": 4499,
  "Ġtas": 4884,
  "Ġcontroll": 6680,
  "è§£": 1194,
  "this": 3223,
  "Gener": 9059,
  "å±Ĥæ¬¡": 7363,
  "æĺİç¡®": 4183,
  "æ¯Ĵ": 6764,
  "Ġfine": 6093,
  "çļĦçłĶç©¶": 5760,
  "index": 6032,
  "Ġvit": 8220,
  "ä¿¡åı·": 7565,
  "($": 5477,
  "ipal": 7185,
  "å¸®åĬ©": 7151,
  "ARY": 9928,
  "æĪĲåĬŁ": 7753,
  "æķĻå¸Ī": 3709,
  "æ¯Ķè¾ĥ": 4648,
  "Ġ42": 7675,
  "ç¤¼": 6828,
  "Ġpopulation": 3642,
  "cknow": 8316,
  "ov": 891,
  "Ġopposite": 9973,
  "Ġfiles": 7154,
  "è´·": 5612,
  "ä¹°": 5680,
  "Ġexplore": 4969,
  "Ġsure": 2662,
  "Ġintellect": 9594,
  "68": 4157,
  "ifest": 9805,
  "pr": 1668,
  "Ġeyes": 3957,
  "Path": 6769,
  "scale": 9454,
  "åħ¬åħ±": 4125,
  "čĊĠĠĠĠĠĠĠ": 7247,
  "ä¸¥æł¼": 9070,
  "åĪĳ": 3829,
  "EC": 2868,
  "Ġutil": 6784,
  "win": 8661,
  "Ġborn": 4510,
  "Ġcycle": 7982,
  "rome": 9037,
  "ffect": 5888,
  "çĿĢ": 1761,
  "Ħ": 229,
  "Ġspring": 6279,
  "Ġadvance": 7829,
  "éĤ£ä¹Ī": 7170,
  "è´¢äº§": 5340,
  "ä¸»": 778,
  "ĠNorth": 4025,
  "Ġswe": 5372,
  "Ġfro": 9442,
  "Ġbuy": 4056,
  "Ġturns": 8863,
  "Ġsuch": 1055,
  "ĠĠĠĠĠĠĠĠĠĠĠĠĠĠĠĠĠĠĠĠĠĠĠĠĠĠĠĠ": 7156,
  "æłĩå¿Ĺ": 9001,
  "åľº": 1503,
  "æĸĩåĮĸ": 1989,
  "angu": 1854,
  "Ġfriends": 3774,
  "Ġvital": 9407,
  "Ġapprec": 6303,
  "å¼ĢæĶ¾": 5205,
  "Ã§": 7041,
  "åīį": 1334,
  "Ġspending": 9679,
  "Ġall": 588,
  "Ġpowerful": 6173,
  "ics": 1067,
  "cks": 4714,
  "omm": 2366,
  "Ġar": 782,
  "äºĨä¸Ģ": 8910,
  "omet": 6458,
  "Ġheart": 3058,
  "Ġproduce": 4868,
  "¶": 117,
  "Ġlimited": 5176,
  "èį": 2101,
  "ober": 3183,
  "ĠOut": 5930,
  "Ġsit": 2183,
  "eb": 2584,
  "ended": 2460,
  "æľīåĪ©äºİ": 8142,
  "Ġtravel": 3933,
  "contain": 8031,
  "ĠĠĠĠĠĠĠĠĠĠĠĠĠĠĠĠĠĠĠĠĠ": 3559,
  "inner": 6259,
  "Ġcaught": 9704,
  "vern": 1575,
  "Ġforward": 5148,
  "å·´": 7066,
  "ĠRepublic": 7155,
  "å®ŀè¡Į": 7030,
  "Ġyouth": 5891,
  "chool": 938,
  "Ġphotos": 9750,
  "co": 3250,
  "Ġcircuit": 8126,
  "77": 4335,
  "Ġopportunities": 4659,
  "Ġsex": 3551,
  "ĠOpen": 9083,
  "ĠTable": 7706,
  "iation": 3053,
  "Ùħ": 5976,
  "ä½ĵåĪ¶": 5699,
  "olved": 7430,
  "Ġca": 1790,
  "Ġred": 3860,
  "Ġreview": 3346,
  "Ġfear": 5629,
  "Ġproduct": 1840,
  "Ġdifferences": 6294,
  "Ġcommon": 2326,
  "just": 4322,
  "Ġcontrast": 7963,
  "Ġmedic": 5682,
  "<": 30,
  "Ġvast": 9756,
  "eers": 9922,
  "åİŁåĪĻ": 3662,
  "ĉ": 200,
  "ĠComm": 2039,
  "ĠSand": 9641,
  "pt": 501,
  "Ġbec": 845,
  "ĠPri": 6691,
  "å¤±": 2720,
  "last": 5873,
  "o": 81,
  "èĥŀ": 3585,
  "ü": 187,
  "Ġprof": 1920,
  "atter": 3944,
  "ĠĠĠĠĠĠĠĠ": 296,
  "ensity": 6406,
  "Ġneigh": 5277,
  "Ġweight": 4600,
  "æĭ©": 3844,
  "oc": 446,
  "çķĻ": 5591,
  "éĩĩçĶ¨": 4786,
  "æ¬§": 5179,
  "itage": 7680,
  "organ": 9987,
  "ç¨İ": 2537,
  "ottom": 3801,
  "Ċĉĉĉĉ": 4248,
  "Ġlayer": 8016,
  "van": 6953,
  "da": 7365,
  "Ġgrowing": 5457,
  "ĠEuropean": 5910,
  "ÃŃ": 7381,
  "Ġwould": 833,
  "ä»»åĬ¡": 5088,
  "ĠPsych": 9325,
  "å¸¦": 2748,
  "Ġsymptoms": 5645,
  "utive": 7726,
  "thon": 8746,
  "Ġaway": 2598,
  "Ġissue": 4149,
  "ded": 6099,
  "Ġgrade": 6069,
  "è¾¹": 4121,
  "è¿Ļ": 823,
  "Ġconfidence": 8716,
  "Ġemphas": 6746,
  "Ġ</": 4139,
  "èµ·æĿ¥": 7534,
  "ĠArea": 9964,
  "ĠBusiness": 7974,
  "Ġr": 481,
  "Ð¾": 4070,
  "Ġbeg": 6408,
  "ĠLicense": 9768,
  "Ġflu": 5111,
  "Ġproperly": 7843,
  "ured": 2749,
  "Ġproblems": 2965,
  "åĽĽ": 2171,
  "osen": 7681,
  "Ġstream": 5798,
  "è¾ĥ": 1943,
  "èĮ": 1811,
  "Ġleadership": 8431,
  "obile": 6020,
  "erg": 1400,
  "Ġdisc": 1424,
  "es": 275,
  "ç»Ń": 2596,
  "Ġ->": 2716,
  "Ġfund": 2964,
  "åıĳ": 607,
  "ĠWater": 4803,
  "Ġdri": 2802,
  "Ġmusic": 3512,
  "ĠArt": 4746,
  "èĬ": 1707,
  "Ġbal": 4230,
  "ait": 5898,
  "è¿ĺæĺ¯": 6748,
  "é¡»": 3056,
  "čĊĠĠĠĠĠĠĠĠĠĠĠ": 8160,
  "tings": 8878,
  "BC": 7482,
  "DC": 7120,
  "Ġbook": 1908,
  "Ġblow": 9163,
  "cs": 8885,
  "è¾¾": 2060,
  "Ġpair": 9348,
  "Ġglass": 6869,
  "ste": 7058,
  "æĬķèµĦ": 3375,
  "Ġyourself": 4848,
  "Ġchem": 4204,
  "ĠEarth": 5190,
  "Ġwest": 8670,
  "ĠAr": 1664,
  "å¿ħè¦ģ": 6926,
  "atives": 4008,
  "ons": 898,
  "Ġaff": 1983,
  "sup": 6659,
  "Ġdetailed": 8331,
  "esson": 4595,
  "Ġab": 532,
  "æĹ": 510,
  "ĠYour": 4436,
  "Ġanother": 2035,
  "Ġrisks": 7728,
  "ditionally": 7230,
  "chen": 8748,
  "Ġriver": 6889,
  "Ġjudge": 9781,
  "ommod": 9198,
  "éģ¿": 5778,
  "Ġpages": 7775,
  "Ġurban": 7143,
  "'t": 940,
  "å¹´": 818,
  "æĶ¿çŃĸ": 2831,
  "Ġdream": 6190,
  "Ġnamed": 6831,
  "éĩįè§Ĩ": 7205,
  "GR": 7364,
  "Ġpatients": 5368,
  "éĢī": 2390,
  "Ġrepresents": 8588,
  "ored": 2827,
  "Ġuns": 9380,
  "ç²¾ç¥ŀ": 4044,
  "Ġ16": 1806,
  "ca": 5603,
  "Ġbank": 5757,
  "ĠDepartment": 4153,
  "ĠDel": 7179,
  "Ġinstru": 6151,
  "Ġ22": 3816,
  "ogle": 4856,
  "ign": 680,
  "ä¸ĭéĻį": 8462,
  "Ġ10": 1246,
  "der": 1624,
  "Another": 9999,
  "ĠGl": 4175,
  "æģ¶": 8352,
  "Ġvideo": 4905,
  "ä¸İ": 697,
  "²": 113,
  "attle": 4664,
  "éĶĻ": 5541,
  "ĠChristian": 4316,
  "Any": 9605,
  "æľºåħ³": 4811,
  "%,": 8252,
  "then": 9011,
  "äºĭä»¶": 7299,
  "ä»¬": 1306,
  "ien": 1657,
  "Ġcommunic": 5180,
  "ĠAfrica": 3757,
  "Ě": 217,
  "Ġpe": 789,
  "\"><": 7251,
  "Ġst": 354,
  "Ġwell": 1168,
  "Ġor": 405,
  "Ġherself": 8095,
  "OR": 1751,
  "åįĥ": 6613,
  "Ġinvent": 7699,
  "He": 2515,
  "É": 136,
  "ĠWhe": 7438,
  "ework": 5864,
  "åģ": 1212,
  "ville": 4141,
  "AT": 1554,
  "important": 4837,
  "é«ĺæł¡": 7360,
  "æķĪçİĩ": 5844,
  "ä»ħ": 2876,
  "ething": 1982,
  "ĠWilliam": 5446,
  "ensions": 7481,
  "Ġcons": 948,
  "apan": 4734,
  "åĽ½æ°ĳ": 8122,
  "Ġele": 2325,
  "Ġelement": 5964,
  "ä¾Ŀæį®": 5857,
  "Ġs": 269,
  "ĠInte": 7167,
  "Ġ19": 761,
  "æ±½": 8974,
  "éĩįçĤ¹": 5097,
  "lock": 6545,
  "åĨ³å®ļ": 4625,
  "ĊĠĠĠĠĠĠĠĠĠĠĠĠĠĠĠĠĠĠĠĠĠĠĠĠĠĠĠ": 9670,
  "Ġneeds": 2454,
  "Ġpres": 1308,
  "åįł": 4058,
  "åŃ": 435,
  "Ġpiece": 5928,
  "ĠOf": 5723,
  "ĠThe": 408,
  "Ġbecame": 3917,
  "Ġvoid": 8327,
  "Ġpractice": 3578,
  "ĠEnd": 5759,
  "Ġlearners": 8096,
  "where": 4154,
  "ĠSee": 5466,
  "IG": 5054,
  "Ġcontaining": 9918,
  "Ġ?": 6917,
  "Ġwalked": 9111,
  "Ġwhite": 3839,
  "54": 5767,
  "------|": 5587,
  "she": 8851,
  "æĬĢ": 1198,
  "{}": 7938,
  "ĠOff": 5138,
  "é¦Ĩ": 9128,
  "Ġthree": 1803,
  "ĠFe": 8131,
  "71": 5445,
  "ĠGeneral": 6189,
  "45": 2845,
  "è¯ī": 2995,
  "å¤ĸéĥ¨": 9528,
  "Ġelse": 2725,
  "Ġmodern": 4505,
  "Ġmax": 4496,
  "ufact": 4882,
  "itable": 5023,
  "house": 5991,
  "Ġintelligence": 8816,
  "amer": 4833,
  "amed": 5344,
  "æ¼": 3471,
  "ode": 1288,
  "éĿ©": 2083,
  "ĠIN": 3262,
  "Cur": 9914,
  "Ġclick": 8497,
  "xc": 8861,
  "Ġdiscussed": 7564,
  "çĻĮ": 9398,
  "Ġcommun": 1319,
  "oul": 5749,
  "Ġbecomes": 6313,
  "ĠGet": 5687,
  "ixt": 7358,
  "åĽ½éĻħ": 3227,
  "Ġ38": 7567,
  "zing": 6448,
  "Ġpro": 379,
  "ä¸ºä¸»": 7740,
  "Ġterror": 9498,
  "ĠEr": 9968,
  "Ġdro": 5747,
  "Ġgra": 1355,
  "Ġoffer": 4272,
  "ED": 2601,
  "éŁ³ä¹Ĳ": 9065,
  "&": 8,
  "So": 4140,
  "æī©å¤§": 7426,
  "ĠDet": 7328,
  "iant": 6984,
  "ĠSpecial": 8680,
  "Co": 8967,
  "äº¤éĢļ": 7082,
  "Ġoptim": 8610,
  "Ġevaluate": 9372,
  "oretical": 9289,
  "<|im_end|>": 2,
  "free": 8380,
  "Ġ),": 7398,
  "æĮĳæĪĺ": 9095,
  "è§ĤçĤ¹": 6872,
  "==": 1164,
  "M": 47,
  "Ġwidely": 9211,
  "Ġcommand": 5212,
  "Ġframe": 8461,
  "éĻ¢": 1837,
  "Ġthere": 815,
  "Ġperm": 9897,
  "lying": 3587,
  "ĠTra": 3614,
  "Ġdied": 5542,
  "Ġresp": 1311,
  "ĊĠĠĠĠĠĠĠĠ": 829,
  "åıĬåħ¶": 5360,
  "Ġmat": 2019,
  "ĠTh": 667,
  "ilt": 3251,
  "Ġusage": 9543,
  "ertain": 2182,
  "PR": 9435,
  "ĠHill": 8864,
  "gg": 1533,
  "çº¦å®ļ": 8624,
  "ocal": 3523,
  "lease": 2536,
  "ĠString": 7246,
  "Ġreasons": 5571,
  "èŀį": 2057,
  "Ġwalls": 8918,
  "ties": 4518,
  "fort": 4190,
  "è°Ĳ": 9632,
  "çļĦäºº": 5992,
  "ĊĊĠĠĠĠĠĠĠ": 4012,
  "GO": 4810,
  "éħį": 2422,
  "æ¶²": 6742,
  "Ġopening": 9090,
  "å®ŀè·µä¸Ń": 9938,
  "Ġevening": 9912,
  "ersonal": 9662,
  "}{": 3140,
  "Ġ2012": 5139,
  "ber": 703,
  "å¹¶": 1201,
  "Ġ$(": 4561,
  "oo": 5772,
  "az": 1902,
  "è®¾ç½®": 8010,
  "ope": 2589,
  "ä¿ĿæĬ¤": 3057,
  "Time": 7395,
  "config": 6301,
  "Ġeas": 2095,
  "IL": 3556,
  "au": 711,
  "iction": 3776,
  "åľ°åĮº": 3640,
  "Ġincor": 6490,
  "ook": 737,
  "ich": 560,
  "æĻ®éĢļ": 9144,
  "Ġserve": 6261,
  "ae": 3522,
  "æĮĳ": 8139,
  "Ø": 151,
  "Ġreject": 9812,
  "ĠO": 516,
  "Ġhabit": 5303,
  "24": 2266,
  "ç»Ļ": 2602,
  "atically": 7965,
  "åįĩ": 2863,
  "åĪº": 9668,
  "Ġlate": 4492,
  "Ġpackage": 9685,
  "è´¢åĬ¡": 9666,
  "ä¸ºäºĨ": 4681,
  "ered": 2288,
  "Ġ}": 1281,
  "åķĨä¸ļ": 6163,
  "ature": 1139,
  "æ¡": 1408,
  "Ġdrugs": 8542,
  "iform": 8129,
  "erve": 4452,
  "ĠJer": 7371,
  "å²ģ": 9433,
  "nt": 430,
  "Ġhands": 4050,
  "è¡¡": 4715,
  "ario": 6485,
  "isk": 9962,
  "Ġcast": 7111,
  "Ġrevolution": 9931,
  "ental": 2519,
  "riage": 5990,
  "ĠRed": 5165,
  "Ġd": 298,
  "ung": 3178,
  "Ġnutrition": 8385,
  "ï½": 7327,
  "ter": 389,
  "iency": 4731,
  "Ġshe": 962,
  "Ġage": 2824,
  "è°ĥ": 1485,
  "inal": 2067,
  "ĠParent": 8991,
  "ç½ª": 2781,
  "æĹ¶æľŁ": 4493,
  "ä¸Ģèĩ´": 7559,
  "å½ĵäºĭ": 5319,
  "']": 8261,
  "Ġcommunities": 4458,
  "gs": 7235,
  "bo": 2820,
  "Ġrare": 6506,
  "ian": 929,
  "é¢Ĩå¯¼": 6801,
  "çº·": 6896,
  "odies": 6062,
  "ä½ł": 6401,
  "Ġbrand": 6518,
  "OS": 5792,
  "åŃ¦çļĦ": 7056,
  "47": 4172,
  "ittle": 1878,
  "ĠChildren": 6243,
  "ming": 3815,
  "åľ°ä½į": 5703,
  "ised": 2322,
  "orida": 9342,
  "ĠAnother": 9155,
  "fa": 5689,
  "åĮĸåŃ¦": 6945,
  "ounds": 5096,
  "fe": 706,
  "ĠChild": 4262,
  "Ġrequest": 4694,
  "ĊĠĠĠĠ": 3599,
  "æĮģç»Ń": 4556,
  "Ġrail": 9027,
  "Ġready": 5773,
  "Ġelim": 8405,
  "çĶ±": 1248,
  "Ġitself": 4107,
  "Ġstudent": 2590,
  "look": 8185,
  "ĠSon": 8879,
  "46": 4818,
  "ĠList": 7317,
  "Ġspeech": 7538,
  "SD": 5884,
  "åĬ±": 5195,
  "urt": 5607,
  "oud": 4408,
  "ĠVict": 8345,
  "Ġeffect": 1487,
  "arian": 7090,
  "Ġegg": 7270,
  "ä¸ªä½ĵ": 8717,
  "ĠInf": 9775,
  "Ġkids": 5199,
  "ifications": 8762,
  "ould": 507,
  "Ġ43": 8524,
  "44": 3335,
  "Ġversion": 5127,
  "åĳĬ": 2869,
  "éĻįä½İ": 5981,
  "Ġacres": 9445,
  "ä¸»ä½ĵ": 3729,
  "å¸Ī": 2228,
  "ä»¶": 1381,
  "Ġrecorded": 8247,
  "Ġcritical": 4908,
  "Ġcont": 666,
  "ĠFriday": 9643,
  "ä½ľåĵģ": 7758,
  "ere": 9854,
  "Ġindicated": 9738,
  "ension": 3837,
  "Ġroom": 3620,
  "ç§ĳ": 1266,
  "Ġconv": 6900,
  "card": 9043,
  "Ġaspect": 4671,
  "Ġwant": 1429,
  "Ġfind": 1547,
  "oke": 3633,
  "Ġachieve": 3674,
  "æ¸": 1312,
  "itted": 3644,
  "Windows": 9509,
  "Ġdevelop": 1072,
  "è¶ħ": 3554,
  "IA": 6904,
  "Ġmagn": 5621,
  "Ġlittle": 2055,
  "border": 7212,
  "Ġins": 1825,
  "ends": 3513,
  "Ġcreative": 7467,
  "Ġher": 743,
  "åĲį": 2424,
  "Ġcorner": 9404,
  "Ġfarmers": 8740,
  "Ġep": 5984,
  "åĮºåŁŁ": 4620,
  "Ġvisit": 4430,
  "reen": 3581,
  "x": 90,
  "Ġoriginal": 4733,
  "éĢł": 1693,
  "æıĲ": 956,
  "Ġshould": 1060,
  "æ»¡": 3955,
  "c": 69,
  "bottom": 6390,
  "Read": 6820,
  "Ġbusiness": 2070,
  "Ġfrequency": 9593,
  "Ġjourney": 7798,
  "åľŁåľ°": 4759,
  "ated": 602,
  "Stud": 7215,
  "åıĬæĹ¶": 8468,
  "Ġadminist": 4943,
  "Ġskin": 4858,
  "æİ¥åıĹ": 6747,
  "Ġpot": 2196,
  "Ġsolar": 6756,
  "Ġmath": 8373,
  "æĺİ": 1216,
  "efore": 3745,
  "Ġattend": 6910,
  "mat": 7483,
  "å·®": 3034,
  "Ġcivil": 5679,
  "ĠMe": 2687,
  "åĮĹ": 3035,
  "Ġfilled": 8103,
  "åĲĦç§į": 4616,
  "åĢŁ": 4594,
  "æ°ĳéĹ´": 9296,
  "pri": 3148,
  "atch": 1722,
  "ĠHand": 9321,
  "Ġforced": 8698,
  "ĠProf": 5881,
  "400": 8147,
  "è®¼": 4580,
  "å¤ļæķ°": 8913,
  "çĶ¨æĪ·": 6598,
  "Ġagriculture": 9013,
  "ä¾Ľ": 1726,
  "ĠDef": 5807,
  "ĠCanada": 5404,
  "ĠĠĠĠĠĠĠĠĠĠĠĠĠĠĠĠĠĠĠĠĠĠ": 5283,
  "ĠFr": 2913,
  "å·ŀ": 4875,
  "path": 5158,
  "ĠBur": 8351,
  "ĠNe": 3600,
  "){": 9071,
  "ishing": 7337,
  "èµĦ": 917,
  "Ġgreat": 1792,
  "Ġsatell": 9743,
  "ĠCivil": 9351,
  "Exception": 8800,
  "Rd": 9374,
  "Ġpow": 6496,
  "Ġpain": 2935,
  "Ġprogress": 4228,
  "Â°": 6694,
  "ge": 391,
  "æĶ¹éĿ©": 2930,
  "Ġamount": 2989,
  "ä¼ļè®¡": 5879,
  "Ġmer": 5819,
  "æ³ķå¾ĭ": 2116,
  "info": 8107,
  "amental": 8268,
  "Ġevalu": 5580,
  "è´µ": 7919,
  "à¤¤": 7462,
  "éĻĦ": 6955,
  "Ġkne": 9578,
  "function": 4707,
  "Ġhealth": 1463,
  "vironment": 1690,
  "Ġcounter": 7388,
  "Ġexercise": 6191,
  "ä¹īåĬ¡": 5468,
  "Ġexpressed": 9496,
  "è¯ĨåĪ«": 9028,
  "à¤¨": 9421,
  "ings": 802,
  "ĠBig": 9220,
  "Ġfair": 5263,
  "Index": 7237,
  "Ġinterpret": 6667,
  "Ġagreement": 8629,
  "Ġtechnology": 3195,
  "uration": 5550,
  "ĠArab": 7535,
  "unt": 2894,
  "æĿ¥çľĭ": 8235,
  "æ¡Īä¾ĭ": 8640,
  "ĠThrough": 9451,
  "ft": 991,
  "ä¾µ": 4699,
  "Ġ35": 4201,
  "ellow": 4880,
  "Ġsepar": 4159,
  "Ġoutside": 3980,
  "enge": 5695,
  "åĴ": 485,
  "À": 127,
  "Ġrot": 7777,
  "ied": 1062,
  "ason": 1846,
  "Ç": 134,
  "ĠMed": 3594,
  ")*": 3226,
  "æīĭ": 2483,
  "æ¯Ķ": 1656,
  "ĠInternet": 7443,
  "true": 9138,
  "åĢºåĬ¡": 6355,
  "://": 2044,
  "æ¦Ĥ": 3048,
  "link": 6783,
  "Ġam": 1013,
  "éĶĢ": 4135,
  "ç»ıèĲ¥": 4015,
  "rael": 6361,
  "åįĸ": 6835,
  "state": 5595,
  "ĠAb": 3402,
  "ror": 9034,
  "70": 2547,
  "äºĳ": 5646,
  "ache": 4730,
  "Ġsafe": 3726,
  "Ġcapable": 9818,
  "Ġ2001": 8169,
  "Ġrefers": 7516,
  "æĹ§": 7802,
  "äººåĳĺ": 3576,
  "ä½ľä¸º": 2430,
  "select": 8765,
  "çº¿": 2191,
  "ĠInter": 5248,
  "Ġpatterns": 6665,
  "è®¸å¤ļ": 6477,
  "æĮĩ": 1455,
  "iveness": 6903,
  "Ġhumans": 7157,
  "ĠDev": 9030,
  "verage": 3012,
  "Ġloved": 8224,
  "åŃ¦ç§ĳ": 4579,
  "Ġprinciples": 6363,
  "ç®": 807,
  "<|endoftext|>": 0,
  "åħ¨éĿ¢": 4191,
  "Ġinteract": 4976,
  "ARG": 7491,
  "Per": 8525,
  "ield": 1776,
  "Ġrights": 4090,
  "Ġdomain": 8897,
  "ĠRep": 4271,
  "ows": 2743,
  "ĠUSA": 8117,
  "ancing": 6034,
  "åįıè°ĥ": 7089,
  "aph": 8565,
  "ault": 2840,
  "func": 8754,
  "âĢĿï¼Į": 2490,
  "è¯į": 4955,
  "Ġgames": 5284,
  "Ġfollowed": 5617,
  "ĊĠĠĠĠĠĠĠĠĠĠĠĠĠĠĠĠĠĠĠĠĠĠĠĠĠĠĠĠĠĠĠĠ": 6787,
  "sk": 6962,
  "iqu": 1735,
  "Ġbrain": 4631,
  "Ġimpl": 7586,
  "å·¥ä½ľçļĦ": 9161,
  "çļĦæķ°æį®": 9541,
  "iles": 4134,
  "ĠĠĠ": 365,
  "Ġrequire": 2826,
  "å¾ĭ": 1612,
  "z": 92,
  "iverse": 8480,
  "Ġice": 6894,
  "æĵį": 4500,
  "è´¡": 8530,
  "è½»": 6064,
  "Ġveh": 4789,
  "éŁ": 3355,
  "inese": 6118,
  "aming": 8912,
  "poses": 7162,
  "Ġparts": 4006,
  "Ġel": 1498,
  "ä½ı": 4780,
  "åĲ¦": 3218,
  "L": 46,
  "Ġpl": 556,
  "Ġunivers": 7838,
  "Ġbecause": 1232,
  "ruction": 2540,
  "çļĦä¸»è¦ģ": 6728,
  "éī´": 5789,
  "Ġuntil": 2554,
  "ñ": 176,
  "dx": 1853,
  "åı¯ä»¥": 1419,
  "Ġtwenty": 8799,
  "Ġone": 710,
  "irgin": 7301,
  "ã": 162,
  "Ġyears": 1249,
  "Ġsequ": 6386,
  "aly": 4973,
  "åĬŁèĥ½": 3363,
  "ser": 3396,
  "åĦ¿": 4047,
  "å¸Ĥ": 1268,
  "ue": 693,
  "Ġach": 2691,
  "Ġworking": 2732,
  "Ġcells": 4529,
  "Ġexperiment": 7582,
  "Ġsecure": 8223,
  "Ġchallenge": 6796,
  "Ġlived": 6895,
  "Ġsexual": 7403,
  "äºĪ": 4131,
  "ä¸ĵ": 1851,
  "hing": 3059,
  "èĢģ": 3731,
  "æĮĩæłĩ": 6819,
  "orial": 7272,
  "Ġperhaps": 6293,
  "Ġlack": 4468,
  "ĠHistory": 6999,
  "äº§æĿĥ": 8232,
  "è½": 1000,
  "ifying": 6522,
  "ĠJapanese": 9038,
  "com": 1141,
  "Ġart": 1689,
  "Ġ-": 669,
  "æľĽ": 5508,
  "å¯¹å¤ĸ": 9106,
  "Ġsn": 4805,
  "ĠFederal": 9464,
  "Ġwriting": 3434,
  "anda": 7083,
  "åĲ¬": 7639,
  "åº·": 4367,
  "ĠCour": 4723,
  "Ġreceived": 4758,
  "90": 2978,
  "Ġfold": 8669,
  "Ġcountries": 3429,
  "Ġactions": 5581,
  "è¡¨": 1252,
  "Ġbuild": 1703,
  "æĶ¯æĴĳ": 9563,
  "Ġimproving": 8209,
  "now": 765,
  "è®²": 4992,
  "Ġoutcomes": 7197,
  "Ġpray": 6845,
  "å±Ĭ": 9630,
  "Ġpret": 4526,
  "æľ¬": 825,
  "Ġgen": 2688,
  "Ġwww": 7548,
  "ĠRich": 7470,
  "Ġuses": 4233,
  "Ġgiven": 2480,
  "alf": 2942,
  "ibilities": 7797,
  "ific": 922,
  "ä¸Ģ": 478,
  "Ġagencies": 8204,
  "erm": 1037,
  "aces": 3086,
  "çŃī": 834,
  "ĠCo": 2130,
  "are": 606,
  "ĠSpace": 8130,
  "kg": 8706,
  "rick": 5520,
  "me": 3127,
  "Ġus": 568,
  "Ġex": 438,
  "Ġroot": 6976,
  "éĢĢ": 6692,
  "ä¸ļ": 639,
  "Ġlower": 3715,
  "çĵ": 7411,
  "æ¢": 3688,
  "Ġencourag": 6601,
  "Ġsystem": 1222,
  "ocket": 7763,
  "Ġwall": 6755,
  "æĢ»ç»ĵ": 9410,
  "ĠEffect": 9858,
  "Ġmorning": 5996,
  "Ġrespond": 4888,
  "æ¡Īä»¶": 5141,
  "A": 35,
  "New": 5505,
  "Ġ66": 9588,
  "Ġsurvey": 6541,
  "è´Ń": 4685,
  "æ¶Īè´¹": 4646,
  "Ï": 142,
  "Ġgoing": 2013,
  "Ġconcerned": 8342,
  "Ý": 156,
  "ink": 895,
  "Ġsubjects": 8225,
  "è¡Įä¸ļ": 5388,
  "Ġ2015": 5417,
  "Ġvision": 6829,
  "Ġhear": 5293,
  "rit": 939,
  "æ¶ī": 4542,
  "Ġestimated": 8630,
  "pop": 8115,
  "fered": 6947,
  "ij": 6060,
  "Ġseries": 4654,
  "ethod": 1881,
  "å¼ĥ": 9765,
  "ĠClass": 5320,
  "ĠCongress": 7750,
  "Ġbreast": 7911,
  "Ġli": 9075,
  "Ġdemand": 5142,
  "Ġspeak": 4391,
  "\\": 62,
  "Ġsolutions": 7146,
  "Ġaccepted": 8652,
  "ç£": 5619,
  "way": 1539,
  "cret": 4393,
  "sp": 1231,
  "ademy": 7660,
  "akers": 8023,
  "20": 941,
  "ĠAng": 6096,
  "velop": 933,
  "ĊĊĠ": 2000,
  "CT": 3887,
  "åı¥": 8378,
  "Ġreligious": 6065,
  "ht": 3669,
  "Ġcomple": 1483,
  "Ġsrc": 7867,
  "ek": 2147,
  "Ð¾Ð": 6731,
  "Ġrock": 5777,
  "reng": 3675,
  "Ġresult": 1476,
  "Ġresponse": 4088,
  "src": 7052,
  "32": 3100,
  "Ġsolution": 5534,
  "ï¼īãĢģ": 8749,
  "Ġbond": 8054,
  "æ®Ĭ": 6832,
  "und": 1397,
  "åħŃ": 4208,
  "ĠĠĠĠĠĠĠĠĠĠĠĠĠĠĠĠĠĠ": 3096,
  "ä»ĸ": 1327,
  "æĶ¶çĽĬ": 9143,
  "Ġnumer": 6248,
  "Ġother": 699,
  "Ġair": 2232,
  "Ġsea": 5652,
  "ï¼ģ": 7627,
  "inated": 4952,
  "È": 135,
  "eds": 3760,
  "ĠJuly": 4543,
  "imal": 5226,
  "isms": 6371,
  "æłĳ": 7580,
  "ĠNovember": 5810,
  "rence": 1823,
  "æ¼Ķ": 5028,
  "CP": 6037,
  "23": 2174,
  "Ġif": 758,
  "Ġcauses": 5897,
  "it": 277,
  "CS": 6414,
  "icon": 4551,
  "ç²Ĵ": 9132,
  "ĠMary": 6053,
  "Ġnecess": 2866,
  "Ġpup": 5594,
  "Ġregist": 8451,
  "Ġwasn": 5252,
  "oto": 7452,
  "æīĢ": 989,
  "ç³»": 846,
  "ĠJean": 7413,
  "Ġpur": 1799,
  "itting": 4263,
  "ourn": 3307,
  "Ġmedicine": 9346,
  "Ġpolice": 6841,
  "é©¬åħĭæĢĿ": 6720,
  "Ġserious": 4893,
  "ate": 397,
  "¡": 97,
  "Ġsalt": 9856,
  "rown": 3598,
  "Ġcustomer": 7222,
  "adding": 4779,
  "Ġinstead": 4487,
  "xt": 775,
  "Ġball": 5970,
  "ble": 1140,
  "Ġcollect": 4626,
  "Ġmainly": 9525,
  "Ġfoot": 4474,
  "ĠLake": 5661,
  "Ġgrow": 1789,
  "arp": 7929,
  "Ġleads": 8062,
  "its": 1180,
  "cal": 7860,
  "Ġcap": 2133,
  "q": 83,
  "åŃĺåľ¨": 2541,
  "èģĶ": 1824,
  "LE": 2295,
  "ights": 3336,
  "Ġtypes": 3167,
  "Ġdefinition": 7983,
  "çĲĨè§£": 4574,
  "ap": 643,
  "wood": 6081,
  "nel": 7316,
  "ps": 1025,
  "od": 382,
  "ĠSh": 1848,
  "Ġmanager": 9527,
  "http": 5382,
  "çİ°è±¡": 5923,
  "åł": 4072,
  "æŀľ": 1513,
  "Ġday": 1594,
  "Ġann": 3143,
  "æĶ¹åıĺ": 6247,
  "Ġle": 484,
  "ĠNO": 9653,
  "ĠIm": 2370,
  "Ġcontext": 4105,
  "Ġvisual": 5929,
  "ĠNot": 3730,
  "ized": 1567,
  "gment": 6688,
  "on": 266,
  "sl": 3819,
  "é¡º": 6621,
  "éľĢæ±Ĥ": 3672,
  "lation": 4886,
  "Ġtechnique": 8285,
  "åĪĴ": 2423,
  "Ġper": 744,
  "ĠNo": 2458,
  "aced": 3740,
  "act": 583,
  "å±": 564,
  "ĊĊĠĠĠĠĠ": 6482,
  "Ġsyn": 9591,
  "Ġsc": 804,
  "éĻĲ": 2349,
  "åħ·ä½ĵ": 3741,
  "å±ĤéĿ¢": 8182,
  "OL": 4104,
  "ĠCons": 3830,
  "300": 7406,
  "ä½¿å¾Ĺ": 7882,
  "Pl": 3660,
  "Ġson": 4562,
  "ocus": 2192,
  "gn": 6080,
  "Ġtre": 2681,
  "TE": 6781,
  "Ġgood": 1330,
  "å±ħ": 4167,
  "Ġtreated": 8238,
  "aid": 4431,
  "pty": 7139,
  "orthern": 6975,
  "Ġsur": 1352,
  "Ġfinal": 4773,
  "__": 493,
  "Ġrepresented": 9787,
  ",'": 6802,
  "RI": 4035,
  "Ġ": 223,
  "ĠTherefore": 7779,
  "ital": 1875,
  "Ġ);": 8776,
  "Ġhost": 4964,
  "Ġcharge": 6811,
  "-": 15,
  "å¦Ĥæŀľ": 3538,
  "Ġprimarily": 9590,
  "èĤ": 880,
  "rows": 6763,
  "ĠĠĠĠĠĠĠĠĠĠĠĠĠĠĠĠĠ": 2667,
  "bon": 4336,
  "ĠL": 466,
  "Ġallowed": 5438,
  "Ġround": 6642,
  "æı": 827,
  "čĊ": 2008,
  "pass": 9997,
  "å¤ı": 9642,
  "Ġdue": 2941,
  "umm": 2900,
  "uro": 2684,
  "ĠPhil": 6021,
  "Ġnob": 9916,
  "Ġinstruction": 5893,
  "fig": 3843,
  "Ġpay": 2791,
  "sa": 4084,
  "Ġsed": 8278,
  "ç³»åĪĹ": 7338,
  "Ġannoun": 7422,
  "è¯¾": 1770,
  "Ġtheir": 584,
  "è¡ĮæĶ¿": 3046,
  "è¯ĳ": 9221,
  "å¼±": 6739,
  "dered": 8368,
  "Ġsurface": 4267,
  "ĠSecond": 7839,
  "ä¼łæĴŃ": 7486,
  "illing": 5110,
  "level": 7033,
  "æĮĩå¯¼": 5482,
  "ĠJournal": 6666,
  "Ġbegins": 9026,
  "å¼ı": 1088,
  "Ĵ": 243,
  "Ġformal": 8477,
  "ĠÎ": 6873,
  "works": 7110,
  "å¹´ä»£": 7024,
  "è¿°": 2620,
  "Ġaddress": 3025,
  "ĠAssociation": 6859,
  "åħļ": 2818,
  "Ġcredit": 6149,
  "Ġwhich": 655,
  "Ġrelations": 2756,
  "æµİ": 1195,
  "Ġdiversity": 8217,
  "df": 5207,
  "ĠPh": 2260,
  "val": 1807,
  "OT": 3064,
  "Ġfield": 3123,
  "Ġpre": 858,
  "èĴ": 6793,
  "ĠWashington": 5925,
  "Ġbenefits": 3958,
  "safely": 6126,
  "åĪĨä¸º": 6139,
  "ĠDep": 3300,
  "ä»²": 6344,
  "ance": 612,
  "osis": 5196,
  "rage": 4463,
  "#": 5,
  "Ġpress": 3097,
  "istance": 2657,
  "Ġwitness": 9292,
  "æł¹æľ¬": 7044,
  "Ġ2006": 6229,
  "ç§°ä¸º": 6809,
  "First": 8822,
  "ĠRel": 4892,
  "å¢ĥ": 1708,
  "antic": 7865,
  "Ġareas": 2420,
  "Ġrequired": 3210,
  "Ġ45": 5093,
  "è¡": 496,
  "Ġreports": 6858,
  "ĠSc": 1684,
  "Ġreb": 9490,
  "ume": 3189,
  "å¤Ħç½ļ": 8427,
  "æĸ¹": 701,
  "MP": 3649,
  "åĬĽ": 841,
  "çłģ": 6280,
  "u": 87,
  "yp": 3804,
  "ĠJames": 6218,
  "hered": 9016,
  "Ġwhe": 589,
  "Ġess": 2576,
  "ording": 2604,
  "ĠAR": 8677,
  "Ġusually": 3586,
  "å®ļçļĦ": 3197,
  "ĠK": 733,
  "Ġinterested": 6568,
  "Ġactual": 6627,
  "ĠHead": 9544,
  "Ġrole": 3103,
  "ec": 1368,
  "Ġbut": 633,
  "aster": 2475,
  "æ³¢": 5070,
  "ERS": 9688,
  "æĬ¤": 2127,
  "å·¦": 7158,
  "ng": 1076,
  "Ġsun": 4307,
  "Ġgoals": 4583,
  "åī²": 9942,
  "Array": 8334,
  "ĠSuper": 8644,
  "Ġtaught": 7199,
  "çĥŃ": 5051,
  "åĩ½æķ°": 8818,
  "Ġearlier": 6528,
  "Ġpul": 5588,
  "Ġremain": 5762,
  "Ġdraw": 4404,
  "Ġphone": 5752,
  "åĵ²": 6715,
  "80": 2273,
  "ĠPort": 7002,
  "Ġ\\": 1242,
  "This": 2087,
  "Ġtells": 8487,
  "Ġne": 471,
  "Ġtrend": 6645,
  "Ġcrop": 9167,
  "Ġstick": 8093,
  "Ġsubstant": 8558,
  "ĊĊĊĊ": 5998,
  "éĢĲæŃ¥": 8136,
  "æ±": 875,
  "rist": 1794,
  "æĿ¡": 1461,
  "ral": 1876,
  "itute": 4787,
  "Ġnode": 9559,
  "38": 3393,
  "æ¡Ĩæŀ¶": 9862,
  "ccess": 1889,
  "max": 7743,
  "K": 45,
  "å®ļä¹ī": 6956,
  "åħħåĪĨ": 4867,
  "éĵģ": 7095,
  "æ¥": 6246,
  "Ass": 7852,
  "itis": 9055,
  "ĠBir": 8720,
  "åĵª": 7787,
  "emetery": 8307,
  "ology": 1474,
  "Ġret": 1282,
  "ĠSchool": 2901,
  "IN": 1294,
  "Ġ2017": 5862,
  "éķ¿æľŁ": 6237,
  "icit": 8646,
  "Ġposs": 1797,
  "ä»Ģä¹Ī": 4509,
  "Ġmount": 5394,
  "Ġw": 273,
  "adem": 3371,
  "Į": 237,
  "Ġitem": 8045,
  "Ġwants": 6595,
  "Ġwide": 4083,
  "Ġschem": 7909,
  "ĠOF": 4270,
  "çĽ¸æ¯Ķ": 9930,
  "ica": 5790,
  "ç»´": 2310,
  "Ġgone": 7293,
  "equ": 4972,
  "Box": 9241,
  "ers": 412,
  "Ġcorn": 5756,
  "ĠObject": 9093,
  "è®Ńç»ĥ": 7800,
  "rab": 5553,
  "Ġcolumn": 7589,
  "Ġnative": 6323,
  "care": 6009,
  "joy": 3639,
  "Ġlock": 8262,
  "What": 2558,
  "ä¸įä»ħ": 4919,
  "Ġjobs": 7229,
  "Ġdist": 1469,
  "ident": 1200,
  "arch": 1228,
  "Ġnumerous": 8177,
  "Ġcouple": 6478,
  "Ġstudy": 1872,
  "lish": 1890,
  "Ġobjectives": 8587,
  "umn": 4235,
  "rast": 4294,
  "oe": 4587,
  "rou": 514,
  "Ġwith": 383,
  "itor": 2634,
  "3": 21,
  "å®¢æĪ·": 9592,
  "Ġdirect": 2121,
  "ĠVis": 7799,
  "omin": 8755,
  "Ġhig": 2545,
  "åŁº": 961,
  "Ġenergy": 2408,
  "ks": 747,
  "AST": 9323,
  "å¿ħçĦ¶": 8745,
  "Ġgold": 6767,
  "TL": 7098,
  "ulated": 5836,
  "Ġflag": 9545,
  "Ġsomeone": 3357
}