{"<|endoftext|>":0,"<|im_start|>":1,"<|im_end|>":2,"!":3,"\"":4,"#":5,"$":6,"%":7,"&":8,"'":9,"(":10,")":11,"*":12,"+":13,",":14,"-":15,".":16,"/":17,"0":18,"1":19,"2":20,"3":21,"4":22,"5":23,"6":24,"7":25,"8":26,"9":27,":":28,";":29,"<":30,"=":31,">":32,"?":33,"@":34,"A":35,"B":36,"C":37,"D":38,"E":39,"F":40,"G":41,"H":42,"I":43,"J":44,"K":45,"L":46,"M":47,"N":48,"O":49,"P":50,"Q":51,"R":52,"S":53,"T":54,"U":55,"V":56,"W":57,"X":58,"Y":59,"Z":60,"[":61,"\\":62,"]":63,"^":64,"_":65,"`":66,"a":67,"b":68,"c":69,"d":70,"e":71,"f":72,"g":73,"h":74,"i":75,"j":76,"k":77,"l":78,"m":79,"n":80,"o":81,"p":82,"q":83,"r":84,"s":85,"t":86,"u":87,"v":88,"w":89,"x":90,"y":91,"z":92,"{":93,"|":94,"}":95,"~":96,"¡":97,"¢":98,"£":99,"¤":100,"¥":101,"¦":102,"§":103,"¨":104,"©":105,"ª":106,"«":107,"¬":108,"®":109,"¯":110,"°":111,"±":112,"²":113,"³":114,"´":115,"µ":116,"¶":117,"·":118,"¸":119,"¹":120,"º":121,"»":122,"¼":123,"½":124,"¾":125,"¿":126,"À":127,"Á":128,"Â":129,"Ã":130,"Ä":131,"Å":132,"Æ":133,"Ç":134,"È":135,"É":136,"Ê":137,"Ë":138,"Ì":139,"Í":140,"Î":141,"Ï":142,"Ð":143,"Ñ":144,"Ò":145,"Ó":146,"Ô":147,"Õ":148,"Ö":149,"×":150,"Ø":151,"Ù":152,"Ú":153,"Û":154,"Ü":155,"Ý":156,"Þ":157,"ß":158,"à":159,"á":160,"â":161,"ã":162,"ä":163,"å":164,"æ":165,"ç":166,"è":167,"é":168,"ê":169,"ë":170,"ì":171,"í":172,"î":173,"ï":174,"ð":175,"ñ":176,"ò":177,"ó":178,"ô":179,"õ":180,"ö":181,"÷":182,"ø":183,"ù":184,"ú":185,"û":186,"ü":187,"ý":188,"þ":189,"ÿ":190,"Ā":191,"ā":192,"Ă":193,"ă":194,"Ą":195,"ą":196,"Ć":197,"ć":198,"Ĉ":199,"ĉ":200,"Ċ":201,"ċ":202,"Č":203,"č":204,"Ď":205,"ď":206,"Đ":207,"đ":208,"Ē":209,"ē":210,"Ĕ":211,"ĕ":212,"Ė":213,"ė":214,"Ę":215,"ę":216,"Ě":217,"ě":218,"Ĝ":219,"ĝ":220,"Ğ":221,"ğ":222,"Ġ":223,"ġ":224,"Ģ":225,"ģ":226,"Ĥ":227,"ĥ":228,"Ħ":229,"ħ":230,"Ĩ":231,"ĩ":232,"Ī":233,"ī":234,"Ĭ":235,"ĭ":236,"Į":237,"į":238,"İ":239,"ı":240,"Ĳ":241,"ĳ":242,"Ĵ":243,"ĵ":244,"Ķ":245,"ķ":246,"ĸ":247,"Ĺ":248,"ĺ":249,"Ļ":250,"ļ":251,"Ľ":252,"ľ":253,"Ŀ":254,"ŀ":255,"Ł":256,"ł":257,"Ń":258,"ĠĠ":259,"Ġt":260,"Ġa":261,"in":262,"he":263,"ĠĠĠĠ":264,"re":265,"on":266,"Ġthe":267,"er":268,"Ġs":269,"at":270,"Ġo":271,"en":272,"Ġw":273,"Ġc":274,"es":275,"nd":276,"it":277,"or":278,"is":279,"al":280,"ing":281,"Ġp":282,"Ġb":283,"an":284,"ed":285,"Ġf":286,"ou":287,"ar":288,"Ġof":289,"Ġm":290,"Ġin":291,"Ġand":292,"Ġto":293,"ä¸":294,"ion":295,"ĠĠĠĠĠĠĠĠ":296,"ic":297,"Ġd":298,"le":299,"ï¼":300,"--":301,"ro":302,"as":303,"Ġh":304,"ent":305,"Ġth":306,"ï¼Į":307,"çļ":308,"çļĦ":309,"ãĢ":310,"ct":311,"il":312,"Ġ|":313,"om":314,"st":315,"Ġe":316,"âĢ":317,"Ġre":318,"ve":319,"Ġl":320,"Ġn":321,"et":322,"äº":323,"ĠT":324,"ly":325,"ĠI":326,"Ġg":327,"ol":328,"id":329,"ĠS":330,"se":331,"im":332,"ut":333,"ot":334,"Ġbe":335,"Ġis":336,"ation":337,"ce":338,"..":339,"ra":340,"ow":341,"ĠA":342,"ĠC":343,"ch":344,"åı":345,"ur":346,"ig":347,"åħ":348,"Ġfor":349,"----":350,"Ġy":351,"Ġu":352,"æľ":353,"Ġst":354,"Ġon":355,"ãĢĤ":356,"Ġthat":357,"ä»":358,"am":359,"ver":360,"åĪ":361,"ad":362,"ĠĠĠ":363,"el":364,"Ġ1":365,"ay":366,"ir":367,"å®":368,"ul":369,"her":370,"ith":371,"Ġyou":372,"if":373,"Ġ(":374,"ĠĠĠĠĠĠĠĠĠĠĠĠĠĠĠĠ":375,"ĠM":376,"Ġas":377,"ĠP":378,"Ġpro":379,"ç»":380,"Ġwith":381,"Ġit":382,"od":383,"ä½":384,"Ġcon":385,"ter":386,"è¿":387,"ge":388,"ment":389,"çĶ":390,"ãĢģ":391,"Ġwh":392,"Ġan":393,"åĬ":394,"åĲ":395,"Ġare":396,"ate":397,"å¤":398,"ess":399,"åľ":400,"Ġal":401,"__":402,"ĠB":403,"00":404,"Ġor":405,"op":406,"Ġ2":407,"æĺ":408,"ab":409,"ers":410,"ĠThe":411,"ill":412,"æĸ":413,"Ġhe":414,"ac":415,"us":416,"em":417,"th":418,"ect":419,"ist":420,"ri":421,"åĽ":422,"ĠH":423,"ĠW":424,"Ġwe":425,"ĠD":426,"ke":427,"ld":428,"est":429,"ore":430,"nt":431,"pp":432,"Ġcom":433,"qu":434,"ĠR":435,"and":436,"åŃ":437,"Ġex":438,"è®":439,"ĠE":440,"ity":441,"um":442,"ä¹":443,"è¯":444,"oc":445,"res":446,"Ġde":447,"ĠF":448,"ort":449,"Ġv":450,"ud":451,"ant":452,"ive":453,"Ġwas":454,"ht":455,"ies":456,"....":457,"un":458,"æĪ":459,"Ġat":460,"os":461,"Ġha":462,"Ġsu":463,"ain":464,"ĠN":465,"rom":466,"ĠL":467,"ä¼":468,"iv":469,"æķ":470,"æĺ¯":471,"ĠG":472,"--------":473,"Ġch":474,"Ġne":475,"Ġby":476,"åº":477,"âĢĻ":478,"ä¸Ģ":479,"art":480,"Ġr":481,"Ġnot":482,"Ġle":483,"åĴ":484,"Ġse":485,"åĴĮ":486,"æĿ":487,"Ġcan":488,"pe":489,"Ġfrom":490,"end":491,"âĢľ":492,"âĢĿ":493,"ure":494,"æĢ":495,"è¡":496,"åľ¨":497,"Ġsh":498,"ial":499,"å¯":500,"åĮ":501,"Ġthis":502,"pt":503,"å¹":504,"éĩ":505,"Ġhave":506,"our":507,"ä¸Ń":508,"ight":509,"ould":510,"å¼":511,"æĹ":512,"rou":513,"all":514,"è§":515,"ust":516,"äºº":517,"ä¸º":518,"æľī":519,"åį":520,"ĠO":521,"æ³":522,"pl":523,"age":524,"åŃ¦":525,"çĽ":526,"èĢ":527,"out":528,"åĨ":529,"Ġab":530,"**":531,"ions":532,"red":533,"å°":534,"æĶ":535,"ĠĠĠĠĠĠĠ":536,"og":537,"Ġwor":538,"ard":539,"éĢ":540,"ome":541,"ical":542,"ff":543,"æī":544,"'s":545,"åĽ½":546,"per":547,"Ġ\"":548,"ĠJ":549,"ine":550,"ag":551,"ç§":552,"è´":553,"te":554,"ĊĠĠĠ":555,"____":556,"å¾":557,"Ġpl":558,"çİ":559,"Ġim":560,"Ġk":561,"ost":562,"ä¸į":563,"å±":564,"ide":565,"Ġus":566,"iz":567,"Ġen":568,"ther":569,"ie":570,"act":571,"åĩ":572,"ich":573,"ell":574,"Ġwill":575,"èĥ":576,"Ġtheir":577,"ak":578,"du":579,"æł":580,"Ġ3":581,"Ġall":582,"æ³ķ":583,"Ġ=":584,"Âł":585,"ip":586,"Ġdo":587,"Ġme":588,"æĬ":589,"ä»¥":590,"Ġwhe":591,"ult":592,"ru":593,"cl":594,"Ġthey":595,"ear":596,"Ġyour":597,"ans":598,"å¸":599,"are":600,"çĲ":601,"ass":602,"å·":603,"ated":604,"able":605,"å½":606,"orm":607,"ast":608,"ame":609,"åıĳ":610,"The":611,"ĠU":612,"ack":613,"çĶŁ":614,"ind":615,"¦ģ":616,"Ġcl":617,"ok":618,"è¦ģ":619,"ance":620,"Ġgo":621,"å¯¹":622,"çĶ¨":623,"Ġad":624,"cc":625,"è¡Į":626,"ild":627,"ĊĠ":628,"éĻ":629,"ib":630,"çĲĨ":631,"Ġcomp":632,"æŀ":633,"gh":634,"ous":635,"port":636,"Ġres":637,"æ°":638,"ĠIn":639,"Ġbut":640,"vel":641,"Ġj":642,"çī":643,"ations":644,"ong":645,"èµ":646,"ä¿":647,"ction":648,"äºĨ":649,"åŁ":650,"ary":651,"ry":652,"ap":653,"one":654,"01":655,"........":656,"Ġint":657,"ä¸ļ":658,"Ġ-":659,"çŃ":660,"æµ":661,"Ġwhich":662,"ice":663,"èĥ½":664,"ĠTh":665,"ake":666,"ents":667,"ĠĠĠĠĠ":668,"Ġcont":669,"æŃ":670,"éĿ":671,"æİ":672,"Ġhis":673,"Ġhas":674,"Ġte":675,"ach":676,"éĹ":677,"æĢ§":678,"Ġout":679,"ual":680,"ign":681,"ue":682,"Ġmore":683,"ub":684,"ren":685,"ence":686,"ime":687,"å¤§":688,"Ġso":689,"äºİ":690,"åĮĸ":691,"av":692,"ia":693,"å®ļ":694,"Ġman":695,"Ġother":696,"Ġdis":697,"å®ŀ":698,"æĪĲ":699,"ĠSt":700,"con":701,"ep":702,"æĸ¹":703,"ä¸İ":704,"ater":705,"ä½ĵ":706,").":707,"ord":708,"ä½ľ":709,"Ġone":710,"ber":711,"çº":712,"Ġ0":713,"ose":714,"fe":715,"Ġ4":716,"ace":717,"Ġup":718,"Ġabout":719,"é¢":720,"ä¼ļ":721,"Ġapp":722,"ase":723,"èĩ":724,"å¿":725,"so":726,"au":727,"åĪĨ":728,"form":729,"ĠK":730,"ĊĊ":731,"Ġwere":732,"ĠâĢ":733,"very":734,"ition":735,"Ġun":736,"ook":737,"ire":738,"ç¨":739,"ount":740,"ä¸ª":741,"Ġper":742,"ress":743,"Ġstud":744,"Ġ$":745,"Ġwho":746,"ew":747,"ks":748,"Ġher":749,"ite":750,"ike":751,"Ġpart":752,"Ġthem":753,"æĮ":754,"Ġqu":755,"int":756,"ile":757,"à¤":758,"Ġif":759,"xt":760,"now":761,"åĪ¶":762,"åı¯":763,"Ġar":764,"ĠV":765,"åĬ¨":766,"æĹ¶":767,"Ġ5":768,"ang":769,"ll":770,"Ġsp":771,"ces":772,"Ġev":773,"ool":774,"ç»ı":775,"äº§":776,"ens":777,"Ġpe":778,"Ġmy":779,"ä¸»":780,"ĠĠĠĠĠĠĠĠĠĠĠĠĠĠĠĠĠĠĠĠĠĠĠĠĠĠĠĠĠĠĠĠ":781,"åľ°":782,"åİ":783,"çİ°":784,"low":785,"Ġ{":786,"nder":787,"reat":788,"ä¾":789,"è¿Ľ":790,"ail":791,"ä¸Ĭ":792,"ood":793,"ory":794,"éĥ":795,"Ġhad":796,"Ġsc":797,"----------------":798,"ings":799,"åĩº":800,"Ġ19":801,"ĠCh":802,"ject":803,"åĲĪ":804,"ree":805,"ric":806,"Ġcomm":807,"),":808,"è¾":809,"Ġalso":810,"ç®":811,"ĠY":812,"Ġsome":813,"ĠIt":814,"åĲĮ":815,"Ġthere":816,"ish":817,"ors":818,"è¿Ļ":819,"erv":820,"ning":821,"ç«":822,"æľ¬":823,"ç¤":824,"Ġwork":825,"åħ³":826,"Ġwhen":827,"å¹´":828,"Ġtime":829,"Ġag":830,"ç³":831,"æı":832,"ĠĠĠĠĠĠ":833,"ĊĠĠĠĠĠĠĠ":834,"ple":835,"ram":836,"Ġwould":837,"ĊĠĠĠĠĠĠĠĠ":838,"å±ķ":839,"ople":840,"åħ¶":841,"ays":842,"æį":843,"åĳ":844,"Ġpre":845,"ound":846,"pec":847,"åĬĽ":848,"çŃī":849,"Ġbec":850,"ç³»":851,"Ġlike":852,"æ²":853,"æķĻ":854,"ally":855,"åºĶ":856,"Ġhow":857,"Ġour":858,"lic":859,"ities":860,"Ġany":861,"Ġinto":862,"Ġover":863,"Ġsa":864,"ove":865,"Ġbeen":866,"ck":867,"èĢĮ":868,"è¿ĩ":869,"ph":870,"clud":871,"Ġknow":872,"Ġro":873,"Ġ*":874,"Ġthan":875,"Ġyear":876,"we":877,"æķ°":878,"æ±":879,"ĉĉ":880,"èĤ":881,"å·¥":882,"Ġtra":883,"ĠâĢľ":884,"æĶ¿":885,"________":886,"Ġwhat":887,"Ġunder":888,"Ġ6":889,"ä¹ĭ":890,"ments":891,"Ġ.":892,"rent":893,"ink":894,"ob":895,"åº¦":896,"Ġpeople":897,"æĸĩ":898,"Ġact":899,"ons":900,"lect":901,"rit":902,"ç¨ĭ":903,"ĠThis":904,"urn":905,"å»":906,"éĩį":907,"Ġneed":908,"ef":909,"ov":910,"é«":911,"Ġind":912,"ys":913,"ç½":914,"æĦ":915,"æĿ¥":916,"æ°ĳ":917,"yst":918,"row":919,"Ġuse":920,"ark":921,"ific":922,"é«ĺ":923,"Ġdif":924,"åĵ":925,"æĸ°":926,"chool":927,"Ġmay":928,"Ġrec":929,"velop":930,"èĢħ":931,"'t":932,"Ġdes":933,"æĭ":934,"èµĦ":935,"vers":936,"ĠHe":937,"Ġem":938,"Ġcol":939,"Ġnew":940,"tern":941,"ause":942,"æĥ":943,"rans":944,"ian":945,"Ġcons":946,"round":947,"èĩª":948,"Ġbet":949,"cess":950,"In":951,"åĪ°":952,"get":953,"ates":954,"olog":955,"¦Ĥ":956,"ç©":957,"ata":958,"ç¬":959,"20":960,"åŁº":961,"Ġget":962,"æıĲ":963,"Ġacc":964,"Ġshe":965,"irst":966,"Ġchild":967,"ath":968,"ystem":969,"igh":970,"çł":971,"ious":972,"Ġno":973,"Ġits":974,");":975,"Ġthese":976,"rough":977,"ps":978,"åıĳå±ķ":979,"Ġfe":980,"ype":981,"Ġoff":982,"Ġ'":983,"åĢ":984,"own":985,"hed":986,"eth":987,"éĿ¢":988,"å»º":989,"sel":990,"Ġtw":991,"Ġrel":992,"Ġass":993,"Ġinclud":994,"åħ¨":995,"ft":996,"æīĢ":997,"//":998,"Ġprov":999}