{"<|endoftext|>":0,"<|im_start|>":1,"<|im_end|>":2,"!":3,"\"":4,"#":5,"$":6,"%":7,"&":8,"'":9,"(":10,")":11,"*":12,"+":13,",":14,"-":15,".":16,"/":17,"0":18,"1":19,"2":20,"3":21,"4":22,"5":23,"6":24,"7":25,"8":26,"9":27,":":28,";":29,"<":30,"=":31,">":32,"?":33,"@":34,"A":35,"B":36,"C":37,"D":38,"E":39,"F":40,"G":41,"H":42,"I":43,"J":44,"K":45,"L":46,"M":47,"N":48,"O":49,"P":50,"Q":51,"R":52,"S":53,"T":54,"U":55,"V":56,"W":57,"X":58,"Y":59,"Z":60,"[":61,"\\":62,"]":63,"^":64,"_":65,"`":66,"a":67,"b":68,"c":69,"d":70,"e":71,"f":72,"g":73,"h":74,"i":75,"j":76,"k":77,"l":78,"m":79,"n":80,"o":81,"p":82,"q":83,"r":84,"s":85,"t":86,"u":87,"v":88,"w":89,"x":90,"y":91,"z":92,"{":93,"|":94,"}":95,"~":96,"¡":97,"¢":98,"£":99,"¤":100,"¥":101,"¦":102,"§":103,"¨":104,"©":105,"ª":106,"«":107,"¬":108,"®":109,"¯":110,"°":111,"±":112,"²":113,"³":114,"´":115,"µ":116,"¶":117,"·":118,"¸":119,"¹":120,"º":121,"»":122,"¼":123,"½":124,"¾":125,"¿":126,"À":127,"Á":128,"Â":129,"Ã":130,"Ä":131,"Å":132,"Æ":133,"Ç":134,"È":135,"É":136,"Ê":137,"Ë":138,"Ì":139,"Í":140,"Î":141,"Ï":142,"Ð":143,"Ñ":144,"Ò":145,"Ó":146,"Ô":147,"Õ":148,"Ö":149,"×":150,"Ø":151,"Ù":152,"Ú":153,"Û":154,"Ü":155,"Ý":156,"Þ":157,"ß":158,"à":159,"á":160,"â":161,"ã":162,"ä":163,"å":164,"æ":165,"ç":166,"è":167,"é":168,"ê":169,"ë":170,"ì":171,"í":172,"î":173,"ï":174,"ð":175,"ñ":176,"ò":177,"ó":178,"ô":179,"õ":180,"ö":181,"÷":182,"ø":183,"ù":184,"ú":185,"û":186,"ü":187,"ý":188,"þ":189,"ÿ":190,"Ā":191,"ā":192,"Ă":193,"ă":194,"Ą":195,"ą":196,"Ć":197,"ć":198,"Ĉ":199,"ĉ":200,"Ċ":201,"ċ":202,"Č":203,"č":204,"Ď":205,"ď":206,"Đ":207,"đ":208,"Ē":209,"ē":210,"Ĕ":211,"ĕ":212,"Ė":213,"ė":214,"Ę":215,"ę":216,"Ě":217,"ě":218,"Ĝ":219,"ĝ":220,"Ğ":221,"ğ":222,"Ġ":223,"ġ":224,"Ģ":225,"ģ":226,"Ĥ":227,"ĥ":228,"Ħ":229,"ħ":230,"Ĩ":231,"ĩ":232,"Ī":233,"ī":234,"Ĭ":235,"ĭ":236,"Į":237,"į":238,"İ":239,"ı":240,"Ĳ":241,"ĳ":242,"Ĵ":243,"ĵ":244,"Ķ":245,"ķ":246,"ĸ":247,"Ĺ":248,"ĺ":249,"Ļ":250,"ļ":251,"Ľ":252,"ľ":253,"Ŀ":254,"ŀ":255,"Ł":256,"ł":257,"Ń":258,"ĠĠ":259,"Ġt":260,"Ġa":261,"he":262,"in":263,"ĠĠĠĠ":264,"re":265,"on":266,"Ġthe":267,"er":268,"Ġs":269,"at":270,"Ġo":271,"en":272,"Ġw":273,"Ġc":274,"es":275,"nd":276,"it":277,"or":278,"is":279,"al":280,"ing":281,"Ġp":282,"Ġb":283,"an":284,"ed":285,"Ġf":286,"ou":287,"ar":288,"Ġof":289,"Ġm":290,"Ġin":291,"Ġand":292,"ä¸":293,"Ġto":294,"ion":295,"ĠĠĠĠĠĠĠĠ":296,"ic":297,"Ġd":298,"le":299,"ï¼":300,"--":301,"ro":302,"as":303,"Ġh":304,"ent":305,"ï¼Į":306,"Ġth":307,"çļ":308,"çļĦ":309,"ãĢ":310,"ct":311,"il":312,"Ġ|":313,"om":314,"st":315,"âĢ":316,"Ġe":317,"Ġre":318,"ve":319,"Ġl":320,"Ġn":321,"et":322,"äº":323,"ĠT":324,"ly":325,"Ġg":326,"ĠI":327,"ol":328,"id":329,"ĠS":330,"se":331,"im":332,"ut":333,"ot":334,"Ġbe":335,"Ġis":336,"ation":337,"ce":338,"..":339,"ra":340,"ow":341,"ĠA":342,"ĠC":343,"ch":344,"åı":345,"ur":346,"ig":347,"åħ":348,"Ġfor":349,"----":350,"Ġy":351,"Ġu":352,"æľ":353,"Ġst":354,"ãĢĤ":355,"Ġthat":356,"Ġon":357,"ä»":358,"am":359,"ver":360,"åĪ":361,"ad":362,"ĠĠĠ":363,"el":364,"Ġ1":365,"ay":366,"ir":367,"å®":368,"ul":369,"her":370,"Ġyou":371,"ith":372,"if":373,"Ġ(":374,"ĠĠĠĠĠĠĠĠĠĠĠĠĠĠĠĠ":375,"ĠM":376,"Ġas":377,"ĠP":378,"Ġpro":379,"Ġit":380,"ç»":381,"od":382,"Ġwith":383,"ä½":384,"ter":385,"Ġcon":386,"è¿":387,"ge":388,"çĶ":389,"ment":390,"ãĢģ":391,"Ġwh":392,"Ġan":393,"åĬ":394,"åĲ":395,"Ġare":396,"ate":397,"å¤":398,"åľ":399,"ess":400,"Ġal":401,"__":402,"ĠB":403,"00":404,"Ġor":405,"op":406,"Ġ2":407,"æĺ":408,"ab":409,"ĠThe":410,"ers":411,"Ġhe":412,"ill":413,"æĸ":414,"ac":415,"us":416,"em":417,"th":418,"ect":419,"ist":420,"åĽ":421,"ri":422,"ĠH":423,"ĠW":424,"Ġwe":425,"ĠD":426,"ke":427,"ld":428,"est":429,"ore":430,"nt":431,"pp":432,"Ġcom":433,"qu":434,"ĠR":435,"åŃ":436,"and":437,"Ġex":438,"è®":439,"ä¹":440,"ĠE":441,"ity":442,"um":443,"è¯":444,"oc":445,"res":446,"Ġde":447,"ĠF":448,"ort":449,"Ġv":450,"ud":451,"ant":452,"ive":453,"Ġwas":454,"ht":455,"ies":456,"un":457,"æĪ":458,"....":459,"Ġat":460,"os":461,"Ġha":462,"Ġsu":463,"ain":464,"ĠN":465,"rom":466,"ĠL":467,"ä¼":468,"æĺ¯":469,"iv":470,"æķ":471,"ĠG":472,"--------":473,"Ġch":474,"Ġne":475,"Ġby":476,"âĢĻ":477,"åº":478,"ä¸Ģ":479,"art":480,"Ġr":481,"Ġnot":482,"åĴ":483,"Ġle":484,"Ġse":485,"åĴĮ":486,"æĿ":487,"Ġcan":488,"pe":489,"Ġfrom":490,"âĢľ":491,"âĢĿ":492,"end":493,"åľ¨":494,"ure":495,"æĢ":496,"è¡":497,"Ġsh":498,"å¯":499,"ial":500,"åĮ":501,"Ġthis":502,"å¹":503,"pt":504,"Ġhave":505,"éĩ":506,"our":507,"ight":508,"ä¸Ń":509,"ould":510,"å¼":511,"æĹ":512,"rou":513,"all":514,"è§":515,"ust":516,"äºº":517,"ä¸º":518,"æľī":519,"åį":520,"æ³":521,"ĠO":522,"pl":523,"age":524,"åŃ¦":525,"èĢ":526,"çĽ":527,"out":528,"åĨ":529,"å°":530,"Ġab":531,"red":532,"**":533,"æĶ":534,"ions":535,"ĠĠĠĠĠĠĠ":536,"og":537,"Ġwor":538,"ard":539,"éĢ":540,"ome":541,"ical":542,"ff":543,"æī":544,"'s":545,"åĽ½":546,"per":547,"ine":548,"Ġ\"":549,"ĠJ":550,"ag":551,"ç§":552,"è´":553,"te":554,"å¾":555,"ĊĠĠĠ":556,"____":557,"Ġpl":558,"çİ":559,"ä¸į":560,"Ġim":561,"Ġk":562,"å±":563,"ost":564,"ie":565,"ide":566,"Ġen":567,"Ġus":568,"iz":569,"ther":570,"åĩ":571,"act":572,"ich":573,"ell":574,"èĥ":575,"Ġwill":576,"Ġtheir":577,"ak":578,"du":579,"æł":580,"Ġ3":581,"Ġall":582,"æ³ķ":583,"Ġ=":584,"Âł":585,"Ġdo":586,"ip":587,"æĬ":588,"ä»¥":589,"Ġwhe":590,"ult":591,"Ġthey":592,"Ġme":593,"ru":594,"cl":595,"ear":596,"Ġyour":597,"å¸":598,"ans":599,"are":600,"çĲ":601,"å·":602,"ass":603,"ated":604,"able":605,"å½":606,"ast":607,"ame":608,"orm":609,"åıĳ":610,"The":611,"ĠU":612,"è¦":613,"çĶŁ":614,"ack":615,"ind":616,"Ġcl":617,"ok":618,"è¦ģ":619,"Ġgo":620,"çĶ¨":621,"ance":622,"å¯¹":623,"è¡Į":624,"Ġad":625,"ild":626,"cc":627,"éĻ":628,"ĊĠ":629,"ib":630,"çĲĨ":631,"æŀ":632,"Ġcomp":633,"gh":634,"æ°":635,"port":636,"ous":637,"Ġres":638,"Ġbut":639,"ĠIn":640,"vel":641,"Ġj":642,"äºĨ":643,"çī":644,"èµ":645,"ations":646,"ä¿":647,"ong":648,"ction":649,"one":650,"ary":651,"åŁ":652,"ap":653,"ry":654,"01":655,"Ġint":656,"........":657,"ä¸ļ":658,"Ġ-":659,"æµ":660,"çŃ":661,"Ġwhich":662,"ice":663,"Ġhis":664,"èĥ½":665,"ĠTh":666,"ake":667,"æŃ":668,"éĿ":669,"ĠĠĠĠĠ":670,"ents":671,"æİ":672,"Ġcont":673,"Ġhas":674,"Ġte":675,"ach":676,"æĢ§":677,"éĹ":678,"Ġout":679,"ual":680,"ign":681,"Ġmore":682,"ue":683,"ub":684,"ren":685,"å¤§":686,"ence":687,"ime":688,"Ġso":689,"åĮĸ":690,"äºİ":691,"ia":692,"av":693,"å®ļ":694,"Ġman":695,"Ġother":696,"Ġdis":697,"å®ŀ":698,"æĪĲ":699,"ĠSt":700,"ep":701,"con":702,"æĸ¹":703,"ä¸İ":704,"ater":705,"ä½ĵ":706,").":707,"ord":708,"ä½ľ":709,"Ġone":710,"ber":711,"çº":712,"Ġ0":713,"ose":714,"fe":715,"Ġ4":716,"å¿":717,"ace":718,"Ġup":719,"èĩ":720,"Ġabout":721,"é¢":722,"ä¼ļ":723,"Ġapp":724,"ase":725,"au":726,"so":727,"ĊĊ":728,"åĪĨ":729,"form":730,"Ġwere":731,"ĠâĢ":732,"very":733,"ĠK":734,"ition":735,"Ġun":736,"ook":737,"ç¨":738,"ount":739,"ire":740,"ä¸ª":741,"Ġper":742,"ress":743,"Ġstud":744,"Ġ$":745,"ew":746,"Ġwho":747,"ks":748,"ike":749,"ite":750,"Ġher":751,"Ġthem":752,"Ġpart":753,"æĮ":754,"int":755,"Ġqu":756,"ile":757,"Ġif":758,"xt":759,"åı¯":760,"now":761,"Ġar":762,"åĪ¶":763,"ĠV":764,"ang":765,"åĬ¨":766,"æĹ¶":767,"Ġ5":768,"ll":769,"Ġsp":770,"ces":771,"Ġev":772,"ool":773,"ç»ı":774,"åľ°":775,"äº§":776,"ens":777,"Ġpe":778,"åİ":779,"ä¾":780,"ä¸»":781,"ä¸Ĭ":782,"ĠĠĠĠĠĠĠĠĠĠĠĠĠĠĠĠĠĠĠĠĠĠĠĠĠĠĠĠĠĠĠĠ":783,"çİ°":784,"low":785,"Ġ{":786,"nder":787,"reat":788,"è¿Ľ":789,"éĥ":790,"ail":791,"ood":792,"ory":793,"åĩº":794,"Ġhad":795,"Ġsc":796,"----------------":797,"ings":798,"Ġmy":799,"Ġ19":800,"ĠCh":801,"ject":802,"åĲĪ":803,"ree":804,"ric":805,"Ġcomm":806,"),":807,"è¾":808,"Ġalso":809,"ç®":810,"Ġsome":811,"ĠIt":812,"ĠY":813,"åĲĮ":814,"Ġthere":815,"ish":816,"ors":817,"è¿Ļ":818,"ç«":819,"ning":820,"erv":821,"Ġwork":822,"æľ¬":823,"ç¤":824,"Ġwhen":825,"åħ³":826,"å¹´":827,"æı":828,"Ġag":829,"Ġtime":830,"ç³":831,"ĠĠĠĠĠĠ":832,"ĊĠĠĠĠĠĠĠ":833,"ple":834,"ram":835,"Ġwould":836,"ĊĠĠĠĠĠĠĠĠ":837,"åħ¶":838,"å±ķ":839,"ople":840,"åĳ":841,"ays":842,"æį":843,"Ġpre":844,"åĬĽ":845,"ound":846,"pec":847,"çŃī":848,"æ²":849,"Ġbec":850,"Ġlike":851,"ç³»":852,"æķĻ":853,"ally":854,"åºĶ":855,"Ġsa":856,"Ġhow":857,"lic":858,"Ġany":859,"Ġour":860,"ities":861,"Ġinto":862,"Ġover":863,"èĢĮ":864,"ove":865,"Ġbeen":866,"ck":867,"è¿ĩ":868,"ph":869,"Ġknow":870,"clud":871,"Ġro":872,"Ġ*":873,"Ġthan":874,"we":875,"Ġyear":876,"èĤ":877,"à¤":878,"æ±":879,"æķ°":880,"ĠâĢľ":881,"å·¥":882,"ĉĉ":883,"Ġwhat":884,"________":885,"Ġtra":886,"ä¹ĭ":887,"æĶ¿":888,"Ġunder":889,"Ġ6":890,"ments":891,"Ġ.":892,"ob":893,"ink":894,"rent":895,"åº¦":896,"æĸĩ":897,"Ġpeople":898,"Ġact":899,"ons":900,"lect":901,"rit":902,"ç¨ĭ":903,"ĠThis":904,"é«":905,"urn":906,"å»":907,"éĩį":908,"æĦ":909,"Ġneed":910,"ov":911,"ef":912,"ys":913,"ç½":914,"Ġind":915,"ark":916,"æĿ¥":917,"row":918,"æ°ĳ":919,"yst":920,"Ġuse":921,"é«ĺ":922,"ific":923,"åĵ":924,"ĠHe":925,"Ġdif":926,"æĸ°":927,"Ġmay":928,"chool":929,"æĭ":930,"Ġrec":931,"velop":932,"èĢħ":933,"'t":934,"Ġdes":935,"vers":936,"èµĦ":937,"Ġcol":938,"Ġem":939,"åĪ°":940,"Ġnew":941,"æĥ":942,"tern":943,"èĩª":944,"round":945,"ian":946,"ause":947,"Ġbet":948,"ç©":949,"rans":950,"Ġcons":951,"get":952,"¦Ĥ":953,"cess":954,"In":955,"ates":956,"ç¬":957,"Ġget":958,"olog":959,"ata":960,"20":961,"åŁº":962,"æıĲ":963,"Ġacc":964,"åĢ":965,"irst":966,"Ġchild":967,"ystem":968,"hed":969,"ath":970,"çł":971,"igh":972,"Ġno":973,"ious":974,"Ġits":975,");":976,"Ġthese":977,"rough":978,"Ġfe":979,"ps":980,"åıĳå±ķ":981,"ype":982,"Ġoff":983,"Ġ'":984,"Ġshe":985,"own":986,"éĿ¢":987,"eth":988,"Ġtw":989,"å»º":990,"sel":991,"åħ¨":992,"Ġrel":993,"æīĢ":994,"Ġinclud":995,"Ġass":996,"ft":997,"//":998,"Ġprov":999}