{
  "version": "1.0",
  "truncation": null,
  "padding": null,
  "added_tokens": [
    {
      "id": 52856,
      "content": "<|endoftext|>",
      "single_word": false,
      "lstrip": false,
      "rstrip": false,
      "normalized": false,
      "special": true
    },
    {
      "id": 52857,
      "content": "<|im_start|>",
      "single_word": false,
      "lstrip": false,
      "rstrip": false,
      "normalized": false,
      "special": true
    },
    {
      "id": 52858,
      "content": "<|im_end|>",
      "single_word": false,
      "lstrip": false,
      "rstrip": false,
      "normalized": false,
      "special": true
    },
    {
      "id": 52876,
      "content": "<|unk|>",
      "single_word": false,
      "lstrip": false,
      "rstrip": false,
      "normalized": false,
      "special": true
    }
  ],
  "normalizer": {
    "type": "NFC"
  },
  "pre_tokenizer": {
    "type": "Sequence",
    "pretokenizers": [
      {
        "type": "Split",
        "pattern": {
          "Regex": "(?i:'s|'t|'re|'ve|'m|'ll|'d)|[^\\r\\n\\p{L}\\p{N}]?\\p{L}+|\\p{N}| ?[^\\s\\p{L}\\p{N}]+[\\r\\n]*|\\s*[\\r\\n]+|\\s+(?!\\S)|\\s+"
        },
        "behavior": "Isolated",
        "invert": false
      },
      {
        "type": "ByteLevel",
        "add_prefix_space": false,
        "trim_offsets": true,
        "use_regex": false
      }
    ]
  },
  "post_processor": {
    "type": "ByteLevel",
    "add_prefix_space": false,
    "trim_offsets": false,
    "use_regex": false
  },
  "decoder": {
    "type": "ByteLevel",
    "add_prefix_space": true,
    "trim_offsets": true,
    "use_regex": true
  },
  "model": {
    "type": "BPE",
    "dropout": null,
    "unk_token": null,
    "continuing_subword_prefix": null,
    "end_of_word_suffix": null,
    "fuse_unk": false,
    "byte_fallback": false,
    "ignore_merges": false,
    "vocab": {
      "!": 0,
      "\"": 1,
      "#": 2,
      "$": 3,
      "%": 4,
      "&": 5,
      "'": 6,
      "(": 7,
      ")": 8,
      "*": 9,
      "+": 10,
      ",": 11,
      "-": 12,
      ".": 13,
      "/": 14,
      "0": 15,
      "1": 16,
      "2": 17,
      "3": 18,
      "4": 19,
      "5": 20,
      "6": 21,
      "7": 22,
      "8": 23,
      "9": 24,
      ":": 25,
      ";": 26,
      "<": 27,
      "=": 28,
      ">": 29,
      "?": 30,
      "@": 31,
      "A": 32,
      "B": 33,
      "C": 34,
      "D": 35,
      "E": 36,
      "F": 37,
      "G": 38,
      "H": 39,
      "I": 40,
      "J": 41,
      "K": 42,
      "L": 43,
      "M": 44,
      "N": 45,
      "O": 46,
      "P": 47,
      "Q": 48,
      "R": 49,
      "S": 50,
      "T": 51,
      "U": 52,
      "V": 53,
      "W": 54,
      "X": 55,
      "Y": 56,
      "Z": 57,
      "[": 58,
      "\\": 59,
      "]": 60,
      "^": 61,
      "_": 62,
      "`": 63,
      "a": 64,
      "b": 65,
      "c": 66,
      "d": 67,
      "e": 68,
      "f": 69,
      "g": 70,
      "h": 71,
      "i": 72,
      "j": 73,
      "k": 74,
      "l": 75,
      "m": 76,
      "n": 77,
      "o": 78,
      "p": 79,
      "q": 80,
      "r": 81,
      "s": 82,
      "t": 83,
      "u": 84,
      "v": 85,
      "w": 86,
      "x": 87,
      "y": 88,
      "z": 89,
      "{": 90,
      "|": 91,
      "}": 92,
      "~": 93,
      "¡": 94,
      "¢": 95,
      "£": 96,
      "¤": 97,
      "¥": 98,
      "¦": 99,
      "§": 100,
      "¨": 101,
      "©": 102,
      "ª": 103,
      "«": 104,
      "¬": 105,
      "®": 106,
      "¯": 107,
      "°": 108,
      "±": 109,
      "²": 110,
      "³": 111,
      "´": 112,
      "µ": 113,
      "¶": 114,
      "·": 115,
      "¸": 116,
      "¹": 117,
      "º": 118,
      "»": 119,
      "¼": 120,
      "½": 121,
      "¾": 122,
      "¿": 123,
      "À": 124,
      "Á": 125,
      "Â": 126,
      "Ã": 127,
      "Ä": 128,
      "Å": 129,
      "Æ": 130,
      "Ç": 131,
      "È": 132,
      "É": 133,
      "Ê": 134,
      "Ë": 135,
      "Ì": 136,
      "Í": 137,
      "Î": 138,
      "Ï": 139,
      "Ð": 140,
      "Ñ": 141,
      "Ò": 142,
      "Ó": 143,
      "Ô": 144,
      "Õ": 145,
      "Ö": 146,
      "×": 147,
      "Ø": 148,
      "Ù": 149,
      "Ú": 150,
      "Û": 151,
      "Ü": 152,
      "Ý": 153,
      "Þ": 154,
      "ß": 155,
      "à": 156,
      "á": 157,
      "â": 158,
      "ã": 159,
      "ä": 160,
      "å": 161,
      "æ": 162,
      "ç": 163,
      "è": 164,
      "é": 165,
      "ê": 166,
      "ë": 167,
      "ì": 168,
      "í": 169,
      "î": 170,
      "ï": 171,
      "ð": 172,
      "ñ": 173,
      "ò": 174,
      "ó": 175,
      "ô": 176,
      "õ": 177,
      "ö": 178,
      "÷": 179,
      "ø": 180,
      "ù": 181,
      "ú": 182,
      "û": 183,
      "ü": 184,
      "ý": 185,
      "þ": 186,
      "ÿ": 187,
      "Ā": 188,
      "ā": 189,
      "Ă": 190,
      "ă": 191,
      "Ą": 192,
      "ą": 193,
      "Ć": 194,
      "ć": 195,
      "Ĉ": 196,
      "ĉ": 197,
      "Ċ": 198,
      "ċ": 199,
      "Č": 200,
      "č": 201,
      "Ď": 202,
      "ď": 203,
      "Đ": 204,
      "đ": 205,
      "Ē": 206,
      "ē": 207,
      "Ĕ": 208,
      "ĕ": 209,
      "Ė": 210,
      "ė": 211,
      "Ę": 212,
      "ę": 213,
      "Ě": 214,
      "ě": 215,
      "Ĝ": 216,
      "ĝ": 217,
      "Ğ": 218,
      "ğ": 219,
      "Ġ": 220,
      "ġ": 221,
      "Ģ": 222,
      "ģ": 223,
      "Ĥ": 224,
      "ĥ": 225,
      "Ħ": 226,
      "ħ": 227,
      "Ĩ": 228,
      "ĩ": 229,
      "Ī": 230,
      "ī": 231,
      "Ĭ": 232,
      "ĭ": 233,
      "Į": 234,
      "į": 235,
      "İ": 236,
      "ı": 237,
      "Ĳ": 238,
      "ĳ": 239,
      "Ĵ": 240,
      "ĵ": 241,
      "Ķ": 242,
      "ķ": 243,
      "ĸ": 244,
      "Ĺ": 245,
      "ĺ": 246,
      "Ļ": 247,
      "ļ": 248,
      "Ľ": 249,
      "ľ": 250,
      "Ŀ": 251,
      "ŀ": 252,
      "Ł": 253,
      "ł": 254,
      "Ń": 255,
      "ĠĠ": 256,
      "ĠĠĠĠ": 257,
      "in": 258,
      "Ġt": 259,
      "ĠĠĠĠĠĠĠĠ": 260,
      "er": 261,
      "ĠĠĠ": 262,
      "on": 263,
      "Ġa": 264,
      "re": 265,
      "at": 266,
      "st": 267,
      "en": 268,
      "or": 269,
      "Ġth": 270,
      "ĊĊ": 271,
      "Ġc": 272,
      "le": 273,
      "Ġs": 274,
      "it": 275,
      "an": 276,
      "ar": 277,
      "al": 278,
      "Ġthe": 279,
      ";Ċ": 280,
      "Ġp": 281,
      "Ġf": 282,
      "ou": 283,
      "Ġ=": 284,
      "is": 285,
      "ĠĠĠĠĠĠĠ": 286,
      "ing": 287,
      "es": 288,
      "Ġw": 289,
      "ion": 290,
      "ed": 291,
      "ic": 292,
      "Ġb": 293,
      "Ġd": 294,
      "et": 295,
      "Ġm": 296,
      "Ġo": 297,
      "ĉĉ": 298,
      "ro": 299,
      "as": 300,
      "el": 301,
      "ct": 302,
      "nd": 303,
      "Ġin": 304,
      "Ġh": 305,
      "ent": 306,
      "id": 307,
      "Ġn": 308,
      "am": 309,
      "ĠĠĠĠĠĠĠĠĠĠĠ": 310,
      "Ġto": 311,
      "Ġre": 312,
      "--": 313,
      "Ġ{": 314,
      "Ġof": 315,
      "om": 316,
      ");Ċ": 317,
      "im": 318,
      "čĊ": 319,
      "Ġ(": 320,
      "il": 321,
      "//": 322,
      "Ġand": 323,
      "ur": 324,
      "se": 325,
      "Ġl": 326,
      "ex": 327,
      "ĠS": 328,
      "ad": 329,
      "Ġ\"": 330,
      "ch": 331,
      "ut": 332,
      "if": 333,
      "**": 334,
      "Ġ}": 335,
      "em": 336,
      "ol": 337,
      "ĠĠĠĠĠĠĠĠĠĠĠĠĠĠĠĠ": 338,
      "th": 339,
      ")Ċ": 340,
      "Ġ{Ċ": 341,
      "Ġg": 342,
      "ig": 343,
      "iv": 344,
      ",Ċ": 345,
      "ce": 346,
      "od": 347,
      "Ġv": 348,
      "ate": 349,
      "ĠT": 350,
      "ag": 351,
      "ay": 352,
      "Ġ*": 353,
      "ot": 354,
      "us": 355,
      "ĠC": 356,
      "Ġst": 357,
      "ĠI": 358,
      "un": 359,
      "ul": 360,
      "ue": 361,
      "ĠA": 362,
      "ow": 363,
      "Ġ'": 364,
      "ew": 365,
      "Ġ<": 366,
      "ation": 367,
      "()": 368,
      "Ġfor": 369,
      "ab": 370,
      "ort": 371,
      "um": 372,
      "ame": 373,
      "Ġis": 374,
      "pe": 375,
      "tr": 376,
      "ck": 377,
      "âĢ": 378,
      "Ġy": 379,
      "ist": 380,
      "----": 381,
      ".ĊĊ": 382,
      "he": 383,
      "Ġe": 384,
      "lo": 385,
      "ĠM": 386,
      "Ġbe": 387,
      "ers": 388,
      "Ġon": 389,
      "Ġcon": 390,
      "ap": 391,
      "ub": 392,
      "ĠP": 393,
      "ĠĠĠĠĠĠĠĠĠĠĠĠĠĠĠ": 394,
      "ass": 395,
      "int": 396,
      ">Ċ": 397,
      "ly": 398,
      "urn": 399,
      "Ġ$": 400,
      ";ĊĊ": 401,
      "av": 402,
      "port": 403,
      "ir": 404,
      "->": 405,
      "nt": 406,
      "ction": 407,
      "end": 408,
      "Ġde": 409,
      "ith": 410,
      "out": 411,
      "turn": 412,
      "our": 413,
      "ĠĠĠĠĠ": 414,
      "lic": 415,
      "res": 416,
      "pt": 417,
      "==": 418,
      "Ġthis": 419,
      "Ġwh": 420,
      "Ġif": 421,
      "ĠD": 422,
      "ver": 423,
      "age": 424,
      "ĠB": 425,
      "ht": 426,
      "ext": 427,
      "=\"": 428,
      "Ġthat": 429,
      "****": 430,
      "ĠR": 431,
      "Ġit": 432,
      "ess": 433,
      "ĠF": 434,
      "Ġr": 435,
      "os": 436,
      "and": 437,
      "Ġas": 438,
      "ect": 439,
      "ke": 440,
      "rom": 441,
      "Ġ//": 442,
      "con": 443,
      "ĠL": 444,
      "(\"": 445,
      "qu": 446,
      "lass": 447,
      "Ġwith": 448,
      "iz": 449,
      "de": 450,
      "ĠN": 451,
      "Ġal": 452,
      "op": 453,
      "up": 454,
      "get": 455,
      "Ġ}Ċ": 456,
      "ile": 457,
      "Ġan": 458,
      "ata": 459,
      "ore": 460,
      "ri": 461,
      "Ġpro": 462,
      ";čĊ": 463,
      "ĉĉĉĉ": 464,
      "ter": 465,
      "ain": 466,
      "ĠW": 467,
      "ĠE": 468,
      "Ġcom": 469,
      "Ġreturn": 470,
      "art": 471,
      "ĠH": 472,
      "ack": 473,
      "import": 474,
      "ublic": 475,
      "Ġor": 476,
      "est": 477,
      "ment": 478,
      "ĠG": 479,
      "able": 480,
      "Ġ-": 481,
      "ine": 482,
      "ill": 483,
      "ind": 484,
      "ere": 485,
      "::": 486,
      "ity": 487,
      "Ġ+": 488,
      "Ġtr": 489,
      "elf": 490,
      "ight": 491,
      "('": 492,
      "orm": 493,
      "ult": 494,
      "str": 495,
      "..": 496,
      "\",": 497,
      "Ġyou": 498,
      "ype": 499,
      "pl": 500,
      "Ġnew": 501,
      "Ġj": 502,
      "ĠĠĠĠĠĠĠĠĠĠĠĠĠĠĠĠĠĠĠ": 503,
      "Ġfrom": 504,
      "Ġex": 505,
      "ĠO": 506,
      "ld": 507,
      "Ġ[": 508,
      "oc": 509,
      ":Ċ": 510,
      "Ġse": 511,
      "Ġle": 512,
      "--------": 513,
      ".s": 514,
      "{Ċ": 515,
      "',": 516,
      "ant": 517,
      "Ġat": 518,
      "ase": 519,
      ".c": 520,
      "Ġch": 521,
      "</": 522,
      "ave": 523,
      "ang": 524,
      "Ġare": 525,
      "Ġint": 526,
      "âĢĻ": 527,
      "_t": 528,
      "ert": 529,
      "ial": 530,
      "act": 531,
      "}Ċ": 532,
      "ive": 533,
      "ode": 534,
      "ost": 535,
      "Ġclass": 536,
      "Ġnot": 537,
      "og": 538,
      "ord": 539,
      "alue": 540,
      "all": 541,
      "ff": 542,
      "();Ċ": 543,
      "ont": 544,
      "ime": 545,
      "are": 546,
      "ĠU": 547,
      "Ġpr": 548,
      "Ġ:": 549,
      "ies": 550,
      "ize": 551,
      "ure": 552,
      "Ġby": 553,
      "ire": 554,
      "Ġ}ĊĊ": 555,
      ".p": 556,
      "Ġsh": 557,
      "ice": 558,
      "ast": 559,
      "ption": 560,
      "tring": 561,
      "ok": 562,
      "__": 563,
      "cl": 564,
      "##": 565,
      "Ġhe": 566,
      "ard": 567,
      ").": 568,
      "Ġ@": 569,
      "iew": 570,
      "ĉĉĉ": 571,
      "Ġwas": 572,
      "ip": 573,
      "this": 574,
      "Ġu": 575,
      "ĠThe": 576,
      "ide": 577,
      "ace": 578,
      "ib": 579,
      "ac": 580,
      "rou": 581,
      "Ġwe": 582,
      "ject": 583,
      "Ġpublic": 584,
      "ak": 585,
      "ve": 586,
      "ath": 587,
      "oid": 588,
      "Ġ=>": 589,
      "ust": 590,
      "que": 591,
      "Ġres": 592,
      "))": 593,
      "'s": 594,
      "Ġk": 595,
      "ans": 596,
      "yst": 597,
      "unction": 598,
      "********": 599,
      "Ġi": 600,
      "Ġus": 601,
      "pp": 602,
      "one": 603,
      "ail": 604,
      "====": 605,
      "name": 606,
      "Ġstr": 607,
      "Ġ/": 608,
      "Ġ&": 609,
      "ach": 610,
      "div": 611,
      "ystem": 612,
      "ell": 613,
      "Ġhave": 614,
      "err": 615,
      "ould": 616,
      "ull": 617,
      "pon": 618,
      "ĠJ": 619,
      "_p": 620,
      "Ġ==": 621,
      "ign": 622,
      "St": 623,
      ".Ċ": 624,
      "Ġpl": 625,
      ");ĊĊ": 626,
      "form": 627,
      "put": 628,
      "ount": 629,
      "}ĊĊ": 630,
      "dd": 631,
      "ite": 632,
      "Ġget": 633,
      "rr": 634,
      "ome": 635,
      "ĠâĢ": 636,
      "aram": 637,
      "cc": 638,
      "Ġ*/": 639,
      "ER": 640,
      "In": 641,
      "les": 642,
      "_s": 643,
      "ong": 644,
      "ie": 645,
      "Ġcan": 646,
      "ĠV": 647,
      "erv": 648,
      "pr": 649,
      "Ġun": 650,
      "row": 651,
      "ber": 652,
      "Ġdo": 653,
      "ll": 654,
      "Ġel": 655,
      "Ġself": 656,
      "ated": 657,
      "ary": 658,
      "Ġ.": 659,
      "']": 660,
      "ud": 661,
      "Ġen": 662,
      "ĠTh": 663,
      "ĠĠĠĠĠĠĠĠĠĠĠĠĠĠĠĠĠĠĠĠĠĠĠ": 664,
      "te": 665,
      "_c": 666,
      "uct": 667,
      "Ġab": 668,
      "ork": 669,
      ".get": 670,
      "Ġ#": 671,
      "aw": 672,
      "ress": 673,
      "ob": 674,
      "Name": 675,
      "app": 676,
      "['": 677,
      "Ġall": 678,
      "ory": 679,
      "ition": 680,
      "ance": 681,
      "ear": 682,
      "Ġcont": 683,
      "vent": 684,
      "ia": 685,
      "Ġwill": 686,
      "IN": 687,
      "ĠĠĠĠĠĠĠĠĠ": 688,
      "return": 689,
      "Ġ</": 690,
      "data": 691,
      ")ĊĊ": 692,
      "Re": 693,
      "ple": 694,
      "ild": 695,
      "ther": 696,
      "Ġyour": 697,
      "\"Ċ": 698,
      "($": 699,
      "Ġout": 700,
      "),": 701,
      "Ġhas": 702,
      "String": 703,
      "so": 704,
      "Ġup": 705,
      "ax": 706,
      "Ġdef": 707,
      "Ġbo": 708,
      "ge": 709,
      "alse": 710,
      "ON": 711,
      "per": 712,
      "ich": 713,
      "Ġbut": 714,
      "ĠĊ": 715,
      "Ġ_": 716,
      "_m": 717,
      "add": 718,
      "quest": 719,
      "odel": 720,
      "self": 721,
      "ery": 722,
      "ft": 723,
      "ens": 724,
      "ake": 725,
      ".C": 726,
      "Ġgo": 727,
      "Ġfunction": 728,
      "ĠK": 729,
      "ivate": 730,
      "Ġim": 731,
      "Ġconst": 732,
      ".t": 733,
      "Ġ*/Ċ": 734,
      ");čĊ": 735,
      "Ġvoid": 736,
      "Ġset": 737,
      "ĠSystem": 738,
      "cri": 739,
      "()Ċ": 740,
      "li": 741,
      "ĉif": 742,
      ".m": 743,
      "ally": 744,
      "set": 745,
      "ep": 746,
      "âĢĻs": 747,
      "bo": 748,
      "def": 749,
      "',Ċ": 750,
      "Ġme": 751,
      "Ġ!": 752,
      "atch": 753,
      "\">": 754,
      "\",Ċ": 755,
      "ec": 756,
      "ĠIn": 757,
      "ph": 758,
      "Ġ|": 759,
      "_f": 760,
      "Ġvar": 761,
      "ence": 762,
      "Id": 763,
      "ree": 764,
      "ink": 765,
      "lect": 766,
      "ug": 767,
      "eth": 768,
      "Ġelse": 769,
      "----------------": 770,
      "cont": 771,
      "Ġso": 772,
      "atic": 773,
      "Ġlo": 774,
      "pro": 775,
      "ton": 776,
      "ss": 777,
      "own": 778,
      "abel": 779,
      "oint": 780,
      "ous": 781,
      "eld": 782,
      "ST": 783,
      "The": 784,
      "ĠĠĠĠĠĠĠĠĠĠĠĠĠĠĠĠĠĠĠĠĠĠĠĠĠĠĠĠĠĠĠĠ": 785,
      "RE": 786,
      "\":": 787,
      "olor": 788,
      "tp": 789,
      "eg": 790,
      "key": 791,
      "ude": 792,
      "ĠSt": 793,
      "ound": 794,
      "Ġar": 795,
      "\");Ċ": 796,
      "ener": 797,
      "ser": 798,
      "bject": 799,
      "essage": 800,
      "fer": 801,
      "Ġmore": 802,
      "ations": 803,
      "ents": 804,
      "Ġhis": 805,
      "Ġthey": 806,
      ".S": 807,
      "ĠY": 808,
      "use": 809,
      "ne": 810,
      "ish": 811,
      "old": 812,
      "_d": 813,
      "io": 814,
      "ield": 815,
      "Ġper": 816,
      "Cont": 817,
      "ings": 818,
      "####": 819,
      "Ġdata": 820,
      "Ġsa": 821,
      "ef": 822,
      "fo": 823,
      "Ġone": 824,
      "eng": 825,
      "Ġdis": 826,
      "AT": 827,
      "Ġname": 828,
      "Ġtrue": 829,
      "val": 830,
      "led": 831,
      ".f": 832,
      "Ġne": 833,
      "Ġend": 834,
      ".T": 835,
      "cre": 836,
      "ark": 837,
      "log": 838,
      "Ex": 839,
      "error": 840,
      "_id": 841,
      "urre": 842,
      "ange": 843,
      "Ġnull": 844,
      "rray": 845,
      "Ġmy": 846,
      "pan": 847,
      "ict": 848,
      "ator": 849,
      "View": 850,
      "List": 851,
      "ĉreturn": 852,
      "âĢĿ": 853,
      "Ġpre": 854,
      "Ġx": 855,
      "clude": 856,
      "arg": 857,
      "ov": 858,
      ".h": 859,
      "Ġ>": 860,
      "Ġtheir": 861,
      "')": 862,
      "irst": 863,
      "ick": 864,
      "gh": 865,
      "LE": 866,
      "OR": 867,
      "Ġprivate": 868,
      "tem": 869,
      "čĊčĊ": 870,
      "user": 871,
      "Ġ)": 872,
      "com": 873,
      ".A": 874,
      "\";Ċ": 875,
      "Ġid": 876,
      "read": 877,
      "Ġwho": 878,
      "_b": 879,
      "\">Ċ": 880,
      "Ġtime": 881,
      "Ġman": 882,
      "ry": 883,
      "========": 884,
      "roup": 885,
      "rop": 886,
      "public": 887,
      "vel": 888,
      "umber": 889,
      "ble": 890,
      "Ġwhich": 891,
      "Ġany": 892,
      "Ġfalse": 893,
      "we": 894,
      "Ġvalue": 895,
      "Ġli": 896,
      "\")": 897,
      "nder": 898,
      "gr": 899,
      "Ġno": 900,
      "param": 901,
      "fig": 902,
      ".com": 903,
      "Ġapp": 904,
      "_l": 905,
      "ions": 906,
      ".D": 907,
      "ĠCh": 908,
      "Ġabout": 909,
      "Ġadd": 910,
      "Ġsu": 911,
      "Ġstring": 912,
      "ID": 913,
      "Ġover": 914,
      "string": 915,
      ".l": 916,
      "ource": 917,
      "_C": 918,
      "]Ċ": 919,
      "Ġqu": 920,
      "ĠString": 921,
      "ca": 922,
      "SE": 923,
      "Ġro": 924,
      "sh": 925,
      "ual": 926,
      "Type": 927,
      "son": 928,
      "new": 929,
      "ern": 930,
      "Ġag": 931,
      "AR": 932,
      "];Ċ": 933,
      "].": 934,
      "Ġ?": 935,
      "ical": 936,
      "Ġdes": 937,
      "uth": 938,
      "ix": 939,
      "ays": 940,
      "Ġtype": 941,
      "'t": 942,
      "ault": 943,
      "Ġinter": 944,
      "var": 945,
      ".b": 946,
      "Ġpart": 947,
      ".d": 948,
      "urrent": 949,
      "IT": 950,
      "EN": 951,
      "enc": 952,
      "(f": 953,
      "ra": 954,
      "value": 955,
      "cho": 956,
      "utton": 957,
      "ose": 958,
      "Ġ!=": 959,
      "ater": 960,
      "Ã©": 961,
      "reate": 962,
      "oll": 963,
      "pos": 964,
      "yle": 965,
      "ng": 966,
      "AL": 967,
      "using": 968,
      "ames": 969,
      "Ġ{čĊ": 970,
      "ates": 971,
      "ely": 972,
      "Ġwork": 973,
      "Ġem": 974,
      "inal": 975,
      "Ġsp": 976,
      "Ġwhen": 977,
      ".set": 978,
      "ĠĠĠĠĠĠ": 979,
      "):Ċ": 980,
      "to": 981,
      "quire": 982,
      "indow": 983,
      "lement": 984,
      "pect": 985,
      "ash": 986,
      "[i": 987,
      "Ġuse": 988,
      ".F": 989,
      "pec": 990,
      "Ġad": 991,
      "ove": 992,
      "ception": 993,
      "ength": 994,
      "include": 995,
      "ader": 996,
      "ĠĠĠĠĠĠĠĠĠĠĠĠĠĠĠĠĠĠĠĠĠĠĠĠĠĠĠ": 997,
      "atus": 998,
      "Th": 999,
      "itle": 1000,
      "rit": 1001,
      "void": 1002,
      "().": 1003,
      "(Ċ": 1004,
      "Ġoff": 1005,
      "Ġother": 1006,
      "Ġ&&": 1007,
      "';Ċ": 1008,
      "ms": 1009,
      "Ġbeen": 1010,
      "Ġte": 1011,
      "ml": 1012,
      "co": 1013,
      "nc": 1014,
      "ervice": 1015,
      "Ġ%": 1016,
      "**Ċ": 1017,
      "ann": 1018,
      "ade": 1019,
      "ĊĊĊĊ": 1020,
      "lock": 1021,
      "const": 1022,
      "ponse": 1023,
      "Ġsup": 1024,
      "++": 1025,
      "date": 1026,
      "Ġacc": 1027,
      "Ġhad": 1028,
      "Ġbu": 1029,
      "ĠRe": 1030,
      "Ġwere": 1031,
      "Ġfile": 1032,
      "Ġwould": 1033,
      "ĠâĢľ": 1034,
      "ven": 1035,
      "iss": 1036,
      "Ġour": 1037,
      "class": 1038,
      "raw": 1039,
      "Ġyear": 1040,
      "Data": 1041,
      "Ġval": 1042,
      "Ġsome": 1043,
      "fter": 1044,
      "ys": 1045,
      "Ġ///": 1046,
      "round": 1047,
      "view": 1048,
      "Ġpe": 1049,
      "Ġthere": 1050,
      "Ġsaid": 1051,
      "du": 1052,
      "of": 1053,
      "line": 1054,
      "/*": 1055,
      "duct": 1056,
      "Ġher": 1057,
      "ĠĠĠĠĠĠĠĠĠĠĠĠĠ": 1058,
      "Res": 1059,
      "Ġco": 1060,
      "Ġcomm": 1061,
      "ise": 1062,
      "min": 1063,
      "ĠĠĠĠĊ": 1064,
      "#include": 1065,
      "ethod": 1066,
      ".P": 1067,
      "ute": 1068,
      "Ġass": 1069,
      "Int": 1070,
      "ask": 1071,
      "loc": 1072,
      "Ġlike": 1073,
      "ody": 1074,
      "Ġlet": 1075,
      "load": 1076,
      "Ġam": 1077,
      "rol": 1078,
      "Ġgr": 1079,
      "yp": 1080,
      "Ġalso": 1081,
      "ĠIt": 1082,
      "url": 1083,
      "ific": 1084,
      "ors": 1085,
      "_P": 1086,
      "_n": 1087,
      "igh": 1088,
      "Ġthan": 1089,
      "Com": 1090,
      "AN": 1091,
      "UL": 1092,
      "ating": 1093,
      "ĠThis": 1094,
      "ref": 1095,
      "_S": 1096,
      "Ġstatic": 1097,
      "roll": 1098,
      "Ġjust": 1099,
      "Ġresult": 1100,
      "ian": 1101,
      "idth": 1102,
      "Ġthem": 1103,
      "));Ċ": 1104,
      "der": 1105,
      "reak": 1106,
      "Con": 1107,
      "://": 1108,
      "ule": 1109,
      "...": 1110,
      "arch": 1111,
      "ement": 1112,
      "Ġ<<": 1113,
      "ush": 1114,
      "ense": 1115,
      "arr": 1116,
      "Ġinto": 1117,
      "cess": 1118,
      "amp": 1119,
      "ied": 1120,
      "ument": 1121,
      "Ġ\\": 1122,
      "],": 1123,
      "wo": 1124,
      "als": 1125,
      "Ġwhat": 1126,
      "anc": 1127,
      "Value": 1128,
      "='": 1129,
      "olum": 1130,
      "Ġpos": 1131,
      "ages": 1132,
      "ayer": 1133,
      "Ġsc": 1134,
      "ues": 1135,
      "\")Ċ": 1136,
      "_T": 1137,
      "Ġlist": 1138,
      "(s": 1139,
      "Ġcase": 1140,
      "Ch": 1141,
      "ĉĉĉĉĉ": 1142,
      "ponent": 1143,
      "Ġz": 1144,
      "Ġkn": 1145,
      "let": 1146,
      "DE": 1147,
      "red": 1148,
      "Ġfe": 1149,
      "Ġ},Ċ": 1150,
      "Ġ,": 1151,
      "(t": 1152,
      "Ġfirst": 1153,
      "');Ċ": 1154,
      "word": 1155,
      "Ġimport": 1156,
      "Ġact": 1157,
      "Ġchar": 1158,
      "CT": 1159,
      "ĠTr": 1160,
      "ople": 1161,
      "={": 1162,
      "ĉf": 1163,
      "ient": 1164,
      "cent": 1165,
      ".j": 1166,
      "lection": 1167,
      "))Ċ": 1168,
      "Ġonly": 1169,
      "Ġprint": 1170,
      "mer": 1171,
      ".W": 1172,
      "ock": 1173,
      "Ġ--": 1174,
      "Text": 1175,
      "Ġop": 1176,
      "ank": 1177,
      "Ġits": 1178,
      "Ġback": 1179,
      "[\"": 1180,
      "Ġneed": 1181,
      "Ġcl": 1182,
      "Ġsub": 1183,
      "Ġla": 1184,
      "((": 1185,
      ".\"": 1186,
      "Object": 1187,
      "Ġstart": 1188,
      "file": 1189,
      "(self": 1190,
      "ner": 1191,
      "ey": 1192,
      "Ġuser": 1193,
      "Ġent": 1194,
      "ĠCom": 1195,
      "its": 1196,
      "ĠCon": 1197,
      "ouble": 1198,
      "ower": 1199,
      "item": 1200,
      "very": 1201,
      "ĠWe": 1202,
      "lick": 1203,
      "ĠQ": 1204,
      "php": 1205,
      "ttp": 1206,
      "':": 1207,
      "ics": 1208,
      "Ġunder": 1209,
      "Ġ*Ċ": 1210,
      ".L": 1211,
      ");": 1212,
      "ices": 1213,
      "Ġreg": 1214,
      ")čĊ": 1215,
      "ĉpublic": 1216,
      "SS": 1217,
      "Ġthen": 1218,
      "reat": 1219,
      "ious": 1220,
      ".G": 1221,
      "ek": 1222,
      "irect": 1223,
      "heck": 1224,
      "cript": 1225,
      "ning": 1226,
      "ĠUn": 1227,
      "Ġmay": 1228,
      "ĠWh": 1229,
      "Bo": 1230,
      "Item": 1231,
      "struct": 1232,
      ".st": 1233,
      "ream": 1234,
      "ible": 1235,
      "loat": 1236,
      "Ġorg": 1237,
      "und": 1238,
      "sum": 1239,
      "_in": 1240,
      "../": 1241,
      "_M": 1242,
      "Ġhow": 1243,
      "rite": 1244,
      "'Ċ": 1245,
      "To": 1246,
      "ww": 1247,
      "Ġpeople": 1248,
      "index": 1249,
      ".n": 1250,
      "http": 1251,
      "(m": 1252,
      "ector": 1253,
      "Ġind": 1254,
      "Ġjav": 1255,
      "],Ċ": 1256,
      "ĠHe": 1257,
      "_st": 1258,
      "ful": 1259,
      "ole": 1260,
      "){Ċ": 1261,
      "Ġshould": 1262,
      "opy": 1263,
      "elp": 1264,
      "ier": 1265,
      "_name": 1266,
      "erson": 1267,
      "ION": 1268,
      "ote": 1269,
      "Ġtest": 1270,
      "Ġbet": 1271,
      "rror": 1272,
      "ular": 1273,
      "ãĢ": 1274,
      "ĠÐ": 1275,
      "bs": 1276,
      "ting": 1277,
      "Ġmake": 1278,
      "Tr": 1279,
      "Ġafter": 1280,
      "arget": 1281,
      "RO": 1282,
      "olumn": 1283,
      "rc": 1284,
      "_re": 1285,
      "define": 1286,
      "Ġright": 1287,
      "right": 1288,
      "day": 1289,
      "Ġlong": 1290,
      "[]": 1291,
      "(p": 1292,
      "td": 1293,
      "cond": 1294,
      "ĠPro": 1295,
      "Ġrem": 1296,
      "ptions": 1297,
      "vid": 1298,
      ".g": 1299,
      "Ġext": 1300,
      "Ġ__": 1301,
      "')Ċ": 1302,
      "pace": 1303,
      "mp": 1304,
      "Ġmin": 1305,
      "stance": 1306,
      "air": 1307,
      "action": 1308,
      "wh": 1309,
      "type": 1310,
      "util": 1311,
      "ait": 1312,
      "<?": 1313,
      "IC": 1314,
      "text": 1315,
      "Ġph": 1316,
      "Ġfl": 1317,
      ".M": 1318,
      "ccess": 1319,
      "br": 1320,
      "fore": 1321,
      "ersion": 1322,
      "),Ċ": 1323,
      ".re": 1324,
      "ateg": 1325,
      "Ġloc": 1326,
      "ins": 1327,
      "-s": 1328,
      "trib": 1329,
      "ĠInt": 1330,
      "Ġarray": 1331,
      ",\"": 1332,
      "Pro": 1333,
      "(c": 1334,
      "ession": 1335,
      ">ĊĊ": 1336,
      "Ġshe": 1337,
      "\"]": 1338,
      "aph": 1339,
      "Ġexp": 1340,
      "erty": 1341,
      "ĠSe": 1342,
      "Ġpar": 1343,
      "unc": 1344,
      "ET": 1345,
      "Ġread": 1346,
      "print": 1347,
      "Ġrel": 1348,
      "Ġform": 1349,
      "Ġdr": 1350,
      "Exception": 1351,
      "input": 1352,
      "Ġtrans": 1353,
      "order": 1354,
      "By": 1355,
      "Ġaw": 1356,
      "ities": 1357,
      "uff": 1358,
      "play": 1359,
      ".add": 1360,
      "ĠâĢĵ": 1361,
      "Ġwant": 1362,
      "Ġcomp": 1363,
      "ments": 1364,
      "Ġ||": 1365,
      "az": 1366,
      "be": 1367,
      "Ġnumber": 1368,
      "Ġrequire": 1369,
      "ĠEx": 1370,
      "Ġcol": 1371,
      "Ġkey": 1372,
      "ember": 1373,
      "Ġtwo": 1374,
      "Ġsize": 1375,
      "Ġwhere": 1376,
      "UT": 1377,
      "result": 1378,
      "ĠĠĠĠĠĠĠĠĠĠĠĠĠĠĠĠĠĠĠĠĠĠĠĠĠĠĠĠĠĠĠ": 1379,
      "ough": 1380,
      "orld": 1381,
      "ood": 1382,
      "uch": 1383,
      "ative": 1384,
      "ger": 1385,
      "arent": 1386,
      "Ġ/*": 1387,
      "Ġarg": 1388,
      "Ġwhile": 1389,
      "(this": 1390,
      "Ġrec": 1391,
      "Ġdif": 1392,
      "State": 1393,
      "Ġspec": 1394,
      "ride": 1395,
      "_F": 1396,
      "Ġlook": 1397,
      "AM": 1398,
      "ility": 1399,
      "eter": 1400,
      "âĢĻt": 1401,
      "ĊĊĊ": 1402,
      "ayout": 1403,
      "--------------------------------": 1404,
      "ager": 1405,
      "Ġcould": 1406,
      "Ġbr": 1407,
      "ends": 1408,
      "ures": 1409,
      "Ġknow": 1410,
      "ets": 1411,
      "ĠIf": 1412,
      "ĠSh": 1413,
      ".w": 1414,
      "back": 1415,
      "Ġser": 1416,
      "Ġ+=": 1417,
      "Ġfr": 1418,
      "());Ċ": 1419,
      "Ġhand": 1420,
      "Ind": 1421,
      "ULL": 1422,
      "Im": 1423,
      "();ĊĊ": 1424,
      "Ġmost": 1425,
      "Ġtry": 1426,
      "Ġnow": 1427,
      "rough": 1428,
      ">čĊ": 1429,
      "ackage": 1430,
      "Ġhim": 1431,
      "._": 1432,
      "ify": 1433,
      "Ġbreak": 1434,
      "Ġ);Ċ": 1435,
      "ren": 1436,
      "#define": 1437,
      "itt": 1438,
      "Ġap": 1439,
      "ĉc": 1440,
      "(n": 1441,
      "ĠYou": 1442,
      ":ĊĊ": 1443,
      "-m": 1444,
      "Ġevery": 1445,
      "ustom": 1446,
      "lient": 1447,
      "ocument": 1448,
      "cription": 1449,
      "Error": 1450,
      "-b": 1451,
      "Ð¾": 1452,
      "][": 1453,
      "trans": 1454,
      "Ġpoint": 1455,
      "Ġstd": 1456,
      "Ġfil": 1457,
      "Time": 1458,
      "Ġmod": 1459,
      "Ġ->": 1460,
      "Ġerror": 1461,
      "ah": 1462,
      "Ġtext": 1463,
      "roller": 1464,
      "lose": 1465,
      "ql": 1466,
      "Ġpol": 1467,
      "></": 1468,
      "Ġshow": 1469,
      "User": 1470,
      "ased": 1471,
      "Ġ{ĊĊ": 1472,
      "Ġfind": 1473,
      "Ð°": 1474,
      "ED": 1475,
      "span": 1476,
      "enu": 1477,
      "Ġcurrent": 1478,
      "Ġused": 1479,
      "cept": 1480,
      "clud": 1481,
      "Ġplay": 1482,
      "Ġlog": 1483,
      "ution": 1484,
      "fl": 1485,
      "Ġsee": 1486,
      "indows": 1487,
      "Ġhelp": 1488,
      "Ġthese": 1489,
      "Ġpass": 1490,
      "Ġdown": 1491,
      "Ġeven": 1492,
      "ason": 1493,
      "uild": 1494,
      "from": 1495,
      "(d": 1496,
      "Ġbl": 1497,
      "label": 1498,
      "else": 1499,
      "Ðµ": 1500,
      "Ġ(!": 1501,
      "ized": 1502,
      "(),": 1503,
      "Ġob": 1504,
      "Ġitem": 1505,
      "ump": 1506,
      "UR": 1507,
      "orn": 1508,
      "Ġdon": 1509,
      "Se": 1510,
      "man": 1511,
      "ample": 1512,
      "tn": 1513,
      "================": 1514,
      "He": 1515,
      "gram": 1516,
      "Ġdid": 1517,
      "wn": 1518,
      "_h": 1519,
      "iver": 1520,
      "Ġsm": 1521,
      "Ġthrough": 1522,
      "ĠAn": 1523,
      "che": 1524,
      "Ġinv": 1525,
      "ouse": 1526,
      "Ġes": 1527,
      "ĠNew": 1528,
      "export": 1529,
      "mary": 1530,
      "uto": 1531,
      "ler": 1532,
      "Ġlast": 1533,
      "Ġevent": 1534,
      "try": 1535,
      "ï¼": 1536,
      "ily": 1537,
      "igned": 1538,
      "ines": 1539,
      "ollow": 1540,
      "icense": 1541,
      "sole": 1542,
      "lear": 1543,
      "(int": 1544,
      "Ġagain": 1545,
      "Ġhigh": 1546,
      "html": 1547,
      "Index": 1548,
      "uthor": 1549,
      "Ġ/**Ċ": 1550,
      "Ġline": 1551,
      "Event": 1552,
      "_D": 1553,
      "Ġdoes": 1554,
      "itial": 1555,
      "Ġcr": 1556,
      "ars": 1557,
      "Ġtem": 1558,
      "cause": 1559,
      "face": 1560,
      "Ġ`": 1561,
      "_A": 1562,
      "Button": 1563,
      "ature": 1564,
      "ected": 1565,
      "ES": 1566,
      "ister": 1567,
      "ĉĊ": 1568,
      "Ġbefore": 1569,
      "ale": 1570,
      "other": 1571,
      "Ġbecause": 1572,
      "roid": 1573,
      "Ġed": 1574,
      "ik": 1575,
      "reg": 1576,
      "ĠDe": 1577,
      "Ġdist": 1578,
      "},Ċ": 1579,
      "Ġstate": 1580,
      "Ġcons": 1581,
      "rint": 1582,
      "att": 1583,
      "Ġhere": 1584,
      "ined": 1585,
      "Ġfinal": 1586,
      "Ġ\"\"": 1587,
      "Key": 1588,
      "LO": 1589,
      "Ġdel": 1590,
      "pty": 1591,
      "thing": 1592,
      "ĠAnd": 1593,
      "Ġrun": 1594,
      "ĠX": 1595,
      "ym": 1596,
      ".app": 1597,
      "Ġvery": 1598,
      "ces": 1599,
      "_N": 1600,
      "ared": 1601,
      "ward": 1602,
      "list": 1603,
      "ited": 1604,
      "olog": 1605,
      "itch": 1606,
      "Box": 1607,
      "ife": 1608,
      "Ġac": 1609,
      "Ġmodel": 1610,
      "Ġmon": 1611,
      "Ġway": 1612,
      "lete": 1613,
      "Ġcall": 1614,
      "Ġatt": 1615,
      "Ġcal": 1616,
      "vert": 1617,
      "Ġdec": 1618,
      "lease": 1619,
      "oun": 1620,
      "Ġ});Ċ": 1621,
      "fr": 1622,
      "formation": 1623,
      "etail": 1624,
      "Ġnum": 1625,
      "aj": 1626,
      "query": 1627,
      "Ġwell": 1628,
      "Ġobject": 1629,
      "ĠAs": 1630,
      "Ġyears": 1631,
      "Color": 1632,
      "IS": 1633,
      "Ġdefault": 1634,
      "Wh": 1635,
      "Ġins": 1636,
      "aint": 1637,
      "Ġjava": 1638,
      "Ġsim": 1639,
      "ĠAr": 1640,
      "mon": 1641,
      "til": 1642,
      "();čĊ": 1643,
      "):": 1644,
      "Set": 1645,
      "atter": 1646,
      "Ġview": 1647,
      "Ġpres": 1648,
      "array": 1649,
      "We": 1650,
      "At": 1651,
      "Ġbel": 1652,
      "Ġmany": 1653,
      "Man": 1654,
      "ender": 1655,
      "Ġbeing": 1656,
      "Ġgood": 1657,
      "ĉĉĉĉĉĉ": 1658,
      "ational": 1659,
      "ware": 1660,
      ".log": 1661,
      "{čĊ": 1662,
      "Ġusing": 1663,
      "_B": 1664,
      "Ġ:=": 1665,
      "_w": 1666,
      "ists": 1667,
      "lish": 1668,
      "Ġstud": 1669,
      "ĠAl": 1670,
      "Ġgu": 1671,
      "config": 1672,
      "uring": 1673,
      "time": 1674,
      "oken": 1675,
      "amespace": 1676,
      "Ġrequest": 1677,
      "Ġchild": 1678,
      "ĠÃ": 1679,
      "lob": 1680,
      "Ġparam": 1681,
      "Ġ}čĊ": 1682,
      "Ġecho": 1683,
      "function": 1684,
      "ps": 1685,
      "Element": 1686,
      "alk": 1687,
      "lication": 1688,
      "by": 1689,
      "Size": 1690,
      "rawing": 1691,
      "Ġperson": 1692,
      "ĠĠĠĠĠĠĠĠĠĠĠĠĠĠĠĠĠ": 1693,
      "\\n": 1694,
      "object": 1695,
      "ince": 1696,
      "En": 1697,
      "File": 1698,
      "uf": 1699,
      "ffect": 1700,
      "AC": 1701,
      "Ġstyle": 1702,
      "summary": 1703,
      "Ġque": 1704,
      "_r": 1705,
      "Ġ($": 1706,
      "Model": 1707,
      "ident": 1708,
      "Ġmethod": 1709,
      "IL": 1710,
      "ott": 1711,
      "less": 1712,
      "ING": 1713,
      "Ġ()": 1714,
      "Ġexpect": 1715,
      "ync": 1716,
      "package": 1717,
      "urs": 1718,
      "Ġprot": 1719,
      "./": 1720,
      "pre": 1721,
      "Ġ)Ċ": 1722,
      "ma": 1723,
      "Ġsur": 1724,
      "Ġfound": 1725,
      "Info": 1726,
      "par": 1727,
      "imes": 1728,
      ".e": 1729,
      "ains": 1730,
      "Ġpost": 1731,
      "-d": 1732,
      "olean": 1733,
      "Ġsl": 1734,
      "PE": 1735,
      "Ġsuch": 1736,
      "select": 1737,
      "ainer": 1738,
      "Ġthink": 1739,
      "Ġdiffer": 1740,
      ".r": 1741,
      "/**Ċ": 1742,
      "FF": 1743,
      "ool": 1744,
      "plate": 1745,
      "qual": 1746,
      "ĠFor": 1747,
      "Ġmuch": 1748,
      "uc": 1749,
      "(new": 1750,
      "odule": 1751,
      "Ġsom": 1752,
      "Ġhttp": 1753,
      "ĠList": 1754,
      "Ġcount": 1755,
      "Ġinst": 1756,
      "char": 1757,
      "mit": 1758,
      ".id": 1759,
      "aking": 1760,
      "Ġgener": 1761,
      "px": 1762,
      "vice": 1763,
      "_data": 1764,
      "ĠNULL": 1765,
      "}čĊ": 1766,
      "idd": 1767,
      "ãĢĤ": 1768,
      "Ġmed": 1769,
      "org": 1770,
      "ider": 1771,
      "ache": 1772,
      "work": 1773,
      "Ġcheck": 1774,
      "ween": 1775,
      "Ġ((": 1776,
      "the": 1777,
      "ants": 1778,
      "><": 1779,
      ".B": 1780,
      "-c": 1781,
      "Ġopen": 1782,
      "Ġest": 1783,
      "ĠĠĠĠĠĠĠĠĊ": 1784,
      "Ġnext": 1785,
      "IM": 1786,
      "ÑĤ": 1787,
      "OT": 1788,
      "Ã³": 1789,
      "Ġfollow": 1790,
      "content": 1791,
      "ĠĠĠĠĠĠĠĠĠĠĠĠ": 1792,
      "Ġinclud": 1793,
      "HE": 1794,
      "ĠRes": 1795,
      "Ġhref": 1796,
      "Ð¸": 1797,
      "Ġcar": 1798,
      "ypes": 1799,
      "image": 1800,
      "Un": 1801,
      "Ġbool": 1802,
      "AD": 1803,
      "Ġgame": 1804,
      ".Form": 1805,
      "rows": 1806,
      "*/": 1807,
      "velop": 1808,
      ".Drawing": 1809,
      "Ġpath": 1810,
      "ision": 1811,
      "Ġeach": 1812,
      "ĠPl": 1813,
      "_type": 1814,
      "Path": 1815,
      "nection": 1816,
      "Ġav": 1817,
      "').": 1818,
      "Ġsupport": 1819,
      "ENT": 1820,
      "rem": 1821,
      "\").": 1822,
      "Ġown": 1823,
      "Ġcor": 1824,
      "count": 1825,
      "miss": 1826,
      "ually": 1827,
      "Ġmem": 1828,
      "std": 1829,
      "ience": 1830,
      "search": 1831,
      "\"ĊĊ": 1832,
      "Form": 1833,
      "Ġsex": 1834,
      "ename": 1835,
      "Ġsign": 1836,
      "Ġet": 1837,
      "ĠĠĠĠĠĠĠĠĠĠ": 1838,
      "','": 1839,
      "ĠApp": 1840,
      "Ġthose": 1841,
      "off": 1842,
      "Ġerr": 1843,
      "Ġsystem": 1844,
      "Ġbest": 1845,
      "code": 1846,
      "Ġsame": 1847,
      "Ġdi": 1848,
      "uss": 1849,
      "Ġcreate": 1850,
      "ather": 1851,
      "Array": 1852,
      ".in": 1853,
      "fe": 1854,
      "Service": 1855,
      "UN": 1856,
      "ats": 1857,
      "ĠZ": 1858,
      "alth": 1859,
      "Ġmade": 1860,
      "true": 1861,
      "AB": 1862,
      "Ġmark": 1863,
      "rid": 1864,
      "ified": 1865,
      ",čĊ": 1866,
      "yn": 1867,
      "press": 1868,
      "Ġgroup": 1869,
      "Ġfin": 1870,
      "ĠLicense": 1871,
      "Field": 1872,
      "eger": 1873,
      "Ġworld": 1874,
      "iness": 1875,
      "ty": 1876,
      "Ġprocess": 1877,
      "(b": 1878,
      "Ġcre": 1879,
      "arn": 1880,
      "ives": 1881,
      "Ġmain": 1882,
      "ideo": 1883,
      "_g": 1884,
      "AG": 1885,
      "valid": 1886,
      "img": 1887,
      "PI": 1888,
      "Ġcolor": 1889,
      "Ġreport": 1890,
      "Ġtake": 1891,
      "rib": 1892,
      "OM": 1893,
      "Ġday": 1894,
      "Request": 1895,
      "Ġsk": 1896,
      "bers": 1897,
      "ĉs": 1898,
      ".Add": 1899,
      "oot": 1900,
      "Image": 1901,
      "Ġcomple": 1902,
      "ollection": 1903,
      "Ġtop": 1904,
      "Ġfree": 1905,
      "AS": 1906,
      "De": 1907,
      "ĠOn": 1908,
      "IG": 1909,
      "eta": 1910,
      "Date": 1911,
      "Ġaction": 1912,
      "Over": 1913,
      "itor": 1914,
      "ĠĠĠĠĠĠĠĠĠĠĠĠĠĠĠĠĠĠĠĠĠĠĠĠĠĠĠĠĠĠĠĠĠĠĠ": 1915,
      "not": 1916,
      "Ġindex": 1917,
      "her": 1918,
      "icon": 1919,
      "On": 1920,
      ";čĊčĊ": 1921,
      "ivity": 1922,
      "mand": 1923,
      ".Windows": 1924,
      "OL": 1925,
      "Ġreal": 1926,
      "Ġmax": 1927,
      "land": 1928,
      "....": 1929,
      "raph": 1930,
      "Ġbuild": 1931,
      "leg": 1932,
      "assword": 1933,
      "?ĊĊ": 1934,
      "âĢ¦": 1935,
      "ook": 1936,
      "uck": 1937,
      "Ġmessage": 1938,
      "test": 1939,
      "ivers": 1940,
      "Ġinput": 1941,
      "Ġart": 1942,
      "Ġbetween": 1943,
      "Get": 1944,
      "enter": 1945,
      "ground": 1946,
      "ene": 1947,
      "Ã¡": 1948,
      ".length": 1949,
      "Node": 1950,
      "(i": 1951,
      "Class": 1952,
      "for": 1953,
      "ĠâĢĶ": 1954,
      "ten": 1955,
      "oin": 1956,
      "Ġke": 1957,
      "ui": 1958,
      "ĠIN": 1959,
      "Ġtable": 1960,
      "sub": 1961,
      "ĠLe": 1962,
      "Ġhead": 1963,
      "Ġmust": 1964,
      ".util": 1965,
      "Context": 1966,
      "Ġorder": 1967,
      "Ġmov": 1968,
      "over": 1969,
      "Ġcontin": 1970,
      "Ġsay": 1971,
      "static": 1972,
      ".Text": 1973,
      "ĠclassName": 1974,
      "pany": 1975,
      "Ġter": 1976,
      "head": 1977,
      "rg": 1978,
      "Ġproduct": 1979,
      "This": 1980,
      ".âĢĿ": 1981,
      "ĠBut": 1982,
      "loy": 1983,
      "Ġdouble": 1984,
      "sg": 1985,
      "Ġplace": 1986,
      ".x": 1987,
      "message": 1988,
      "Ġinformation": 1989,
      "private": 1990,
      "Ġoper": 1991,
      "ced": 1992,
      "db": 1993,
      "\"></": 1994,
      "Param": 1995,
      "icle": 1996,
      "Ġweek": 1997,
      "Ġprop": 1998,
      "table": 1999,
      "idget": 2000,
      "place": 2001,
      "Prop": 2002,
      "ĠAll": 2003,
      "els": 2004,
      "box": 2005,
      ".ĊĊĊĊ": 2006,
      ".R": 2007,
      "ĠTo": 2008,
      "iter": 2009,
      "Sh": 2010,
      "uration": 2011,
      "older": 2012,
      "_list": 2013,
      "come": 2014,
      "Ġsw": 2015,
      "ization": 2016,
      "ĉfor": 2017,
      "bl": 2018,
      "Ġprogram": 2019,
      "(e": 2020,
      "ape": 2021,
      "check": 2022,
      ".Forms": 2023,
      "Ġund": 2024,
      "ategory": 2025,
      "ags": 2026,
      "Ġresponse": 2027,
      "US": 2028,
      "request": 2029,
      "Ġstruct": 2030,
      "escription": 2031,
      "Ġcode": 2032,
      "_H": 2033,
      "uffer": 2034,
      "Ġwithout": 2035,
      "lobal": 2036,
      "Manager": 2037,
      "ilter": 2038,
      "PO": 2039,
      "ĉthis": 2040,
      "option": 2041,
      "Ġsol": 2042,
      "Ġ===": 2043,
      "akes": 2044,
      "Controller": 2045,
      "Message": 2046,
      "Ġref": 2047,
      "ever": 2048,
      "ĠSo": 2049,
      "aining": 2050,
      ".append": 2051,
      "Ġstill": 2052,
      "Ġprovid": 2053,
      "Ġassert": 2054,
      "med": 2055,
      "Ġcap": 2056,
      "usiness": 2057,
      "Ġrep": 2058,
      "tings": 2059,
      "ved": 2060,
      ".N": 2061,
      "api": 2062,
      "OD": 2063,
      "Ġfield": 2064,
      "iven": 2065,
      "oto": 2066,
      "âĢľ": 2067,
      "col": 2068,
      "(x": 2069,
      "ght": 2070,
      "Result": 2071,
      "Code": 2072,
      ".is": 2073,
      "link": 2074,
      "Ġcour": 2075,
      "An": 2076,
      "Ġteam": 2077,
      "ĉint": 2078,
      "ift": 2079,
      "Ġsecond": 2080,
      "Ġgoing": 2081,
      "Ġrange": 2082,
      "_E": 2083,
      "ness": 2084,
      "Ġfam": 2085,
      "Ġnil": 2086,
      "ĠCont": 2087,
      "ailable": 2088,
      "utes": 2089,
      "atab": 2090,
      "Ġfact": 2091,
      "Ġvis": 2092,
      "(&": 2093,
      "ĠAN": 2094,
      "Al": 2095,
      "title": 2096,
      "Ġandroid": 2097,
      "CE": 2098,
      "\\\"": 2099,
      "irt": 2100,
      "Ġwrit": 2101,
      "Ð½": 2102,
      "ĉm": 2103,
      "ftware": 2104,
      "ond": 2105,
      "Ġret": 2106,
      "osition": 2107,
      "Ġhome": 2108,
      "Ġleft": 2109,
      "args": 2110,
      "meric": 2111,
      "Ġdirect": 2112,
      "oci": 2113,
      "Pl": 2114,
      "As": 2115,
      "ret": 2116,
      "ado": 2117,
      "Of": 2118,
      "chn": 2119,
      "ĠGet": 2120,
      "ee": 2121,
      "ross": 2122,
      "();": 2123,
      "____": 2124,
      ".ph": 2125,
      "It": 2126,
      "oute": 2127,
      "Ġexper": 2128,
      "chool": 2129,
      "www": 2130,
      "},": 2131,
      "Ġallow": 2132,
      "ĠÂ": 2133,
      "())": 2134,
      "size": 2135,
      "ism": 2136,
      "ai": 2137,
      "tract": 2138,
      "ane": 2139,
      "...ĊĊ": 2140,
      "context": 2141,
      "Ġbeg": 2142,
      "CH": 2143,
      "Ġpage": 2144,
      "hip": 2145,
      "no": 2146,
      "core": 2147,
      "sp": 2148,
      "Ġdifferent": 2149,
      "iable": 2150,
      "ĠMe": 2151,
      "_IN": 2152,
      "button": 2153,
      "ĠIs": 2154,
      "ervices": 2155,
      "Ġca": 2156,
      "Ġaround": 2157,
      "App": 2158,
      "ration": 2159,
      "Ġrece": 2160,
      "Ġreally": 2161,
      "Ġimage": 2162,
      "Ġtarget": 2163,
      "Ġdep": 2164,
      "opyright": 2165,
      "tra": 2166,
      "ingle": 2167,
      "ital": 2168,
      "Layout": 2169,
      "Ġboth": 2170,
      "Override": 2171,
      "arm": 2172,
      "=>": 2173,
      "aterial": 2174,
      "iled": 2175,
      "Ġput": 2176,
      "Qu": 2177,
      "ÑĢ": 2178,
      "ung": 2179,
      "map": 2180,
      "ĉĉĉĉĉĉĉĉ": 2181,
      "Ġlevel": 2182,
      "Component": 2183,
      "book": 2184,
      "creen": 2185,
      "_RE": 2186,
      "Ġconfig": 2187,
      "ãģ": 2188,
      "Or": 2189,
      ".data": 2190,
      "Ġdocument": 2191,
      "\",\"": 2192,
      "tribute": 2193,
      "ux": 2194,
      "Log": 2195,
      "ference": 2196,
      "post": 2197,
      "_e": 2198,
      "Ġlocal": 2199,
      "andom": 2200,
      "assert": 2201,
      "Val": 2202,
      "lected": 2203,
      "ina": 2204,
      "atabase": 2205,
      "Add": 2206,
      "Ġcontent": 2207,
      ".print": 2208,
      "signed": 2209,
      "ric": 2210,
      ".\"ĊĊ": 2211,
      "Ġfa": 2212,
      "!ĊĊ": 2213,
      "-f": 2214,
      "ived": 2215,
      "Ġquest": 2216,
      ".ex": 2217,
      "Ġfloat": 2218,
      "Ġdevelop": 2219,
      "Ð¾Ð": 2220,
      "Map": 2221,
      "ading": 2222,
      "Ġposs": 2223,
      "UE": 2224,
      "namespace": 2225,
      "_O": 2226,
      "ĉb": 2227,
      ".Get": 2228,
      ">(": 2229,
      "json": 2230,
      "etails": 2231,
      "Ġtoo": 2232,
      "Ġextends": 2233,
      "ĠNone": 2234,
      "Ġfore": 2235,
      "(String": 2236,
      "format": 2237,
      "Ġgreat": 2238,
      "inter": 2239,
      "cale": 2240,
      "Ñģ": 2241,
      "ron": 2242,
      "iving": 2243,
      "Ent": 2244,
      "ency": 2245,
      "xt": 2246,
      "oy": 2247,
      "Ġmonth": 2248,
      "Ġhapp": 2249,
      "Ġsuper": 2250,
      "bar": 2251,
      "default": 2252,
      "_de": 2253,
      "ords": 2254,
      "ln": 2255,
      "({Ċ": 2256,
      "ĠInd": 2257,
      "ases": 2258,
      "Ġtitle": 2259,
      "Ġcontext": 2260,
      "oh": 2261,
      "-p": 2262,
      "Em": 2263,
      "Ġmet": 2264,
      "Test": 2265,
      "Ġlife": 2266,
      "_v": 2267,
      "ĠUS": 2268,
      "UI": 2269,
      "ocation": 2270,
      "md": 2271,
      "Ġ[Ċ": 2272,
      "Ġ]": 2273,
      "sw": 2274,
      "Ġincre": 2275,
      "script": 2276,
      "ential": 2277,
      "ways": 2278,
      ".de": 2279,
      "Ġsrc": 2280,
      "Ġcatch": 2281,
      "ĠAmeric": 2282,
      "//Ċ": 2283,
      "ĠĠĠĠĠĠĠĠĠĠĠĠĠĠ": 2284,
      "Ġpay": 2285,
      "plit": 2286,
      "âĢĶ": 2287,
      "Ġcoun": 2288,
      "obj": 2289,
      ".php": 2290,
      "Ġchange": 2291,
      "ething": 2292,
      "'re": 2293,
      "aster": 2294,
      "los": 2295,
      "lation": 2296,
      "ĠĠĊ": 2297,
      "Le": 2298,
      "Ã¤": 2299,
      "({": 2300,
      "ready": 2301,
      "ĠNo": 2302,
      "Ġposition": 2303,
      "Ġold": 2304,
      "Ġbook": 2305,
      "abled": 2306,
      "bug": 2307,
      "Hand": 2308,
      "};ĊĊ": 2309,
      "isplay": 2310,
      "aving": 2311,
      "Ġgover": 2312,
      "Ġversion": 2313,
      "System": 2314,
      "nect": 2315,
      "response": 2316,
      "Style": 2317,
      "Up": 2318,
      "angu": 2319,
      "Ġthree": 2320,
      "init": 2321,
      "ero": 2322,
      "Ġlaw": 2323,
      "endif": 2324,
      "Ġbase": 2325,
      "email": 2326,
      "(l": 2327,
      "_V": 2328,
      "Ġconf": 2329,
      "ATE": 2330,
      "Ġduring": 2331,
      "tes": 2332,
      "Ġconsole": 2333,
      "ĠPr": 2334,
      "Ġspe": 2335,
      "ves": 2336,
      "path": 2337,
      "ialog": 2338,
      "dition": 2339,
      "_to": 2340,
      "ards": 2341,
      "Ġagainst": 2342,
      "etwork": 2343,
      "ĠPh": 2344,
      "_L": 2345,
      "cur": 2346,
      "imit": 2347,
      "With": 2348,
      "Ġpower": 2349,
      "ium": 2350,
      "';ĊĊ": 2351,
      "Ġwom": 2352,
      "left": 2353,
      "ources": 2354,
      "atri": 2355,
      "ĠIm": 2356,
      "ĠMan": 2357,
      "orth": 2358,
      "${": 2359,
      "quals": 2360,
      "ese": 2361,
      "_size": 2362,
      "Ġiss": 2363,
      "otal": 2364,
      "-g": 2365,
      "ique": 2366,
      "rame": 2367,
      "Ġwidth": 2368,
      "erg": 2369,
      ")(": 2370,
      "ittle": 2371,
      "TR": 2372,
      "ĠThey": 2373,
      "ences": 2374,
      "rl": 2375,
      "ons": 2376,
      "Ġlabel": 2377,
      ".y": 2378,
      "-t": 2379,
      "update": 2380,
      "anel": 2381,
      "sc": 2382,
      ".to": 2383,
      "Ġproject": 2384,
      "Ã¼": 2385,
      "Ġelement": 2386,
      "Ġsuccess": 2387,
      "ĉĉĊ": 2388,
      ".sh": 2389,
      "ram": 2390,
      "ched": 2391,
      "())Ċ": 2392,
      "Ġ(Ċ": 2393,
      "Ġdate": 2394,
      "Ġtot": 2395,
      "_ST": 2396,
      "All": 2397,
      "ification": 2398,
      "ĉvar": 2399,
      "Ġtri": 2400,
      "chem": 2401,
      "my": 2402,
      "Ġbig": 2403,
      "ĠAd": 2404,
      "ĠAt": 2405,
      "ots": 2406,
      "num": 2407,
      "Act": 2408,
      "Ġmap": 2409,
      "era": 2410,
      "cope": 2411,
      ".$": 2412,
      ",âĢĿ": 2413,
      "Ġpop": 2414,
      "Ġfew": 2415,
      "Ġlen": 2416,
      "uid": 2417,
      "eters": 2418,
      "ules": 2419,
      "ÃŃ": 2420,
      "source": 2421,
      "https": 2422,
      "Ġdem": 2423,
      "Ġear": 2424,
      "Ġmatch": 2425,
      "ories": 2426,
      "aces": 2427,
      "ĠCl": 2428,
      "Ġnode": 2429,
      "irc": 2430,
      "local": 2431,
      "unity": 2432,
      "};Ċ": 2433,
      "Ġanother": 2434,
      "<<": 2435,
      "ogle": 2436,
      "Ġsit": 2437,
      "ework": 2438,
      "TE": 2439,
      ".I": 2440,
      "NS": 2441,
      "ology": 2442,
      "ought": 2443,
      ".Cont": 2444,
      ">>": 2445,
      "Ġcare": 2446,
      "state": 2447,
      "ĉprivate": 2448,
      "Ġeffect": 2449,
      "++)": 2450,
      "_file": 2451,
      "ending": 2452,
      "Line": 2453,
      "For": 2454,
      "ior": 2455,
      "ĠSc": 2456,
      "Ġfun": 2457,
      ".Size": 2458,
      "ĉelse": 2459,
      "])": 2460,
      "start": 2461,
      "vious": 2462,
      "Ġ},": 2463,
      "ours": 2464,
      "Ġleg": 2465,
      "Ġservice": 2466,
      "Ġsince": 2467,
      "iron": 2468,
      "Label": 2469,
      "Ġnon": 2470,
      "Ġlos": 2471,
      "iction": 2472,
      "Ġfull": 2473,
      "acter": 2474,
      "board": 2475,
      "gress": 2476,
      "Ġturn": 2477,
      "ither": 2478,
      ".size": 2479,
      "Ġbody": 2480,
      "resh": 2481,
      "eturn": 2482,
      "(_": 2483,
      "yles": 2484,
      "ormal": 2485,
      "pi": 2486,
      "Ġsomething": 2487,
      "!--": 2488,
      "uint": 2489,
      "Ġprodu": 2490,
      "Ġstand": 2491,
      "Ġproble": 2492,
      "Ġavailable": 2493,
      "mt": 2494,
      "ĠBl": 2495,
      "Ġ...": 2496,
      "Ġblock": 2497,
      "Input": 2498,
      "Ġkeep": 2499,
      "Count": 2500,
      "open": 2501,
      "Ġ['": 2502,
      "Ġthrow": 2503,
      "uilder": 2504,
      "Action": 2505,
      "Ġthings": 2506,
      "True": 2507,
      "Ġurl": 2508,
      "ĠBo": 2509,
      "printf": 2510,
      "Ġred": 2511,
      "js": 2512,
      ".create": 2513,
      "ĠOr": 2514,
      "Status": 2515,
      "Instance": 2516,
      "Ġcontrol": 2517,
      "Ġcome": 2518,
      "Ġcustom": 2519,
      "location": 2520,
      "model": 2521,
      "ĠčĊ": 2522,
      "Ġsource": 2523,
      "Ġeas": 2524,
      ".out": 2525,
      "]ĊĊ": 2526,
      "oney": 2527,
      "Ġawait": 2528,
      "Ġpartic": 2529,
      "AP": 2530,
      "ublish": 2531,
      "odes": 2532,
      "_pro": 2533,
      "ply": 2534,
      "riter": 2535,
      "Ġprov": 2536,
      "Ġmill": 2537,
      "HT": 2538,
      "])Ċ": 2539,
      "Ġchang": 2540,
      "Ġask": 2541,
      "ĠĠĠĠĠĠĠĠĠĠĠĠĠĠĠĠĠĠĠĠĠ": 2542,
      "Ġoutput": 2543,
      "Ġemail": 2544,
      ".push": 2545,
      "Ġ}čĊčĊ": 2546,
      "ination": 2547,
      "atrix": 2548,
      "Table": 2549,
      "uccess": 2550,
      "]);Ċ": 2551,
      "ĠĠĠĠĠĠĠĠĠĠĠĠĠĠĠĠĠĠĠĠĠĠĠĠĠĠĠĠĠĠĠĠĠĠĠĠĠĠĠ": 2552,
      "Ġdisc": 2553,
      "([": 2554,
      "Ġbusiness": 2555,
      "height": 2556,
      ".html": 2557,
      "ta": 2558,
      "field": 2559,
      "Ġrequired": 2560,
      "_R": 2561,
      "Ġgovern": 2562,
      "}čĊčĊ": 2563,
      "lex": 2564,
      ".,": 2565,
      "ĠSet": 2566,
      "urch": 2567,
      "///": 2568,
      "ts": 2569,
      "af": 2570,
      "Ġmight": 2571,
      "istory": 2572,
      "Str": 2573,
      "Ġnever": 2574,
      "Response": 2575,
      "arse": 2576,
      "ada": 2577,
      "ĠHow": 2578,
      "Ġ*)": 2579,
      "Ġ;": 2580,
      "Ġhard": 2581,
      "Ad": 2582,
      "Ġintern": 2583,
      "used": 2584,
      "(data": 2585,
      "mod": 2586,
      "annel": 2587,
      "Ġnp": 2588,
      "ugg": 2589,
      "Ġ/>Ċ": 2590,
      "Ġcalled": 2591,
      "body": 2592,
      "Ġcho": 2593,
      "(r": 2594,
      "_set": 2595,
      "ird": 2596,
      "Ġ>=": 2597,
      "Ġ};Ċ": 2598,
      "Ġoptions": 2599,
      "ĠGener": 2600,
      "Ġheight": 2601,
      "Point": 2602,
      "You": 2603,
      "ety": 2604,
      "Click": 2605,
      "Ġsmall": 2606,
      "Ġide": 2607,
      "Ġaccess": 2608,
      "anguage": 2609,
      "Ġprotected": 2610,
      "Ġjob": 2611,
      "ĠThere": 2612,
      "Def": 2613,
      "Ġaddress": 2614,
      "Ġuint": 2615,
      "Not": 2616,
      "oo": 2617,
      "aps": 2618,
      "<div": 2619,
      "ained": 2620,
      "atur": 2621,
      "Ġsum": 2622,
      "-w": 2623,
      "ĠDate": 2624,
      "Ġlittle": 2625,
      "Ġfri": 2626,
      "YPE": 2627,
      "Ġport": 2628,
      "eh": 2629,
      "pring": 2630,
      "_path": 2631,
      "Ġstatus": 2632,
      "aim": 2633,
      "bool": 2634,
      "Ġappe": 2635,
      "Ġos": 2636,
      ".name": 2637,
      "ension": 2638,
      "_G": 2639,
      "Ġupdate": 2640,
      "Config": 2641,
      "aff": 2642,
      "ERR": 2643,
      "Ġ<=": 2644,
      "ately": 2645,
      "#if": 2646,
      "uction": 2647,
      "ĠTe": 2648,
      "Ġlink": 2649,
      "ĠUser": 2650,
      ".find": 2651,
      ".org": 2652,
      "me": 2653,
      "Ġgiven": 2654,
      "Out": 2655,
      "#endif": 2656,
      "Ġbetter": 2657,
      "Page": 2658,
      "Ġfeel": 2659,
      "enn": 2660,
      "ML": 2661,
      "Ġalready": 2662,
      "Ġincluding": 2663,
      "oogle": 2664,
      "ru": 2665,
      "ically": 2666,
      "prop": 2667,
      "lean": 2668,
      "outer": 2669,
      "Ġalways": 2670,
      "ording": 2671,
      "If": 2672,
      "orage": 2673,
      "Ġparent": 2674,
      "vis": 2675,
      "ĉĉĉĉĉĉĉ": 2676,
      "Ġgot": 2677,
      "stand": 2678,
      "Ġless": 2679,
      "/s": 2680,
      "ĠAss": 2681,
      "apt": 2682,
      "ired": 2683,
      "ĠAdd": 2684,
      "Ġaccount": 2685,
      "ploy": 2686,
      "Ġder": 2687,
      "resent": 2688,
      "Ġlot": 2689,
      "Ġvalid": 2690,
      "ĉd": 2691,
      "Ġbit": 2692,
      "ponents": 2693,
      "Ġfollowing": 2694,
      "_ex": 2695,
      "SON": 2696,
      "Ġsure": 2697,
      "ocial": 2698,
      "Ġprom": 2699,
      "erties": 2700,
      "header": 2701,
      ".pro": 2702,
      "Ġboolean": 2703,
      "Ġsearch": 2704,
      "ken": 2705,
      "Ġorig": 2706,
      "Ġer": 2707,
      "Ed": 2708,
      "EM": 2709,
      "aut": 2710,
      "ling": 2711,
      "ality": 2712,
      "bed": 2713,
      "ĉcase": 2714,
      "ether": 2715,
      "posit": 2716,
      "Ġinvest": 2717,
      "ĠOR": 2718,
      "Ġsays": 2719,
      "mission": 2720,
      "AME": 2721,
      "Ġtemp": 2722,
      "oad": 2723,
      "Ġrest": 2724,
      "info": 2725,
      "Ġinterest": 2726,
      "Arg": 2727,
      "Ġperform": 2728,
      "pons": 2729,
      "ĠView": 2730,
      "Ġver": 2731,
      "lib": 2732,
      "(const": 2733,
      "Util": 2734,
      "Listener": 2735,
      "arge": 2736,
      "Ġmult": 2737,
      "Ġdie": 2738,
      "Ġsite": 2739,
      "../../": 2740,
      "EL": 2741,
      "Ġvalues": 2742,
      "Ġ})Ċ": 2743,
      "pen": 2744,
      "No": 2745,
      "icro": 2746,
      "Ġbeh": 2747,
      "Ġ'./": 2748,
      "acy": 2749,
      "rec": 2750,
      "()->": 2751,
      "ĉĠĠĠ": 2752,
      "\"))": 2753,
      "Content": 2754,
      "_W": 2755,
      "plement": 2756,
      "Ġwon": 2757,
      "Ġvideo": 2758,
      "adi": 2759,
      "point": 2760,
      "%%": 2761,
      "Ġgl": 2762,
      "erved": 2763,
      "viron": 2764,
      "IF": 2765,
      "uted": 2766,
      "ãĥ": 2767,
      "'m": 2768,
      "Ġcert": 2769,
      "Ġprof": 2770,
      "Ġcell": 2771,
      "ari": 2772,
      "Ġplayer": 2773,
      "ais": 2774,
      "Ġcost": 2775,
      "Ġhum": 2776,
      "(R": 2777,
      "Ġoffic": 2778,
      "ks": 2779,
      ".text": 2780,
      "atures": 2781,
      "Ġtotal": 2782,
      "Ġ*/ĊĊ": 2783,
      "ope": 2784,
      "Ġstat": 2785,
      "UM": 2786,
      "Ġload": 2787,
      "ights": 2788,
      "Ġclear": 2789,
      "uro": 2790,
      "Ġtechn": 2791,
      "upport": 2792,
      "IR": 2793,
      "Ġrow": 2794,
      "Ġseem": 2795,
      "Ġq": 2796,
      "Ġshort": 2797,
      "ĠNot": 2798,
      "ipp": 2799,
      "Group": 2800,
      "section": 2801,
      "max": 2802,
      "irl": 2803,
      "Ġoverride": 2804,
      "Ġcompany": 2805,
      "Ġdone": 2806,
      "Ġgre": 2807,
      ".Re": 2808,
      "Ġbelie": 2809,
      "rist": 2810,
      "Ġhealth": 2811,
      "ANT": 2812,
      "()ĊĊ": 2813,
      "ĠBe": 2814,
      ".value": 2815,
      "ĠGr": 2816,
      "ottom": 2817,
      "Ġargs": 2818,
      "PT": 2819,
      "status": 2820,
      "func": 2821,
      "uments": 2822,
      "-h": 2823,
      "Number": 2824,
      ":čĊ": 2825,
      "ĠLog": 2826,
      "erver": 2827,
      "Ġ),Ċ": 2828,
      "ament": 2829,
      "Ġobj": 2830,
      "inc": 2831,
      "Ġchildren": 2832,
      "icy": 2833,
      "IZ": 2834,
      "ands": 2835,
      "ably": 2836,
      "Ġdistrib": 2837,
      "Ġcur": 2838,
      "erial": 2839,
      "Ġdays": 2840,
      "reated": 2841,
      "rect": 2842,
      "-l": 2843,
      "irm": 2844,
      "idden": 2845,
      "omb": 2846,
      "Ġinitial": 2847,
      ".js": 2848,
      "Ġâ": 2849,
      "Query": 2850,
      "Ġonline": 2851,
      "imal": 2852,
      ".con": 2853,
      "au": 2854,
      "Url": 2855,
      "control": 2856,
      "irection": 2857,
      "Ġinstance": 2858,
      "ORT": 2859,
      "ĠFr": 2860,
      "where": 2861,
      "Ġorgan": 2862,
      "apter": 2863,
      "Ġreason": 2864,
      "options": 2865,
      "ĠMar": 2866,
      "(a": 2867,
      "Ġwithin": 2868,
      ".âĢĿĊĊ": 2869,
      "ODE": 2870,
      "_DE": 2871,
      "admin": 2872,
      "ended": 2873,
      "Ġdesign": 2874,
      "ĠData": 2875,
      "une": 2876,
      "ĠFile": 2877,
      "root": 2878,
      "Ġcent": 2879,
      "Ġarr": 2880,
      "_add": 2881,
      "len": 2882,
      "page": 2883,
      ",'": 2884,
      "_str": 2885,
      "Ġbro": 2886,
      "ability": 2887,
      "outh": 2888,
      "/c": 2889,
      "pose": 2890,
      "irtual": 2891,
      "earch": 2892,
      "_url": 2893,
      "argin": 2894,
      "Http": 2895,
      "Ġschool": 2896,
      "ava": 2897,
      "Ġconsider": 2898,
      ".label": 2899,
      "ĠArray": 2900,
      "web": 2901,
      "opt": 2902,
      "ulation": 2903,
      "Ġfunc": 2904,
      "PL": 2905,
      "Ġ\"\\": 2906,
      "ĠText": 2907,
      "actory": 2908,
      "(function": 2909,
      "null": 2910,
      "Ġeng": 2911,
      "down": 2912,
      "Ġinclude": 2913,
      "ĠEn": 2914,
      "ĠDr": 2915,
      "Ġdb": 2916,
      "!!": 2917,
      "side": 2918,
      "Ġinit": 2919,
      "quired": 2920,
      "ĠShe": 2921,
      "Column": 2922,
      "react": 2923,
      "Ġann": 2924,
      "Ġstop": 2925,
      "Ġlater": 2926,
      "ĠThat": 2927,
      "ention": 2928,
      "df": 2929,
      "UG": 2930,
      "ILE": 2931,
      "Ġclient": 2932,
      "raft": 2933,
      "ffer": 2934,
      "POST": 2935,
      "elper": 2936,
      "Ġlove": 2937,
      "quote": 2938,
      "oud": 2939,
      "Ġjson": 2940,
      "Ġable": 2941,
      "Ġmen": 2942,
      "AX": 2943,
      "ĠCopyright": 2944,
      "Ã¶": 2945,
      "avig": 2946,
      "req": 2947,
      "Client": 2948,
      "});Ċ": 2949,
      ".Com": 2950,
      "erc": 2951,
      "ilt": 2952,
      "pecial": 2953,
      "_com": 2954,
      "room": 2955,
      ".Name": 2956,
      "Ġgive": 2957,
      "amb": 2958,
      "ike": 2959,
      "Ġcondition": 2960,
      "client": 2961,
      "ators": 2962,
      ":\"": 2963,
      "Ġcopy": 2964,
      "uture": 2965,
      "iversity": 2966,
      "ernal": 2967,
      "{{": 2968,
      "ĠCan": 2969,
      "ounc": 2970,
      "do": 2971,
      "Ġocc": 2972,
      "Ġappro": 2973,
      "thers": 2974,
      "ze": 2975,
      "Ġeither": 2976,
      "ĠFl": 2977,
      "Ġimportant": 2978,
      "Ġlead": 2979,
      "attr": 2980,
      "ART": 2981,
      "Equal": 2982,
      "Ġda": 2983,
      "etch": 2984,
      "entity": 2985,
      "Ġfamily": 2986,
      "adding": 2987,
      "Ġoption": 2988,
      "Ġexist": 2989,
      "ica": 2990,
      "ĠObject": 2991,
      "'ve": 2992,
      "vers": 2993,
      "itional": 2994,
      "output": 2995,
      "ĠTrue": 2996,
      "ĠOF": 2997,
      "_time": 2998,
      "Ġoffer": 2999,
      "Ġ});ĊĊ": 3000,
      "HER": 3001,
      "egin": 3002,
      "\"\"": 3003,
      "Ġwater": 3004,
      "Ġche": 3005,
      "ĠMy": 3006,
      "ored": 3007,
      "Ġstep": 3008,
      "ances": 3009,
      "CK": 3010,
      "AY": 3011,
      "struction": 3012,
      "(C": 3013,
      "ouch": 3014,
      "Stream": 3015,
      "active": 3016,
      "ama": 3017,
      "Entity": 3018,
      "product": 3019,
      "Ġgovernment": 3020,
      "ĠID": 3021,
      "ajor": 3022,
      "And": 3023,
      "Ġdisplay": 3024,
      "Ð»": 3025,
      "Ġtimes": 3026,
      "Ġfour": 3027,
      "Ġfar": 3028,
      "Ġpresent": 3029,
      "ĠNS": 3030,
      "Ġ\\Ċ": 3031,
      "uest": 3032,
      "Ġbas": 3033,
      "echo": 3034,
      "child": 3035,
      "ifier": 3036,
      "Handler": 3037,
      "Ġlib": 3038,
      "Property": 3039,
      "translation": 3040,
      "Ġroom": 3041,
      "Ġonce": 3042,
      "Ġ[]": 3043,
      "center": 3044,
      "================================": 3045,
      "Ġresults": 3046,
      "Ġcontinue": 3047,
      "Ġtalk": 3048,
      "_get": 3049,
      "Ġgrow": 3050,
      ".sw": 3051,
      "eb": 3052,
      "ĠPublic": 3053,
      "OP": 3054,
      "ecute": 3055,
      "ols": 3056,
      "Ġ**": 3057,
      "\");ĊĊ": 3058,
      "Ġmass": 3059,
      "ured": 3060,
      ".class": 3061,
      "omic": 3062,
      "Ġmean": 3063,
      "ips": 3064,
      "Ġaut": 3065,
      "Ġuntil": 3066,
      "Ġmarket": 3067,
      "Ġarea": 3068,
      "uit": 3069,
      "Ġlength": 3070,
      "ĠWith": 3071,
      "structor": 3072,
      "event": 3073,
      "\"><": 3074,
      "ĠSp": 3075,
      "IV": 3076,
      "Ġmus": 3077,
      "iff": 3078,
      "Ġkind": 3079,
      "author": 3080,
      "ounds": 3081,
      "mb": 3082,
      "_key": 3083,
      "width": 3084,
      "pository": 3085,
      "Ġlight": 3086,
      "uk": 3087,
      "Row": 3088,
      "ohn": 3089,
      "alf": 3090,
      "vironment": 3091,
      "apper": 3092,
      "ollections": 3093,
      "Ġside": 3094,
      "_info": 3095,
      "Ġexample": 3096,
      "imary": 3097,
      "Ġwr": 3098,
      "Ġcamp": 3099,
      "cribe": 3100,
      "\"/": 3101,
      "Ġmiss": 3102,
      "way": 3103,
      "Ġbased": 3104,
      "Ġplan": 3105,
      "Vis": 3106,
      "omain": 3107,
      "unk": 3108,
      "Ġaway": 3109,
      "UP": 3110,
      "<T": 3111,
      "OS": 3112,
      "iod": 3113,
      "ĠMon": 3114,
      "âĢĻre": 3115,
      "Ġlik": 3116,
      "Ã§": 3117,
      "ively": 3118,
      ".v": 3119,
      "imer": 3120,
      "izer": 3121,
      "Sub": 3122,
      "Ġbutton": 3123,
      "ĠUp": 3124,
      "Ġexperience": 3125,
      "CL": 3126,
      "Ġrender": 3127,
      "_value": 3128,
      "Ġnear": 3129,
      "URL": 3130,
      "alt": 3131,
      "Ġcountry": 3132,
      "ibility": 3133,
      "(),Ċ": 3134,
      "ead": 3135,
      "Ġauthor": 3136,
      "Ġspecific": 3137,
      "base": 3138,
      "(name": 3139,
      "ones": 3140,
      "ĠDo": 3141,
      "Ġalong": 3142,
      "year": 3143,
      "Ġexpress": 3144,
      ".'": 3145,
      "env": 3146,
      "Ġbegin": 3147,
      "Ġsoftware": 3148,
      "Ġimp": 3149,
      "Ġwin": 3150,
      "Ã³n": 3151,
      "Ġthing": 3152,
      "Trans": 3153,
      "ĠTHE": 3154,
      "Ġwhy": 3155,
      "Ġdoesn": 3156,
      "ij": 3157,
      "ging": 3158,
      "ĉg": 3159,
      "Ġsingle": 3160,
      "offset": 3161,
      "arning": 3162,
      "ograph": 3163,
      "ley": 3164,
      "_count": 3165,
      "Ġanal": 3166,
      "create": 3167,
      "/m": 3168,
      "ĠReg": 3169,
      "unch": 3170,
      "=$": 3171,
      "isk": 3172,
      "Ġrights": 3173,
      "(M": 3174,
      "Ġ\"\"\"Ċ": 3175,
      "aper": 3176,
      ".model": 3177,
      "Ġpo": 3178,
      "empty": 3179,
      "artment": 3180,
      "Ġant": 3181,
      "ĠWhen": 3182,
      "Ġwomen": 3183,
      "ĠEd": 3184,
      "Ġseason": 3185,
      "Ġdest": 3186,
      "Ã£": 3187,
      "(h": 3188,
      "Ġpossible": 3189,
      "Ġsever": 3190,
      "Ġbtn": 3191,
      "Ġdidn": 3192,
      "Ġsent": 3193,
      "Ġenc": 3194,
      "Ġcommand": 3195,
      "Ġ],Ċ": 3196,
      "_x": 3197,
      "Ġrecent": 3198,
      "olution": 3199,
      "vector": 3200,
      "ĠBy": 3201,
      "ĠMay": 3202,
      "ĠAct": 3203,
      "»¿": 3204,
      "Ġmoney": 3205,
      "INT": 3206,
      "bsite": 3207,
      "ĉp": 3208,
      ".čĊ": 3209,
      "ï»¿": 3210,
      "sl": 3211,
      "attern": 3212,
      "ĠClass": 3213,
      "Ġtold": 3214,
      "udio": 3215,
      "current": 3216,
      "Ġequ": 3217,
      "Ġauto": 3218,
      "ĠState": 3219,
      "da": 3220,
      "msg": 3221,
      "));ĊĊ": 3222,
      "Ġworking": 3223,
      "Ġquery": 3224,
      "ĠBr": 3225,
      "Ġwindow": 3226,
      "auth": 3227,
      "only": 3228,
      "ĉt": 3229,
      "Ġleast": 3230,
      "agn": 3231,
      "Ġexpl": 3232,
      "itter": 3233,
      "aring": 3234,
      "Ġcolumn": 3235,
      "ĠGeneral": 3236,
      "\":\"": 3237,
      "eral": 3238,
      "rior": 3239,
      "Ġrecord": 3240,
      "IB": 3241,
      "EX": 3242,
      "Ġdat": 3243,
      "Ġmaking": 3244,
      "ued": 3245,
      "ĠCar": 3246,
      "emp": 3247,
      "\".": 3248,
      "ĠMed": 3249,
      "Ġclose": 3250,
      "Ġpercent": 3251,
      "Ġpast": 3252,
      "(g": 3253,
      ":(": 3254,
      "Ġwrite": 3255,
      "Ġmove": 3256,
      "Ġpat": 3257,
      "Control": 3258,
      ".To": 3259,
      "Ġvi": 3260,
      "*/Ċ": 3261,
      "inate": 3262,
      "'ll": 3263,
      "aged": 3264,
      "Null": 3265,
      "Ġspecial": 3266,
      "IZE": 3267,
      "Ġcity": 3268,
      "/*Ċ": 3269,
      "ĠEng": 3270,
      "ixed": 3271,
      "inary": 3272,
      "py": 3273,
      "Ġeff": 3274,
      "ario": 3275,
      "Ġtell": 3276,
      "avor": 3277,
      "Ġselect": 3278,
      "level": 3279,
      "imum": 3280,
      "oper": 3281,
      "Builder": 3282,
      "IP": 3283,
      "'),Ċ": 3284,
      "esc": 3285,
      "Ġfont": 3286,
      "\";ĊĊ": 3287,
      "ĠAm": 3288,
      "ished": 3289,
      "ills": 3290,
      "Inter": 3291,
      "OW": 3292,
      "Ġcourse": 3293,
      "Ġlate": 3294,
      "iddle": 3295,
      "Ġamount": 3296,
      "Ġasync": 3297,
      "ino": 3298,
      "cul": 3299,
      "andle": 3300,
      "_user": 3301,
      "Ġben": 3302,
      "ĠCal": 3303,
      "Ġ$_": 3304,
      "ĠRep": 3305,
      "Ġenough": 3306,
      "Token": 3307,
      ".user": 3308,
      "(j": 3309,
      "Sc": 3310,
      "Width": 3311,
      "now": 3312,
      "atform": 3313,
      "Ġlooking": 3314,
      "Ġhold": 3315,
      "Module": 3316,
      "ITY": 3317,
      "vo": 3318,
      "ison": 3319,
      ".Data": 3320,
      "yc": 3321,
      "Ġpot": 3322,
      "ĠTrump": 3323,
      "idual": 3324,
      "ides": 3325,
      "rt": 3326,
      "Ġproperty": 3327,
      "ĠĠĠĠĠĠĠĠĠĠĠĠĠĠĠĠĠĠĠĠĠĠĠĠĠĠĠĠĠĠĠĠĠĠĠĠĠĠĠĠĠĠĠ": 3328,
      "amework": 3329,
      "go": 3330,
      "Ġlow": 3331,
      "Ġpara": 3332,
      "Ġprice": 3333,
      "ury": 3334,
      "Ġtoday": 3335,
      "roy": 3336,
      "Ġ'/": 3337,
      "Ġpolit": 3338,
      "Ġ''": 3339,
      "ymb": 3340,
      "Ph": 3341,
      "Ġadv": 3342,
      "Ġattack": 3343,
      "ĠSte": 3344,
      "ROM": 3345,
      "ana": 3346,
      "Ġmeans": 3347,
      "Ġstory": 3348,
      "ids": 3349,
      "aken": 3350,
      "Ġmeet": 3351,
      "Ġmom": 3352,
      "ĠâĢĺ": 3353,
      "Ġden": 3354,
      "obile": 3355,
      "change": 3356,
      "ĠĠĠĠĠĠĠĠĠĠĠĠĊ": 3357,
      "ici": 3358,
      "na": 3359,
      "ĠForm": 3360,
      "Ġsort": 3361,
      "Select": 3362,
      "pare": 3363,
      "Ġthought": 3364,
      "_con": 3365,
      "Ġtask": 3366,
      "ocus": 3367,
      "ĠDE": 3368,
      "ĠMin": 3369,
      "Ġopt": 3370,
      "ĉbreak": 3371,
      "umer": 3372,
      "KE": 3373,
      "then": 3374,
      "Ġdet": 3375,
      "ĠTest": 3376,
      "ports": 3377,
      "Ġreview": 3378,
      "('/": 3379,
      "move": 3380,
      "Ġswitch": 3381,
      "ERT": 3382,
      "patch": 3383,
      "annot": 3384,
      "ãĤ": 3385,
      "Ġabove": 3386,
      "itive": 3387,
      "Ġquestion": 3388,
      "ĠQu": 3389,
      "ãĢĤĊĊ": 3390,
      "gle": 3391,
      "Ġword": 3392,
      "Ġprovide": 3393,
      "ĠReturn": 3394,
      "Ġresearch": 3395,
      "Ã£o": 3396,
      "ustr": 3397,
      "Ġpublish": 3398,
      "chema": 3399,
      "}}": 3400,
      "ĠCON": 3401,
      "-in": 3402,
      "allback": 3403,
      "Ġcover": 3404,
      "\\\\": 3405,
      "color": 3406,
      "ĠIS": 3407,
      "Ġwhether": 3408,
      "imate": 3409,
      "isc": 3410,
      "Bar": 3411,
      "Ġdiv": 3412,
      "Be": 3413,
      "ourn": 3414,
      "Ġhaving": 3415,
      "lem": 3416,
      "player": 3417,
      "abs": 3418,
      "amera": 3419,
      "ney": 3420,
      "Ġexc": 3421,
      "gether": 3422,
      "plied": 3423,
      "ao": 3424,
      "[$": 3425,
      "Ġ++": 3426,
      "ipe": 3427,
      "show": 3428,
      "/d": 3429,
      "[:": 3430,
      "agement": 3431,
      "lev": 3432,
      "_ID": 3433,
      "rary": 3434,
      "ades": 3435,
      "_se": 3436,
      "ause": 3437,
      "Ġemploy": 3438,
      "Ġ*/čĊ": 3439,
      "Ġfre": 3440,
      "Ġ'@": 3441,
      "Ġcomplet": 3442,
      "Ġlarge": 3443,
      "ral": 3444,
      "\\x": 3445,
      "Ġfac": 3446,
      "<String": 3447,
      "Ġcreated": 3448,
      "uper": 3449,
      ".state": 3450,
      "Ġhost": 3451,
      "eneric": 3452,
      "/b": 3453,
      "(!": 3454,
      "while": 3455,
      "ias": 3456,
      "BUG": 3457,
      "Ġ);ĊĊ": 3458,
      "Ġrole": 3459,
      "Reg": 3460,
      "ĠColor": 3461,
      "Start": 3462,
      "Ġporn": 3463,
      "top": 3464,
      "Ġweb": 3465,
      "Ġdev": 3466,
      "Ġdeal": 3467,
      "++)Ċ": 3468,
      "Integer": 3469,
      "position": 3470,
      ".on": 3471,
      "Ġ(\"": 3472,
      "ä¸": 3473,
      "Ġproblem": 3474,
      "sv": 3475,
      "Ġpress": 3476,
      "ABLE": 3477,
      "ATION": 3478,
      "ĠSee": 3479,
      "anch": 3480,
      "Ġthough": 3481,
      "leep": 3482,
      "Ġ<!--": 3483,
      "Ġpoints": 3484,
      "ĠĠĠĠĠĠĠĠĠĠĠĠĠĠĠĠĠĠĠĠĠĠĠĠĠ": 3485,
      ".J": 3486,
      "Ġ::": 3487,
      "ptr": 3488,
      "DB": 3489,
      "++;Ċ": 3490,
      ".png": 3491,
      "node": 3492,
      "soft": 3493,
      "pond": 3494,
      "Ġever": 3495,
      "----------------------------------------------------------------": 3496,
      "Menu": 3497,
      "Ġservices": 3498,
      "pg": 3499,
      "})Ċ": 3500,
      "params": 3501,
      "Ġactually": 3502,
      "Ġ\"/": 3503,
      "Empty": 3504,
      "Method": 3505,
      "Ġident": 3506,
      "unic": 3507,
      "Ġmillion": 3508,
      "Ġaff": 3509,
      "style": 3510,
      "Ġconc": 3511,
      "ios": 3512,
      "ignment": 3513,
      "ULT": 3514,
      "Pr": 3515,
      "Ġunderstand": 3516,
      "uary": 3517,
      "Ġhappen": 3518,
      "Ġserver": 3519,
      "ĠCo": 3520,
      "SC": 3521,
      "Ġles": 3522,
      "Ġfiles": 3523,
      "Grid": 3524,
      "sql": 3525,
      "Ġoften": 3526,
      "Ġinfo": 3527,
      "_tr": 3528,
      "src": 3529,
      "ony": 3530,
      "Ġspace": 3531,
      "umb": 3532,
      "Ġpassword": 3533,
      "Ġstore": 3534,
      ",ĊĊ": 3535,
      "ĠWhat": 3536,
      "ged": 3537,
      "ĠFalse": 3538,
      "Us": 3539,
      "swer": 3540,
      "_index": 3541,
      "Ġformat": 3542,
      "most": 3543,
      "sm": 3544,
      "New": 3545,
      "Ġdetails": 3546,
      "Ġprob": 3547,
      "ĠAND": 3548,
      "()čĊ": 3549,
      "ilar": 3550,
      "Ġ${": 3551,
      "rypt": 3552,
      ".Collections": 3553,
      "ĠFree": 3554,
      "_of": 3555,
      "(false": 3556,
      "dated": 3557,
      "Ġ>>": 3558,
      "Ġface": 3559,
      "CTION": 3560,
      "Ġsave": 3561,
      "Ġtyp": 3562,
      "dev": 3563,
      "AGE": 3564,
      "container": 3565,
      "edit": 3566,
      "QL": 3567,
      "Ġitems": 3568,
      "Ġsocial": 3569,
      "ien": 3570,
      "ĠReact": 3571,
      ").ĊĊ": 3572,
      "Ġmar": 3573,
      "Ġredu": 3574,
      "ĠRE": 3575,
      ".put": 3576,
      "Ġmajor": 3577,
      "Cell": 3578,
      "next": 3579,
      "Ġexpected": 3580,
      "Ġyet": 3581,
      "Ġindiv": 3582,
      "tributes": 3583,
      "atis": 3584,
      "amed": 3585,
      "Ġfood": 3586,
      "Source": 3587,
      "(string": 3588,
      "Ġ+Ċ": 3589,
      "ites": 3590,
      "dr": 3591,
      "Ġmembers": 3592,
      "Ġcomb": 3593,
      "items": 3594,
      "ĠPer": 3595,
      "TH": 3596,
      "=True": 3597,
      "Ġbar": 3598,
      "_SE": 3599,
      "comm": 3600,
      "(w": 3601,
      ")ĊĊĊ": 3602,
      "Ġsend": 3603,
      "Ġinc": 3604,
      "unsigned": 3605,
      "FA": 3606,
      "Ġparams": 3607,
      "apping": 3608,
      "ros": 3609,
      "ugin": 3610,
      "fa": 3611,
      "Ġconnection": 3612,
      "Ġ};ĊĊ": 3613,
      "Ġbecome": 3614,
      "Mode": 3615,
      "Ġev": 3616,
      "Ġdiff": 3617,
      "ĠUnited": 3618,
      "Height": 3619,
      "fully": 3620,
      "images": 3621,
      "Ġmakes": 3622,
      "Ġglobal": 3623,
      "Ġcontact": 3624,
      "':Ċ": 3625,
      "Ġabs": 3626,
      "Ð°Ð": 3627,
      "float": 3628,
      "Ġexcept": 3629,
      "ĠPol": 3630,
      "Child": 3631,
      "typ": 3632,
      "Ġcertain": 3633,
      "iÃ³n": 3634,
      "OUT": 3635,
      "Ġimpro": 3636,
      "iles": 3637,
      "Ġ-->Ċ": 3638,
      "ĠPart": 3639,
      "values": 3640,
      "oss": 3641,
      "/**": 3642,
      "ilit": 3643,
      "ĠEvent": 3644,
      "curity": 3645,
      "ster": 3646,
      "Ġcharacter": 3647,
      "Ġnews": 3648,
      "Ġ\",": 3649,
      "Ġdevice": 3650,
      "cel": 3651,
      "login": 3652,
      "heet": 3653,
      "Default": 3654,
      "ĉĠ": 3655,
      "click": 3656,
      "(value": 3657,
      "ĠAb": 3658,
      "Ġprevious": 3659,
      "ERROR": 3660,
      "ocal": 3661,
      "Ġmaterial": 3662,
      "Ġbelow": 3663,
      "ĠChrist": 3664,
      "Ġmedia": 3665,
      "cover": 3666,
      "ĠUI": 3667,
      "Ġfail": 3668,
      "Ġblack": 3669,
      "Ġcomponent": 3670,
      "ĠAmerican": 3671,
      "Ġadded": 3672,
      "Ġbuy": 3673,
      "stit": 3674,
      "Ġcame": 3675,
      "Ġdelete": 3676,
      "property": 3677,
      "oding": 3678,
      "Ġcard": 3679,
      "rops": 3680,
      "Ġhttps": 3681,
      "Ġroot": 3682,
      "Ġhandle": 3683,
      "CC": 3684,
      "Back": 3685,
      "emplate": 3686,
      "Ġgetting": 3687,
      "_by": 3688,
      "mail": 3689,
      "_sh": 3690,
      ".assert": 3691,
      "ĠDec": 3692,
      "(true": 3693,
      "Ġcomput": 3694,
      "Ġclaim": 3695,
      "ĠSub": 3696,
      "Ġair": 3697,
      "ops": 3698,
      "nav": 3699,
      "ements": 3700,
      "(id": 3701,
      "Ġenter": 3702,
      "anged": 3703,
      "End": 3704,
      "Ġlocation": 3705,
      "Ġnight": 3706,
      "Ġdoing": 3707,
      "ĠRed": 3708,
      "lin": 3709,
      "}ĊĊĊ": 3710,
      "vider": 3711,
      "Ġpick": 3712,
      "Ġwatch": 3713,
      "essages": 3714,
      "Ġhuman": 3715,
      "Ġdam": 3716,
      "pend": 3717,
      "dir": 3718,
      "Ġtax": 3719,
      "Ġgirl": 3720,
      "reet": 3721,
      "Ġbox": 3722,
      "Ġstrong": 3723,
      "(v": 3724,
      "rel": 3725,
      "Ġinterface": 3726,
      "Ġmsg": 3727,
      "fect": 3728,
      "_at": 3729,
      "Ġhouse": 3730,
      "Ġtrack": 3731,
      "');ĊĊ": 3732,
      "je": 3733,
      "ĠJohn": 3734,
      "istr": 3735,
      "(S": 3736,
      "ube": 3737,
      "Ġce": 3738,
      "itted": 3739,
      "VER": 3740,
      "*)": 3741,
      "parent": 3742,
      "Ġapplication": 3743,
      "any": 3744,
      "Ġpack": 3745,
      "Ġpract": 3746,
      "Ġsection": 3747,
      "ctx": 3748,
      "Ġunsigned": 3749,
      ".Point": 3750,
      "ĠOne": 3751,
      "Ä±": 3752,
      "iple": 3753,
      "aid": 3754,
      "Ñĥ": 3755,
      "Vector": 3756,
      "byte": 3757,
      "Ġwait": 3758,
      "ĠÃł": 3759,
      "Ã¥": 3760,
      "Ġtogether": 3761,
      "Ġthrows": 3762,
      "FO": 3763,
      "'))": 3764,
      "host": 3765,
      "ising": 3766,
      "Ġterms": 3767,
      "-r": 3768,
      "Ġapply": 3769,
      "Ġsession": 3770,
      "Options": 3771,
      "uggest": 3772,
      "Ġothers": 3773,
      "witter": 3774,
      "Ġfund": 3775,
      "Init": 3776,
      "__(": 3777,
      "ensor": 3778,
      "GET": 3779,
      "Ġseveral": 3780,
      "ii": 3781,
      "[j": 3782,
      "IO": 3783,
      "Ġtemplate": 3784,
      "Position": 3785,
      "Ġecon": 3786,
      "achine": 3787,
      "Ġil": 3788,
      "main": 3789,
      "elt": 3790,
      "iment": 3791,
      "Rec": 3792,
      "mm": 3793,
      "ĠUniversity": 3794,
      "ursor": 3795,
      "ĠĠĠĠĠĠĠĠĠĠĠĠĠĠĠĠĠĠĠĠ": 3796,
      "GL": 3797,
      "icture": 3798,
      "ithub": 3799,
      "cer": 3800,
      "cast": 3801,
      "From": 3802,
      "ales": 3803,
      "Ġsubject": 3804,
      "password": 3805,
      "ny": 3806,
      "Ġesc": 3807,
      ".write": 3808,
      "ï¼Į": 3809,
      "What": 3810,
      ".H": 3811,
      "Ġhistory": 3812,
      "ĠFe": 3813,
      "Ġindividual": 3814,
      "unit": 3815,
      "Ġ-->": 3816,
      "Ġdu": 3817,
      "IST": 3818,
      "Ġusers": 3819,
      "fs": 3820,
      "false": 3821,
      "unt": 3822,
      "Title": 3823,
      "Ġmot": 3824,
      "Ġfuture": 3825,
      "ached": 3826,
      "Ġstarted": 3827,
      "Ġmode": 3828,
      "Ġ'<": 3829,
      "_array": 3830,
      "Ġax": 3831,
      "ires": 3832,
      "There": 3833,
      "ught": 3834,
      "tml": 3835,
      "posed": 3836,
      "icult": 3837,
      "Ġtook": 3838,
      "Ġgames": 3839,
      "Ġ}}": 3840,
      "Ġproducts": 3841,
      "Is": 3842,
      "Ġbad": 3843,
      "ĠDes": 3844,
      ".path": 3845,
      "'ĊĊ": 3846,
      "ĠPost": 3847,
      "avel": 3848,
      "(:": 3849,
      "Ġneeds": 3850,
      "Ġknown": 3851,
      "Fl": 3852,
      "Ġexec": 3853,
      "Ġseen": 3854,
      "ume": 3855,
      "Ġborder": 3856,
      "Ġlive": 3857,
      "temp": 3858,
      "Per": 3859,
      "Ġvariable": 3860,
      "iet": 3861,
      "ĠDef": 3862,
      "Ġge": 3863,
      "eme": 3864,
      "_back": 3865,
      "first": 3866,
      "Ġprovided": 3867,
      "Ġfilename": 3868,
      "Ġhope": 3869,
      "uly": 3870,
      "auto": 3871,
      "find": 3872,
      "_string": 3873,
      "btn": 3874,
      "itude": 3875,
      "Attribute": 3876,
      "Ġyoung": 3877,
      ".txt": 3878,
      "Ġwebsite": 3879,
      "ĠProp": 3880,
      "Ġey": 3881,
      ">();Ċ": 3882,
      "ional": 3883,
      "ARR": 3884,
      "ictionary": 3885,
      "urther": 3886,
      ".</": 3887,
      "ALL": 3888,
      "Ġstudy": 3889,
      "ili": 3890,
      "Ġnetwork": 3891,
      "yl": 3892,
      "istance": 3893,
      "OK": 3894,
      "NU": 3895,
      "rest": 3896,
      "ĠST": 3897,
      "icrosoft": 3898,
      "Ġlimit": 3899,
      "Ġcut": 3900,
      "():Ċ": 3901,
      "Ġcou": 3902,
      "ogn": 3903,
      "Ġsizeof": 3904,
      "ival": 3905,
      "Ġwent": 3906,
      ".z": 3907,
      "Link": 3908,
      "Ġfire": 3909,
      "Ġacross": 3910,
      "Ġcommunity": 3911,
      "region": 3912,
      "NE": 3913,
      "Ref": 3914,
      "Ġofficial": 3915,
      "Ġvisit": 3916,
      "olve": 3917,
      "Ġreceived": 3918,
      "Ġtoken": 3919,
      "Ġmonths": 3920,
      "Ġanim": 3921,
      "Ġparticular": 3922,
      "styles": 3923,
      "ico": 3924,
      "Ġess": 3925,
      ".Control": 3926,
      "ĠÃ©": 3927,
      "ball": 3928,
      "Ġlearn": 3929,
      "inding": 3930,
      "Var": 3931,
      "Ġdecl": 3932,
      "(err": 3933,
      "LECT": 3934,
      "One": 3935,
      "pha": 3936,
      "Ġ~": 3937,
      "fort": 3938,
      "asure": 3939,
      "Ġmind": 3940,
      "ĠEnd": 3941,
      "Check": 3942,
      "Ġquick": 3943,
      "\"),": 3944,
      "AND": 3945,
      "utions": 3946,
      "Base": 3947,
      "________": 3948,
      "Ġcomment": 3949,
      "INE": 3950,
      "âĢĻve": 3951,
      "But": 3952,
      "ĠEl": 3953,
      "ĠUs": 3954,
      "Ġadmin": 3955,
      "mark": 3956,
      "ĠName": 3957,
      "`Ċ": 3958,
      "ĠType": 3959,
      "amic": 3960,
      "pc": 3961,
      "loor": 3962,
      "FT": 3963,
      "Ġopp": 3964,
      "cket": 3965,
      ")->": 3966,
      "tx": 3967,
      "Ġpur": 3968,
      "uel": 3969,
      "ymbol": 3970,
      "uation": 3971,
      "anger": 3972,
      "Ġbackground": 3973,
      "ecess": 3974,
      "efined": 3975,
      "........": 3976,
      "Ġdescription": 3977,
      "Ġrepresent": 3978,
      "\"));Ċ": 3979,
      "pression": 3980,
      "rowser": 3981,
      "Ġseries": 3982,
      "wards": 3983,
      "aise": 3984,
      "Ġhot": 3985,
      "acity": 3986,
      "ries": 3987,
      "actions": 3988,
      "Create": 3989,
      "adio": 3990,
      "amples": 3991,
      "Ġoriginal": 3992,
      "ensive": 3993,
      "font": 3994,
      "stream": 3995,
      "server": 3996,
      "Ġbill": 3997,
      "ACK": 3998,
      "ilename": 3999,
      "Ġframe": 4000,
      "Ġ=Ċ": 4001,
      "Edit": 4002,
      "adius": 4003,
      "Ġdraw": 4004,
      "anks": 4005,
      "Ġdeter": 4006,
      "Ġcomes": 4007,
      "_int": 4008,
      "Ġforeach": 4009,
      "angle": 4010,
      "Ġelect": 4011,
      "pected": 4012,
      "Header": 4013,
      "istration": 4014,
      "False": 4015,
      "ĠGame": 4016,
      "Ġfilter": 4017,
      "Activity": 4018,
      "Ġlarg": 4019,
      "inition": 4020,
      "Ġ\"<": 4021,
      "ised": 4022,
      "Ġremove": 4023,
      "ĠTrans": 4024,
      "met": 4025,
      "see": 4026,
      "Format": 4027,
      "Command": 4028,
      "ĠEX": 4029,
      "None": 4030,
      "Ġfront": 4031,
      "ASE": 4032,
      "ĠRec": 4033,
      "oundation": 4034,
      "Ġvo": 4035,
      "=\\\"": 4036,
      "(*": 4037,
      "Change": 4038,
      ".Write": 4039,
      "group": 4040,
      "ients": 4041,
      "uy": 4042,
      "Ġdig": 4043,
      "hr": 4044,
      "(-": 4045,
      "Ġgen": 4046,
      "number": 4047,
      "vec": 4048,
      "urope": 4049,
      "entry": 4050,
      "LL": 4051,
      "Ġste": 4052,
      "Valid": 4053,
      "'],": 4054,
      "_param": 4055,
      "Ġselected": 4056,
      "Ġaccording": 4057,
      "ĠDis": 4058,
      "Ġutil": 4059,
      "Buffer": 4060,
      "_error": 4061,
      "Ġassoci": 4062,
      "_SIZE": 4063,
      "Ġwor": 4064,
      "Ġprintf": 4065,
      "rag": 4066,
      "Âł": 4067,
      "DD": 4068,
      "ĠVal": 4069,
      "Ġactiv": 4070,
      "Eng": 4071,
      "etime": 4072,
      "Ġvirtual": 4073,
      "aign": 4074,
      "aur": 4075,
      "ĠPres": 4076,
      "ĠException": 4077,
      "Ġanything": 4078,
      "ĠOff": 4079,
      "Ġhours": 4080,
      "Ġwar": 4081,
      "Args": 4082,
      "aging": 4083,
      "Ġmodels": 4084,
      "ĠTime": 4085,
      "Ob": 4086,
      "ams": 4087,
      "joy": 4088,
      "Ġearly": 4089,
      ".read": 4090,
      "Ġcenter": 4091,
      "ĠInitial": 4092,
      "Ġlanguage": 4093,
      "length": 4094,
      "xy": 4095,
      "Ġsn": 4096,
      "Ġinf": 4097,
      "Post": 4098,
      "Ġago": 4099,
      "Ġeasy": 4100,
      "_code": 4101,
      "ĠANY": 4102,
      "_ch": 4103,
      "Ġdownload": 4104,
      "(T": 4105,
      "aved": 4106,
      "âĢĵ": 4107,
      "Ġstudents": 4108,
      "Ġfig": 4109,
      "light": 4110,
      "xx": 4111,
      "Ġbuffer": 4112,
      "ĠDep": 4113,
      "ĠMath": 4114,
      "ITH": 4115,
      "Ġvari": 4116,
      "Ġdue": 4117,
      "Factory": 4118,
      "Ġpor": 4119,
      "Ġep": 4120,
      "otype": 4121,
      "Ġcannot": 4122,
      "Ġwhite": 4123,
      "<int": 4124,
      "tern": 4125,
      "Ġregister": 4126,
      "Ġpred": 4127,
      "clus": 4128,
      "_date": 4129,
      "Ġ/**": 4130,
      "Ġauth": 4131,
      "Ġ[]Ċ": 4132,
      "Ġperiod": 4133,
      "nown": 4134,
      "Ġvot": 4135,
      "Ġscreen": 4136,
      "'d": 4137,
      "Types": 4138,
      "Ġtmp": 4139,
      "ural": 4140,
      "Ġbenef": 4141,
      "_y": 4142,
      "Ġnet": 4143,
      "ĠStates": 4144,
      "']['": 4145,
      "ĠNe": 4146,
      "ĠNOT": 4147,
      "Ġneg": 4148,
      "Ġcommon": 4149,
      "scope": 4150,
      "Ġcred": 4151,
      "ges": 4152,
      "_TYPE": 4153,
      "Ġsuggest": 4154,
      "oom": 4155,
      ".ĊĊĊ": 4156,
      "Ġaccept": 4157,
      "Ġrandom": 4158,
      "erm": 4159,
      "ĠVector": 4160,
      "with": 4161,
      "TER": 4162,
      "(str": 4163,
      "Ġrespons": 4164,
      "Ġhit": 4165,
      ".Set": 4166,
      "grid": 4167,
      "ria": 4168,
      "Ġclick": 4169,
      "Case": 4170,
      "insert": 4171,
      "Utils": 4172,
      "Ġ\"\"\"": 4173,
      "Ġimplement": 4174,
      "atal": 4175,
      "tempt": 4176,
      "template": 4177,
      "ocr": 4178,
      "returns": 4179,
      "Ġplayers": 4180,
      "users": 4181,
      "edef": 4182,
      "ĠThese": 4183,
      "Ġamong": 4184,
      "Ġdeb": 4185,
      "ha": 4186,
      "Ġcirc": 4187,
      "Ġanswer": 4188,
      "Ġwalk": 4189,
      "Ġtreat": 4190,
      "ĠGe": 4191,
      "ĠCreate": 4192,
      "Ġage": 4193,
      "Ġreq": 4194,
      "OST": 4195,
      "angular": 4196,
      "Ñı": 4197,
      "Ġfive": 4198,
      "Ġdistributed": 4199,
      "Ġfriend": 4200,
      "TP": 4201,
      "Ġclean": 4202,
      "ows": 4203,
      ".Controls": 4204,
      "dis": 4205,
      "Ġwords": 4206,
      ".io": 4207,
      "zy": 4208,
      "Ġheader": 4209,
      "ĠCheck": 4210,
      "âĢĻm": 4211,
      "just": 4212,
      "holder": 4213,
      "ĠGNU": 4214,
      "ĠCol": 4215,
      "imest": 4216,
      "entic": 4217,
      "Ġtre": 4218,
      "last": 4219,
      "la": 4220,
      "ĠYork": 4221,
      "Lo": 4222,
      "Ġdiscuss": 4223,
      "ĠGod": 4224,
      "Ġissue": 4225,
      "rew": 4226,
      "Window": 4227,
      "Ġland": 4228,
      "Ġstream": 4229,
      "ĠPar": 4230,
      "Ġquality": 4231,
      "Par": 4232,
      "_num": 4233,
      "Ġsal": 4234,
      "elves": 4235,
      "ORD": 4236,
      "Ġworks": 4237,
      "Ġhalf": 4238,
      "enses": 4239,
      "vas": 4240,
      "Ġpolice": 4241,
      "(\"/": 4242,
      "ua": 4243,
      "Ġsimple": 4244,
      "Address": 4245,
      "Ġempty": 4246,
      "esh": 4247,
      "Update": 4248,
      "ĠCreated": 4249,
      ").Ċ": 4250,
      "ĠĠĠĠĠĠĠĠĠĠĠĠĠĠĠĠĠĠ": 4251,
      "Ġagre": 4252,
      "ĠFROM": 4253,
      "Ġcook": 4254,
      "Ġeverything": 4255,
      "ilities": 4256,
      ".status": 4257,
      "Ġrelations": 4258,
      "extern": 4259,
      "Ġnothing": 4260,
      "Ġrunning": 4261,
      "RI": 4262,
      "_a": 4263,
      "_CON": 4264,
      "por": 4265,
      ".sub": 4266,
      "require": 4267,
      "ĠCity": 4268,
      "ĠWest": 4269,
      "Ġmor": 4270,
      "store": 4271,
      "oder": 4272,
      "Ġna": 4273,
      "Ġ[[": 4274,
      "Ġ('": 4275,
      "ĠDon": 4276,
      "ERS": 4277,
      "/p": 4278,
      ".json": 4279,
      "abor": 4280,
      "Ġsomeone": 4281,
      "_text": 4282,
      ".css": 4283,
      ".Tab": 4284,
      "ĠSome": 4285,
      "ato": 4286,
      "double": 4287,
      "Ġshare": 4288,
      "(void": 4289,
      "_dir": 4290,
      "Ġur": 4291,
      "Stack": 4292,
      "ĠWorld": 4293,
      ".X": 4294,
      "stract": 4295,
      "How": 4296,
      ".Generic": 4297,
      "icles": 4298,
      "Ġentry": 4299,
      "Ġchanges": 4300,
      "Ġpersonal": 4301,
      "(A": 4302,
      "Ġoffset": 4303,
      "_ptr": 4304,
      "Ġpie": 4305,
      "ĠJan": 4306,
      "-group": 4307,
      "module": 4308,
      "Items": 4309,
      "ĠHowever": 4310,
      "verage": 4311,
      "Ġevents": 4312,
      ".min": 4313,
      "Ġinvol": 4314,
      "za": 4315,
      "Ġwhole": 4316,
      "Ġneeded": 4317,
      "Ġlikely": 4318,
      "rief": 4319,
      "ORM": 4320,
      "version": 4321,
      "Ġfight": 4322,
      "Ġein": 4323,
      "Frame": 4324,
      "gen": 4325,
      "ĠOut": 4326,
      "avigation": 4327,
      "Length": 4328,
      "illed": 4329,
      "quence": 4330,
      "Ġ!==": 4331,
      "ĠSoftware": 4332,
      "Ġwriting": 4333,
      "Ġrate": 4334,
      "'],Ċ": 4335,
      "Panel": 4336,
      "inner": 4337,
      "Ġ[\"": 4338,
      "Ġtw": 4339,
      "cd": 4340,
      "Ġ;Ċ": 4341,
      "_state": 4342,
      "ĠSm": 4343,
      "ĠMark": 4344,
      "))ĊĊ": 4345,
      "prot": 4346,
      "ĠMr": 4347,
      "method": 4348,
      "ustomer": 4349,
      "Icon": 4350,
      "Ġcorrect": 4351,
      "(object": 4352,
      "ĠMore": 4353,
      "Ġfall": 4354,
      "Ġvol": 4355,
      "Ġdevelopment": 4356,
      "ently": 4357,
      "Ġsi": 4358,
      "medi": 4359,
      "ving": 4360,
      "PP": 4361,
      "aker": 4362,
      "Ġindu": 4363,
      "Ġelif": 4364,
      "Ġpret": 4365,
      "Ġbelieve": 4366,
      "ns": 4367,
      "omet": 4368,
      "ĠIntern": 4369,
      "So": 4370,
      ".error": 4371,
      "Read": 4372,
      "Ġfeatures": 4373,
      "Ġminutes": 4374,
      "---": 4375,
      "asing": 4376,
      "cret": 4377,
      "\">čĊ": 4378,
      "Ġcollection": 4379,
      "'.": 4380,
      "Ġsimilar": 4381,
      "Ġtaken": 4382,
      "(\"%": 4383,
      "Order": 4384,
      "']Ċ": 4385,
      "-md": 4386,
      "ĠTH": 4387,
      "aced": 4388,
      "Ġisn": 4389,
      "/j": 4390,
      "Ġson": 4391,
      "graph": 4392,
      "ĠInteger": 4393,
      "Ġnecess": 4394,
      "reen": 4395,
      "Ġum": 4396,
      "Ġmoment": 4397,
      "Ġbring": 4398,
      "Ġindic": 4399,
      "ysis": 4400,
      "Level": 4401,
      "verse": 4402,
      "urrenc": 4403,
      "_test": 4404,
      "Ġentire": 4405,
      "Down": 4406,
      "Ġ}ĊĊĊ": 4407,
      "(result": 4408,
      "ĠRead": 4409,
      "Ã¨": 4410,
      "Mod": 4411,
      "Ġtrying": 4412,
      "\"),Ċ": 4413,
      "Ġmember": 4414,
      "ĠCor": 4415,
      "ODO": 4416,
      "-control": 4417,
      "untime": 4418,
      "ĠSim": 4419,
      "Dialog": 4420,
      "plot": 4421,
      "_on": 4422,
      "Ġphys": 4423,
      "}/": 4424,
      "Ġnamespace": 4425,
      "acc": 4426,
      "Player": 4427,
      "ARE": 4428,
      "Ġfoot": 4429,
      "Ġboard": 4430,
      "part": 4431,
      "Ġsus": 4432,
      "wise": 4433,
      "ĠMc": 4434,
      "Ġpush": 4435,
      "ATA": 4436,
      "Ġplease": 4437,
      "ried": 4438,
      "weet": 4439,
      "bit": 4440,
      "ided": 4441,
      "VE": 4442,
      "ĠSw": 4443,
      "UB": 4444,
      "Ġtypes": 4445,
      "edia": 4446,
      "Ġclos": 4447,
      "acebook": 4448,
      "When": 4449,
      "Ġedit": 4450,
      "igger": 4451,
      "Ġenerg": 4452,
      "Container": 4453,
      "Ġphot": 4454,
      "ĠCount": 4455,
      "ĠEurope": 4456,
      ".Is": 4457,
      "ĠRuss": 4458,
      "peed": 4459,
      "ĠStr": 4460,
      "Ġpy": 4461,
      "Ġcult": 4462,
      "Ġdefined": 4463,
      "ccount": 4464,
      "Ġobt": 4465,
      ".Location": 4466,
      "Ġthread": 4467,
      "ille": 4468,
      "Ġinstead": 4469,
      "strong": 4470,
      "ĠSec": 4471,
      "URE": 4472,
      "Ġidea": 4473,
      ".se": 4474,
      "emy": 4475,
      "selected": 4476,
      "Connection": 4477,
      "acing": 4478,
      "thread": 4479,
      ".next": 4480,
      "Ġcoll": 4481,
      "Ġfilm": 4482,
      "istic": 4483,
      "Ġcompet": 4484,
      "Ġconn": 4485,
      "though": 4486,
      "Ġcompan": 4487,
      "ocket": 4488,
      "Ġteach": 4489,
      "=(": 4490,
      "Ġphone": 4491,
      "Ġactive": 4492,
      "delete": 4493,
      "tries": 4494,
      "Ġmo": 4495,
      "Ġdeath": 4496,
      "ocol": 4497,
      "Ġarticle": 4498,
      "rodu": 4499,
      "andid": 4500,
      "Ñĭ": 4501,
      "ĠCr": 4502,
      "ka": 4503,
      "():": 4504,
      "lood": 4505,
      "ĉĉĉĊ": 4506,
      "Ġalmost": 4507,
      "Ġsell": 4508,
      "rip": 4509,
      "Unit": 4510,
      "Ġapplic": 4511,
      "Ġconnect": 4512,
      "Ġfeature": 4513,
      "Ġvia": 4514,
      "'),": 4515,
      "Ġlim": 4516,
      "ĠĠĠĠĠĠĠĠĠĠĠĠĠĠĠĠĠĠĠĠĠĠĠĠĠĠĠĠĠĠĠĠĠĠĠĠĠĠĠĠĠĠĠĠĠĠĠ": 4517,
      "ĠGu": 4518,
      "Engine": 4519,
      "Ġens": 4520,
      "Ġenvironment": 4521,
      "block": 4522,
      "HERE": 4523,
      "NULL": 4524,
      "gy": 4525,
      "tag": 4526,
      ")).": 4527,
      "exp": 4528,
      "Ġcompl": 4529,
      "Ġinstall": 4530,
      "Ġcomplete": 4531,
      "atural": 4532,
      "Ġgeneral": 4533,
      "thon": 4534,
      "Ġasked": 4535,
      "ores": 4536,
      "(res": 4537,
      "Ġreserved": 4538,
      "SP": 4539,
      "ĠâĢ¦": 4540,
      "ÅĤ": 4541,
      "Ġsignific": 4542,
      "Off": 4543,
      "ĠĠĠĠĠĠĠĠĠĠĠĠĠĠĠĠĠĠĠĠĠĠĠĠĠĠĠĠĠ": 4544,
      "ĠAg": 4545,
      "ĠJust": 4546,
      "ĠError": 4547,
      "Ġinfl": 4548,
      "adata": 4549,
      "Ġicon": 4550,
      "asks": 4551,
      "''": 4552,
      "_LO": 4553,
      "?.": 4554,
      "account": 4555,
      "Ġ(*": 4556,
      "')ĊĊ": 4557,
      "rap": 4558,
      "_var": 4559,
      "ĠFOR": 4560,
      "Ġparty": 4561,
      "ĠYour": 4562,
      "cat": 4563,
      "stry": 4564,
      ".new": 4565,
      "boot": 4566,
      "ĠNov": 4567,
      "Ġvector": 4568,
      "Ġnormal": 4569,
      "Ġfurther": 4570,
      "Repository": 4571,
      "Ġdatabase": 4572,
      "attle": 4573,
      "Ġmusic": 4574,
      "Ġspeed": 4575,
      "Ġdoc": 4576,
      "process": 4577,
      "IGHT": 4578,
      ".parse": 4579,
      "Ġtaking": 4580,
      "Ġviol": 4581,
      "ceed": 4582,
      "ĠAfter": 4583,
      "Ġforward": 4584,
      "Ġcrit": 4585,
      "\"/>Ċ": 4586,
      "rot": 4587,
      "Ġfailed": 4588,
      "efore": 4589,
      "Ġconcern": 4590,
      "oe": 4591,
      "ba": 4592,
      "Ġsender": 4593,
      "Ġterm": 4594,
      "has": 4595,
      "=\"#": 4596,
      "Ġpotential": 4597,
      "Num": 4598,
      "Ġpublished": 4599,
      ".close": 4600,
      "ĠImage": 4601,
      "straint": 4602,
      "UD": 4603,
      "ĠOb": 4604,
      "Ġprobably": 4605,
      "lim": 4606,
      "\":Ċ": 4607,
      "olume": 4608,
      "Ġconsum": 4609,
      "ague": 4610,
      "ensions": 4611,
      "Ġinvestig": 4612,
      "-year": 4613,
      "');": 4614,
      "-sm": 4615,
      "Ġenjoy": 4616,
      "orig": 4617,
      "ering": 4618,
      "cp": 4619,
      "leased": 4620,
      "plements": 4621,
      "Ġreturns": 4622,
      "pat": 4623,
      "BO": 4624,
      "ĠHouse": 4625,
      ".Label": 4626,
      "Ġweight": 4627,
      "ighb": 4628,
      "Ġconditions": 4629,
      "Ġexception": 4630,
      "description": 4631,
      "Ġtrad": 4632,
      "-to": 4633,
      "Ġ{}": 4634,
      "Ġmodule": 4635,
      "END": 4636,
      ".ap": 4637,
      ".props": 4638,
      "Ġconstructor": 4639,
      "aves": 4640,
      "Ġfavor": 4641,
      "ĠNow": 4642,
      "ĠMain": 4643,
      "_k": 4644,
      "eries": 4645,
      "âĢĻll": 4646,
      "transform": 4647,
      "imestamp": 4648,
      "Pre": 4649,
      "Ġmer": 4650,
      ".res": 4651,
      "stant": 4652,
      "Location": 4653,
      "_NAME": 4654,
      "Ġloss": 4655,
      "ĠĊĊ": 4656,
      "net": 4657,
      "Ġengine": 4658,
      "Block": 4659,
      "Ġissues": 4660,
      "Ġparse": 4661,
      "ĠBar": 4662,
      "Ġstay": 4663,
      "ĠJSON": 4664,
      "Ġdom": 4665,
      "airs": 4666,
      "wner": 4667,
      "Ġlower": 4668,
      "ĠDem": 4669,
      "ufact": 4670,
      "Ġps": 4671,
      "Ġperfect": 4672,
      "RL": 4673,
      "Ġeduc": 4674,
      "ls": 4675,
      "emory": 4676,
      "ARRANT": 4677,
      "uge": 4678,
      "Ġexact": 4679,
      ".key": 4680,
      "alled": 4681,
      "ech": 4682,
      "ief": 4683,
      "\\/": 4684,
      "oke": 4685,
      "Ġformer": 4686,
      "alloc": 4687,
      "Ġsix": 4688,
      "ida": 4689,
      "Ġmargin": 4690,
      "Ġheart": 4691,
      "ald": 4692,
      "pack": 4693,
      "ĠWARRANT": 4694,
      "Ġrather": 4695,
      "Ġbuilding": 4696,
      "erman": 4697,
      "lice": 4698,
      "Ġquestions": 4699,
      "izes": 4700,
      "lege": 4701,
      "irectory": 4702,
      "Ġje": 4703,
      "Ġcas": 4704,
      "utf": 4705,
      "Ġsecurity": 4706,
      "Ġhowever": 4707,
      "weight": 4708,
      "Ġinside": 4709,
      "Ġpresident": 4710,
      "Char": 4711,
      "ĠWITH": 4712,
      ".map": 4713,
      "Ġgraph": 4714,
      "Ġtag": 4715,
      "_status": 4716,
      "Ġattempt": 4717,
      "opp": 4718,
      "uses": 4719,
      "ĉconst": 4720,
      "Ġround": 4721,
      ",$": 4722,
      "Ġfriends": 4723,
      "Email": 4724,
      "?>": 4725,
      "Resource": 4726,
      "KEY": 4727,
      "osp": 4728,
      ".query": 4729,
      "ĠNorth": 4730,
      "ables": 4731,
      "istrib": 4732,
      "_class": 4733,
      "ello": 4734,
      "That": 4735,
      "Ðº": 4736,
      "pecially": 4737,
      "ĠPresident": 4738,
      "Ġcampaign": 4739,
      "Ġalt": 4740,
      "area": 4741,
      "Ġchall": 4742,
      "Ġopport": 4743,
      ".Con": 4744,
      "Ġenergy": 4745,
      "like": 4746,
      "ington": 4747,
      ")*": 4748,
      "yy": 4749,
      "Ġprofession": 4750,
      "irth": 4751,
      "Ġseg": 4752,
      "æľ": 4753,
      "Ġhor": 4754,
      "iers": 4755,
      "can": 4756,
      "Ġbehind": 4757,
      "Product": 4758,
      "fg": 4759,
      "ĠSk": 4760,
      ".jpg": 4761,
      "?:": 4762,
      "];ĊĊ": 4763,
      "Ġcallback": 4764,
      "long": 4765,
      "MS": 4766,
      "ATH": 4767,
      "Ġraise": 4768,
      "Ġwanted": 4769,
      "rown": 4770,
      "utor": 4771,
      "lt": 4772,
      "]=": 4773,
      "eline": 4774,
      "MA": 4775,
      "Ġsepar": 4776,
      "cs": 4777,
      "semb": 4778,
      "Dis": 4779,
      "bserv": 4780,
      "ĠWill": 4781,
      "Ġpolicy": 4782,
      "Ġthird": 4783,
      "phone": 4784,
      "Ġbed": 4785,
      "/g": 4786,
      ".__": 4787,
      "ĠInc": 4788,
      "izing": 4789,
      ".remove": 4790,
      "instance": 4791,
      ".type": 4792,
      "Ġserv": 4793,
      "Each": 4794,
      "Ġhar": 4795,
      "ĠMessage": 4796,
      "(key": 4797,
      "SELECT": 4798,
      "Pos": 4799,
      "Ġrecomm": 4800,
      "Ġtraining": 4801,
      "ĠEnt": 4802,
      "ĠChar": 4803,
      "icht": 4804,
      "(file": 4805,
      "Ġprior": 4806,
      "Game": 4807,
      "Ġexit": 4808,
      "Params": 4809,
      ".core": 4810,
      "PC": 4811,
      "nes": 4812,
      "anced": 4813,
      "(request": 4814,
      "Password": 4815,
      "Ġmag": 4816,
      "Ġrelease": 4817,
      "Ġshall": 4818,
      "udent": 4819,
      "ĠSouth": 4820,
      "ando": 4821,
      ":'": 4822,
      ".TabIndex": 4823,
      "sk": 4824,
      "anner": 4825,
      "Ġoutside": 4826,
      "ledge": 4827,
      "Ġå": 4828,
      "ĠRob": 4829,
      "Ġimm": 4830,
      "!Ċ": 4831,
      "ĠWeb": 4832,
      "Des": 4833,
      "BC": 4834,
      "ancial": 4835,
      "Route": 4836,
      "Dec": 4837,
      "ferences": 4838,
      "Ġpurch": 4839,
      "ĠModel": 4840,
      "ctor": 4841,
      "gn": 4842,
      "_start": 4843,
      "_un": 4844,
      ".*": 4845,
      "ises": 4846,
      "Ġground": 4847,
      "Ġunique": 4848,
      "Ġbeaut": 4849,
      "{\"": 4850,
      "Ġpour": 4851,
      "ĠOct": 4852,
      "Ġtree": 4853,
      "sets": 4854,
      "_res": 4855,
      "')->": 4856,
      "_reg": 4857,
      "Ġbyte": 4858,
      "Bl": 4859,
      "Ġdating": 4860,
      "Ġmatter": 4861,
      "ĠRem": 4862,
      "ĠAug": 4863,
      "ĠLa": 4864,
      "Ġ$(": 4865,
      "ournal": 4866,
      "iam": 4867,
      "Ġshows": 4868,
      "write": 4869,
      "Ġball": 4870,
      "Ġsimply": 4871,
      "Ġfast": 4872,
      "Ġmemory": 4873,
      "ASS": 4874,
      "ĠOf": 4875,
      "oved": 4876,
      "ante": 4877,
      "aul": 4878,
      "istry": 4879,
      ")));Ċ": 4880,
      "Ġfit": 4881,
      "<string": 4882,
      "Ġpolitical": 4883,
      "ancel": 4884,
      "_.": 4885,
      "card": 4886,
      ".current": 4887,
      "och": 4888,
      "_image": 4889,
      "\\t": 4890,
      "#Ċ": 4891,
      "(L": 4892,
      "Ġindustry": 4893,
      "coming": 4894,
      "Ġextra": 4895,
      "Ġreported": 4896,
      ".start": 4897,
      "Ġresources": 4898,
      "Ġimg": 4899,
      "flow": 4900,
      "_EX": 4901,
      "(null": 4902,
      "ĠPre": 4903,
      "Ġwrong": 4904,
      "interface": 4905,
      "Parameter": 4906,
      "ners": 4907,
      "ture": 4908,
      "ersist": 4909,
      "ountry": 4910,
      "Ġseems": 4911,
      "alance": 4912,
      "dest": 4913,
      "Ġmaint": 4914,
      "Ġunit": 4915,
      "acters": 4916,
      "ĠTR": 4917,
      "iful": 4918,
      "exports": 4919,
      "project": 4920,
      "Application": 4921,
      "legate": 4922,
      "Ġtakes": 4923,
      "term": 4924,
      "Ġetc": 4925,
      "uster": 4926,
      "Ġappear": 4927,
      "address": 4928,
      "Ġfem": 4929,
      "hs": 4930,
      "Ġhom": 4931,
      ",-": 4932,
      "Ġdifficult": 4933,
      "Ġcoming": 4934,
      "Open": 4935,
      "Ġsettings": 4936,
      "ĠWar": 4937,
      "ĠThen": 4938,
      "Ġautom": 4939,
      "ĠFoundation": 4940,
      "Ġquite": 4941,
      "Description": 4942,
      "Ġblog": 4943,
      "iqu": 4944,
      "PS": 4945,
      "_field": 4946,
      "Json": 4947,
      "SSION": 4948,
      "ĠSch": 4949,
      "ĠLO": 4950,
      "Ġdescri": 4951,
      "Ġeveryone": 4952,
      "Ġpretty": 4953,
      "Ġlonger": 4954,
      "Ġmenu": 4955,
      "Ġcurrently": 4956,
      "sec": 4957,
      "Ġrelationship": 4958,
      "ĠMap": 4959,
      "aset": 4960,
      "Ġparameters": 4961,
      "Ġcrush": 4962,
      "\"čĊ": 4963,
      "ILITY": 4964,
      "igration": 4965,
      "Ġcout": 4966,
      "total": 4967,
      "Ġnames": 4968,
      "ndef": 4969,
      "\");": 4970,
      "riend": 4971,
      "ynamic": 4972,
      "Ġeffort": 4973,
      "Ġactual": 4974,
      "Ġfields": 4975,
      "OUN": 4976,
      "ters": 4977,
      "Ġfix": 4978,
      "_model": 4979,
      "Ġcases": 4980,
      "CA": 4981,
      "My": 4982,
      "Interface": 4983,
      "ĠSE": 4984,
      "]]": 4985,
      "alle": 4986,
      "ĠNational": 4987,
      "ĠArrayList": 4988,
      "inline": 4989,
      ".V": 4990,
      "ara": 4991,
      "refix": 4992,
      "asc": 4993,
      "Reader": 4994,
      "ĠÐ¿": 4995,
      "astic": 4996,
      "(()": 4997,
      "Cl": 4998,
      "Ġperformance": 4999,
      "aily": 5000,
      ".toString": 5001,
      ".net": 5002,
      "views": 5003,
      ".end": 5004,
      "ayers": 5005,
      "late": 5006,
      "ĠApr": 5007,
      "ederal": 5008,
      ".body": 5009,
      "Ġhigher": 5010,
      "_fl": 5011,
      "cr": 5012,
      "alert": 5013,
      "_node": 5014,
      "ĠGoogle": 5015,
      "Ġitself": 5016,
      "Auth": 5017,
      "urrency": 5018,
      "Ġsignificant": 5019,
      "append": 5020,
      "Ġrespect": 5021,
      "strap": 5022,
      "Ġuna": 5023,
      "riteria": 5024,
      "PORT": 5025,
      ".apache": 5026,
      "Output": 5027,
      "Ġprogress": 5028,
      "Ġmid": 5029,
      "ĠMicrosoft": 5030,
      "Ġresource": 5031,
      "ablish": 5032,
      "Ġdim": 5033,
      ".load": 5034,
      ".App": 5035,
      "Ġdirection": 5036,
      "Ġadditional": 5037,
      "ĠĠĠĠĠĠĠĠĠĠĠĠĠĠĠĠĠĠĠĠĠĠĠĠ": 5038,
      "Ġnumbers": 5039,
      "Ġcompanies": 5040,
      ".Th": 5041,
      "Ġsound": 5042,
      "username": 5043,
      "Ġstatement": 5044,
      "Ġalert": 5045,
      "Ġcontract": 5046,
      "home": 5047,
      "_length": 5048,
      ".Component": 5049,
      "ev": 5050,
      "ï¼ļ": 5051,
      "\";": 5052,
      "ĠHigh": 5053,
      "Ġ)ĊĊ": 5054,
      "ĠPoint": 5055,
      "oph": 5056,
      "Ġlines": 5057,
      "\")ĊĊ": 5058,
      "ox": 5059,
      "application": 5060,
      "Ġ]Ċ": 5061,
      "ĊĊĊĊĊĊ": 5062,
      "Ġsoon": 5063,
      "ctions": 5064,
      "inger": 5065,
      "Ġjoin": 5066,
      "ĠPe": 5067,
      "Ġlas": 5068,
      ".E": 5069,
      "css": 5070,
      "/or": 5071,
      "ĠStart": 5072,
      "ĠTO": 5073,
      "Ġsubs": 5074,
      "conn": 5075,
      "components": 5076,
      "DEBUG": 5077,
      "quare": 5078,
      "Function": 5079,
      "endar": 5080,
      ".index": 5081,
      "Ġfill": 5082,
      "Ġchoose": 5083,
      "how": 5084,
      "ĠAmerica": 5085,
      "assets": 5086,
      "------------": 5087,
      "ĠValue": 5088,
      "Ġoffice": 5089,
      "Ġveh": 5090,
      "Ġtransform": 5091,
      "ĠArt": 5092,
      "Ġinde": 5093,
      "Ġfn": 5094,
      "Ġimplements": 5095,
      "ango": 5096,
      "plete": 5097,
      "+\"": 5098,
      "tmp": 5099,
      "amily": 5100,
      "Ġhash": 5101,
      "missions": 5102,
      "EST": 5103,
      "gt": 5104,
      "Provider": 5105,
      "ĠĠĠĠĠĠĠĠĠĠĠĠĠĠĠĠĠĠĠĠĠĠ": 5106,
      "Ġflag": 5107,
      "Ġparticip": 5108,
      "den": 5109,
      "ĠReturns": 5110,
      "Ġnote": 5111,
      "Ã¼r": 5112,
      "pm": 5113,
      "ideos": 5114,
      "Ġspecified": 5115,
      "ĠEN": 5116,
      "ester": 5117,
      "olid": 5118,
      "Ġupon": 5119,
      "(std": 5120,
      "ĉv": 5121,
      "Ġ'\\": 5122,
      "uz": 5123,
      "Ġvert": 5124,
      "Ġvict": 5125,
      "ĉself": 5126,
      "Ġ\"$": 5127,
      ".k": 5128,
      "Ġgroups": 5129,
      "github": 5130,
      "lang": 5131,
      "Ġmut": 5132,
      "TO": 5133,
      "Ġve": 5134,
      "ĠPlease": 5135,
      ";ĊĊĊ": 5136,
      "access": 5137,
      "Ġ{\"": 5138,
      "rea": 5139,
      "Ġrisk": 5140,
      "icker": 5141,
      "oggle": 5142,
      "ANG": 5143,
      ".send": 5144,
      "Ġwoman": 5145,
      "Ġgets": 5146,
      "Ġign": 5147,
      "ĠId": 5148,
      "_log": 5149,
      "ONE": 5150,
      "Ġevid": 5151,
      "ĠHar": 5152,
      "_sub": 5153,
      "Ġincluded": 5154,
      "());ĊĊ": 5155,
      "ĠAp": 5156,
      "igr": 5157,
      "Ġsem": 5158,
      "ĠBlack": 5159,
      "doc": 5160,
      "_table": 5161,
      "ĠĠĠĠĠĠĠĠĠĠĠĠĠĠĠĠĠĠĠĠĠĠĠĠĠĠĠĠĠĠĠĠĠĠĠĠĠĠĠĠĠĠĠĠĠĠĠĠĠĠĠĠĠĠĠĠĠĠĠĠĠĠĠĠ": 5162,
      "-up": 5163,
      "Ġcause": 5164,
      "Ġ..": 5165,
      "Ġvan": 5166,
      "_dict": 5167,
      "Ġfocus": 5168,
      "IND": 5169,
      ".Log": 5170,
      "Ġmultiple": 5171,
      "ido": 5172,
      "Ġregard": 5173,
      "-M": 5174,
      "andler": 5175,
      "ourse": 5176,
      "Ġdeg": 5177,
      ".U": 5178,
      "Ġaddition": 5179,
      "Ġvarious": 5180,
      "Ġreceive": 5181,
      "ÐµÐ½": 5182,
      "ĠHT": 5183,
      "Obj": 5184,
      "DF": 5185,
      "Ġincrease": 5186,
      "ĠOpen": 5187,
      "];": 5188,
      "Ġcommit": 5189,
      "?Ċ": 5190,
      "ategories": 5191,
      "atory": 5192,
      "ship": 5193,
      "ĠMich": 5194,
      "Ġhtml": 5195,
      "romise": 5196,
      "Ġleave": 5197,
      "Ġstrateg": 5198,
      "aven": 5199,
      "ĠConsole": 5200,
      "known": 5201,
      "-n": 5202,
      ".component": 5203,
      "Ġbre": 5204,
      "Session": 5205,
      "iance": 5206,
      "Ġalign": 5207,
      "typedef": 5208,
      "_result": 5209,
      "ĠWHERE": 5210,
      ".split": 5211,
      "Ġreading": 5212,
      "FAULT": 5213,
      "Ġclo": 5214,
      "Ġnotice": 5215,
      "arter": 5216,
      "Ġlock": 5217,
      "Ġstandard": 5218,
      "etic": 5219,
      "ellow": 5220,
      "Ġpadding": 5221,
      "ĠHis": 5222,
      "Ġstates": 5223,
      "_cast": 5224,
      "(P": 5225,
      "aa": 5226,
      "Ġinternal": 5227,
      "ean": 5228,
      "ĠPRO": 5229,
      "ĠKey": 5230,
      "Ġespecially": 5231,
      "ming": 5232,
      "Ġcross": 5233,
      "Ġnational": 5234,
      "_object": 5235,
      "filter": 5236,
      "Ġscript": 5237,
      ".update": 5238,
      "_i": 5239,
      "ĠAssert": 5240,
      "/core": 5241,
      "Ġproblems": 5242,
      "istor": 5243,
      "Ġ.=": 5244,
      "Ġarch": 5245,
      "Ġwritten": 5246,
      "Ġmilit": 5247,
      "MENT": 5248,
      ".ch": 5249,
      "cape": 5250,
      "ĠMus": 5251,
      "_config": 5252,
      "ĠAPI": 5253,
      "foot": 5254,
      "Ġimages": 5255,
      ".In": 5256,
      "First": 5257,
      "Ġplatform": 5258,
      ".prot": 5259,
      "Option": 5260,
      "ste": 5261,
      "ĠTODO": 5262,
      "Ġforce": 5263,
      ".cont": 5264,
      "ĉecho": 5265,
      "ĠDav": 5266,
      "Ptr": 5267,
      "(B": 5268,
      "RT": 5269,
      "ĠBase": 5270,
      "Ġannounc": 5271,
      "ĠPy": 5272,
      "ds": 5273,
      ".as": 5274,
      "Ġprevent": 5275,
      "apan": 5276,
      "Ġ{'": 5277,
      "ĠService": 5278,
      "ĠSen": 5279,
      "ador": 5280,
      "profile": 5281,
      "Top": 5282,
      "Ġiter": 5283,
      "po": 5284,
      "IES": 5285,
      "JSON": 5286,
      "IE": 5287,
      "iant": 5288,
      "ãĢģ": 5289,
      "_j": 5290,
      "ĠSept": 5291,
      "_map": 5292,
      "bum": 5293,
      "(context": 5294,
      "ĠHome": 5295,
      "ians": 5296,
      "GB": 5297,
      "Ġliving": 5298,
      "Ġpattern": 5299,
      "(input": 5300,
      "icient": 5301,
      "Core": 5302,
      "Ġentity": 5303,
      "Ġinteg": 5304,
      "Changed": 5305,
      "Ġuseful": 5306,
      ".info": 5307,
      "Ġtool": 5308,
      "(item": 5309,
      "Ġok": 5310,
      "Ġfeed": 5311,
      "IX": 5312,
      "Ã©s": 5313,
      "ĠNews": 5314,
      "remove": 5315,
      "erry": 5316,
      "ĉĉĉĉĉĉĉĉĉ": 5317,
      "ipment": 5318,
      "ares": 5319,
      "Do": 5320,
      "Current": 5321,
      ".content": 5322,
      "ustral": 5323,
      "ĠÑģ": 5324,
      "})": 5325,
      "Ġpopular": 5326,
      "Ġstre": 5327,
      "Ġmethods": 5328,
      "_ERROR": 5329,
      "Left": 5330,
      "cal": 5331,
      "bsp": 5332,
      ".ToString": 5333,
      "Ġdir": 5334,
      "Ġallowed": 5335,
      "Ġimpact": 5336,
      "\")]Ċ": 5337,
      ".config": 5338,
      "Ġelements": 5339,
      "Ġprote": 5340,
      "Ġtrain": 5341,
      ".tr": 5342,
      "rs": 5343,
      "ĠRepublic": 5344,
      "ĠTask": 5345,
      "aries": 5346,
      "(D": 5347,
      "(get": 5348,
      "âĢ¦ĊĊ": 5349,
      "Ġrelated": 5350,
      "Ġvers": 5351,
      "Ġsil": 5352,
      "Ġ\"\";Ċ": 5353,
      "Ġcmd": 5354,
      "Ġtechnology": 5355,
      ".width": 5356,
      "Float": 5357,
      "ĠUse": 5358,
      "Body": 5359,
      "should": 5360,
      ".join": 5361,
      "Font": 5362,
      "llum": 5363,
      "ycle": 5364,
      "ĠBrit": 5365,
      "Ġmit": 5366,
      "Ġscale": 5367,
      "ernel": 5368,
      "\"))Ċ": 5369,
      "Ġscore": 5370,
      "/v": 5371,
      "Ġstudent": 5372,
      "UC": 5373,
      ".show": 5374,
      "Ġaverage": 5375,
      "Enabled": 5376,
      "(ex": 5377,
      "common": 5378,
      "imation": 5379,
      "chie": 5380,
      "Ġ...ĊĊ": 5381,
      "river": 5382,
      "ĠMarch": 5383,
      "category": 5384,
      "fin": 5385,
      "Ġcourt": 5386,
      "Ð²": 5387,
      "Server": 5388,
      "Ġcontainer": 5389,
      "-st": 5390,
      "_for": 5391,
      "Ġparts": 5392,
      "Ġdecision": 5393,
      "obs": 5394,
      "oub": 5395,
      "mitted": 5396,
      "Ġsaw": 5397,
      "Ġapproach": 5398,
      "ICE": 5399,
      "Ġsaying": 5400,
      "Ġanyone": 5401,
      "meta": 5402,
      "SD": 5403,
      "Ġsong": 5404,
      "display": 5405,
      "Oper": 5406,
      "outes": 5407,
      "Ġchannel": 5408,
      "Ġchanged": 5409,
      "Ãª": 5410,
      "Ġfinally": 5411,
      "_number": 5412,
      "Please": 5413,
      "à¤": 5414,
      "oring": 5415,
      "-re": 5416,
      "Ġkill": 5417,
      "Ġdrug": 5418,
      "window": 5419,
      "Ġconvert": 5420,
      "Ġways": 5421,
      "Helper": 5422,
      "ĠFirst": 5423,
      "(__": 5424,
      "urity": 5425,
      "ĠWindows": 5426,
      "ees": 5427,
      "Ġmat": 5428,
      "rapper": 5429,
      "Ġplus": 5430,
      "anges": 5431,
      "\"].": 5432,
      "azon": 5433,
      "/t": 5434,
      "lat": 5435,
      "aste": 5436,
      "Ġprofile": 5437,
      "Ġready": 5438,
      "#ifndef": 5439,
      "rote": 5440,
      "Ġsense": 5441,
      "Gener": 5442,
      "ĠConfig": 5443,
      "omy": 5444,
      "ĠJune": 5445,
      "Ġlatest": 5446,
      "Ġsaf": 5447,
      "Ġregion": 5448,
      "Ġdeep": 5449,
      "witch": 5450,
      "ĠPark": 5451,
      "}`": 5452,
      "ĠFrom": 5453,
      "II": 5454,
      "Ġcv": 5455,
      "Ġreach": 5456,
      "Ġcounter": 5457,
      "ĠWork": 5458,
      "ĠURL": 5459,
      "ĠUpdate": 5460,
      "',čĊ": 5461,
      "Ġimmedi": 5462,
      "close": 5463,
      "ados": 5464,
      "ferred": 5465,
      "Ġweeks": 5466,
      "urg": 5467,
      "Ġdamage": 5468,
      "Ġlost": 5469,
      "ani": 5470,
      "_lo": 5471,
      "Ġhimself": 5472,
      "Ġdog": 5473,
      ")]Ċ": 5474,
      "ï¿": 5475,
      "pir": 5476,
      "tt": 5477,
      "Ġpaper": 5478,
      "Ġthems": 5479,
      "second": 5480,
      "Ġstaff": 5481,
      "ĠInput": 5482,
      "\"+": 5483,
      "ĠFacebook": 5484,
      "Ġalloc": 5485,
      "Ġsched": 5486,
      "ACE": 5487,
      "Ġthemselves": 5488,
      "ĠComponent": 5489,
      "Ġdriver": 5490,
      "ja": 5491,
      "(path": 5492,
      "Ġcategory": 5493,
      "alls": 5494,
      "pu": 5495,
      "lluminate": 5496,
      "ĠAction": 5497,
      ".button": 5498,
      "ĠGL": 5499,
      "istics": 5500,
      "Ġoil": 5501,
      "Ġstock": 5502,
      "Ġdead": 5503,
      "VAL": 5504,
      "QUE": 5505,
      "Ġcharg": 5506,
      "Return": 5507,
      "Ġful": 5508,
      "dom": 5509,
      "Ġrules": 5510,
      "Ġmodify": 5511,
      "Ġeval": 5512,
      "ham": 5513,
      "atement": 5514,
      "ula": 5515,
      "=False": 5516,
      "RA": 5517,
      "Ġcontains": 5518,
      "Ġstack": 5519,
      "mar": 5520,
      "Ġ{}Ċ": 5521,
      "Ġundefined": 5522,
      "Ass": 5523,
      "ĠChina": 5524,
      "vey": 5525,
      "*Ċ": 5526,
      "Ġplaying": 5527,
      ")/": 5528,
      "actor": 5529,
      "Ġbottom": 5530,
      "lier": 5531,
      "ĠNumber": 5532,
      "Ġcouple": 5533,
      "DC": 5534,
      "ĠSO": 5535,
      "gor": 5536,
      "success": 5537,
      "command": 5538,
      "Filter": 5539,
      "ĠOur": 5540,
      "_item": 5541,
      "Ġctx": 5542,
      "Ġroad": 5543,
      "Version": 5544,
      "case": 5545,
      "urt": 5546,
      "avior": 5547,
      "ych": 5548,
      "sembly": 5549,
      "ĠProduct": 5550,
      "Ġheld": 5551,
      "afe": 5552,
      "Ġincludes": 5553,
      "Ġavoid": 5554,
      "ĠFin": 5555,
      "ĠMod": 5556,
      "Ġtab": 5557,
      "ano": 5558,
      "Ã±": 5559,
      "ipping": 5560,
      "-e": 5561,
      "Ġinsert": 5562,
      "target": 5563,
      "chan": 5564,
      "IME": 5565,
      "\\Ċ": 5566,
      "Ġmachine": 5567,
      "avy": 5568,
      "ĠNO": 5569,
      "ĠInter": 5570,
      "Ġoperation": 5571,
      "modal": 5572,
      "Tag": 5573,
      "]:": 5574,
      "Ġproduction": 5575,
      "Ġareas": 5576,
      "Ġren": 5577,
      "_from": 5578,
      "nbsp": 5579,
      "Ġoperator": 5580,
      "men": 5581,
      "apped": 5582,
      "_per": 5583,
      "zen": 5584,
      "=\"{{": 5585,
      "Ġtor": 5586,
      "(response": 5587,
      "Ġcandid": 5588,
      "Ġconv": 5589,
      "ailed": 5590,
      "ĠLib": 5591,
      "comp": 5592,
      "ura": 5593,
      "ï¿½": 5594,
      "ĠHere": 5595,
      "Ġargument": 5596,
      "hood": 5597,
      "Ġestablish": 5598,
      "ography": 5599,
      "ambda": 5600,
      "Ġsch": 5601,
      "Ġmovie": 5602,
      "Ġsec": 5603,
      "Ġactivity": 5604,
      "Ø§": 5605,
      "Ġsql": 5606,
      "_all": 5607,
      "incip": 5608,
      "Ġprovides": 5609,
      "Ġsys": 5610,
      "acket": 5611,
      "Ġwasn": 5612,
      "Ġuses": 5613,
      "ĠFunction": 5614,
      ".google": 5615,
      "ĠResult": 5616,
      "agma": 5617,
      "elcome": 5618,
      "ĠSy": 5619,
      "ĠCent": 5620,
      "ALSE": 5621,
      "aciÃ³n": 5622,
      "EXT": 5623,
      "Ġlicense": 5624,
      "ĠLong": 5625,
      "Ġaccom": 5626,
      "Ġability": 5627,
      ".height": 5628,
      "Active": 5629,
      "ological": 5630,
      "oly": 5631,
      ")),": 5632,
      "Ġparameter": 5633,
      "ABILITY": 5634,
      ".service": 5635,
      "ĠGroup": 5636,
      "_query": 5637,
      "ĠItem": 5638,
      "ining": 5639,
      "Ġjud": 5640,
      "ims": 5641,
      "fix": 5642,
      "inder": 5643,
      "agram": 5644,
      "Ġfunctions": 5645,
      "Ġexperi": 5646,
      "ĠEm": 5647,
      "Ġrot": 5648,
      "Ġpen": 5649,
      ".btn": 5650,
      "ĠAS": 5651,
      "#ifdef": 5652,
      "Ġchoice": 5653,
      "ĠPage": 5654,
      "QU": 5655,
      "åı": 5656,
      "antity": 5657,
      "ÂŃ": 5658,
      "words": 5659,
      "Ġreadonly": 5660,
      "Ġflex": 5661,
      "protected": 5662,
      "ĠAny": 5663,
      "Ġcharacters": 5664,
      "enced": 5665,
      "ĠJuly": 5666,
      "iler": 5667,
      "Card": 5668,
      "urance": 5669,
      "Ġrev": 5670,
      ".event": 5671,
      "aly": 5672,
      "Ġwonder": 5673,
      "ĠPort": 5674,
      "Ġlegal": 5675,
      "role": 5676,
      "Ġten": 5677,
      "Ġgoes": 5678,
      "MP": 5679,
      "white": 5680,
      "))čĊ": 5681,
      "Ġreference": 5682,
      "Ġmis": 5683,
      "ĠProject": 5684,
      "icks": 5685,
      ">&": 5686,
      "CON": 5687,
      "Ġrepl": 5688,
      "Ġregular": 5689,
      "Storage": 5690,
      "ramework": 5691,
      "Ġgoal": 5692,
      "Ġtouch": 5693,
      "Ġbuilt": 5694,
      "des": 5695,
      "Part": 5696,
      "(re": 5697,
      "Ġworth": 5698,
      "hib": 5699,
      "game": 5700,
      "ĠÐ²": 5701,
      "acion": 5702,
      "ĠWhite": 5703,
      "(type": 5704,
      "(`": 5705,
      "Ġnatural": 5706,
      "Ġinj": 5707,
      "Ġcalcul": 5708,
      "ĠApril": 5709,
      ".List": 5710,
      "Ġassociated": 5711,
      "~~": 5712,
      "=[": 5713,
      "Ġstorage": 5714,
      "Ġbytes": 5715,
      "Ġtravel": 5716,
      "Ġsou": 5717,
      "Ġpassed": 5718,
      "!=": 5719,
      "ascript": 5720,
      ".open": 5721,
      "Ġgrid": 5722,
      "Ġbus": 5723,
      "Ġrecogn": 5724,
      "Ab": 5725,
      "Ġhon": 5726,
      "ĠCenter": 5727,
      "Ġprec": 5728,
      "build": 5729,
      "HTML": 5730,
      "ĠSan": 5731,
      "Ġcountries": 5732,
      "aled": 5733,
      "token": 5734,
      "kt": 5735,
      "Ġqual": 5736,
      "Last": 5737,
      "adow": 5738,
      "Ġmanufact": 5739,
      "idad": 5740,
      "Next": 5741,
      "xf": 5742,
      ".a": 5743,
      "ĠPM": 5744,
      "erve": 5745,
      "iting": 5746,
      "_th": 5747,
      "ci": 5748,
      "=None": 5749,
      "gs": 5750,
      "Ġlogin": 5751,
      "atives": 5752,
      "Ġill": 5753,
      "IA": 5754,
      "children": 5755,
      "DO": 5756,
      "Ġlevels": 5757,
      "Ġ{{": 5758,
      "Ġlooks": 5759,
      "Ġ\"#": 5760,
      "ToString": 5761,
      "Ġnecessary": 5762,
      "ĠĠĠĊ": 5763,
      "cell": 5764,
      "Entry": 5765,
      "Ġ'#": 5766,
      "Ġextrem": 5767,
      "Selector": 5768,
      "Ġplaceholder": 5769,
      "Load": 5770,
      "Ġreleased": 5771,
      "ORE": 5772,
      "ĠTV": 5773,
      "SET": 5774,
      "Press": 5775,
      "ĠDepartment": 5776,
      "Ġproperties": 5777,
      "Ġrespond": 5778,
      "Search": 5779,
      "ael": 5780,
      "Ġrequ": 5781,
      "ĠBook": 5782,
      "/Ċ": 5783,
      "Ġfinancial": 5784,
      "icket": 5785,
      "_input": 5786,
      "Ġthreat": 5787,
      "(in": 5788,
      "ìĿ": 5789,
      "Ġevidence": 5790,
      "));": 5791,
      "ĠBro": 5792,
      "Ġ[];Ċ": 5793,
      "Ġou": 5794,
      "buf": 5795,
      "Script": 5796,
      "dat": 5797,
      "Ġrule": 5798,
      "=\"/": 5799,
      "Serial": 5800,
      "Ġstarting": 5801,
      "[index": 5802,
      "ae": 5803,
      "Ġcontrib": 5804,
      "session": 5805,
      "_new": 5806,
      "utable": 5807,
      "ober": 5808,
      "Ġ\"./": 5809,
      "Ġlogger": 5810,
      "Ġrecently": 5811,
      "Ġreturned": 5812,
      ")))Ċ": 5813,
      "itions": 5814,
      "Ġseek": 5815,
      "Ġcommunic": 5816,
      "Ġ\".": 5817,
      "Ġusername": 5818,
      "ECT": 5819,
      "DS": 5820,
      "Ġotherwise": 5821,
      "ĠGerman": 5822,
      ".aw": 5823,
      "Adapter": 5824,
      "ixel": 5825,
      "Ġsystems": 5826,
      "Ġdrop": 5827,
      "Ġstructure": 5828,
      "encies": 5829,
      "anning": 5830,
      "ĠLink": 5831,
      "ĠResponse": 5832,
      "Ġstri": 5833,
      "ĠDB": 5834,
      "æĹ": 5835,
      "submit": 5836,
      "otion": 5837,
      "(@": 5838,
      ".test": 5839,
      "ĊĊĊĊĊĊĊĊ": 5840,
      "Ġdirectly": 5841,
      "Ġ\"%": 5842,
      "ris": 5843,
      "elta": 5844,
      "AIL": 5845,
      "mine": 5846,
      "ĠĠĠĠĠĠĠĠĠĠĠĠĠĠĠĠĠĠĠĠĠĠĠĠĠĠ": 5847,
      "(k": 5848,
      "bon": 5849,
      "asic": 5850,
      "pite": 5851,
      "___": 5852,
      "Max": 5853,
      "Ġerrors": 5854,
      "ĠWhile": 5855,
      "Ġarguments": 5856,
      "Ġensure": 5857,
      "Right": 5858,
      "-based": 5859,
      "Web": 5860,
      "Ġ-=": 5861,
      "Ġintrodu": 5862,
      "ĠInst": 5863,
      "ĠWash": 5864,
      "ordin": 5865,
      "join": 5866,
      "Database": 5867,
      "Ġgrad": 5868,
      "Ġusually": 5869,
      "ITE": 5870,
      "Props": 5871,
      "ĠGo": 5872,
      "REF": 5873,
      "Ġip": 5874,
      "ĠAustral": 5875,
      "Ġist": 5876,
      "Ġserious": 5877,
      "Ġcustomer": 5878,
      ".prototype": 5879,
      "odo": 5880,
      "cor": 5881,
      "Ġdoor": 5882,
      "ĠWITHOUT": 5883,
      "Ġplant": 5884,
      "Ġbegan": 5885,
      "Ġdistance": 5886,
      "()).": 5887,
      "Ġchance": 5888,
      "Ġord": 5889,
      "came": 5890,
      "pragma": 5891,
      "Ġprotect": 5892,
      "ĠNode": 5893,
      "ening": 5894,
      "Ġroute": 5895,
      "ĠSchool": 5896,
      "hi": 5897,
      "Ġneighb": 5898,
      "After": 5899,
      "licit": 5900,
      "Ġcontr": 5901,
      "Ġprimary": 5902,
      "AA": 5903,
      ".WriteLine": 5904,
      "utils": 5905,
      "Ġbi": 5906,
      "Red": 5907,
      ".object": 5908,
      "Ġleaders": 5909,
      "unities": 5910,
      "Ġgun": 5911,
      "onth": 5912,
      "ĠDev": 5913,
      "FILE": 5914,
      "Ġcomments": 5915,
      "_len": 5916,
      "arrow": 5917,
      "amount": 5918,
      "Range": 5919,
      "sert": 5920,
      "Ġupdated": 5921,
      "ĠMo": 5922,
      "Ġinform": 5923,
      "ociety": 5924,
      "ala": 5925,
      "Access": 5926,
      "Ġhab": 5927,
      "Ġcreat": 5928,
      "_arg": 5929,
      "ĠJanuary": 5930,
      "ĠDay": 5931,
      "\")čĊ": 5932,
      "uple": 5933,
      "document": 5934,
      "gorith": 5935,
      "menu": 5936,
      "ĠOver": 5937,
      "bb": 5938,
      "_out": 5939,
      "Ġled": 5940,
      "uri": 5941,
      "gl": 5942,
      "Ġbank": 5943,
      "ayment": 5944,
      "MD": 5945,
      "Ġsample": 5946,
      "Ġhands": 5947,
      "ĠVersion": 5948,
      "Ġoffers": 5949,
      "Ġshape": 5950,
      "Ġsleep": 5951,
      "_point": 5952,
      "Settings": 5953,
      "Ġachie": 5954,
      "Ġsold": 5955,
      "ota": 5956,
      "Am": 5957,
      "Ġsafe": 5958,
      "Store": 5959,
      "Ġshared": 5960,
      "Ġpriv": 5961,
      "_VAL": 5962,
      "Ġsens": 5963,
      "){": 5964,
      "Ġremember": 5965,
      "shared": 5966,
      "element": 5967,
      "Ġshoot": 5968,
      "Ġenv": 5969,
      "_label": 5970,
      "Ġ>Ċ": 5971,
      "run": 5972,
      "Ġscene": 5973,
      "(array": 5974,
      "device": 5975,
      "agon": 5976,
      "]čĊ": 5977,
      "aby": 5978,
      "Ġbecame": 5979,
      "boolean": 5980,
      "Ġpark": 5981,
      "ĠCode": 5982,
      "upload": 5983,
      "riday": 5984,
      "ĠSeptember": 5985,
      "Fe": 5986,
      "Ġsen": 5987,
      "cing": 5988,
      "FL": 5989,
      "Col": 5990,
      "uts": 5991,
      "_page": 5992,
      "inn": 5993,
      "Ġimplied": 5994,
      "aling": 5995,
      "Ġyourself": 5996,
      ".Count": 5997,
      "conf": 5998,
      "Ġaud": 5999,
      "_init": 6000,
      ".)": 6001,
      "Ġwrote": 6002,
      "NG": 6003,
      ".Error": 6004,
      "ä»": 6005,
      "Ġequal": 6006,
      "ĠRequest": 6007,
      "Ġserial": 6008,
      "Ġallows": 6009,
      "XX": 6010,
      "Ġmiddle": 6011,
      "chor": 6012,
      "Ã¸": 6013,
      "erval": 6014,
      "reading": 6015,
      "Ġescort": 6016,
      "ĠAugust": 6017,
      "Ġquickly": 6018,
      "Ġweap": 6019,
      "ĠCG": 6020,
      "ropri": 6021,
      "ho": 6022,
      "Ġcop": 6023,
      "(struct": 6024,
      "ĠBig": 6025,
      "Ġvs": 6026,
      "Ġfrequ": 6027,
      ".Value": 6028,
      "Ġactions": 6029,
      "Ġproper": 6030,
      "Ġinn": 6031,
      "Ġobjects": 6032,
      "Ġmatrix": 6033,
      "avascript": 6034,
      "Ġones": 6035,
      "Ġgreen": 6036,
      "Ġpaint": 6037,
      "ools": 6038,
      "ycl": 6039,
      "encode": 6040,
      "olt": 6041,
      "comment": 6042,
      ".api": 6043,
      "Dir": 6044,
      "Ġune": 6045,
      "izont": 6046,
      "Ġdesigned": 6047,
      "_val": 6048,
      "avi": 6049,
      "iring": 6050,
      "tab": 6051,
      "Ġlayer": 6052,
      "Ġviews": 6053,
      "Ġreve": 6054,
      "rael": 6055,
      "ĠON": 6056,
      "rics": 6057,
      "np": 6058,
      "Ġcore": 6059,
      "Main": 6060,
      "Ġexpert": 6061,
      "_en": 6062,
      "Ġ/>": 6063,
      "utter": 6064,
      "IAL": 6065,
      "ails": 6066,
      "ĠKing": 6067,
      "*/ĊĊ": 6068,
      "ĠMet": 6069,
      "_end": 6070,
      "addr": 6071,
      "ora": 6072,
      "Ġir": 6073,
      "Min": 6074,
      "Ġsurpr": 6075,
      "Ġrepe": 6076,
      "Ġdirectory": 6077,
      "PUT": 6078,
      "-S": 6079,
      "Ġelection": 6080,
      "haps": 6081,
      "cm": 6082,
      "Values": 6083,
      "Ġ\"Ċ": 6084,
      "column": 6085,
      "ivil": 6086,
      "Login": 6087,
      "inue": 6088,
      "Ġbeautiful": 6089,
      "Ġsecret": 6090,
      "(event": 6091,
      "Ġchat": 6092,
      "ums": 6093,
      "Ġorigin": 6094,
      "Ġeffects": 6095,
      "Ġmanagement": 6096,
      "illa": 6097,
      "tk": 6098,
      "Ġsetting": 6099,
      "ĠCour": 6100,
      "Ġmassage": 6101,
      "ĉend": 6102,
      "Ġhappy": 6103,
      "Ġfinish": 6104,
      "Ġcamera": 6105,
      "ĠVer": 6106,
      "ĠDemocr": 6107,
      "ĠHer": 6108,
      "(Q": 6109,
      "cons": 6110,
      "ita": 6111,
      "Ġ'.": 6112,
      "{}": 6113,
      "ĉC": 6114,
      "Ġstuff": 6115,
      "Ġ:Ċ": 6116,
      "ĠAR": 6117,
      "Task": 6118,
      "hidden": 6119,
      "eros": 6120,
      "IGN": 6121,
      "atio": 6122,
      "ĠHealth": 6123,
      "olute": 6124,
      "Enter": 6125,
      "ĠTwitter": 6126,
      "ĠCounty": 6127,
      "scribe": 6128,
      "Ġ=>Ċ": 6129,
      "Ġhy": 6130,
      "fit": 6131,
      "Ġmilitary": 6132,
      "Ġsale": 6133,
      "required": 6134,
      "non": 6135,
      "bootstrap": 6136,
      "hold": 6137,
      "rim": 6138,
      "-old": 6139,
      "ĠDown": 6140,
      "Ġmention": 6141,
      "contact": 6142,
      "_group": 6143,
      "oday": 6144,
      "Ġtown": 6145,
      "Ġsolution": 6146,
      "uate": 6147,
      "elling": 6148,
      "]->": 6149,
      "otes": 6150,
      "ental": 6151,
      "omen": 6152,
      "ospital": 6153,
      "ĠSup": 6154,
      "_EN": 6155,
      "Ġslow": 6156,
      "Ġblue": 6157,
      "ago": 6158,
      "Ġlives": 6159,
      "Ġ^": 6160,
      ".un": 6161,
      "inst": 6162,
      "enge": 6163,
      "Ġcustomers": 6164,
      "Ġcast": 6165,
      "udget": 6166,
      "ï¼ģ": 6167,
      "icens": 6168,
      "Ġdetermin": 6169,
      "Selected": 6170,
      "_pl": 6171,
      "ueue": 6172,
      "Ġdark": 6173,
      "si": 6174,
      "thern": 6175,
      "ĠJapan": 6176,
      "/w": 6177,
      "PU": 6178,
      "ĠEast": 6179,
      "ovie": 6180,
      "Ġpackage": 6181,
      "Ġnor": 6182,
      "Ġapi": 6183,
      "bot": 6184,
      "_post": 6185,
      "ulate": 6186,
      "Ġclub": 6187,
      "Ġloop": 6188,
      "PIO": 6189,
      "ione": 6190,
      "shot": 6191,
      "Initial": 6192,
      "Ġplayed": 6193,
      "register": 6194,
      "rought": 6195,
      "_max": 6196,
      "acement": 6197,
      "match": 6198,
      "raphics": 6199,
      "AST": 6200,
      "Ġexisting": 6201,
      "Ġcomplex": 6202,
      "DA": 6203,
      ".Ch": 6204,
      "mo": 6205,
      "ito": 6206,
      "Ġanalysis": 6207,
      "Ġdeliver": 6208,
      "ĠĠĠĠĠĠĠĠĠĠĠĠĠĠĠĠĊ": 6209,
      "idx": 6210,
      "Ãł": 6211,
      "ongo": 6212,
      "ĠEnglish": 6213,
      "<!--": 6214,
      "Ġcomputer": 6215,
      "ENSE": 6216,
      "Ġpas": 6217,
      "Ġrais": 6218,
      "Hash": 6219,
      "Ġmobile": 6220,
      "Ġowner": 6221,
      "FIG": 6222,
      "ĠĠĠĠĠĠĠĠĠĠĠĠĠĠĠĠĠĠĠĠĠĠĠĠĠĠĠĠĠĠĠĠĠĠĠĠĠĠĠĠĠĠĠĠĠĠĠĠĠĠĠ": 6223,
      "thes": 6224,
      "Ġattr": 6225,
      "wd": 6226,
      ".time": 6227,
      "awn": 6228,
      "Ġtreatment": 6229,
      "ĠAc": 6230,
      ".View": 6231,
      "impl": 6232,
      "more": 6233,
      "pass": 6234,
      "Ġha": 6235,
      ".from": 6236,
      "Ġleading": 6237,
      ".ui": 6238,
      "atar": 6239,
      "aders": 6240,
      "dates": 6241,
      "Ġzu": 6242,
      "Ġflow": 6243,
      "Target": 6244,
      "Ġinvolved": 6245,
      "Ġio": 6246,
      "parse": 6247,
      "$_": 6248,
      "hest": 6249,
      ".int": 6250,
      "-item": 6251,
      "asy": 6252,
      "Sp": 6253,
      "Ġshift": 6254,
      "NT": 6255,
      "Ġtf": 6256,
      "_TR": 6257,
      "CS": 6258,
      "Ġ})": 6259,
      "Ġeyes": 6260,
      "_z": 6261,
      "');čĊ": 6262,
      "iforn": 6263,
      "Ġ{@": 6264,
      "Ġnice": 6265,
      ".list": 6266,
      "Ġfloor": 6267,
      "Ġredirect": 6268,
      "ĠUK": 6269,
      "Ġwish": 6270,
      "Ġcapt": 6271,
      "legal": 6272,
      "ĠIO": 6273,
      "Ġstage": 6274,
      ".String": 6275,
      "ĠAfr": 6276,
      "igen": 6277,
      "ĠSH": 6278,
      "Delete": 6279,
      "ells": 6280,
      "Ġsolid": 6281,
      "Ġmeeting": 6282,
      "Ġworked": 6283,
      "Ġeditor": 6284,
      "iny": 6285,
      "Ð¼": 6286,
      "_read": 6287,
      ".Id": 6288,
      "eff": 6289,
      "Offset": 6290,
      "cha": 6291,
      "USER": 6292,
      "ĉĉĠĠĠ": 6293,
      "ipped": 6294,
      "Ġdict": 6295,
      "ĠRun": 6296,
      ".hpp": 6297,
      "Ġang": 6298,
      "xml": 6299,
      "imple": 6300,
      "Ġmedical": 6301,
      "_token": 6302,
      "connect": 6303,
      "Ġhour": 6304,
      "Ġcontroller": 6305,
      "_message": 6306,
      "Gr": 6307,
      "anded": 6308,
      "_CH": 6309,
      "Ġbooks": 6310,
      "Ġspeak": 6311,
      "aming": 6312,
      "Ġmount": 6313,
      "Record": 6314,
      "ĉstruct": 6315,
      "ondon": 6316,
      "Ġ//Ċ": 6317,
      "Ġfelt": 6318,
      "idge": 6319,
      "_pos": 6320,
      "PR": 6321,
      "Ġmodern": 6322,
      "Collection": 6323,
      "_msg": 6324,
      "CD": 6325,
      "ĠLo": 6326,
      "Ġseconds": 6327,
      "ibly": 6328,
      "Ġinternational": 6329,
      "#pragma": 6330,
      "ooth": 6331,
      "Writer": 6332,
      "iate": 6333,
      "Ġcele": 6334,
      "ĠBit": 6335,
      "ivo": 6336,
      "ivery": 6337,
      "rd": 6338,
      "HECK": 6339,
      "Ġcache": 6340,
      ".count": 6341,
      "Ġroll": 6342,
      ".Read": 6343,
      "RED": 6344,
      "Ġsetup": 6345,
      "izontal": 6346,
      "models": 6347,
      "Ġconsidered": 6348,
      "=\"../": 6349,
      "settings": 6350,
      "ĠRel": 6351,
      "Ġgrowth": 6352,
      "Ġmix": 6353,
      "ĠWashington": 6354,
      "ĠIM": 6355,
      "Ġturned": 6356,
      "ĠWed": 6357,
      "(url": 6358,
      "Ġ\"-": 6359,
      "Ġletter": 6360,
      "Async": 6361,
      "ĠĠĠĠĠĠĠĠĠĠĠĠĠĠĠĠĠĠĠĠĠĠĠĠĠĠĠĠ": 6362,
      "ĠOctober": 6363,
      "_line": 6364,
      "Ġattention": 6365,
      "Ġcollect": 6366,
      "ĠHash": 6367,
      "Ġimag": 6368,
      "Tree": 6369,
      "Ġsituation": 6370,
      "ette": 6371,
      "_no": 6372,
      "IVE": 6373,
      "Ġvon": 6374,
      ".target": 6375,
      "Ġknowledge": 6376,
      "Ġdrive": 6377,
      ".post": 6378,
      "Ġblood": 6379,
      "Ġcit": 6380,
      "primary": 6381,
      "Ġconfiguration": 6382,
      "tee": 6383,
      "Ġphoto": 6384,
      "isode": 6385,
      "Ġgave": 6386,
      "Ġshot": 6387,
      "ĠAir": 6388,
      "Ġmother": 6389,
      "price": 6390,
      "Ġmorning": 6391,
      "-x": 6392,
      "Ġtrade": 6393,
      "Ġdesc": 6394,
      "Ġ&&Ċ": 6395,
      "Ġparents": 6396,
      "Api": 6397,
      "åĪ": 6398,
      "ted": 6399,
      "wer": 6400,
      "Ġæ": 6401,
      "Ġsy": 6402,
      "ĠKe": 6403,
      "Parser": 6404,
      "åħ": 6405,
      "ancy": 6406,
      "Ġpiece": 6407,
      "ifornia": 6408,
      "ran": 6409,
      "iding": 6410,
      "PTION": 6411,
      "comes": 6412,
      "/lic": 6413,
      ".client": 6414,
      "El": 6415,
      "Long": 6416,
      "Ġprofessional": 6417,
      "rupt": 6418,
      "va": 6419,
      "Ġcompletely": 6420,
      "Ġpractice": 6421,
      "Ġselection": 6422,
      "Rem": 6423,
      "ini": 6424,
      "Ġcam": 6425,
      "REE": 6426,
      "Ġsites": 6427,
      "pa": 6428,
      "ATUS": 6429,
      "arrant": 6430,
      "*(": 6431,
      "_KEY": 6432,
      "ĠButton": 6433,
      "ĠFriday": 6434,
      "sequ": 6435,
      "Ġreader": 6436,
      "Ġmessages": 6437,
      "è¯": 6438,
      "Ġbuf": 6439,
      "Ke": 6440,
      "Ġnov": 6441,
      "HP": 6442,
      "Msg": 6443,
      "align": 6444,
      "arily": 6445,
      "Ġ',": 6446,
      "_with": 6447,
      "Ġdas": 6448,
      "Ġheard": 6449,
      "atomic": 6450,
      "rial": 6451,
      ")[": 6452,
      "Ġdise": 6453,
      "Ġgold": 6454,
      "Ġfair": 6455,
      "Ġsales": 6456,
      ".Button": 6457,
      "strict": 6458,
      "save": 6459,
      "Ġmeasure": 6460,
      "Ġ\"+": 6461,
      "ecause": 6462,
      "ĠTable": 6463,
      "Ġdecided": 6464,
      "INFO": 6465,
      "Ġopportunity": 6466,
      "Te": 6467,
      "ICENSE": 6468,
      "ccording": 6469,
      "ki": 6470,
      "ĠUN": 6471,
      "Ġcontain": 6472,
      "Ġmanager": 6473,
      "Ġpain": 6474,
      "ĠFire": 6475,
      "rome": 6476,
      "Ġplans": 6477,
      "Found": 6478,
      "lay": 6479,
      "ĠDecember": 6480,
      "Ġinflu": 6481,
      "Ãº": 6482,
      "rench": 6483,
      "ĠĠĠĠĠĠĠĠĠĠĠĠĠĠĠĠĠĠĠĠĠĠĠĠĠĠĠĠĠĠĠĠĠ": 6484,
      "azing": 6485,
      "brief": 6486,
      "call": 6487,
      "wood": 6488,
      "Ġloaded": 6489,
      "Ġgrand": 6490,
      "/f": 6491,
      "imp": 6492,
      "_U": 6493,
      "STR": 6494,
      "âĢ¢": 6495,
      "Ġcredit": 6496,
      "orge": 6497,
      "Ġdifference": 6498,
      "ĠPC": 6499,
      "wargs": 6500,
      "Ġpub": 6501,
      "unday": 6502,
      "Ġfra": 6503,
      ".max": 6504,
      "Ġtried": 6505,
      "annels": 6506,
      "send": 6507,
      "Ġreports": 6508,
      "Ġadult": 6509,
      "äº": 6510,
      "Ġconsist": 6511,
      "ĠStreet": 6512,
      "ĠProgram": 6513,
      "SQL": 6514,
      "Matrix": 6515,
      "ouncil": 6516,
      "-A": 6517,
      "ĉw": 6518,
      "Ġwhose": 6519,
      "Ġrelig": 6520,
      "ĠSex": 6521,
      "Ġgives": 6522,
      "none": 6523,
      ".message": 6524,
      "(G": 6525,
      ".awt": 6526,
      "-right": 6527,
      "ĠNovember": 6528,
      "ellig": 6529,
      "utive": 6530,
      "overn": 6531,
      "Ġeasily": 6532,
      "Ġideas": 6533,
      "ĠÐ½": 6534,
      "/css": 6535,
      "lying": 6536,
      "elle": 6537,
      "Can": 6538,
      "_color": 6539,
      "Ð¾Ð²": 6540,
      "Ġpair": 6541,
      "ngth": 6542,
      "Ġsplit": 6543,
      "drop": 6544,
      "arty": 6545,
      "ona": 6546,
      "Ġcapital": 6547,
      "Ġhear": 6548,
      "Ġexists": 6549,
      "ĉlog": 6550,
      "emo": 6551,
      "Run": 6552,
      "oi": 6553,
      "Ġparser": 6554,
      "ĠMethod": 6555,
      "Ġeducation": 6556,
      "[k": 6557,
      "Ġlibrary": 6558,
      "_UN": 6559,
      "oded": 6560,
      "Ġcalls": 6561,
      "here": 6562,
      "Rel": 6563,
      "Ġbrand": 6564,
      "background": 6565,
      "ga": 6566,
      "_address": 6567,
      "_params": 6568,
      "Category": 6569,
      "ĠIndia": 6570,
      "_event": 6571,
      "Ġing": 6572,
      "Render": 6573,
      ".cl": 6574,
      "umpy": 6575,
      "Ġpet": 6576,
      "FC": 6577,
      "ĠAnt": 6578,
      "Ext": 6579,
      "Ġcharge": 6580,
      "ened": 6581,
      "grad": 6582,
      "EO": 6583,
      "Ġdepend": 6584,
      "Ġ.ĊĊ": 6585,
      "frame": 6586,
      "Ġdf": 6587,
      "Ġhuge": 6588,
      "ĠPART": 6589,
      "eds": 6590,
      ";;": 6591,
      "ĠAM": 6592,
      "Ġbasic": 6593,
      "ĠLet": 6594,
      "lich": 6595,
      "Ġarm": 6596,
      "Ġstar": 6597,
      "Ġfederal": 6598,
      "Work": 6599,
      "Ġcarry": 6600,
      "ĠIsrael": 6601,
      "(obj": 6602,
      "Ġsaved": 6603,
      "Ġsyn": 6604,
      "Ġconstant": 6605,
      "VENT": 6606,
      "Ġpositive": 6607,
      "Ġconduct": 6608,
      "Ġskin": 6609,
      "Ġearlier": 6610,
      "Ġlayout": 6611,
      "ĠIP": 6612,
      "OUR": 6613,
      "Ġtim": 6614,
      "stylesheet": 6615,
      "ĠCard": 6616,
      "Ġtemper": 6617,
      "ĠDavid": 6618,
      "Ġwants": 6619,
      "Ġpicture": 6620,
      "Ġvideos": 6621,
      "ĠComm": 6622,
      "isions": 6623,
      "_MAX": 6624,
      "Mapping": 6625,
      "-content": 6626,
      "ĠEar": 6627,
      "-de": 6628,
      "Ġprem": 6629,
      "bruary": 6630,
      "Ġcomponents": 6631,
      "Ġthroughout": 6632,
      "Ġpull": 6633,
      "Ġpages": 6634,
      "ente": 6635,
      "respond": 6636,
      "Ġgas": 6637,
      "criptor": 6638,
      "Ġedge": 6639,
      "Ġbound": 6640,
      "ACT": 6641,
      "Ġcreating": 6642,
      "ĠCH": 6643,
      "Ġnullptr": 6644,
      "Br": 6645,
      ".co": 6646,
      ">::": 6647,
      "Ġlearning": 6648,
      ".Length": 6649,
      "_SH": 6650,
      "Ġpatients": 6651,
      "AIN": 6652,
      "Ġkids": 6653,
      "Ġcomfort": 6654,
      "Ġshown": 6655,
      "ugins": 6656,
      "ĠBack": 6657,
      "ella": 6658,
      "_CL": 6659,
      "Ġlat": 6660,
      "Ġdispatch": 6661,
      "Ġclasses": 6662,
      "Ġsuccessful": 6663,
      "ban": 6664,
      "Ġobtain": 6665,
      "ĠSl": 6666,
      "Ġlack": 6667,
      "iterator": 6668,
      "Thread": 6669,
      "Ġnone": 6670,
      ".has": 6671,
      "_X": 6672,
      "sort": 6673,
      "nap": 6674,
      "pet": 6675,
      "bin": 6676,
      "ĠCanada": 6677,
      "They": 6678,
      "Ġdans": 6679,
      "ĠMat": 6680,
      "<td": 6681,
      "Ġhair": 6682,
      "Ġcu": 6683,
      "Ġlaws": 6684,
      "leted": 6685,
      "ped": 6686,
      "Ġpow": 6687,
      "Ġknew": 6688,
      "_COM": 6689,
      "_,": 6690,
      "ĠMag": 6691,
      "idents": 6692,
      "(req": 6693,
      "Ġ),": 6694,
      "-center": 6695,
      "Ġwide": 6696,
      "ĠAuthor": 6697,
      "stants": 6698,
      "Ġjobs": 6699,
      "Ġmath": 6700,
      "etimes": 6701,
      "Boolean": 6702,
      "Ġscope": 6703,
      "_is": 6704,
      "Ġmeas": 6705,
      "Ġkeys": 6706,
      "elay": 6707,
      "Ġexactly": 6708,
      "ĠPaul": 6709,
      "mas": 6710,
      "(len": 6711,
      "fd": 6712,
      "irit": 6713,
      "ields": 6714,
      "oman": 6715,
      "ĠTop": 6716,
      "Ġvote": 6717,
      "Ġmask": 6718,
      "Ġtheme": 6719,
      "-Ċ": 6720,
      "Ġprops": 6721,
      "Ġfine": 6722,
      "Ġwriter": 6723,
      "_offset": 6724,
      "car": 6725,
      "Ġaltern": 6726,
      "Ġcopyright": 6727,
      "Ġdestroy": 6728,
      "pper": 6729,
      "Ġgenerate": 6730,
      "pped": 6731,
      "âĢĻd": 6732,
      "ĠĠĠĠĠĠĊ": 6733,
      "make": 6734,
      "ĠShow": 6735,
      "Ġbrowser": 6736,
      "Ġfavorite": 6737,
      "Ġcareer": 6738,
      "Ġhappened": 6739,
      "Ġrecommend": 6740,
      "Ġliter": 6741,
      ".filter": 6742,
      "grade": 6743,
      "ĠÂ£": 6744,
      "Phone": 6745,
      "oms": 6746,
      "Ġnamed": 6747,
      "-label": 6748,
      "ipo": 6749,
      "ĠOther": 6750,
      "Ġpanel": 6751,
      "Ġrock": 6752,
      "Scale": 6753,
      "ĉassert": 6754,
      "Ð´": 6755,
      "Ġtrust": 6756,
      "front": 6757,
      "Ġdemon": 6758,
      "Ar": 6759,
      "Net": 6760,
      "Ġeconomic": 6761,
      "footer": 6762,
      "Ġrace": 6763,
      "(node": 6764,
      "ĠOption": 6765,
      "split": 6766,
      "Ġphysical": 6767,
      "ifest": 6768,
      "Ġremoved": 6769,
      ".http": 6770,
      ")),Ċ": 6771,
      "Ġlooked": 6772,
      "';": 6773,
      "ding": 6774,
      "gest": 6775,
      "aturday": 6776,
      "/licenses": 6777,
      "Price": 6778,
      "Ġdro": 6779,
      "Ġtowards": 6780,
      "Ġuns": 6781,
      "ĠCL": 6782,
      "ĉstatic": 6783,
      "Ġrows": 6784,
      "Ġdefine": 6785,
      ".replace": 6786,
      "Ġfather": 6787,
      "ĠDesign": 6788,
      "assign": 6789,
      "mut": 6790,
      "Device": 6791,
      "Did": 6792,
      "'))Ċ": 6793,
      "ometry": 6794,
      "Ġhistor": 6795,
      "ĠParam": 6796,
      "ĠBoolean": 6797,
      "Ġnature": 6798,
      "Ġjs": 6799,
      "Ġnation": 6800,
      "ih": 6801,
      "Ġdiscover": 6802,
      "sem": 6803,
      "Handle": 6804,
      "ĉr": 6805,
      "ĠTechn": 6806,
      "Ġwall": 6807,
      "{$": 6808,
      "Ġ\"../": 6809,
      "Ġexam": 6810,
      "opping": 6811,
      "Ġnearly": 6812,
      "Ġcool": 6813,
      "Ġindepend": 6814,
      "RES": 6815,
      "Ġhandler": 6816,
      "ĠMonday": 6817,
      "Ġsun": 6818,
      "ously": 6819,
      "Ġĉ": 6820,
      "vest": 6821,
      "Display": 6822,
      "(y": 6823,
      "atically": 6824,
      "Ġpredict": 6825,
      "ying": 6826,
      "Ġsometimes": 6827,
      "\"]Ċ": 6828,
      "Ġdrink": 6829,
      "Ġbul": 6830,
      "ifications": 6831,
      ".insert": 6832,
      ".reg": 6833,
      "Ġtests": 6834,
      "Ġalleg": 6835,
      "Ġattribute": 6836,
      "ĠNote": 6837,
      "Ġmyself": 6838,
      "arts": 6839,
      "Now": 6840,
      "Ġinteresting": 6841,
      "lients": 6842,
      "Ġpopulation": 6843,
      "ĠCalifornia": 6844,
      "\"I": 6845,
      "å¹": 6846,
      "Ġgreater": 6847,
      "uesday": 6848,
      "Ġthous": 6849,
      "Ġcosts": 6850,
      "Ġlaunch": 6851,
      "ker": 6852,
      "band": 6853,
      "ĠPlay": 6854,
      "Ġband": 6855,
      ".shape": 6856,
      "esome": 6857,
      "article": 6858,
      "Ġwer": 6859,
      "Ã¡s": 6860,
      "embers": 6861,
      "usr": 6862,
      "BA": 6863,
      "ican": 6864,
      "ett": 6865,
      "validate": 6866,
      "ulti": 6867,
      "Ġimmediately": 6868,
      "zer": 6869,
      "Ġfigure": 6870,
      "oes": 6871,
      "eller": 6872,
      "ircle": 6873,
      "ĠSign": 6874,
      ".db": 6875,
      "Ġrank": 6876,
      "Bytes": 6877,
      "Ġprojects": 6878,
      "_rec": 6879,
      "ULAR": 6880,
      "API": 6881,
      "ĠLine": 6882,
      "Port": 6883,
      "Ġpoll": 6884,
      "Ġgiving": 6885,
      "idence": 6886,
      "--Ċ": 6887,
      "Ġplot": 6888,
      "icial": 6889,
      "Ġwarrant": 6890,
      "ITION": 6891,
      "ĠDouble": 6892,
      "Ġbillion": 6893,
      "gorithm": 6894,
      "Ġequipment": 6895,
      "DATE": 6896,
      "EE": 6897,
      "Ġple": 6898,
      "iation": 6899,
      "Ġheaders": 6900,
      "Ġproced": 6901,
      ".ComponentModel": 6902,
      "ĠObama": 6903,
      "Ġpa": 6904,
      "ĠBest": 6905,
      "imately": 6906,
      ".\\": 6907,
      "mploy": 6908,
      "Ġraw": 6909,
      "_block": 6910,
      "undred": 6911,
      "\"},Ċ": 6912,
      "Ġbrought": 6913,
      "throw": 6914,
      "created": 6915,
      ".New": 6916,
      "_view": 6917,
      "CP": 6918,
      "eps": 6919,
      "Op": 6920,
      "Ġinterview": 6921,
      "\"\"\"Ċ": 6922,
      "Ġpartial": 6923,
      "Ġaria": 6924,
      "bing": 6925,
      "Author": 6926,
      "Book": 6927,
      "ĠPat": 6928,
      "uman": 6929,
      "Users": 6930,
      "plus": 6931,
      "ĠDirect": 6932,
      "venue": 6933,
      "alpha": 6934,
      "ĠCall": 6935,
      "imated": 6936,
      "Ġremain": 6937,
      "Ġanti": 6938,
      "ĠLondon": 6939,
      "Ġsafety": 6940,
      "POSE": 6941,
      "oles": 6942,
      "controller": 6943,
      "Byte": 6944,
      "ĠCourt": 6945,
      "ĠPhil": 6946,
      "ĠAssoci": 6947,
      "ena": 6948,
      "åĲ": 6949,
      "coin": 6950,
      "reshold": 6951,
      "Ġbatch": 6952,
      "entication": 6953,
      "enty": 6954,
      "Ġbeginning": 6955,
      "Ġzero": 6956,
      "ĠConvert": 6957,
      "Ġterr": 6958,
      "Ġpaid": 6959,
      "Ġincreased": 6960,
      "catch": 6961,
      "-size": 6962,
      "activity": 6963,
      "Ġqueue": 6964,
      "Ġ\"'": 6965,
      "ĠInternational": 6966,
      "ĠfÃ¼r": 6967,
      "ursday": 6968,
      "Ġscient": 6969,
      "allow": 6970,
      "axis": 6971,
      "Ġappropri": 6972,
      "edge": 6973,
      "Ġidx": 6974,
      "Success": 6975,
      "entifier": 6976,
      ":\\": 6977,
      "xis": 6978,
      "Ġmaximum": 6979,
      "arks": 6980,
      "Ġbirth": 6981,
      "(index": 6982,
      "Ġmaybe": 6983,
      ".py": 6984,
      "files": 6985,
      "Ġlimited": 6986,
      "_check": 6987,
      "look": 6988,
      "plies": 6989,
      "Ġmovement": 6990,
      "Ġbroad": 6991,
      "ĠBE": 6992,
      ".cpp": 6993,
      "ĠEvery": 6994,
      "Admin": 6995,
      "Ġfans": 6996,
      "pared": 6997,
      "ĊĠĠĠĠĊ": 6998,
      "Ġforeign": 6999,
      "Ġpan": 7000,
      "Ġtour": 7001,
      "ĠOrder": 7002,
      "Ġmoving": 7003,
      "Ġauf": 7004,
      "Call": 7005,
      "cb": 7006,
      "ÅŁ": 7007,
      "ventory": 7008,
      "Ġfully": 7009,
      "WORD": 7010,
      "Ġannounced": 7011,
      ")čĊčĊ": 7012,
      "Ġagreed": 7013,
      "rie": 7014,
      "Ġearn": 7015,
      "_link": 7016,
      "(text": 7017,
      "Ġmaterials": 7018,
      ",p": 7019,
      "ffff": 7020,
      "vg": 7021,
      "ĠÂ©": 7022,
      "Ġunless": 7023,
      "LOG": 7024,
      "Ġsexual": 7025,
      "Ġ\\\"": 7026,
      "-time": 7027,
      "Ġcoach": 7028,
      "Ġsupported": 7029,
      "Ġphotos": 7030,
      "iform": 7031,
      ".Create": 7032,
      ")]": 7033,
      "rier": 7034,
      "Ġdialog": 7035,
      "aver": 7036,
      "ige": 7037,
      ")+": 7038,
      "_idx": 7039,
      ":[": 7040,
      "_min": 7041,
      "ĠCong": 7042,
      "Ġpressure": 7043,
      "Ġteams": 7044,
      "Sign": 7045,
      "begin": 7046,
      "rian": 7047,
      "NESS": 7048,
      "LS": 7049,
      "Ġimprove": 7050,
      "ĠSunday": 7051,
      "Ġdefinition": 7052,
      "iger": 7053,
      "rollers": 7054,
      "Ġthinking": 7055,
      "Template": 7056,
      "-F": 7057,
      "Ġemerg": 7058,
      "plates": 7059,
      "ĠUSA": 7060,
      "ĠAlso": 7061,
      "rev": 7062,
      "Ġenable": 7063,
      "ĠCO": 7064,
      "PECT": 7065,
      "Ġconcept": 7066,
      ")-": 7067,
      "ĠâĢ¢": 7068,
      "Ġsets": 7069,
      "Ġmeaning": 7070,
      "emon": 7071,
      "ĠCons": 7072,
      "cmp": 7073,
      "eder": 7074,
      "anned": 7075,
      "icensed": 7076,
      "ĠSuper": 7077,
      "Ġdaily": 7078,
      "Ġmulti": 7079,
      "_u": 7080,
      "Ġchalleng": 7081,
      "_mode": 7082,
      "ĠPromise": 7083,
      "Ġstrict": 7084,
      "jo": 7085,
      "inton": 7086,
      "(list": 7087,
      "Only": 7088,
      "Ġvehicle": 7089,
      "ĠPlayer": 7090,
      "ĠDel": 7091,
      "Ġpool": 7092,
      ".url": 7093,
      "nesday": 7094,
      "Local": 7095,
      "Ġorganization": 7096,
      "render": 7097,
      "ĠApplication": 7098,
      "Ġsummer": 7099,
      "expected": 7100,
      "NA": 7101,
      "Ġrap": 7102,
      "_obj": 7103,
      "Ġsurface": 7104,
      "ĠPUR": 7105,
      "Ġvariables": 7106,
      "(message": 7107,
      "Ġopin": 7108,
      "Ð°Ð½": 7109,
      "Ġworkers": 7110,
      "vm": 7111,
      "Co": 7112,
      "ughter": 7113,
      "Ġmaster": 7114,
      "Ġ\"\",": 7115,
      "Ġstories": 7116,
      "Ġcelebr": 7117,
      "inese": 7118,
      "BS": 7119,
      "ĠCommand": 7120,
      "Ġog": 7121,
      "kg": 7122,
      ".style": 7123,
      "Ġsteps": 7124,
      "ĠBen": 7125,
      "(args": 7126,
      "ĠPerson": 7127,
      ",y": 7128,
      "Ġofficials": 7129,
      "|Ċ": 7130,
      "Ġskills": 7131,
      "vc": 7132,
      "Ġbuilder": 7133,
      "Ġgar": 7134,
      "Account": 7135,
      "ĠAuth": 7136,
      "çĶ": 7137,
      "ĠAT": 7138,
      "nn": 7139,
      ".Int": 7140,
      "SSERT": 7141,
      "Ġeffective": 7142,
      "LETE": 7143,
      "Ġtools": 7144,
      "ARD": 7145,
      "Ġdigital": 7146,
      "Double": 7147,
      "ĠFind": 7148,
      "RC": 7149,
      "Ġinline": 7150,
      "/r": 7151,
      "ARAM": 7152,
      "ASK": 7153,
      "Ġintent": 7154,
      "aight": 7155,
      "_addr": 7156,
      "Ġrequests": 7157,
      ".first": 7158,
      "Ġdebug": 7159,
      "Ġspent": 7160,
      "()));Ċ": 7161,
      "ÅĽ": 7162,
      "Ġprincip": 7163,
      "cludes": 7164,
      ".use": 7165,
      "Ġsurv": 7166,
      "media": 7167,
      "ĠFebruary": 7168,
      "ĠMac": 7169,
      "Ġmissing": 7170,
      "Ġwife": 7171,
      "Ġtalking": 7172,
      "ĠMake": 7173,
      "Ġcart": 7174,
      "Ġlocated": 7175,
      "Enc": 7176,
      "-a": 7177,
      "chron": 7178,
      "Ġcards": 7179,
      "Ġguy": 7180,
      "Ġpers": 7181,
      "ĠYes": 7182,
      "atever": 7183,
      "ĠAng": 7184,
      "olar": 7185,
      "ĠEven": 7186,
      "Ġaccur": 7187,
      "ĠPower": 7188,
      "ĠGold": 7189,
      "clear": 7190,
      "Process": 7191,
      "Ġrecords": 7192,
      "Ġkilled": 7193,
      ".clear": 7194,
      "ĠWARRANTIES": 7195,
      "Ġpurpose": 7196,
      "panel": 7197,
      "JECT": 7198,
      "ÃŃa": 7199,
      "Ġexerc": 7200,
      "WS": 7201,
      "/L": 7202,
      ".exports": 7203,
      "Ġ___": 7204,
      "Ġsin": 7205,
      "ĠdÃ©": 7206,
      "roke": 7207,
      "Sl": 7208,
      "ugh": 7209,
      "ears": 7210,
      "Ġpointer": 7211,
      "Ġhop": 7212,
      "allery": 7213,
      "Ġobs": 7214,
      "covery": 7215,
      "ĉĉĉĉĉĉĉĉĉĉ": 7216,
      "ĉdef": 7217,
      "ocity": 7218,
      "itchen": 7219,
      "ulations": 7220,
      "ĠFIT": 7221,
      "Ġ).": 7222,
      "straints": 7223,
      "vention": 7224,
      "Ġrequires": 7225,
      "ĠOper": 7226,
      "ME": 7227,
      "OUNT": 7228,
      "allet": 7229,
      "Ġnorm": 7230,
      "IRE": 7231,
      "exas": 7232,
      "Ġprograms": 7233,
      "Ġweak": 7234,
      "uing": 7235,
      "Ġmil": 7236,
      "Ġfirm": 7237,
      "initely": 7238,
      "_VALUE": 7239,
      "apse": 7240,
      "atisf": 7241,
      "Ġdemand": 7242,
      "_mod": 7243,
      "Ġdescribed": 7244,
      "Ġplaces": 7245,
      "VID": 7246,
      "Ġalone": 7247,
      "Ġexport": 7248,
      "Ġvec": 7249,
      "ĠMax": 7250,
      "Ġactivities": 7251,
      "ictures": 7252,
      "gener": 7253,
      "Ġma": 7254,
      "Ĥ¬": 7255,
      "Ġexpression": 7256,
      "Callback": 7257,
      "_content": 7258,
      "ĠMost": 7259,
      "Ġtesting": 7260,
      "EC": 7261,
      "CHANT": 7262,
      "Ġadjust": 7263,
      "(ctx": 7264,
      "Ġagree": 7265,
      "ighest": 7266,
      "Ġui": 7267,
      "ĠLaw": 7268,
      ".Y": 7269,
      "Ġpod": 7270,
      "-lg": 7271,
      "âĢĿĊĊ": 7272,
      "Ġdescribe": 7273,
      "ĠEuropean": 7274,
      "-sh": 7275,
      "ĠPURPOSE": 7276,
      "ORY": 7277,
      "Ġconvers": 7278,
      "ĠIlluminate": 7279,
      "ĠAv": 7280,
      "?\"": 7281,
      "chen": 7282,
      "ima": 7283,
      "Document": 7284,
      "Ġoperations": 7285,
      "win": 7286,
      "Ġscen": 7287,
      "/h": 7288,
      "ĠSC": 7289,
      "Ġexplo": 7290,
      ":%": 7291,
      "NAME": 7292,
      "æĪ": 7293,
      "(var": 7294,
      "Ġdirector": 7295,
      "ONG": 7296,
      "Ġyield": 7297,
      "Ġfeet": 7298,
      "ĠSearch": 7299,
      "ĠIl": 7300,
      "Ġrestaur": 7301,
      "duc": 7302,
      "Ġinteger": 7303,
      "Ġ'';Ċ": 7304,
      "Ġhighly": 7305,
      "checked": 7306,
      "ĠPARTIC": 7307,
      "ERCHANT": 7308,
      "ï¼ī": 7309,
      "Ġoptim": 7310,
      "Queue": 7311,
      "ĠLI": 7312,
      "itation": 7313,
      "Ġtransport": 7314,
      "ission": 7315,
      "fill": 7316,
      "usion": 7317,
      "ĠĠĠĠĠĠĠĠĠĠĠĠĠĠĠĠĠĠĠĠĠĠĠĠĠĠĠĠĠĠ": 7318,
      "-th": 7319,
      "upt": 7320,
      "Ġessential": 7321,
      "anted": 7322,
      "Ġbenefits": 7323,
      "ĉS": 7324,
      "iki": 7325,
      "Ġgirls": 7326,
      "iced": 7327,
      "buffer": 7328,
      "]+": 7329,
      "Ġsocket": 7330,
      "Ġprices": 7331,
      "ĠFre": 7332,
      "Ġsat": 7333,
      "Ġwood": 7334,
      "ARG": 7335,
      "ĠAdmin": 7336,
      "OWN": 7337,
      "dk": 7338,
      "Ġreset": 7339,
      "Ġforms": 7340,
      "ĠÐ¸": 7341,
      "æĸ": 7342,
      "ĠTuesday": 7343,
      "ĠInitialized": 7344,
      "_train": 7345,
      "orary": 7346,
      "ategor": 7347,
      "Ġdt": 7348,
      "Total": 7349,
      "construct": 7350,
      "ilies": 7351,
      "Ġguys": 7352,
      "Ġinstruction": 7353,
      "Ġinternet": 7354,
      "etadata": 7355,
      "ady": 7356,
      "faces": 7357,
      "jection": 7358,
      "ĠJack": 7359,
      "Ġrect": 7360,
      "[-": 7361,
      "ĠLeg": 7362,
      "Ġdevices": 7363,
      "OC": 7364,
      "oration": 7365,
      "ertain": 7366,
      "Ġguard": 7367,
      "Ġenum": 7368,
      ".layout": 7369,
      "Ġ\";Ċ": 7370,
      "voke": 7371,
      "ĠOk": 7372,
      "Home": 7373,
      "(tr": 7374,
      "ETH": 7375,
      "Ġdelay": 7376,
      "Ġpurchase": 7377,
      "dc": 7378,
      "Ġaren": 7379,
      "ror": 7380,
      "draw": 7381,
      ".run": 7382,
      "(model": 7383,
      "Timeout": 7384,
      "lik": 7385,
      "ĠArg": 7386,
      "Ġfish": 7387,
      "_fe": 7388,
      "ERCHANTABILITY": 7389,
      "(X": 7390,
      "_output": 7391,
      "??": 7392,
      "Ġjo": 7393,
      "andard": 7394,
      "Ġdoll": 7395,
      "errors": 7396,
      "_base": 7397,
      "ĠPARTICULAR": 7398,
      "Ġleader": 7399,
      "Ġcompar": 7400,
      "Ġdoub": 7401,
      "ĠVis": 7402,
      "-C": 7403,
      "ĠStud": 7404,
      "stitute": 7405,
      "More": 7406,
      "ĠDescription": 7407,
      "WARE": 7408,
      "ads": 7409,
      "bind": 7410,
      "=self": 7411,
      "employ": 7412,
      "[n": 7413,
      "-B": 7414,
      "&&": 7415,
      "alm": 7416,
      "Ġculture": 7417,
      "house": 7418,
      "Ġsuffer": 7419,
      "Ġ'%": 7420,
      "Ġstraight": 7421,
      "ĠStar": 7422,
      "udo": 7423,
      "Ġded": 7424,
      "ĠCOM": 7425,
      "Ġconfirm": 7426,
      "ĠGood": 7427,
      ".sc": 7428,
      "________________": 7429,
      "DR": 7430,
      "Configuration": 7431,
      "DateTime": 7432,
      "Ġadvert": 7433,
      "Ġcouldn": 7434,
      "async": 7435,
      "stack": 7436,
      "Kit": 7437,
      "Ġhous": 7438,
      "Ġmechan": 7439,
      "rate": 7440,
      "Ġaudio": 7441,
      "cores": 7442,
      "Ġspot": 7443,
      "Ġincreasing": 7444,
      "Ġ##": 7445,
      ")))": 7446,
      "points": 7447,
      "Ġcompared": 7448,
      "lig": 7449,
      "Ġbehavior": 7450,
      "ĠBY": 7451,
      "ĠAtt": 7452,
      "craft": 7453,
      "ete": 7454,
      "Ġdetail": 7455,
      "ULE": 7456,
      "ĠCommon": 7457,
      "ston": 7458,
      "ĠFITNESS": 7459,
      "Ġfresh": 7460,
      "\">ĊĊ": 7461,
      "berg": 7462,
      "Ġmoved": 7463,
      "ĉe": 7464,
      "ĠSaturday": 7465,
      "Ġpayload": 7466,
      "Äĩ": 7467,
      "):ĊĊ": 7468,
      "Ġbey": 7469,
      "urer": 7470,
      "<script": 7471,
      "Ġsymbol": 7472,
      "Ġassum": 7473,
      "Ġpul": 7474,
      "Effect": 7475,
      "Ġhundred": 7476,
      "Tool": 7477,
      "aked": 7478,
      "connection": 7479,
      "Ġvoice": 7480,
      "Ġpd": 7481,
      "Ġtransaction": 7482,
      "Ġlinks": 7483,
      "Err": 7484,
      "ĠIndian": 7485,
      "TC": 7486,
      "atalog": 7487,
      "ni": 7488,
      "sign": 7489,
      "ji": 7490,
      "ya": 7491,
      "Ġdemonstr": 7492,
      "ulated": 7493,
      ".St": 7494,
      "Ġinstit": 7495,
      "Ġboost": 7496,
      "Ġcells": 7497,
      "olic": 7498,
      ":</": 7499,
      "ifying": 7500,
      "ĠDi": 7501,
      "orrow": 7502,
      "Ġcollege": 7503,
      "Your": 7504,
      "Ġlargest": 7505,
      ".dis": 7506,
      "Ġqui": 7507,
      "Ġindividuals": 7508,
      "_buffer": 7509,
      "Ġng": 7510,
      "SA": 7511,
      "ĠControl": 7512,
      "Ġsing": 7513,
      "Ġsuit": 7514,
      "SG": 7515,
      "Ġjump": 7516,
      "Ġsmart": 7517,
      "oma": 7518,
      "ĠExp": 7519,
      "Ġassist": 7520,
      "Ġsuccessfully": 7521,
      "sys": 7522,
      "ĠCre": 7523,
      "_ref": 7524,
      "ĠThursday": 7525,
      "Ġbur": 7526,
      "ĠÐ´": 7527,
      "Ġbeyond": 7528,
      "Ġnodes": 7529,
      "Details": 7530,
      "inct": 7531,
      "ĠJames": 7532,
      "Ġaffect": 7533,
      "exception": 7534,
      "Ġtypeof": 7535,
      "-se": 7536,
      "Ġfetch": 7537,
      "`,": 7538,
      "}.": 7539,
      "ĠBO": 7540,
      "Show": 7541,
      "Ġrates": 7542,
      "Ġbon": 7543,
      "-icon": 7544,
      "ĠMedia": 7545,
      "RESS": 7546,
      "ĠValid": 7547,
      "Ġfuck": 7548,
      "acks": 7549,
      "Ġstudies": 7550,
      "Me": 7551,
      "Ġowners": 7552,
      "Ġgrowing": 7553,
      "Variable": 7554,
      "ĠBel": 7555,
      "vement": 7556,
      "onym": 7557,
      "(F": 7558,
      "Ġtorch": 7559,
      "igo": 7560,
      "structure": 7561,
      "Ġcertainly": 7562,
      "Dep": 7563,
      "ĠGreen": 7564,
      "question": 7565,
      "Ġadding": 7566,
      "ĠDevelop": 7567,
      "_def": 7568,
      "Ġmach": 7569,
      "=%": 7570,
      "conds": 7571,
      "Project": 7572,
      "Ġreject": 7573,
      "ĠÎ": 7574,
      "Ġpoor": 7575,
      "Ġaware": 7576,
      "ĠBuild": 7577,
      "ĠBritish": 7578,
      "ĠNE": 7579,
      "Ġnumer": 7580,
      "rees": 7581,
      "claim": 7582,
      "Ġmock": 7583,
      "Ġom": 7584,
      "Ġscre": 7585,
      "OLD": 7586,
      ".pl": 7587,
      "eler": 7588,
      "Ġcorrespond": 7589,
      "Ġbinary": 7590,
      "_order": 7591,
      "ĠSQL": 7592,
      "Ġadvant": 7593,
      "Ġprev": 7594,
      ".[": 7595,
      ".assertEqual": 7596,
      "plier": 7597,
      "arp": 7598,
      "Ġclosed": 7599,
      "Ġencour": 7600,
      "aud": 7601,
      "Ġdeveloped": 7602,
      "Ġpermission": 7603,
      ".debug": 7604,
      "operator": 7605,
      "Ġ'Ċ": 7606,
      "Ġsym": 7607,
      "atively": 7608,
      "Ã©e": 7609,
      "-color": 7610,
      "ĠGET": 7611,
      "ky": 7612,
      "Ġalthough": 7613,
      "_request": 7614,
      "_element": 7615,
      "................": 7616,
      "_DATA": 7617,
      "Ġamazing": 7618,
      "Ġsb": 7619,
      "ĠDefault": 7620,
      "Events": 7621,
      "Ġfailure": 7622,
      "acle": 7623,
      "Properties": 7624,
      "Ġdream": 7625,
      "Ġdistr": 7626,
      "Ġau": 7627,
      "Ġgenerated": 7628,
      "æķ": 7629,
      "ĠTeam": 7630,
      "USE": 7631,
      "Ġincome": 7632,
      "Ġeye": 7633,
      "_not": 7634,
      "\"],": 7635,
      "Support": 7636,
      "orders": 7637,
      ".Print": 7638,
      "ville": 7639,
      "ĠWednesday": 7640,
      "olver": 7641,
      "Ġoppos": 7642,
      "isation": 7643,
      "ola": 7644,
      "Close": 7645,
      "<p": 7646,
      "_width": 7647,
      "Invalid": 7648,
      "xb": 7649,
      "Ġstrugg": 7650,
      "Ġtxt": 7651,
      "ĠPath": 7652,
      "alar": 7653,
      "ĠMERCHANTABILITY": 7654,
      "service": 7655,
      "ĠMichael": 7656,
      "Debug": 7657,
      "okes": 7658,
      "She": 7659,
      "Ġguess": 7660,
      "ĠJava": 7661,
      "_PATH": 7662,
      "Ġparticularly": 7663,
      "ĠII": 7664,
      "Ġdomain": 7665,
      "å¹´": 7666,
      "Ġreduce": 7667,
      "-left": 7668,
      "real": 7669,
      "Ġappears": 7670,
      "Ġcomo": 7671,
      "ĠUnit": 7672,
      "ĠGovern": 7673,
      "ali": 7674,
      "allel": 7675,
      "ĠJew": 7676,
      "_I": 7677,
      "Ġcos": 7678,
      "ĠGlobal": 7679,
      "Ġtele": 7680,
      "ben": 7681,
      "Ġreasons": 7682,
      "Ġemb": 7683,
      "ensity": 7684,
      "lines": 7685,
      "omin": 7686,
      "Screen": 7687,
      "Ð°ÑĤ": 7688,
      "pects": 7689,
      "clip": 7690,
      "foo": 7691,
      "rent": 7692,
      "Ġaf": 7693,
      "Ġdanger": 7694,
      "iling": 7695,
      "Names": 7696,
      "Our": 7697,
      "Ġdistribution": 7698,
      "While": 7699,
      "SL": 7700,
      "Write": 7701,
      "Ġgoto": 7702,
      "Ġcolors": 7703,
      "Ġpowerful": 7704,
      "kin": 7705,
      "Ġdepth": 7706,
      "ercial": 7707,
      "ĠCongress": 7708,
      "ĠMarket": 7709,
      "Db": 7710,
      "under": 7711,
      "ĠLast": 7712,
      "ÃŁ": 7713,
      "greg": 7714,
      "Ġposts": 7715,
      "_URL": 7716,
      "otos": 7717,
      "Don": 7718,
      "Ġmicro": 7719,
      "Ġarrest": 7720,
      "Ġ(@": 7721,
      "ĠHot": 7722,
      "ĠIndex": 7723,
      ";&": 7724,
      "#!": 7725,
      "ĠNor": 7726,
      "ĠCap": 7727,
      "-(": 7728,
      "Ġinterested": 7729,
      "pear": 7730,
      "Ġrent": 7731,
      "Ġalbum": 7732,
      "olicy": 7733,
      ".lang": 7734,
      "phere": 7735,
      "Ġaxis": 7736,
      "ĠBusiness": 7737,
      "ersistence": 7738,
      "urr": 7739,
      "Ġminimum": 7740,
      "endor": 7741,
      "ĠSD": 7742,
      "ĠInternet": 7743,
      "å¤": 7744,
      "Exp": 7745,
      "iverse": 7746,
      "MM": 7747,
      "Ġobvious": 7748,
      "Ġbasis": 7749,
      "Ġscience": 7750,
      "Ġbudget": 7751,
      "izations": 7752,
      "PA": 7753,
      "Ġflags": 7754,
      "pret": 7755,
      "LOCK": 7756,
      "Ġvariety": 7757,
      "Ġtruth": 7758,
      "dt": 7759,
      "Ġgone": 7760,
      "Ġbattle": 7761,
      "<std": 7762,
      "ĠSil": 7763,
      "rf": 7764,
      "uda": 7765,
      "Ġerot": 7766,
      "ĠCam": 7767,
      "Ġstation": 7768,
      "cheme": 7769,
      "ĠSun": 7770,
      "Ġfinished": 7771,
      "Ġshop": 7772,
      "ĠKore": 7773,
      "Ġeight": 7774,
      "_REG": 7775,
      "ND": 7776,
      ">,": 7777,
      "(num": 7778,
      "Transaction": 7779,
      ".On": 7780,
      "Ġmail": 7781,
      "rey": 7782,
      "results": 7783,
      "Ġnav": 7784,
      "IMIT": 7785,
      "_ids": 7786,
      "Make": 7787,
      "åĬ": 7788,
      "ĠLOG": 7789,
      "ĠSur": 7790,
      "Ġinstanceof": 7791,
      "Ġoverall": 7792,
      "ĠInformation": 7793,
      "Ġconstruction": 7794,
      "_FILE": 7795,
      "but": 7796,
      "Ġmedic": 7797,
      "Ġduration": 7798,
      "itness": 7799,
      "agent": 7800,
      "AV": 7801,
      "Ġseven": 7802,
      "olf": 7803,
      "Ġ}}Ċ": 7804,
      "\"],Ċ": 7805,
      "Ġcalling": 7806,
      "orizontal": 7807,
      ".fl": 7808,
      "ĠStatus": 7809,
      "ĠOnline": 7810,
      "RR": 7811,
      "ĠRich": 7812,
      "ĠHill": 7813,
      "Ġbrain": 7814,
      "Ġfollowed": 7815,
      "emic": 7816,
      "Ġslight": 7817,
      "Ġinsurance": 7818,
      "Ġabstract": 7819,
      "ĠSum": 7820,
      "owner": 7821,
      "(msg": 7822,
      "ĠClinton": 7823,
      "Non": 7824,
      "Ġvolume": 7825,
      "ĠEventArgs": 7826,
      "-L": 7827,
      "ĠDim": 7828,
      "ĠMart": 7829,
      "Ġcursor": 7830,
      "Ġimplementation": 7831,
      "urred": 7832,
      "Ġlarger": 7833,
      ");ĊĊĊ": 7834,
      "Ġupload": 7835,
      "ĠĠĠĠĠĠĠĠĠĠĠĠĠĠĠĠĠĠĠĠĠĠĠĠĠĠĠĠĠĠĠĠĠĠĠĠĠĠĠĠĠĠĠĠĠĠĠĠĠĠĠĠĠĠĠ": 7836,
      "Draw": 7837,
      "nel": 7838,
      "ĉfloat": 7839,
      "qrt": 7840,
      "ĠNetwork": 7841,
      "Ġtit": 7842,
      "Ġcompleted": 7843,
      "Ġmur": 7844,
      "Ġcolumns": 7845,
      "xc": 7846,
      "Ġsupply": 7847,
      "iminal": 7848,
      "Ġspr": 7849,
      "================================================================": 7850,
      "Ġunits": 7851,
      "(u": 7852,
      "mi": 7853,
      "replace": 7854,
      "[key": 7855,
      "antic": 7856,
      "Ġpayment": 7857,
      ",B": 7858,
      "ĠApple": 7859,
      "gin": 7860,
      "Required": 7861,
      "lands": 7862,
      "Ġsqu": 7863,
      "Ġfactor": 7864,
      "dec": 7865,
      "Ġstrength": 7866,
      "Ġboy": 7867,
      "Ġbalance": 7868,
      "Ġsources": 7869,
      "screen": 7870,
      "-top": 7871,
      "ĠAmazon": 7872,
      "Ġhidden": 7873,
      "ÐµÑĤ": 7874,
      "_client": 7875,
      "Ġeat": 7876,
      ".display": 7877,
      "ĠÂ»": 7878,
      "Ġtrigger": 7879,
      "Ġtro": 7880,
      "Ġclaims": 7881,
      "ford": 7882,
      "ĠCompany": 7883,
      "Ġgift": 7884,
      ",:": 7885,
      "handle": 7886,
      "Ġproduce": 7887,
      "/lib": 7888,
      "arc": 7889,
      "ander": 7890,
      "ĠEngine": 7891,
      "Ġattributes": 7892,
      "task": 7893,
      "(N": 7894,
      "Ġwarm": 7895,
      "which": 7896,
      "ĠFore": 7897,
      "agnost": 7898,
      "Ġtal": 7899,
      "ĠSal": 7900,
      "gi": 7901,
      "ĠPrint": 7902,
      "ĠTRUE": 7903,
      "Ġflash": 7904,
      "roperty": 7905,
      "ĠMill": 7906,
      "bi": 7907,
      ".request": 7908,
      "ĠSam": 7909,
      "Ġnegative": 7910,
      "kit": 7911,
      "Ġsett": 7912,
      "abe": 7913,
      "Ġburn": 7914,
      "Ġsociety": 7915,
      "Cache": 7916,
      "ĠSecurity": 7917,
      "_up": 7918,
      "ceive": 7919,
      "Ġclients": 7920,
      "Ġproviding": 7921,
      "Ġrout": 7922,
      "material": 7923,
      "Ġ||Ċ": 7924,
      "ĠSer": 7925,
      "ĠOffice": 7926,
      "FTWARE": 7927,
      "Ġ'$": 7928,
      "Ġfoc": 7929,
      "Ġexcell": 7930,
      "Ġcat": 7931,
      "normal": 7932,
      "Ġdetermine": 7933,
      "Ġemployees": 7934,
      "ĠTexas": 7935,
      "Ġtraff": 7936,
      "ĠReport": 7937,
      "anta": 7938,
      "ĠBox": 7939,
      "Ġpartner": 7940,
      "EB": 7941,
      "LINE": 7942,
      "Ġfeeling": 7943,
      "Ġcivil": 7944,
      "Sql": 7945,
      "Ġwouldn": 7946,
      ".left": 7947,
      "-v": 7948,
      "_level": 7949,
      "'}": 7950,
      "AF": 7951,
      "Ġloading": 7952,
      "ĠOnly": 7953,
      "Ġcookies": 7954,
      "ĠGl": 7955,
      "CO": 7956,
      "Ġstrategy": 7957,
      "Ġship": 7958,
      "poses": 7959,
      "Ġsignal": 7960,
      "Ġalpha": 7961,
      ".pop": 7962,
      "Ġreplace": 7963,
      "_DIR": 7964,
      "counter": 7965,
      "bservable": 7966,
      "ela": 7967,
      "Weight": 7968,
      "hash": 7969,
      "bose": 7970,
      "fx": 7971,
      "ĠEmail": 7972,
      "Ġrefer": 7973,
      "localhost": 7974,
      "_RO": 7975,
      "iques": 7976,
      "Step": 7977,
      "Ġahead": 7978,
      "ĠServices": 7979,
      "essor": 7980,
      "Ġpun": 7981,
      "Ġappropriate": 7982,
      "akers": 7983,
      "osen": 7984,
      "posing": 7985,
      "Ġagent": 7986,
      "fc": 7987,
      "Ġtransfer": 7988,
      "Ġinvalid": 7989,
      "ĠResearch": 7990,
      "Ġgay": 7991,
      "Ġjournal": 7992,
      "[x": 7993,
      "ĠWell": 7994,
      "Spec": 7995,
      "Ġol": 7996,
      "Ġspend": 7997,
      "ĠAustralia": 7998,
      "Match": 7999,
      "ĠĠĠĠĠĠĠĠĠĠĠĠĠĠĠĠĠĠĠĠĠĠĠĠĠĠĠĠĠĠĠĠĠĠĠĠĠ": 8000,
      "ĠMAX": 8001,
      "izable": 8002,
      "clusive": 8003,
      "Ġquarter": 8004,
      "yan": 8005,
      "ĠEdit": 8006,
      "arden": 8007,
      "=new": 8008,
      "Ġfrag": 8009,
      "Bit": 8010,
      "zi": 8011,
      "aine": 8012,
      "udd": 8013,
      ".Object": 8014,
      "debug": 8015,
      "Ġcash": 8016,
      "Ġcommercial": 8017,
      "ĠVideo": 8018,
      "loader": 8019,
      "Ġfixed": 8020,
      "Ġapplications": 8021,
      "Ġ_,": 8022,
      "ĠRussia": 8023,
      "itect": 8024,
      "_(": 8025,
      "ĠBlock": 8026,
      "Ġsan": 8027,
      "ĠTom": 8028,
      "Ġperhaps": 8029,
      "Ġsig": 8030,
      "levant": 8031,
      "Ġcorpor": 8032,
      "ronic": 8033,
      "xe": 8034,
      "Ġeth": 8035,
      "Some": 8036,
      "pop": 8037,
      "Ġtend": 8038,
      "_and": 8039,
      "Ġreviews": 8040,
      "Ġwild": 8041,
      "Ġdegree": 8042,
      ".O": 8043,
      "_args": 8044,
      "nil": 8045,
      "Ġdisabled": 8046,
      "Parent": 8047,
      "Ġnotes": 8048,
      "Ġ\"\"Ċ": 8049,
      "(state": 8050,
      "istrict": 8051,
      "Ġlogging": 8052,
      ".IO": 8053,
      "ĠMal": 8054,
      "DM": 8055,
      "Ġxml": 8056,
      "ĠRobert": 8057,
      "elen": 8058,
      "layout": 8059,
      "fol": 8060,
      ",b": 8061,
      "ĠJer": 8062,
      "filename": 8063,
      "Ġfan": 8064,
      "ĠCustom": 8065,
      "=\"\"": 8066,
      "ĠDie": 8067,
      "Ġtrip": 8068,
      "MB": 8069,
      "Ġsoft": 8070,
      "_MODE": 8071,
      "Ġapplicable": 8072,
      "Ġupper": 8073,
      "_al": 8074,
      "Here": 8075,
      "wp": 8076,
      "ĠServer": 8077,
      "ĠClient": 8078,
      "Ġchem": 8079,
      "Scroll": 8080,
      "Ġhighest": 8081,
      "ĠSelect": 8082,
      "Ġ\"@": 8083,
      "ĠWhy": 8084,
      "Sec": 8085,
      "heel": 8086,
      "Operation": 8087,
      "Ġconnected": 8088,
      "irmed": 8089,
      "Ġcitiz": 8090,
      "ĠChe": 8091,
      "Ġforces": 8092,
      "Ġwww": 8093,
      "Root": 8094,
      "ANCE": 8095,
      "Many": 8096,
      "icip": 8097,
      "rgan": 8098,
      "ĠTor": 8099,
      "ĠPress": 8100,
      "ĠMor": 8101,
      "-line": 8102,
      "uled": 8103,
      ">\\": 8104,
      "Ġthus": 8105,
      "ĠRegister": 8106,
      "hol": 8107,
      "ĠChinese": 8108,
      "Ġposted": 8109,
      "Ġmagn": 8110,
      "abilities": 8111,
      "Ġdisease": 8112,
      "Ġremains": 8113,
      "ĠProf": 8114,
      "-form": 8115,
      "Ġcin": 8116,
      "organ": 8117,
      "icate": 8118,
      "Ġstress": 8119,
      "]*": 8120,
      "_context": 8121,
      "orry": 8122,
      "Ġdied": 8123,
      "mat": 8124,
      "Ġstarts": 8125,
      ".Message": 8126,
      "Ġruns": 8127,
      "Ġguide": 8128,
      "Ġwarranty": 8129,
      "entials": 8130,
      "dict": 8131,
      "ĠSize": 8132,
      "uler": 8133,
      "Ġresponsible": 8134,
      "_SET": 8135,
      "Ġcontaining": 8136,
      "ĠPrice": 8137,
      "||": 8138,
      "FS": 8139,
      "Ġemp": 8140,
      "_button": 8141,
      "Ġsuff": 8142,
      "pth": 8143,
      "Ġdefinitely": 8144,
      "pute": 8145,
      "Ġmarketing": 8146,
      "ĠWH": 8147,
      "ĠSie": 8148,
      "+=": 8149,
      "OLOR": 8150,
      "Ġconsult": 8151,
      "Ġsigned": 8152,
      "Ġsequence": 8153,
      "lee": 8154,
      "Ġrequirements": 8155,
      "hy": 8156,
      "MT": 8157,
      "sey": 8158,
      "Ġult": 8159,
      "å®": 8160,
      "elligence": 8161,
      "Ġanaly": 8162,
      "Ġdress": 8163,
      "engine": 8164,
      "ĠGreat": 8165,
      "ĠAndroid": 8166,
      "ĠAlex": 8167,
      "mode": 8168,
      "ä½": 8169,
      "VICE": 8170,
      "Ġfamilies": 8171,
      "ĠRussian": 8172,
      "ĠTimes": 8173,
      ".call": 8174,
      "$(": 8175,
      "Profile": 8176,
      "Ġfolder": 8177,
      "ches": 8178,
      "Ġlegis": 8179,
      "unes": 8180,
      "ÙĦ": 8181,
      "agen": 8182,
      "ĠHand": 8183,
      "Iter": 8184,
      "Ġbiggest": 8185,
      "Ġpolic": 8186,
      "Ġpermissions": 8187,
      "Ġshowed": 8188,
      "ĠElement": 8189,
      "Ġtopic": 8190,
      "âĢĶâĢĶ": 8191,
      "road": 8192,
      "ĠBank": 8193,
      "record": 8194,
      "Ġpartners": 8195,
      "ĠRef": 8196,
      "essions": 8197,
      "Ġassess": 8198,
      "UST": 8199,
      "ĠParty": 8200,
      "produ": 8201,
      "LC": 8202,
      "Ġul": 8203,
      ".form": 8204,
      "hide": 8205,
      "copy": 8206,
      "UTF": 8207,
      "ĠSOFTWARE": 8208,
      "ĠLin": 8209,
      "una": 8210,
      "ugar": 8211,
      "Ġadministration": 8212,
      "Ġopening": 8213,
      "Ġscan": 8214,
      "Ġcontinued": 8215,
      "component": 8216,
      "Ġhappens": 8217,
      "ummy": 8218,
      "ĠPR": 8219,
      ".File": 8220,
      "ĠDownload": 8221,
      "Loading": 8222,
      "di": 8223,
      "Ġwaiting": 8224,
      "_ADD": 8225,
      "Tab": 8226,
      "Ġeconomy": 8227,
      "ĠFrench": 8228,
      "txt": 8229,
      "Ġfant": 8230,
      "_;Ċ": 8231,
      "SH": 8232,
      "Ġstreet": 8233,
      "Ġmale": 8234,
      "anging": 8235,
      "ĠBill": 8236,
      "Ġpreviously": 8237,
      "BI": 8238,
      "ĠSecret": 8239,
      "Ġmist": 8240,
      "ĠField": 8241,
      "ups": 8242,
      "ĠProcess": 8243,
      "Ġkept": 8244,
      "ĠOT": 8245,
      "Ġtraditional": 8246,
      ".i": 8247,
      "amin": 8248,
      "Ġhelps": 8249,
      "Any": 8250,
      "origin": 8251,
      "ju": 8252,
      "desc": 8253,
      "ĠAccount": 8254,
      "Ġ)čĊ": 8255,
      "ktop": 8256,
      "olly": 8257,
      "Ġfs": 8258,
      "Ġut": 8259,
      "Ġcentral": 8260,
      "(test": 8261,
      "Ġsatisf": 8262,
      "GR": 8263,
      "ĠFull": 8264,
      "Ġheat": 8265,
      "iber": 8266,
      "Ġonto": 8267,
      "mos": 8268,
      "Schema": 8269,
      "Ġfactory": 8270,
      "aws": 8271,
      "Statement": 8272,
      "(target": 8273,
      ".be": 8274,
      "Ġguest": 8275,
      "Ġmal": 8276,
      "ARY": 8277,
      "Ġreached": 8278,
      "Ġmouse": 8279,
      "Ġchallenge": 8280,
      "ĠTem": 8281,
      "Ġterror": 8282,
      "Ġextract": 8283,
      "_TO": 8284,
      "Ġseparate": 8285,
      "Ġmir": 8286,
      "help": 8287,
      "Ġcapacity": 8288,
      "ĠProperty": 8289,
      "kan": 8290,
      "_create": 8291,
      "ĠLight": 8292,
      ".parent": 8293,
      "Ġunderstanding": 8294,
      "Ġeasier": 8295,
      "Ġ|=": 8296,
      "Ġenh": 8297,
      "Ġfat": 8298,
      "Ġprotest": 8299,
      "amm": 8300,
      "_AT": 8301,
      "-of": 8302,
      "ils": 8303,
      "ĠOh": 8304,
      "Ġpsych": 8305,
      "inds": 8306,
      "Ġrelative": 8307,
      "shop": 8308,
      "short": 8309,
      "ĠSand": 8310,
      "uestion": 8311,
      "Ġfear": 8312,
      "/ĊĊ": 8313,
      "Ġschools": 8314,
      "Ġserve": 8315,
      "zone": 8316,
      "_db": 8317,
      "Ġmajority": 8318,
      "example": 8319,
      "Ġlang": 8320,
      "Register": 8321,
      "endo": 8322,
      "Ġprocessing": 8323,
      "-user": 8324,
      "Ġeg": 8325,
      "COM": 8326,
      "ĠBlue": 8327,
      "iro": 8328,
      "Ġremote": 8329,
      "ĠIT": 8330,
      "#!/": 8331,
      "Ġredistrib": 8332,
      "raz": 8333,
      "ĠSince": 8334,
      "ĠTur": 8335,
      "Background": 8336,
      "===": 8337,
      "Ġreflect": 8338,
      "Ġpros": 8339,
      "cmd": 8340,
      "Ġwhom": 8341,
      "ĠAre": 8342,
      "Identifier": 8343,
      "ĠThom": 8344,
      "gu": 8345,
      "Ġmonitor": 8346,
      "rm": 8347,
      "Ġpatient": 8348,
      "verter": 8349,
      "Ġgain": 8350,
      "Inst": 8351,
      "Ġdies": 8352,
      "Area": 8353,
      "_filter": 8354,
      "Ġgrat": 8355,
      "Ġreality": 8356,
      "ordinate": 8357,
      "olved": 8358,
      "Contact": 8359,
      "Ġcompliance": 8360,
      "_or": 8361,
      "ĠVar": 8362,
      "dl": 8363,
      "Ġappend": 8364,
      "GER": 8365,
      "(max": 8366,
      "Ġdynamic": 8367,
      "ordinates": 8368,
      "_options": 8369,
      "Ġbatter": 8370,
      "space": 8371,
      "La": 8372,
      "ĠSource": 8373,
      "/bin": 8374,
      "Ġdos": 8375,
      "ĠBoard": 8376,
      "ĠThread": 8377,
      "ĠAL": 8378,
      "(config": 8379,
      "ĠMer": 8380,
      "Ġmiles": 8381,
      "_header": 8382,
      "ETHOD": 8383,
      "izz": 8384,
      "Ġbenefit": 8385,
      "Ġintegr": 8386,
      "ulo": 8387,
      ".default": 8388,
      "ĠDiv": 8389,
      "Ġton": 8390,
      "oth": 8391,
      "ervation": 8392,
      "edom": 8393,
      "Ġbaby": 8394,
      "ceived": 8395,
      ".top": 8396,
      "riority": 8397,
      "ĠLocal": 8398,
      "riage": 8399,
      "Ġattacks": 8400,
      "Ġhospital": 8401,
      "Ġfemale": 8402,
      "ĠFlor": 8403,
      "Ġchain": 8404,
      "ashion": 8405,
      "Texture": 8406,
      "Save": 8407,
      "Ġfarm": 8408,
      ".contains": 8409,
      ".Test": 8410,
      "Ġknows": 8411,
      "Ġgenerally": 8412,
      "ipeline": 8413,
      "Ġmeant": 8414,
      "encia": 8415,
      "Ġnicht": 8416,
      "Ġcontents": 8417,
      "PM": 8418,
      "chedule": 8419,
      "(line": 8420,
      "CG": 8421,
      "job": 8422,
      "ĠReal": 8423,
      "uer": 8424,
      "ĠØ": 8425,
      "etro": 8426,
      "\"`Ċ": 8427,
      "Ġspeech": 8428,
      "Ġthr": 8429,
      "foreach": 8430,
      "Ġwarn": 8431,
      "ĉl": 8432,
      "Ġheavy": 8433,
      "<li": 8434,
      "Ne": 8435,
      "Ġinvestigation": 8436,
      "Math": 8437,
      "-title": 8438,
      "Ġchurch": 8439,
      "Ġdespite": 8440,
      "chain": 8441,
      "Ġwhatever": 8442,
      "arian": 8443,
      "fn": 8444,
      "Ġmeta": 8445,
      "})ĊĊ": 8446,
      "Ġregarding": 8447,
      "mes": 8448,
      "Ġresolve": 8449,
      "poss": 8450,
      "ira": 8451,
      "force": 8452,
      "oice": 8453,
      "Ã¢": 8454,
      "Ġpm": 8455,
      "Ġupdates": 8456,
      "Arr": 8457,
      "testing": 8458,
      "Ġtoward": 8459,
      "ntax": 8460,
      "Ġlisten": 8461,
      "Ġgoals": 8462,
      "Dr": 8463,
      "Ġrare": 8464,
      "Ġtrail": 8465,
      "Keys": 8466,
      "Cal": 8467,
      "Car": 8468,
      "ĠPeople": 8469,
      "ĉlocal": 8470,
      "classes": 8471,
      "Reference": 8472,
      "emb": 8473,
      "activ": 8474,
      "Ġprim": 8475,
      "redict": 8476,
      "Ġrad": 8477,
      "æķ°": 8478,
      "Ġspread": 8479,
      "Ġclock": 8480,
      "Ġvir": 8481,
      "editor": 8482,
      "Ġefforts": 8483,
      "Ġbranch": 8484,
      "Ġindust": 8485,
      "Ġmotor": 8486,
      "Ġamb": 8487,
      "Ġdatetime": 8488,
      "ĠChristian": 8489,
      "ĠAmericans": 8490,
      "full": 8491,
      "Ġfmt": 8492,
      ".main": 8493,
      "Ġcaused": 8494,
      "_update": 8495,
      "ĠContent": 8496,
      "ATCH": 8497,
      "Ġbath": 8498,
      "ĠEach": 8499,
      "Ġradio": 8500,
      "achment": 8501,
      "uzz": 8502,
      "Submit": 8503,
      "Ġrestrict": 8504,
      "abin": 8505,
      "ĠLoad": 8506,
      "Ġextension": 8507,
      "Ġessay": 8508,
      "Ġhat": 8509,
      "aviour": 8510,
      "toBe": 8511,
      "Ġoffered": 8512,
      "Ġvill": 8513,
      "æĹ¥": 8514,
      "bc": 8515,
      "_free": 8516,
      "ĠMiss": 8517,
      "ĠBer": 8518,
      "Ġè": 8519,
      "ĠLike": 8520,
      "Ġhelped": 8521,
      "Ġspirit": 8522,
      "ĠApache": 8523,
      "ws": 8524,
      "Ġtherefore": 8525,
      "Ġpeace": 8526,
      "Ġincor": 8527,
      "ĠEXPECT": 8528,
      "Ġminor": 8529,
      "ipes": 8530,
      "ĉdata": 8531,
      "city": 8532,
      "trie": 8533,
      ".base": 8534,
      "_frame": 8535,
      "Ġopened": 8536,
      "/json": 8537,
      "LY": 8538,
      "nu": 8539,
      "tf": 8540,
      "margin": 8541,
      "Ġpi": 8542,
      "Ġeq": 8543,
      "bd": 8544,
      "Fields": 8545,
      "ĠTree": 8546,
      "Ġban": 8547,
      "istan": 8548,
      "Ġproduced": 8549,
      "system": 8550,
      "Mark": 8551,
      "_hash": 8552,
      "Ġbg": 8553,
      "Ġconstit": 8554,
      "ĠLeague": 8555,
      "Ġmission": 8556,
      "_format": 8557,
      "clusion": 8558,
      "!\"": 8559,
      "Ð·": 8560,
      "break": 8561,
      "ĉswitch": 8562,
      "Ġther": 8563,
      "Transform": 8564,
      "Ġfootball": 8565,
      "-link": 8566,
      "route": 8567,
      ".auth": 8568,
      "Ġbag": 8569,
      "overs": 8570,
      "Ġenabled": 8571,
      "Ġrac": 8572,
      "(I": 8573,
      "CR": 8574,
      "ancing": 8575,
      "Ġmanaged": 8576,
      "_q": 8577,
      "Ġmac": 8578,
      "ĠAuto": 8579,
      "amente": 8580,
      "Ġ'',": 8581,
      ".Append": 8582,
      "Ġpin": 8583,
      ".item": 8584,
      "acking": 8585,
      "Ġoccas": 8586,
      "person": 8587,
      "Ġti": 8588,
      "Ġhaven": 8589,
      "Ġglass": 8590,
      "ĠSimple": 8591,
      "Print": 8592,
      "Ġsurround": 8593,
      "NO": 8594,
      "ãĢĤĊ": 8595,
      "ĠMany": 8596,
      "Ġ\"_": 8597,
      "Ġweekend": 8598,
      "Ġsomew": 8599,
      "small": 8600,
      "ATED": 8601,
      "Ġplugin": 8602,
      "fields": 8603,
      "ĠInitialize": 8604,
      "oon": 8605,
      "atile": 8606,
      "ye": 8607,
      "LAG": 8608,
      "Ġolder": 8609,
      "Ġgam": 8610,
      "Ġextremely": 8611,
      "Ġhet": 8612,
      "enum": 8613,
      "ĠSET": 8614,
      "xff": 8615,
      "Ġtimer": 8616,
      "/index": 8617,
      "Ġcritical": 8618,
      "Ġexecute": 8619,
      "Ġshowing": 8620,
      ".xml": 8621,
      "-list": 8622,
      "Role": 8623,
      "typename": 8624,
      "_method": 8625,
      "that": 8626,
      "cher": 8627,
      "ĠâĨ": 8628,
      "XT": 8629,
      "Ġthousands": 8630,
      "ĉn": 8631,
      "Ġresp": 8632,
      "olut": 8633,
      "Ag": 8634,
      "ĠTwo": 8635,
      "Ġbecomes": 8636,
      "Ġhus": 8637,
      "theme": 8638,
      "urb": 8639,
      "erialize": 8640,
      "ARN": 8641,
      "Ġlose": 8642,
      "Lower": 8643,
      "Ġvel": 8644,
      "Ġdefense": 8645,
      "condition": 8646,
      "Ġbes": 8647,
      "Ġdry": 8648,
      "Ġscroll": 8649,
      ".Show": 8650,
      "IEL": 8651,
      "ĠRest": 8652,
      "Where": 8653,
      "oods": 8654,
      "ĠJes": 8655,
      "Ġwire": 8656,
      "_INFO": 8657,
      "Ġstrings": 8658,
      "gment": 8659,
      "Ġmatches": 8660,
      "Ġelectric": 8661,
      "Ġexcellent": 8662,
      "ĠCouncil": 8663,
      "push": 8664,
      "_entry": 8665,
      "Ġtasks": 8666,
      "Ġrich": 8667,
      "sa": 8668,
      "ĠSmith": 8669,
      "UNCTION": 8670,
      "Pointer": 8671,
      "pective": 8672,
      "Ġwidget": 8673,
      "ista": 8674,
      "Ġagency": 8675,
      "Ġsich": 8676,
      "ologies": 8677,
      "Ġtrial": 8678,
      "alysis": 8679,
      ".check": 8680,
      "ARK": 8681,
      "about": 8682,
      "(val": 8683,
      "Ġplaced": 8684,
      "_NO": 8685,
      "Ġdan": 8686,
      "ĉĠĠĠĠĠ": 8687,
      "Ġweather": 8688,
      "Ġdestination": 8689,
      "iece": 8690,
      "Ġprovider": 8691,
      ".last": 8692,
      "plex": 8693,
      "Note": 8694,
      "/js": 8695,
      "Ġplanning": 8696,
      "attribute": 8697,
      "PRO": 8698,
      "atches": 8699,
      "Ġ<-": 8700,
      "Ġseeing": 8701,
      "Ġcancel": 8702,
      ".keys": 8703,
      "Ġvisual": 8704,
      "ĠCurrent": 8705,
      "ĠCollege": 8706,
      "ĠRock": 8707,
      "Ġagreement": 8708,
      "ĠStore": 8709,
      "oving": 8710,
      "Ġcorner": 8711,
      "ampions": 8712,
      "ISE": 8713,
      "Fin": 8714,
      "Ġprotection": 8715,
      "Ġfi": 8716,
      "Play": 8717,
      ")}": 8718,
      "-z": 8719,
      "Ġtransition": 8720,
      "igin": 8721,
      "Ġcandidate": 8722,
      "ĠUnion": 8723,
      "_values": 8724,
      "cle": 8725,
      "Ġtrend": 8726,
      "wide": 8727,
      "aren": 8728,
      "Loc": 8729,
      "UTH": 8730,
      "ĠBay": 8731,
      "Ġsmaller": 8732,
      "ius": 8733,
      "well": 8734,
      "Ġcriminal": 8735,
      "Ġconflic": 8736,
      "bert": 8737,
      "_INT": 8738,
      "Ġinvestment": 8739,
      "custom": 8740,
      "ĠSession": 8741,
      "_write": 8742,
      "ania": 8743,
      "ĠMass": 8744,
      "_EQ": 8745,
      "_NOT": 8746,
      "Ġviolence": 8747,
      "Argument": 8748,
      "Ġbelong": 8749,
      "_function": 8750,
      "Ġenemy": 8751,
      "ema": 8752,
      "ĠAddress": 8753,
      ".empty": 8754,
      "Ġinner": 8755,
      "ĠContact": 8756,
      "ĠCA": 8757,
      "lot": 8758,
      "Ġpictures": 8759,
      "ĠSupport": 8760,
      "_names": 8761,
      "Layer": 8762,
      "ĠClick": 8763,
      "Sum": 8764,
      "Ã¦": 8765,
      "ĠLook": 8766,
      "uous": 8767,
      "Lib": 8768,
      "Flags": 8769,
      "team": 8770,
      "EP": 8771,
      "hat": 8772,
      "apsed": 8773,
      "Ġlabels": 8774,
      "quis": 8775,
      "ĠStream": 8776,
      "ĠCommit": 8777,
      "\"}": 8778,
      "ĉM": 8779,
      "Ġangle": 8780,
      "ĠBecause": 8781,
      "Ġaim": 8782,
      "Ġstick": 8783,
      "agraph": 8784,
      "Ġclin": 8785,
      "ĠIsl": 8786,
      ".ext": 8787,
      "ĠINT": 8788,
      "Ġstyles": 8789,
      "Ġborn": 8790,
      "Ġscr": 8791,
      "Ġexpand": 8792,
      "Ġraised": 8793,
      "ILL": 8794,
      "------------------------------------------------": 8795,
      "HTTP": 8796,
      ">)": 8797,
      "_char": 8798,
      "resource": 8799,
      "Ġepisode": 8800,
      "ĠEs": 8801,
      "ĠEarth": 8802,
      "ÂłÂł": 8803,
      "UPDATE": 8804,
      "ĠSou": 8805,
      "uis": 8806,
      "types": 8807,
      "Ġmas": 8808,
      "Ġfav": 8809,
      "Ġconstruct": 8810,
      "eras": 8811,
      "Ġ|Ċ": 8812,
      "roperties": 8813,
      "Ġexternal": 8814,
      "Ġapplied": 8815,
      "Ġprefix": 8816,
      "oted": 8817,
      "lers": 8818,
      "Ġcold": 8819,
      "ĠSP": 8820,
      "ĠChurch": 8821,
      "ĠOutput": 8822,
      "losed": 8823,
      "çļ": 8824,
      "ificate": 8825,
      "operation": 8826,
      "herit": 8827,
      "xFF": 8828,
      ".env": 8829,
      "_err": 8830,
      "osh": 8831,
      "Direction": 8832,
      "Cancel": 8833,
      "ĠFrank": 8834,
      "Ġfinding": 8835,
      ".)ĊĊ": 8836,
      "Ġrouter": 8837,
      "ãĥ»": 8838,
      "ses": 8839,
      "Ġcrow": 8840,
      "Ġsand": 8841,
      "Ġrid": 8842,
      "iture": 8843,
      "Ġentre": 8844,
      "Ġobserv": 8845,
      "Ġvac": 8846,
      "ðŁ": 8847,
      "-T": 8848,
      "Art": 8849,
      "night": 8850,
      "Ġexchange": 8851,
      "Ġdistrict": 8852,
      "Ġdepartment": 8853,
      "Ġdocuments": 8854,
      "Ġcentury": 8855,
      "ĠNext": 8856,
      "Host": 8857,
      "ĠKIND": 8858,
      "Ġsusp": 8859,
      "-P": 8860,
      "rend": 8861,
      "uite": 8862,
      "isters": 8863,
      "ĠAnn": 8864,
      "wt": 8865,
      "ati": 8866,
      "ĠHTML": 8867,
      "when": 8868,
      "Directory": 8869,
      "Ġshut": 8870,
      "<a": 8871,
      "edy": 8872,
      "Ġhealthy": 8873,
      "Ġtemperature": 8874,
      "ĠGen": 8875,
      "Ġmetal": 8876,
      "Ġsubmit": 8877,
      "ĠDO": 8878,
      "Ġattract": 8879,
      "Ġ{};Ċ": 8880,
      "ĠWord": 8881,
      "Ġll": 8882,
      "Ġseemed": 8883,
      "ko": 8884,
      "IED": 8885,
      "Ġlabor": 8886,
      ".Context": 8887,
      "Ġasset": 8888,
      "you": 8889,
      "Ġcars": 8890,
      "ĠColumn": 8891,
      "Ġsquare": 8892,
      "âĢĿ,": 8893,
      "apes": 8894,
      "...Ċ": 8895,
      "Ġthanks": 8896,
      "Ġtick": 8897,
      "Ġexperiment": 8898,
      "Ġprison": 8899,
      "tree": 8900,
      "-text": 8901,
      "-width": 8902,
      "_STATUS": 8903,
      "fast": 8904,
      "-body": 8905,
      "-header": 8906,
      "Ġguar": 8907,
      "crete": 8908,
      "ĠTim": 8909,
      "Ġclearly": 8910,
      "ĠRepublican": 8911,
      "Ġjustify": 8912,
      "cache": 8913,
      "Ġpresence": 8914,
      "Ġfactors": 8915,
      "Ġemployee": 8916,
      "]))": 8917,
      "Member": 8918,
      "Ġselector": 8919,
      "bor": 8920,
      "ĠMex": 8921,
      "çļĦ": 8922,
      "_tag": 8923,
      "ailure": 8924,
      "ĠNet": 8925,
      "Ġreli": 8926,
      "EG": 8927,
      "Ġteen": 8928,
      "loss": 8929,
      "Ġleaving": 8930,
      "Delegate": 8931,
      "Ġbeat": 8932,
      "Ġminute": 8933,
      "Constants": 8934,
      "Ġcancer": 8935,
      "/{": 8936,
      "BL": 8937,
      "Ġspan": 8938,
      "ĠChild": 8939,
      "Center": 8940,
      "Ġearth": 8941,
      "YS": 8942,
      "ĠLevel": 8943,
      "Ġsea": 8944,
      ".inner": 8945,
      "illing": 8946,
      "ĠLabel": 8947,
      "ĠEst": 8948,
      "cos": 8949,
      "Failed": 8950,
      "swers": 8951,
      "Editor": 8952,
      "ront": 8953,
      "ĠMP": 8954,
      "expr": 8955,
      "ĠLife": 8956,
      "Ġ??": 8957,
      "Ã¶r": 8958,
      "Ġattend": 8959,
      "ĠQue": 8960,
      "Ġspecies": 8961,
      "-D": 8962,
      "Ġaus": 8963,
      "Struct": 8964,
      "Ġadvantage": 8965,
      "oston": 8966,
      "-block": 8967,
      "initial": 8968,
      "CRE": 8969,
      "Ġtruly": 8970,
      "Ġcompare": 8971,
      "orney": 8972,
      "Ġspect": 8973,
      "Full": 8974,
      "bes": 8975,
      "Ġvisible": 8976,
      "Ġmess": 8977,
      "stances": 8978,
      "Ġcloud": 8979,
      "_version": 8980,
      "Ġfurn": 8981,
      "icago": 8982,
      "LOW": 8983,
      "Ġtraffic": 8984,
      "Ġfol": 8985,
      "rypto": 8986,
      "Ġdeclar": 8987,
      "Ġslot": 8988,
      "ĠExt": 8989,
      "ĠEngland": 8990,
      "ĠUnder": 8991,
      "Ġta": 8992,
      "letter": 8993,
      "Ġofficer": 8994,
      "ĠDonald": 8995,
      "Yes": 8996,
      "_json": 8997,
      "ĠUSE": 8998,
      "mployee": 8999,
      "Ġopinion": 9000,
      "ĠAut": 9001,
      "border": 9002,
      "Ġadvice": 9003,
      "Ġautomatically": 9004,
      "isco": 9005,
      "Ġmm": 9006,
      ".vis": 9007,
      "aml": 9008,
      "Ġinitialize": 9009,
      "Ġ;ĊĊ": 9010,
      "Ġgeneration": 9011,
      "Ġbits": 9012,
      "clipse": 9013,
      "Ġunf": 9014,
      "utors": 9015,
      "Ġdelta": 9016,
      "estroy": 9017,
      "isis": 9018,
      "<br": 9019,
      "Ġlimitations": 9020,
      "Ġended": 9021,
      "ĠMad": 9022,
      "ilm": 9023,
      "These": 9024,
      "ĠMinister": 9025,
      "Ġchart": 9026,
      "Ġindependent": 9027,
      "Year": 9028,
      "Ġinstr": 9029,
      "Ġtags": 9030,
      "AVE": 9031,
      "ĠArch": 9032,
      "stop": 9033,
      "Progress": 9034,
      "Ġmi": 9035,
      "Ġlearned": 9036,
      "Ge": 9037,
      "Ġhotel": 9038,
      "SM": 9039,
      "TYPE": 9040,
      "Ġcy": 9041,
      "ERSION": 9042,
      "unately": 9043,
      "limit": 9044,
      "sel": 9045,
      "Ġmovies": 9046,
      "Ġsteel": 9047,
      "oz": 9048,
      "gb": 9049,
      "ĠCamp": 9050,
      "site": 9051,
      "PLE": 9052,
      ".right": 9053,
      "ĠCore": 9054,
      "Ġmixed": 9055,
      "step": 9056,
      "Ġputs": 9057,
      "super": 9058,
      "lyph": 9059,
      "Ġinnov": 9060,
      "Ġdeck": 9061,
      "apers": 9062,
      "](": 9063,
      "continue": 9064,
      "spec": 9065,
      "ĠRoad": 9066,
      "ASH": 9067,
      "iliar": 9068,
      "Ġcontinues": 9069,
      "Ġappoint": 9070,
      "Ġ#Ċ": 9071,
      "ĠVir": 9072,
      "Ġbin": 9073,
      "}\",": 9074,
      "going": 9075,
      "each": 9076,
      "BD": 9077,
      "ĠAccess": 9078,
      "Doc": 9079,
      "ĠManagement": 9080,
      "BER": 9081,
      "asket": 9082,
      "Ġestablished": 9083,
      "INS": 9084,
      "ĉresult": 9085,
      "READ": 9086,
      "_height": 9087,
      "ĠFont": 9088,
      "Ġ();Ċ": 9089,
      "_html": 9090,
      "Ġneighbor": 9091,
      "lor": 9092,
      "Ġgather": 9093,
      "Ġidentity": 9094,
      "Ġfab": 9095,
      "padding": 9096,
      "ĠRoute": 9097,
      "Ã´": 9098,
      "Ġforced": 9099,
      "/jquery": 9100,
      ".ĊĊĊĊĊĊ": 9101,
      "resents": 9102,
      "_left": 9103,
      "ĠHam": 9104,
      "Ġeventually": 9105,
      "acer": 9106,
      "pub": 9107,
      "Ġtra": 9108,
      "unique": 9109,
      "del": 9110,
      "ĠFlorida": 9111,
      "ĠClean": 9112,
      "xa": 9113,
      "ĠÂ·": 9114,
      "Ġvalidate": 9115,
      "Visual": 9116,
      "Expression": 9117,
      "member": 9118,
      "ĉh": 9119,
      "trl": 9120,
      "ĉG": 9121,
      "napshot": 9122,
      "vin": 9123,
      "])ĊĊ": 9124,
      "owl": 9125,
      "ifies": 9126,
      "ĠContext": 9127,
      ".Key": 9128,
      "Ġofficers": 9129,
      "/n": 9130,
      "sn": 9131,
      "undefined": 9132,
      "amage": 9133,
      "Ġaccounts": 9134,
      "Section": 9135,
      "icians": 9136,
      "Ġadvis": 9137,
      "(is": 9138,
      "ĠFrance": 9139,
      "Func": 9140,
      "icious": 9141,
      "Ġtok": 9142,
      "Channel": 9143,
      "ĠAD": 9144,
      "Ġtimeout": 9145,
      "reme": 9146,
      "uj": 9147,
      "uclear": 9148,
      "[Ċ": 9149,
      "fetch": 9150,
      "Ġbal": 9151,
      "Ġguid": 9152,
      "-align": 9153,
      "ĠWrite": 9154,
      "ĠOnce": 9155,
      "ODULE": 9156,
      "Ġpitch": 9157,
      "CF": 9158,
      "bytes": 9159,
      "ĠCommission": 9160,
      "Ġincred": 9161,
      "PER": 9162,
      "_response": 9163,
      "ĠLos": 9164,
      "parser": 9165,
      "Ġassume": 9166,
      ".Request": 9167,
      "ĠToken": 9168,
      "Ġnom": 9169,
      "-term": 9170,
      "Ġremaining": 9171,
      "Ġpieces": 9172,
      "apy": 9173,
      "ĠLess": 9174,
      "range": 9175,
      "prise": 9176,
      "_option": 9177,
      "Impl": 9178,
      "kwargs": 9179,
      "Ġbusinesses": 9180,
      "Ġparties": 9181,
      "ĠContainer": 9182,
      "ĠPrivate": 9183,
      "ĠPlan": 9184,
      "Ġregistered": 9185,
      "Ġjour": 9186,
      "acker": 9187,
      "chat": 9188,
      "sect": 9189,
      "Ġcreation": 9190,
      "olutely": 9191,
      "Ġinstant": 9192,
      "Ġdelivery": 9193,
      "icken": 9194,
      "yes": 9195,
      "ĠFranc": 9196,
      "bling": 9197,
      "enda": 9198,
      "[(": 9199,
      "_range": 9200,
      "ĠĠĠĠĠĠĠĠĠĠĠĠĠĠĠĠĠĠĠĠĠĠĠĠĠĠĠĠĠĠĠĠĠĠ": 9201,
      "Ġschedule": 9202,
      "Conn": 9203,
      "Ġthank": 9204,
      "xd": 9205,
      "Ġhook": 9206,
      "Ġdocumentation": 9207,
      "Parameters": 9208,
      "Hello": 9209,
      "vt": 9210,
      "Ġarticles": 9211,
      "Ġwest": 9212,
      "defined": 9213,
      ".select": 9214,
      "ĠVAL": 9215,
      ".file": 9216,
      "reset": 9217,
      "ĠMA": 9218,
      "]),": 9219,
      "Ġcities": 9220,
      "related": 9221,
      "åĽ": 9222,
      "Ġappeared": 9223,
      "Ġwid": 9224,
      ".panel": 9225,
      "ĠIns": 9226,
      "Ġdecre": 9227,
      "ĠLou": 9228,
      "ĠThank": 9229,
      ".createElement": 9230,
      "Ġmentioned": 9231,
      "ounce": 9232,
      "ĠTry": 9233,
      "ĠWall": 9234,
      "/images": 9235,
      "ĠMenu": 9236,
      "'čĊ": 9237,
      "ĠEr": 9238,
      "Ġcritic": 9239,
      "ĠYear": 9240,
      "(param": 9241,
      "Ġflo": 9242,
      "NN": 9243,
      "ĠAff": 9244,
      "\"github": 9245,
      "rooms": 9246,
      "Ġhyp": 9247,
      "global": 9248,
      "Ġavec": 9249,
      "æľĪ": 9250,
      "Ġcompletion": 9251,
      "Ġcond": 9252,
      "onymous": 9253,
      "(temp": 9254,
      "Ġstars": 9255,
      "Ġrelevant": 9256,
      "Ġcovered": 9257,
      "Ġelim": 9258,
      "_types": 9259,
      "Ġtu": 9260,
      "Ġsecure": 9261,
      "Ġstored": 9262,
      "]/": 9263,
      "xF": 9264,
      "ĠController": 9265,
      "Ġmigr": 9266,
      "MI": 9267,
      "ĠDen": 9268,
      "Ġannual": 9269,
      "UIL": 9270,
      "-and": 9271,
      "Ġcrime": 9272,
      "bel": 9273,
      "Ġkitchen": 9274,
      "@g": 9275,
      "ournament": 9276,
      "ĠSocial": 9277,
      "ĠSpecial": 9278,
      "logger": 9279,
      "Ġtail": 9280,
      "Ġunknown": 9281,
      "ded": 9282,
      "Ġapprec": 9283,
      "cf": 9284,
      "Ġassign": 9285,
      "-out": 9286,
      "ĠMont": 9287,
      "dp": 9288,
      "widget": 9289,
      "Ġstone": 9290,
      "-primary": 9291,
      "Results": 9292,
      "azz": 9293,
      "Ġdaughter": 9294,
      "Ġlin": 9295,
      "Ġsouth": 9296,
      "forms": 9297,
      "ĠOUT": 9298,
      "lette": 9299,
      "aks": 9300,
      "igure": 9301,
      "ĠEU": 9302,
      "variable": 9303,
      "Ġbrief": 9304,
      "ĠScott": 9305,
      "Ġconference": 9306,
      "anda": 9307,
      "_lock": 9308,
      "oral": 9309,
      "Ġeine": 9310,
      "ORS": 9311,
      "Ġris": 9312,
      "Ġgender": 9313,
      "estic": 9314,
      "License": 9315,
      "(out": 9316,
      "Ġms": 9317,
      "See": 9318,
      "Ġwilling": 9319,
      "aze": 9320,
      "Ġsports": 9321,
      "Ġyes": 9322,
      "lu": 9323,
      "Ġpurs": 9324,
      "/javascript": 9325,
      "-pro": 9326,
      "navbar": 9327,
      "_product": 9328,
      "Ġdriving": 9329,
      "ĠÄ": 9330,
      "Ġpropos": 9331,
      "ultip": 9332,
      "uplic": 9333,
      "Ġapprox": 9334,
      "Ġwear": 9335,
      "Ġreply": 9336,
      "asset": 9337,
      "Ġice": 9338,
      "Ġtx": 9339,
      "kr": 9340,
      "ĠGermany": 9341,
      "ĠGeorge": 9342,
      "Ġcb": 9343,
      "ĉerr": 9344,
      "Move": 9345,
      "Ġpoly": 9346,
      "voice": 9347,
      "}\"": 9348,
      "Ġanimal": 9349,
      "Av": 9350,
      "ĠLocation": 9351,
      "Ġnative": 9352,
      "Ġmais": 9353,
      "Ġprepar": 9354,
      "Ġinterval": 9355,
      "plementation": 9356,
      "_ERR": 9357,
      "Ġbug": 9358,
      ">\"": 9359,
      "stat": 9360,
      "<span": 9361,
      "Ġfaith": 9362,
      "Ġrom": 9363,
      "prev": 9364,
      "ĠElect": 9365,
      "Find": 9366,
      "Ġgod": 9367,
      "otor": 9368,
      "original": 9369,
      "ĠSenate": 9370,
      "Ġpositions": 9371,
      "Ġweapons": 9372,
      "Ġcoff": 9373,
      "Ġpurposes": 9374,
      "pol": 9375,
      "Ġimpress": 9376,
      "Ġanimals": 9377,
      "Ġmurder": 9378,
      "Ġ``": 9379,
      "flag": 9380,
      "Ġsolutions": 9381,
      "ĠActive": 9382,
      "Ġbright": 9383,
      "Ġsitu": 9384,
      "ï¼Ī": 9385,
      "Ġsie": 9386,
      "akt": 9387,
      "Space": 9388,
      ".dat": 9389,
      ".indexOf": 9390,
      "han": 9391,
      "azine": 9392,
      "ĠZe": 9393,
      "Ġcrash": 9394,
      "(/": 9395,
      ">=": 9396,
      "iva": 9397,
      "ĠLat": 9398,
      "_ext": 9399,
      ".register": 9400,
      "OPY": 9401,
      "Ġreverse": 9402,
      "Ġprompt": 9403,
      "onto": 9404,
      "ĠJournal": 9405,
      ")\"": 9406,
      "-xs": 9407,
      "lets": 9408,
      "phan": 9409,
      "Will": 9410,
      "Ġafford": 9411,
      "Ġskill": 9412,
      "-toggle": 9413,
      "NC": 9414,
      "Bind": 9415,
      "TS": 9416,
      "Just": 9417,
      "iteral": 9418,
      "YP": 9419,
      "Ġwind": 9420,
      "Ġwarning": 9421,
      "ĠWater": 9422,
      "Ġdraft": 9423,
      "Ġcm": 9424,
      "Ġsam": 9425,
      "Ġholding": 9426,
      "zip": 9427,
      "ĠScience": 9428,
      "Ġsupposed": 9429,
      "Gen": 9430,
      "Ġdiet": 9431,
      "<h": 9432,
      "ĠPass": 9433,
      "vi": 9434,
      "Ġhusband": 9435,
      "note": 9436,
      "ĠAbout": 9437,
      "ĠInstitute": 9438,
      "Ġclimate": 9439,
      "Ġnut": 9440,
      "ested": 9441,
      "Ġapparent": 9442,
      "Ġholds": 9443,
      "fi": 9444,
      "news": 9445,
      "CM": 9446,
      "video": 9447,
      "DITION": 9448,
      "ping": 9449,
      "Ġsenior": 9450,
      "wa": 9451,
      "-->Ċ": 9452,
      "_default": 9453,
      "ĠDatabase": 9454,
      "rep": 9455,
      "ESS": 9456,
      "nergy": 9457,
      "_mask": 9458,
      "Ġrise": 9459,
      "Ġkernel": 9460,
      ".Q": 9461,
      "Ġoffering": 9462,
      "decl": 9463,
      "ĠCS": 9464,
      "Ġlisted": 9465,
      "Ġmostly": 9466,
      "enger": 9467,
      "Ġblocks": 9468,
      "olo": 9469,
      "Ġgoverning": 9470,
      "Ġconcent": 9471,
      "Ġmb": 9472,
      "Ġoccurred": 9473,
      "Ġchanging": 9474,
      "Scene": 9475,
      "_CODE": 9476,
      "Beh": 9477,
      "\"The": 9478,
      "Ġtile": 9479,
      "ĠAssociation": 9480,
      "ĉP": 9481,
      "alty": 9482,
      "_ad": 9483,
      "odies": 9484,
      "iated": 9485,
      "Ġprepared": 9486,
      "possible": 9487,
      "Ġmort": 9488,
      "TEST": 9489,
      "Ġignore": 9490,
      "Ġcalc": 9491,
      "Ġrs": 9492,
      "Ġsz": 9493,
      "ĠTHIS": 9494,
      ".\"Ċ": 9495,
      "Ġcanvas": 9496,
      "java": 9497,
      "Ġdut": 9498,
      "VALID": 9499,
      ".sql": 9500,
      ".input": 9501,
      "Ġaux": 9502,
      "Sup": 9503,
      "Ġartist": 9504,
      "Vec": 9505,
      "_TIME": 9506,
      "etween": 9507,
      "ĠCategory": 9508,
      "Ġ[-": 9509,
      "ĠJul": 9510,
      "Ġring": 9511,
      ".ed": 9512,
      "Let": 9513,
      "Ġflat": 9514,
      "ĠOTHER": 9515,
      "adian": 9516,
      "Ġchecked": 9517,
      "ele": 9518,
      "standing": 9519,
      "Ġ[],": 9520,
      "Ġlab": 9521,
      "ucky": 9522,
      "ĠChristmas": 9523,
      "Ġlots": 9524,
      "Ġslightly": 9525,
      "erge": 9526,
      "è¿": 9527,
      "ĠPolice": 9528,
      "ĠRight": 9529,
      "Ġaward": 9530,
      "ĠOS": 9531,
      "Ġ{}ĊĊ": 9532,
      "Ġptr": 9533,
      "oves": 9534,
      "icated": 9535,
      "Ġmanage": 9536,
      "oliday": 9537,
      "Amount": 9538,
      "tbody": 9539,
      "Nav": 9540,
      "wrap": 9541,
      "BB": 9542,
      "Ġwatching": 9543,
      "arios": 9544,
      "Ġoptional": 9545,
      "_K": 9546,
      "ĠLicensed": 9547,
      "ĠAP": 9548,
      "ĠRev": 9549,
      "(o": 9550,
      ",c": 9551,
      "umin": 9552,
      "etailed": 9553,
      "ĠHy": 9554,
      "Ġblank": 9555,
      "agger": 9556,
      "ĠSelf": 9557,
      ".make": 9558,
      "earn": 9559,
      "channel": 9560,
      "<pre": 9561,
      "blem": 9562,
[...]
